<pad>	0
<s>	0
</s>	0
<unk>	0
,	-3.26918
:	-3.34262
.	-3.40206
▁(	-3.4712
max	-3.6374
▁the	-3.7738
▁###	-3.86234
▁is	-3.91094
▁and	-3.9233
▁crop	-3.96271
s	-4.07023
▁I	-4.20417
▁in	-4.23565
▁Response	-4.56119
▁of	-4.56943
nstruction	-4.57895
▁Thi	-4.67007
▁soil	-4.68235
▁P	-4.69283
0),	-4.70818
C	-4.72584
▁K	-4.73156
▁pH	-4.73419
▁readings	-4.73645
°	-4.76784
▁water	-4.84026
),	-4.86355
ing	-4.87705
▁for	-4.87899
ly	-4.96542
▁a	-4.98381
d	-4.98612
▁to	-5.02225
?	-5.08406
▁	-5.16199
▁recommended	-5.18103
▁on	-5.21641
y	-5.23648
)	-5.25246
▁season	-5.2993
▁well	-5.30127
r	-5.35623
▁best	-5.36339
▁which	-5.36754
▁your	-5.37687
▁Soil	-5.38797
▁has	-5.38873
▁this	-5.40227
▁through	-5.40324
▁Wh	-5.40469
%	-5.40529
▁explain	-5.41256
▁temperature	-5.41267
N	-5.41421
▁You	-5.42169
▁humidity	-5.42204
deal	-5.42206
▁grown	-5.4238
▁usual	-5.42504
▁Crop	-5.4253
▁sources	-5.42561
▁thrive	-5.42634
▁N	-5.4269
▁match	-5.42717
▁Farm	-5.42782
▁Recommend	-5.42868
▁sensor	-5.42889
▁supported	-5.42892
▁briefly	-5.42905
▁Conditions	-5.42935
▁Temp	-5.42936
▁Type	-5.42956
▁Base	-5.51623
eness	-5.66255
▁Awar	-5.66262
▁2	-5.71323
ed	-5.85403
▁about	-5.88646
▁asking	-5.89245
▁40)	-5.95555
▁@	-5.95889
▁L	-5.98199
▁t	-5.98734
oamy	-5.99138
▁6	-6.00088
▁irrigated	-6.01544
ypically	-6.04995
▁10	-6.08534
/	-6.14873
-	-6.16171
▁typical	-6.18613
▁control	-6.20724
▁rainf	-6.23099
).	-6.24002
▁spray	-6.24054
▁60	-6.28664
▁Zai	-6.32442
▁vegetables	-6.34378
▁30)	-6.41644
▁per	-6.44661
▁kharif	-6.44891
▁with	-6.49962
▁8	-6.53235
▁100	-6.55829
▁apply	-6.61297
▁rabi	-6.65436
▁sandy	-6.68177
▁kg	-6.6921
▁A	-6.69516
▁at	-6.71569
▁gourd	-6.74258
▁can	-6.75201
▁him	-6.78364
▁days	-6.79159
▁85	-6.80672
▁be	-6.82519
▁plant	-6.91348
▁7.5)	-6.93123
▁suggested	-6.93659
▁ml	-6.9623
▁are	-6.99562
wareness	-6.99946
▁7.	-7.05406
▁3	-7.05785
▁5	-7.08224
▁1	-7.08415
▁or	-7.09376
▁What	-7.09388
▁The	-7.10649
▁15	-7.12738
▁rice	-7.154
▁urea	-7.17391
▁from	-7.18207
120),	-7.18812
▁fertilizer	-7.18897
7).	-7.19899
▁should	-7.23483
▁plants	-7.23944
=6.6	-7.24055
▁litre	-7.24344
▁dur	-7.24434
ï	-7.27822
▁interval	-7.2792
▁millets	-7.29381
▁growth	-7.32533
▁by	-7.32536
ml	-7.33035
=6.7	-7.33473
▁measure	-7.36174
▁disease	-7.38762
▁35	-7.39259
▁9	-7.4095
▁advised	-7.42248
¿1⁄2	-7.42559
▁50	-7.43935
▁as	-7.44003
▁regarding	-7.44697
▁gram	-7.45778
▁it	-7.4601
▁what	-7.4635
▁seeds	-7.47954
▁irrigation	-7.48651
▁does	-7.49375
▁that	-7.50665
▁gm	-7.50949
▁pulses	-7.51213
=6.5	-7.51373
▁25	-7.52663
=6.8	-7.55477
▁query	-7.56311
▁/	-7.56528
▁How	-7.5746
▁dose	-7.57884
▁time	-7.57978
=6.9	-7.5822
e	-7.59739
=6.3	-7.59757
▁12	-7.59997
=6.1	-7.60031
▁yield	-7.61503
=6.4	-7.62621
▁year	-7.62799
drained	-7.63685
gm	-7.63823
=6.2	-7.63943
▁80	-7.64643
&	-7.65501
▁20	-7.65906
▁Root	-7.66055
tuber	-7.67078
▁management	-7.67476
▁7.0	-7.67627
▁use	-7.67648
▁7	-7.68411
▁planting	-7.70481
▁ec	-7.70794
▁bigha	-7.70841
▁fruit	-7.71998
▁production	-7.75085
▁potato	-7.76039
▁leaf	-7.77582
▁you	-7.78454
▁area	-7.79544
▁know	-7.79752
=7.0	-7.8054
▁mop	-7.81044
▁how	-7.81613
▁4	-7.81748
lit	-7.82251
kg	-7.82333
▁base	-7.84274
▁seed	-7.84558
▁bean	-7.84629
▁oil	-7.8572
▁application	-7.86369
▁malathion	-7.86472
▁liter	-7.86938
al	-7.88115
▁6.5	-7.8874
▁Bas	-7.89327
▁ssp	-7.9027
▁farmers	-7.9192
bigha	-7.93683
▁cowpea	-7.94154
▁tomato	-7.94406
▁onion	-7.95265
=6.0	-7.95643
▁after	-7.97333
▁rot	-7.98568
▁D	-7.99039
▁land	-8.00153
▁like	-8.00416
▁8.	-8.006
▁measures	-8.00718
▁bed	-8.02298
▁cultivation	-8.02323
l	-8.0329
▁-	-8.03389
▁In	-8.03439
'	-8.03612
▁an	-8.04034
▁prevent	-8.05088
▁effectively	-8.06209
▁6.7	-8.0659
▁brinjal	-8.06882
▁field	-8.08821
▁times	-8.08923
▁where	-8.09393
▁6.8	-8.10243
▁ensure	-8.10575
▁biogas	-8.10597
ite	-8.10857
▁loamy	-8.11421
▁g	-8.13796
▁problem	-8.1395
▁h	-8.14008
▁cultivate	-8.14201
▁root	-8.15097
▁told	-8.15594
▁hectare	-8.16002
▁nutrient	-8.16785
▁Later	-8.1693
5),	-8.17237
▁pumpkin	-8.17252
▁system	-8.17522
ain	-8.18283
▁was	-8.18707
▁maize	-8.188
=7.2	-8.19377
escribe	-8.19786
=7.3	-8.2155
▁Expl	-8.21652
litre	-8.2202
▁30	-8.22055
▁cultivated	-8.22258
▁clay	-8.22656
▁diseases	-8.23137
▁bottle	-8.23254
=7.4	-8.23427
▁paddy	-8.23775
▁45	-8.23882
=5.9	-8.23945
▁recommendation	-8.24354
▁data	-8.24814
=7.1	-8.25691
▁tree	-8.26145
=5.8	-8.26398
▁pest	-8.26401
istorical	-8.28194
liter	-8.28867
▁tonnes	-8.29888
▁method	-8.30042
=5.7	-8.31679
▁reduce	-8.32024
▁coconut	-8.32907
g	-8.33617
▁sugarcane	-8.3491
▁treatment	-8.35134
▁variety	-8.35797
▁wheat	-8.35887
▁cucumber	-8.36125
▁bitter	-8.36269
▁cotton	-8.37245
▁borer	-8.37664
▁Sandy	-8.39354
▁cauliflower	-8.39559
▁fungal	-8.40471
▁m	-8.42036
▁red	-8.4228
▁raised	-8.43816
▁leaves	-8.43927
▁20)	-8.44065
▁small	-8.44412
▁against	-8.44747
▁agricultural	-8.448
▁healthy	-8.45062
=5.6	-8.45494
▁crops	-8.458
▁gas	-8.45934
▁practices	-8.45991
en	-8.46541
▁also	-8.47049
=20.0	-8.47445
▁varieties	-8.47778
▁wilt	-8.47782
▁chilli	-8.49088
▁sowing	-8.50753
▁solution	-8.51865
▁pests	-8.52157
▁It	-8.53358
▁chillies	-8.54185
▁27	-8.55261
ch	-8.55365
▁vegetable	-8.5539
▁jute	-8.55536
▁trees	-8.55904
▁one	-8.56822
struction	-8.57788
▁more	-8.582
▁spacing	-8.59299
▁cm	-8.59401
▁grams	-8.60087
▁blight	-8.60096
▁fish	-8.60146
▁these	-8.60217
▁groundnut	-8.60775
▁contact	-8.61158
▁conditions	-8.61472
▁8.0	-8.6156
▁su	-8.62067
▁using	-8.6271
▁watermelon	-8.62799
▁french	-8.6318
plant	-8.63237
▁used	-8.63355
▁stem	-8.64058
▁150	-8.64195
▁ash	-8.64257
▁90	-8.64572
▁quality	-8.65309
▁maintain	-8.65449
▁carrot	-8.65486
▁have	-8.65647
▁sweet	-8.65647
▁protect	-8.65709
=7.5	-8.66039
▁seedlings	-8.66832
m	-8.66911
▁sunflower	-8.66966
▁radish	-8.67225
▁health	-8.67636
▁provide	-8.67835
▁following	-8.67895
▁lit	-8.68074
▁applied	-8.68178
▁lemon	-8.68576
▁cluster	-8.68982
▁tinda	-8.6912
▁rogor	-8.70242
▁18	-8.70348
▁sorghum	-8.7035
▁bengalgram	-8.71041
▁p	-8.71163
▁do	-8.71192
▁cereals	-8.71206
▁capsicum	-8.71457
▁spread	-8.71556
▁peas	-8.72032
▁26	-8.72058
▁banana	-8.7245
▁rain	-8.725
▁some	-8.72576
▁40	-8.72639
▁75	-8.72843
▁ribbed	-8.73
▁foot	-8.73147
▁samai	-8.73283
▁take	-8.74282
▁borax	-8.74699
▁millet	-8.74891
▁tapoica	-8.74998
▁high	-8.75178
▁1.5	-8.75181
▁gingely	-8.75287
▁advice	-8.75365
▁annual	-8.75579
▁92	-8.75733
▁beetroot	-8.75867
▁horsegram	-8.75867
▁before	-8.76015
▁efficiency	-8.76017
▁infestation	-8.76104
▁fibre	-8.7616
▁sugar	-8.7616
▁lead	-8.76467
▁affect	-8.76568
▁chowchow	-8.76891
▁bacterial	-8.76908
▁methods	-8.76943
▁cole	-8.77046
▁moringa	-8.77332
ir	-8.77422
crops	-8.77452
▁snake	-8.77776
▁castor	-8.78073
▁&	-8.78139
▁muskmelon	-8.7852
▁soyabean	-8.7852
t	-8.78687
earl	-8.78891
▁Cabbage	-8.7927
▁other	-8.79896
▁redgram	-8.80947
(	-8.8106
▁not	-8.8121
▁thinai	-8.81861
▁yam	-8.8217
▁sugarbeet	-8.82171
▁late	-8.82226
▁bhendi	-8.82326
hant	-8.82497
▁blackgram	-8.82641
▁development	-8.82793
elep	-8.83117
▁panivaragu	-8.83418
▁insect	-8.83457
▁ragi	-8.83732
▁suitable	-8.8375
▁beds	-8.84325
▁kudiraivali	-8.84364
▁help	-8.84578
▁greengram	-8.85002
▁mixture	-8.85159
▁when	-8.85319
▁Black	-8.8596
▁farm	-8.85963
▁nutrients	-8.86435
▁varagu	-8.8693
▁top	-8.87163
▁8.5	-8.88321
▁daily	-8.89076
▁etc	-8.90135
▁systems	-8.90198
▁fields	-8.90346
▁why	-8.90741
▁avoid	-8.90925
▁whole	-8.91586
▁better	-8.91759
▁two	-8.91765
▁then	-8.92678
▁black	-8.92766
▁its	-8.92839
2	-8.93481
▁want	-8.93677
▁By	-8.94097
▁improve	-8.94125
▁ridge	-8.95411
▁bavistin	-8.9597
ssp	-8.96298
se	-8.96486
▁into	-8.96562
▁good	-8.96833
▁if	-8.96858
▁twice	-8.97009
▁rate	-8.97306
▁l	-8.98035
=25.1	-8.98273
▁doses	-8.98567
▁cause	-8.98585
lluvi	-8.98637
▁include	-8.98783
▁cabbage	-8.99007
▁agriculture	-8.99378
▁Cla	-8.99491
▁Regular	-8.9956
▁saaf	-8.99564
▁Red	-8.99578
▁stage	-8.99918
▁organic	-9.00119
=26.9	-9.0048
=25.8	-9.00853
▁kilogram	-9.01065
▁Use	-9.01114
▁preparation	-9.01417
▁sprinkler	-9.01627
▁been	-9.01794
radesh	-9.01865
▁nursery	-9.01991
=25.6	-9.02358
▁18)	-9.02577
=26.5	-9.02738
=25.3	-9.0312
=60.0	-9.03311
▁around	-9.03327
▁appropriate	-9.03454
=25.2	-9.03502
▁promote	-9.03582
▁fixed	-9.03709
▁attack	-9.03761
=26.3	-9.03887
▁95	-9.03994
▁up	-9.04707
▁may	-9.05371
▁powder	-9.05498
=26.0	-9.0583
=26.2	-9.06619
▁regularly	-9.06671
▁impact	-9.06713
▁proper	-9.06717
▁24	-9.06923
▁drip	-9.07014
=26.4	-9.07413
=26.7	-9.07413
▁amount	-9.07529
▁enhance	-9.07773
=25.4	-9.07813
f	-9.08206
=24.9	-9.08214
▁tracel	-9.08245
▁due	-9.08416
mop	-9.08654
▁infected	-9.09254
▁tricel	-9.09649
▁fertilizers	-9.10101
=26.6	-9.10655
▁To	-9.10986
▁increase	-9.11221
▁super	-9.11278
=25.9	-9.11483
i	-9.11493
=24.0	-9.11899
▁fertilization	-9.12127
=5.5	-9.12317
=26.8	-9.12737
in	-9.13012
▁seedling	-9.13373
▁'	-9.13475
=21.5	-9.13581
=25.0	-9.13582
▁over	-9.13727
=21.1	-9.14007
=22.2	-9.14007
=65.0	-9.14007
▁goat	-9.14041
▁200	-9.14077
▁S	-9.14205
▁120	-9.14237
▁spraying	-9.14268
=24.4	-9.14433
=24.6	-9.14433
▁damage	-9.14639
▁mustard	-9.14731
▁adviced	-9.14751
▁sprays	-9.1534
▁ensur	-9.15406
▁helps	-9.15432
=25.5	-9.15725
▁row	-9.15762
▁productivity	-9.15942
▁transplanting	-9.16073
=24.1	-9.16159
=24.2	-9.16159
=25.7	-9.16159
=7.6	-9.16159
▁moisture	-9.16378
=24.5	-9.16596
▁pond	-9.16681
▁infection	-9.16881
▁feed	-9.17054
▁farming	-9.17193
▁For	-9.1725
n	-9.17547
=24.7	-9.17916
▁deep	-9.1792
▁under	-9.18527
=23.3	-9.18806
▁benefits	-9.18848
=23.8	-9.19254
=24.8	-9.19254
▁potash	-9.19723
▁lime	-9.19731
▁month	-9.19995
▁effective	-9.20056
▁suggest	-9.20058
=26.1	-9.20156
▁6.	-9.20171
▁evening	-9.20901
=28.2	-9.21066
▁early	-9.21109
▁1.	-9.21118
▁any	-9.21184
▁needs	-9.21227
▁heav	-9.215
▁along	-9.21793
▁common	-9.2222
▁2.5	-9.22303
=27.0	-9.22447
▁local	-9.22761
▁timely	-9.2289
=23.5	-9.22911
=90.0	-9.22911
▁them	-9.23275
=22.8	-9.23378
▁main	-9.23403
▁drop	-9.23526
▁will	-9.23612
▁weed	-9.23765
ec	-9.23812
=23.2	-9.23847
▁litres	-9.2385
9).	-9.24098
▁x	-9.24515
▁22	-9.24809
=21.9	-9.25267
=22.7	-9.25267
¿	-9.25267
▁affected	-9.2537
▁process	-9.25837
a	-9.26014
=7.9	-9.26225
▁crucial	-9.26225
=22.3	-9.26708
▁mildew	-9.26709
▁tea	-9.26811
=23.4	-9.27192
▁21	-9.27311
▁blitox	-9.27498
▁C	-9.28136
=24.3	-9.28169
=7.8	-9.28169
▁dry	-9.28286
▁farmer	-9.28963
▁asked	-9.28983
▁weeds	-9.2921
▁district	-9.29412
▁harvest	-9.2983
=22.5	-9.29902
=29.6	-9.30152
▁summer	-9.30168
▁ring	-9.30407
=21.3	-9.30654
=21.6	-9.30654
=23.7	-9.30654
=28.1	-9.30654
▁betwe	-9.30654
▁SRI	-9.3067
▁pusa	-9.3085
▁need	-9.3092
▁@2	-9.30944
▁reduc	-9.3097
=23.1	-9.31158
▁rich	-9.31205
▁ant	-9.31365
=27.4	-9.31665
▁growing	-9.32134
▁surface	-9.32873
▁planofix	-9.32952
=21.7	-9.33202
=21.8	-9.33202
=22.9	-9.33202
=27.1	-9.33202
▁overall	-9.33461
=21.2	-9.33719
=23.6	-9.33719
=7.7	-9.33719
=29.3	-9.34239
▁information	-9.34254
▁efficient	-9.34413
▁specific	-9.34564
▁mix	-9.3476
=22.4	-9.34762
▁assam	-9.35314
able	-9.35583
=20.6	-9.35817
▁fly	-9.36113
▁all	-9.36139
=20.3	-9.36348
=23.0	-9.36348
=28.8	-9.36348
=28.9	-9.36348
▁friable	-9.36348
▁flower	-9.3658
▁cowdung	-9.36621
▁31	-9.36679
▁38	-9.36719
▁type	-9.36818
ic	-9.37013
▁pressure	-9.37154
▁treat	-9.37343
=20.8	-9.37418
=27.2	-9.37418
=28.5	-9.37958
▁laser	-9.38229
▁half	-9.38281
cm	-9.38444
=22.0	-9.39047
▁98	-9.39104
▁steps	-9.39233
taking	-9.39331
▁i	-9.39372
▁grow	-9.39384
▁k	-9.3944
▁papaya	-9.39598
▁salt	-9.39881
▁long	-9.40092
▁spot	-9.40116
=20.7	-9.40147
=22.1	-9.40147
=28.4	-9.40147
4	-9.40694
▁areas	-9.40802
▁levelling	-9.40981
▁nitrogen	-9.40989
▁bulb	-9.4101
▁green	-9.41139
▁32	-9.41163
▁number	-9.41255
=20.9	-9.4126
▁out	-9.41489
▁agent	-9.41561
▁keep	-9.41561
=22.6	-9.41821
▁chemical	-9.41822
▁no	-9.41937
making	-9.42156
=27.5	-9.42385
=29.8	-9.42385
▁copper	-9.42402
▁yields	-9.42426
▁42	-9.42606
=23.9	-9.42952
=28.6	-9.42952
=28.7	-9.42952
▁allow	-9.4299
▁enhanc	-9.43472
=20.1	-9.43523
=27.6	-9.43523
=29.7	-9.43523
ritic	-9.43811
▁clean	-9.43863
▁compost	-9.43976
▁distribution	-9.44097
▁indofil	-9.44445
▁manage	-9.4495
▁T	-9.45131
=29.5	-9.45255
▁optimal	-9.45263
vegetables	-9.45272
▁environment	-9.45554
=29.2	-9.45839
▁distance	-9.45839
▁boro	-9.45843
▁cost	-9.45875
▁ants	-9.46044
▁potential	-9.46132
=13.	-9.46429
▁required	-9.47516
=21.0	-9.47611
▁technology	-9.47635
▁office	-9.47741
▁age	-9.47759
▁size	-9.47765
▁moist	-9.47909
=20.5	-9.48209
=28.3	-9.48209
=28.0	-9.48209
▁vitamin	-9.48637
▁require	-9.48662
=21.4	-9.48811
=29.4	-9.48811
=29.0	-9.48811
▁pepper	-9.49239
=20.2	-9.49416
▁81	-9.49801
▁aphids	-9.50289
▁give	-9.5037
▁make	-9.50636
=27.3	-9.50637
▁light	-9.50659
▁manure	-9.51106
because	-9.51135
=27.9	-9.51254
=27.8	-9.51874
▁according	-9.52089
▁storage	-9.52186
▁operation	-9.52476
=20.4	-9.52498
▁essential	-9.52498
▁important	-9.52498
▁while	-9.52512
▁8.2	-9.52566
u	-9.52708
▁his	-9.53689
=14.	-9.53759
=12.	-9.53759
▁7.8	-9.53976
▁--	-9.53977
▁check	-9.54305
▁near	-9.54395
▁neem	-9.54417
▁gun	-9.54436
er	-9.54482
▁curl	-9.54912
▁drainage	-9.55034
▁details	-9.55154
▁different	-9.55665
▁special	-9.55666
▁symptoms	-9.55983
=29.9	-9.56326
▁benefit	-9.5659
▁cultural	-9.56657
▁teak	-9.56716
ous	-9.56933
▁cow	-9.57476
▁role	-9.57593
=27.7	-9.57635
=29.1	-9.57635
▁citrus	-9.57635
▁poultry	-9.5764
out	-9.57761
▁off	-9.58339
▁potassium	-9.58339
▁flowering	-9.58589
▁every	-9.58636
▁beans	-9.59203
▁each	-9.59297
lease	-9.59414
urea	-9.59713
▁29	-9.5973
▁environmental	-9.60038
▁pathogens	-9.60408
▁fruits	-9.60846
▁basal	-9.6133
▁old	-9.61441
▁nut	-9.61622
▁same	-9.6167
▁bamboo	-9.62014
▁kisan	-9.62024
@	-9.62038
▁three	-9.62364
▁given	-9.62372
▁insects	-9.62626
▁higher	-9.62721
▁trunk	-9.62757
further	-9.63405
▁including	-9.63771
▁B	-9.64849
▁requirement	-9.64891
▁once	-9.65266
▁sali	-9.65502
dome	-9.66083
▁bank	-9.66231
▁betel	-9.66234
▁litr	-9.66267
▁digester	-9.66339
▁but	-9.66949
-45	-9.67107
▁sri	-9.67707
▁day	-9.6831
8	-9.6843
▁r	-9.68615
▁absence	-9.68777
▁visit	-9.68783
▁floating	-9.68804
▁split	-9.68945
▁9.0	-9.69107
▁significant	-9.69259
▁condition	-9.69666
▁necessary	-9.69895
▁dosage	-9.70061
▁name	-9.70442
▁natural	-9.70758
o	-9.70808
▁thereby	-9.71012
▁mixed	-9.71121
▁vine	-9.71224
▁c	-9.71362
▁mango	-9.71381
▁orally	-9.71408
▁done	-9.71414
▁improved	-9.71592
▁design	-9.71627
=31.8	-9.71768
▁occurrence	-9.71768
▁remove	-9.71906
=11.	-9.72099
▁dust	-9.72149
▁e	-9.72322
▁fym	-9.72702
▁pit	-9.72851
▁away	-9.7293
▁scheme	-9.73153
▁structure	-9.73268
▁phosphate	-9.73305
▁problems	-9.73475
=30.0	-9.74072
▁3.	-9.74409
p	-9.74668
▁cut	-9.74765
▁uttar	-9.74841
▁winter	-9.74851
▁found	-9.74916
=54.5	-9.75243
▁leveling	-9.75365
=41.0	-9.75637
▁cassava	-9.75641
▁roots	-9.75711
▁period	-9.75823
=52.0	-9.76032
▁so	-9.76035
=41.6	-9.76429
▁improv	-9.76445
▁traditional	-9.76489
▁years	-9.76647
▁materials	-9.77132
▁contribute	-9.77171
0°	-9.77175
▁slurry	-9.7725
▁than	-9.77583
▁wilting	-9.77601
=34.6	-9.78032
▁silt	-9.78036
▁feeding	-9.7823
=58.4	-9.78437
▁shoot	-9.78779
▁micronutrient	-9.78787
=31.0	-9.78844
▁bihar	-9.78848
▁white	-9.78876
▁brown	-9.789
▁5%	-9.79166
▁layer	-9.79236
▁arecanut	-9.79259
▁streptomycin	-9.79274
▁fungicide	-9.79611
▁pea	-9.79631
=54.4	-9.79662
=56.6	-9.79662
▁attention	-9.79662
▁factors	-9.79814
▁controlling	-9.79859
▁add	-9.80279
▁terms	-9.80281
=30.2	-9.80486
=31.3	-9.80486
=47.9	-9.80486
ion	-9.80793
▁content	-9.813
▁13	-9.81554
▁maintenance	-9.81743
▁manag	-9.82013
c	-9.82253
or	-9.82254
▁compare	-9.82372
▁depth	-9.82583
▁npk	-9.82585
▁less	-9.82668
▁R	-9.82802
▁large	-9.82997
=53.1	-9.83002
▁get	-9.83009
▁source	-9.8301
▁dressing	-9.83167
▁severe	-9.83428
▁captan	-9.83447
▁drench	-9.83519
▁powdery	-9.83739
=33.1	-9.83855
=40.9	-9.83855
=50.4	-9.83855
▁administer	-9.83864
▁vari	-9.83961
▁borers	-9.84264
▁sustainable	-9.84286
▁first	-9.84301
▁dome	-9.84577
▁parts	-9.84585
es	-9.84606
=31.7	-9.84715
=44.2	-9.84715
=45.1	-9.84715
=8.0	-9.84716
▁wide	-9.84741
▁micro	-9.85084
▁equal	-9.85152
▁availability	-9.85159
/5	-9.85456
=52.5	-9.85583
▁okra	-9.85613
▁M	-9.85623
=57.3	-9.8602
▁aphid	-9.86079
▁hybrid	-9.86106
▁weeding	-9.86124
=32.5	-9.86458
=43.2	-9.86458
=44.8	-9.86458
=45.8	-9.86458
=55.2	-9.86458
▁caus	-9.86585
▁drum	-9.86926
▁there	-9.87304
gram	-9.87321
=32.6	-9.87341
=40.6	-9.87341
=41.8	-9.87341
=45.5	-9.87341
▁resistance	-9.87341
▁discuss	-9.87342
on	-9.87431
▁go	-9.87523
=50.7	-9.87786
▁pm	-9.87859
▁needed	-9.87908
▁2-3	-9.87962
▁uniform	-9.88076
=53.7	-9.88232
=58.1	-9.88232
=56.2	-9.88681
▁breeding	-9.8873
▁material	-9.88788
lt	-9.88821
00.0	-9.89065
=33.4	-9.89131
=40.1	-9.89131
=44.4	-9.89131
=53.3	-9.89131
▁rust	-9.89285
ment	-9.89316
▁cover	-9.8954
=55.9	-9.89583
=42.8	-9.90038
=45.6	-9.90038
=46.4	-9.90038
=49.7	-9.90038
=50.8	-9.90038
=57.5	-9.90038
=57.8	-9.90038
=43.0	-9.90038
=10.	-9.90043
▁yellow	-9.90188
=53.6	-9.90495
=55.0	-9.90495
▁sulphate	-9.90499
▁liters	-9.90525
=30.5	-9.90953
=30.8	-9.90953
=31.1	-9.90953
=34.9	-9.90953
=54.2	-9.90953
=58.0	-9.90953
▁both	-9.90955
=18.2	-9.91096
▁result	-9.91102
▁milli	-9.91395
=55.5	-9.91414
b	-9.91471
▁research	-9.91876
=30.9	-9.91877
=34.8	-9.91877
=50.9	-9.91877
▁dung	-9.91878
▁test	-9.91909
▁peppers	-9.92149
▁support	-9.92186
=51.3	-9.92342
=51.8	-9.92342
=52.7	-9.92342
▁Input	-9.92355
▁practice	-9.92611
=42.3	-9.9281
=43.8	-9.9281
=43.9	-9.9281
=48.9	-9.9281
=56.8	-9.9281
=30.3	-9.9281
=34.7	-9.9281
▁training	-9.9281
▁activity	-9.92815
▁reduced	-9.92894
ive	-9.93204
=51.1	-9.93279
▁ridomil	-9.93289
▁he	-9.93297
▁please	-9.93355
▁requirements	-9.93645
=30.4	-9.93751
=40.5	-9.93751
=41.9	-9.93751
=42.9	-9.93751
=48.1	-9.93751
=52.2	-9.93751
=57.7	-9.93751
▁remedy	-9.93751
▁F	-9.94025
▁medium	-9.94225
ha	-9.94245
▁prevention	-9.94261
▁gold	-9.94283
▁zone	-9.94442
=33.2	-9.94701
=47.1	-9.94701
=49.6	-9.94701
▁germination	-9.94701
=50.0	-9.94701
▁low	-9.9518
▁bordeaux	-9.95192
▁march	-9.95317
▁canker	-9.95404
=32.4	-9.9566
=34.1	-9.9566
=42.2	-9.9566
=42.4	-9.9566
=43.4	-9.9566
=44.5	-9.9566
=45.2	-9.9566
=55.1	-9.9566
=34.0	-9.9566
▁tell	-9.95704
▁loss	-9.95737
▁eggplant	-9.95901
=51.4	-9.96143
=52.3	-9.96143
=30.7	-9.96629
=31.5	-9.96629
=33.5	-9.96629
=40.2	-9.96629
=43.6	-9.96629
=51.9	-9.96629
=19.8	-9.96641
▁hours	-9.96649
▁controlled	-9.96857
▁advantages	-9.96927
=50.5	-9.97116
=55.7	-9.97116
▁mixing	-9.97562
=34.3	-9.97607
=41.2	-9.97607
=44.1	-9.97607
=46.1	-9.97607
=52.6	-9.97607
▁Choos	-9.97607
▁garlic	-9.97608
▁supply	-9.97612
▁multiplex	-9.97731
th	-9.97833
=59.4	-9.98099
=59.6	-9.98099
▁kvk	-9.98148
▁potatoes	-9.98178
▁types	-9.98257
▁regular	-9.98463
▁virus	-9.98587
=30.6	-9.98594
=31.6	-9.98594
=33.8	-9.98594
=33.9	-9.98594
=45.3	-9.98594
=46.5	-9.98594
=47.3	-9.98594
=48.6	-9.98594
▁signs	-9.98725
▁followed	-9.9881
=18.5	-9.98955
▁meter	-9.98959
▁related	-9.99169
▁select	-9.99185
▁remaining	-9.99257
▁(2	-9.99467
=43.1	-9.99592
=46.3	-9.99592
=48.5	-9.99592
=48.7	-9.99592
=47.0	-9.99592
=18.8	-9.99605
=19.1	-9.99801
▁detail	-9.99911
▁involves	-9.99998
=54.7	-10.0009
▁harvesting	-10.0014
▁melon	-10.0043
=32.1	-10.006
=32.7	-10.006
=34.5	-10.006
=38.6	-10.006
=40.4	-10.006
=40.7	-10.006
=41.3	-10.006
=47.8	-10.006
=51.5	-10.006
=53.8	-10.006
=45.7	-10.006
▁play	-10.0062
▁sow	-10.0089
=58.9	-10.0111
▁drenching	-10.0151
=34.2	-10.0162
=41.5	-10.0162
=48.8	-10.0162
=58.7	-10.0162
=33.3	-10.0162
▁mahaphal	-10.0162
▁taken	-10.0167
▁4.	-10.018
=52.1	-10.0213
▁above	-10.0213
▁fertility	-10.0213
▁primar	-10.0214
▁describe	-10.0253
=32.3	-10.0265
=43.7	-10.0265
=46.7	-10.0265
=49.4	-10.0265
=54.0	-10.0265
=59.0	-10.0265
=18.4	-10.0266
▁o	-10.0269
1	-10.0289
=50.6	-10.0316
=51.6	-10.0316
=53.5	-10.0316
=77.4	-10.0316
=78.7	-10.0316
▁performance	-10.0316
=56.0	-10.0316
=19.2	-10.0329
▁19	-10.0349
=32.8	-10.0368
=33.7	-10.0368
=41.4	-10.0368
=49.9	-10.0368
=52.4	-10.0368
=59.8	-10.0368
=33.0	-10.0368
▁protection	-10.037
▁50%	-10.0386
▁months	-10.0393
▁climate	-10.041
▁approach	-10.042
▁kilo	-10.042
=51.7	-10.0421
=57.9	-10.0421
▁blast	-10.0421
-2	-10.0422
ard	-10.0431
1°	-10.0462
ight	-10.0464
▁economic	-10.0466
=42.1	-10.0473
=54.6	-10.0473
=55.3	-10.0473
▁Keep	-10.0473
▁autumn	-10.0473
=30.1	-10.0473
=32.2	-10.0473
=33.6	-10.0473
est	-10.0521
=53.4	-10.0526
=56.4	-10.0526
=58.3	-10.0526
=79.2	-10.0526
▁booster	-10.0527
▁available	-10.0528
▁me	-10.0542
▁issues	-10.0549
▁construction	-10.0571
▁levels	-10.0575
=31.2	-10.058
=37.5	-10.058
=42.6	-10.058
=47.2	-10.058
=47.7	-10.058
=48.3	-10.058
=51.2	-10.058
=56.1	-10.058
=57.4	-10.058
=58.6	-10.058
=58.8	-10.058
▁labor	-10.058
▁matter	-10.058
=53.0	-10.058
=32.0	-10.058
=40.0	-10.058
▁provid	-10.0585
,2	-10.0586
ya	-10.0628
=84.2	-10.0633
6°	-10.0635
▁vi	-10.0654
=41.7	-10.0687
=47.4	-10.0687
=49.2	-10.0687
=58.5	-10.0687
=59.9	-10.0687
=49.0	-10.0687
=19.5	-10.0691
=53.9	-10.0741
=54.1	-10.0741
▁establishment	-10.0741
▁lower	-10.0745
▁rates	-10.0762
▁space	-10.0788
=31.9	-10.0795
=36.3	-10.0795
=36.9	-10.0795
=44.9	-10.0795
=56.5	-10.0795
=77.7	-10.0795
=84.4	-10.0795
=50.2	-10.0795
=42.0	-10.0795
=19.4	-10.0797
▁increased	-10.0804
▁depend	-10.0811
uch	-10.0825
▁tank	-10.0844
=58.2	-10.085
▁down	-10.0851
▁results	-10.0887
=43.5	-10.0905
=45.4	-10.0905
=46.8	-10.0905
=57.1	-10.0905
=59.3	-10.0905
=59.7	-10.0905
=44.0	-10.0905
=46.0	-10.0905
=79.0	-10.096
▁tab	-10.0966
▁pesticides	-10.0975
▁eating	-10.0979
▁infections	-10.0999
▁17	-10.1009
light	-10.1013
=35.4	-10.1016
=54.9	-10.1016
=59.1	-10.1016
▁captaf	-10.1025
▁garden	-10.105
▁model	-10.1069
=53.2	-10.1071
=54.8	-10.1071
▁oxychloride	-10.1075
▁damping	-10.1076
▁man	-10.1125
=44.7	-10.1128
=48.2	-10.1128
=49.1	-10.1128
=50.1	-10.1128
=56.7	-10.1128
=56.9	-10.1128
=31.4	-10.1128
=35.3	-10.1128
=39.0	-10.1128
=45.0	-10.1128
▁bhindi	-10.1128
▁chloride	-10.1129
▁querr	-10.1129
▁card	-10.1131
▁key	-10.1131
▁promot	-10.1134
=19.9	-10.1143
▁55	-10.1181
=54.3	-10.1184
=55.4	-10.1184
=83.9	-10.1184
drum	-10.1187
▁3-4	-10.1188
▁re	-10.1209
=34.4	-10.1241
=38.7	-10.1241
=40.8	-10.1241
=45.9	-10.1241
=46.2	-10.1241
=49.5	-10.1241
=49.8	-10.1241
=55.6	-10.1241
=79.3	-10.1241
=82.9	-10.1241
=51.0	-10.1241
▁evenly	-10.1244
▁dress	-10.1248
nce	-10.127
3°	-10.1292
=78.6	-10.1298
▁fertiliser	-10.1298
▁500	-10.1305
▁Raise	-10.1334
▁market	-10.1339
=55.8	-10.1356
=76.3	-10.1356
=76.5	-10.1356
=84.5	-10.1356
▁aeration	-10.1356
=35.5	-10.1356
=36.8	-10.1356
=38.5	-10.1356
=42.7	-10.1356
=18.7	-10.1378
▁mr	-10.1388
▁fungi	-10.1413
=57.0	-10.1413
=78.2	-10.1413
=80.1	-10.1413
=84.1	-10.1413
soil	-10.1415
▁spots	-10.142
▁level	-10.1427
▁directed	-10.1433
▁recommend	-10.1433
=19.3	-10.1438
▁b	-10.1469
▁soi	-10.147
=39.2	-10.1471
=59.5	-10.1471
▁adequate	-10.1472
▁full	-10.1479
▁Us	-10.1511
=76.1	-10.153
▁resources	-10.1566
▁f	-10.1585
=37.2	-10.1589
=38.1	-10.1589
=46.9	-10.1589
=47.6	-10.1589
=48.4	-10.1589
=49.3	-10.1589
=57.6	-10.1589
=80.0	-10.1589
▁metre	-10.1589
=78.1	-10.1648
▁food	-10.1656
▁improves	-10.1688
▁costs	-10.1693
▁even	-10.1698
heck	-10.1707
=35.7	-10.1707
=40.3	-10.1707
=43.3	-10.1707
=67.9	-10.1707
=75.4	-10.1707
=77.3	-10.1707
=77.8	-10.1707
=79.5	-10.1707
=83.2	-10.1707
=32.9	-10.1707
=77.0	-10.1708
=35.0	-10.1708
▁new	-10.1712
▁procedure	-10.1717
▁considered	-10.1726
▁EC	-10.1767
=80.7	-10.1767
▁create	-10.177
▁substrate	-10.1777
▁caterpillar	-10.1778
5°	-10.1789
=19.7	-10.1794
▁significantly	-10.1809
▁air	-10.1814
=18.1	-10.1817
=36.6	-10.1828
=36.7	-10.1828
=37.9	-10.1828
=38.2	-10.1828
=41.1	-10.1828
=42.5	-10.1828
=44.3	-10.1828
=46.6	-10.1828
=79.1	-10.1828
us	-10.1828
▁sufficient	-10.1829
▁dropping	-10.1839
▁october	-10.1861
▁requir	-10.1875
=77.1	-10.1888
▁Rain	-10.1892
▁flood	-10.19
▁effect	-10.1906
=35.9	-10.1949
=36.5	-10.1949
=38.3	-10.1949
=47.5	-10.1949
=50.3	-10.1949
=57.2	-10.1949
=81.2	-10.1949
▁assistance	-10.1949
=82.0	-10.1949
▁causes	-10.1952
▁risk	-10.1963
=56.3	-10.2011
=79.7	-10.2011
=79.8	-10.2011
▁Reasonabl	-10.2011
▁nutritional	-10.2013
▁zinc	-10.2017
▁acre	-10.2036
=36.1	-10.2072
=37.8	-10.2072
=36.0	-10.2072
▁rainfall	-10.2074
ary	-10.2076
▁750	-10.2078
=	-10.2133
=52.9	-10.2134
=79.4	-10.2134
=79.6	-10.2134
=83.3	-10.2134
▁much	-10.2138
=18.3	-10.2146
often	-10.215
▁respectively	-10.2155
▁plantation	-10.2162
=35.8	-10.2197
=75.8	-10.2197
=77.5	-10.2197
=8.7	-10.2197
=80.8	-10.2197
=81.1	-10.2197
=83.1	-10.2197
=83.8	-10.2197
=81.0	-10.2197
▁concentration	-10.2216
▁part	-10.2218
▁challenges	-10.2227
row	-10.2244
▁Water	-10.2244
▁addition	-10.2256
▁must	-10.2259
=82.6	-10.226
=18.0	-10.2282
=18.9	-10.2308
=35.6	-10.2323
=44.6	-10.2323
=8.9	-10.2323
=80.3	-10.2323
=80.9	-10.2323
=81.5	-10.2323
=82.8	-10.2323
grained	-10.2325
ation	-10.2325
▁dried	-10.2328
▁september	-10.2328
=75.5	-10.2387
=83.4	-10.2387
=84.8	-10.2387
=85.6	-10.2387
▁influence	-10.2403
=38.9	-10.2451
=39.4	-10.2451
=39.8	-10.2451
=39.9	-10.2451
=52.8	-10.2451
=59.2	-10.2451
=76.2	-10.2451
=76.4	-10.2451
=76.9	-10.2451
=82.2	-10.2451
=82.4	-10.2451
=85.0	-10.2451
▁safety	-10.2451
▁Apply	-10.2451
=19.0	-10.246
▁70	-10.246
▁pay	-10.2466
▁bug	-10.2474
▁They	-10.2486
=19.6	-10.2503
um	-10.2511
=78.3	-10.2515
=80.6	-10.2515
=83.6	-10.2515
=84.9	-10.2515
▁replied	-10.2515
borax	-10.252
/10	-10.2523
▁resource	-10.2541
7°	-10.2568
▁madh	-10.258
=36.2	-10.258
=78.5	-10.258
=83.7	-10.258
=84.6	-10.258
▁initial	-10.2582
▁inject	-10.2617
=81.4	-10.2646
=61.8	-10.2711
=8.6	-10.2711
=80.5	-10.2711
=98.7	-10.2711
=38.0	-10.2711
=48.0	-10.2711
cotton	-10.2718
le	-10.2728
▁operations	-10.2738
=69.5	-10.2778
=77.6	-10.2778
=78.9	-10.2778
▁consistent	-10.278
=18.6	-10.2798
gyan	-10.2803
▁worm	-10.2816
▁stress	-10.2844
=37.7	-10.2844
=76.7	-10.2844
▁address	-10.2845
▁precision	-10.2845
@2	-10.2849
▁west	-10.2849
▁ratio	-10.291
=76.0	-10.2912
▁liquid	-10.2912
▁vaccine	-10.2913
st	-10.2919
▁impacts	-10.2947
▁april	-10.2971
=38.8	-10.2979
=39.3	-10.2979
=39.6	-10.2979
=83.5	-10.2979
▁debris	-10.2979
▁particularly	-10.2983
april	-10.2987
5	-10.2992
un	-10.3005
▁11	-10.3031
=82.7	-10.3047
=99.5	-10.3047
=78.0	-10.3047
▁ginger	-10.3047
▁un	-10.3074
-20	-10.3075
▁breed	-10.3076
▁pipes	-10.3087
to	-10.3094
=37.6	-10.3116
=39.7	-10.3116
=75.9	-10.3116
=78.8	-10.3116
=8.8	-10.3116
=84.3	-10.3116
=85.4	-10.3116
▁second	-10.3116
▁krish	-10.3117
▁end	-10.3121
▁250	-10.313
=17.9	-10.3139
h	-10.3161
▁effects	-10.317
▁0.5	-10.3183
=60.4	-10.3185
=62.4	-10.3185
=77.9	-10.3185
=80.4	-10.3185
=81.6	-10.3185
=81.9	-10.3185
=84.7	-10.3185
▁sure	-10.3186
▁balance	-10.3186
▁properly	-10.3197
=35.2	-10.3254
=97.4	-10.3254
=37.0	-10.3254
▁trench	-10.3254
9°	-10.3296
x	-10.3314
▁acid	-10.3323
=98.5	-10.3324
=99.7	-10.3324
▁increasing	-10.3324
▁body	-10.3325
▁yellowing	-10.3371
▁Spray	-10.3388
thus	-10.3392
=63.8	-10.3394
=75.3	-10.3394
=77.2	-10.3394
=82.1	-10.3394
=94.3	-10.3394
▁strategies	-10.3394
=83.0	-10.3394
▁minimize	-10.3412
=17.5	-10.3445
=17.3	-10.3449
▁uneven	-10.3465
=66.6	-10.3465
=71.2	-10.3465
=71.5	-10.3465
=76.6	-10.3465
=98.3	-10.3465
▁kendra	-10.3465
=17.2	-10.3507
▁officer	-10.3507
=37.4	-10.3537
=60.9	-10.3537
=68.6	-10.3537
=69.7	-10.3537
=71.4	-10.3537
=73.6	-10.3537
=73.9	-10.3537
=75.1	-10.3537
=88.9	-10.3537
▁nurseries	-10.3537
=84.0	-10.3537
=87.0	-10.3537
▁mancozeb	-10.3539
▁contain	-10.3539
▁collect	-10.3575
▁grain	-10.3585
▁14	-10.3596
▁place	-10.3608
=65.6	-10.3609
=67.1	-10.3609
=73.5	-10.3609
=82.5	-10.3609
=75.0	-10.3609
=89.0	-10.3609
▁flow	-10.3612
▁sub	-10.3613
▁loan	-10.3656
▁directly	-10.3656
=35.1	-10.3681
=65.4	-10.3681
=99.3	-10.3681
resistant	-10.3695
▁region	-10.3725
▁duck	-10.3731
ature	-10.3751
▁Proper	-10.3754
=60.2	-10.3754
=76.8	-10.3754
=81.3	-10.3754
=81.7	-10.3754
=87.4	-10.3754
▁death	-10.3754
▁dap	-10.3766
▁drying	-10.3767
▁pathogen	-10.3805
▁termite	-10.3807
=61.9	-10.3828
=67.4	-10.3828
=79.9	-10.3828
=80.2	-10.3828
=81.8	-10.3828
=85.7	-10.3828
=90.2	-10.3828
▁width	-10.3828
=17.7	-10.3829
profex	-10.383
▁classic	-10.3833
3	-10.384
▁lits	-10.3875
▁pig	-10.3888
▁consult	-10.3901
=67.6	-10.3902
=74.2	-10.3902
=86.9	-10.3902
=87.1	-10.3902
=95.1	-10.3902
=95.7	-10.3902
=97.9	-10.3902
▁fertigation	-10.3902
▁meet	-10.3902
▁last	-10.3903
▁pesticide	-10.3958
=36.4	-10.3976
=37.1	-10.3976
=66.9	-10.3976
=72.6	-10.3976
=73.7	-10.3976
=67.0	-10.3976
=69.0	-10.3976
▁mosaic	-10.3976
▁single	-10.3978
▁effectiveness	-10.3987
▁di	-10.404
▁waste	-10.4042
=91.8	-10.4051
=99.1	-10.4051
=99.4	-10.4051
▁significance	-10.4051
▁healthier	-10.4052
ertain	-10.4053
▁Th	-10.4064
fertilizer	-10.4067
=17.0	-10.4082
▁bucket	-10.4107
▁portion	-10.4108
an	-10.4113
▁oxygen	-10.4127
=39.1	-10.4127
=70.8	-10.4127
=78.4	-10.4127
=87.6	-10.4127
=88.2	-10.4127
=89.8	-10.4127
=93.6	-10.4127
=99.6	-10.4127
▁properties	-10.4127
▁broiler	-10.4127
▁financial	-10.4127
▁head	-10.413
▁chicken	-10.4189
=67.2	-10.4204
=68.5	-10.4204
=86.3	-10.4204
=96.4	-10.4204
=99.8	-10.4204
▁morning	-10.4204
▁excessive	-10.4216
▁imm	-10.4266
▁insecticide	-10.4266
=96.3	-10.4281
▁anthracnose	-10.4281
▁poor	-10.4294
pusa	-10.4298
▁receive	-10.4328
▁wood	-10.435
=60.6	-10.4358
=63.9	-10.4358
=90.1	-10.4358
=96.9	-10.4358
▁drought	-10.4358
=73.0	-10.4358
▁furadon	-10.4358
▁7.5	-10.4397
-50	-10.4419
▁India	-10.4436
=5.3	-10.4436
=68.7	-10.4436
=71.6	-10.4436
=75.6	-10.4436
=96.1	-10.4436
arnataka	-10.4436
▁sludge	-10.4436
▁species	-10.4436
▁cattle	-10.4437
order	-10.4438
▁young	-10.444
▁preventive	-10.4443
▁form	-10.4443
▁planted	-10.4448
▁curling	-10.4466
=66.2	-10.4515
=68.4	-10.4515
=70.1	-10.4515
=75.2	-10.4515
=75.7	-10.4515
=87.7	-10.4515
▁status	-10.4515
=62.0	-10.4515
▁ooze	-10.4515
▁right	-10.4516
▁most	-10.4519
▁promptly	-10.4523
▁planter	-10.4526
▁achieve	-10.4531
cross	-10.4533
=15.2	-10.4537
=17.1	-10.4589
=38.4	-10.4594
=5.1	-10.4594
▁Maintain	-10.4594
▁physical	-10.4594
▁mortality	-10.4594
▁flies	-10.4595
▁paste	-10.4596
▁Bordeaux	-10.4596
=17.4	-10.4596
▁quintal	-10.4599
▁again	-10.46
▁follow	-10.4636
=64.2	-10.4674
=67.8	-10.4674
=68.3	-10.4674
=71.3	-10.4674
=87.2	-10.4674
=87.5	-10.4674
=94.9	-10.4674
=96.5	-10.4674
=97.3	-10.4674
▁package	-10.4675
▁carbendazim	-10.468
▁prepare	-10.4692
k	-10.47
disha	-10.4733
▁rows	-10.4737
▁showing	-10.4748
=37.3	-10.4755
=62.7	-10.4755
=64.4	-10.4755
=68.9	-10.4755
=69.9	-10.4755
=70.4	-10.4755
=74.4	-10.4755
=82.3	-10.4755
=87.9	-10.4755
=88.5	-10.4755
=89.6	-10.4755
=95.8	-10.4755
=97.7	-10.4755
=66.0	-10.4755
▁manner	-10.4755
=71.0	-10.4755
▁equipment	-10.4755
▁beneficial	-10.4755
=74.9	-10.4836
▁Additional	-10.4836
▁branches	-10.4837
▁trace	-10.4837
▁contaf	-10.4837
▁eliminate	-10.4853
▁advise	-10.4855
apply	-10.4858
▁elements	-10.4889
▁bacteria	-10.4916
ate	-10.4916
=61.4	-10.4918
=66.4	-10.4918
=72.3	-10.4918
=88.4	-10.4918
=88.7	-10.4918
=95.6	-10.4918
=99.2	-10.4918
=72.0	-10.4918
▁tomatoes	-10.4929
=17.6	-10.4957
▁th	-10.496
▁pre	-10.4986
▁height	-10.4997
=70.9	-10.5001
=86.6	-10.5001
=86.7	-10.5001
=95.3	-10.5001
=98.6	-10.5001
=98.9	-10.5001
▁biological	-10.5001
▁fresh	-10.5001
▁capacity	-10.5005
▁access	-10.5016
▁week	-10.5017
▁regions	-10.5029
▁too	-10.5077
▁maj	-10.508
▁case	-10.5083
▁Clean	-10.5084
=67.7	-10.5084
=73.1	-10.5084
=74.3	-10.5084
=74.7	-10.5084
=88.1	-10.5084
=92.5	-10.5084
=92.7	-10.5084
=99.9	-10.5084
▁importance	-10.5084
▁ventilation	-10.5084
=98.0	-10.5084
▁density	-10.5089
ar	-10.5097
malathion	-10.5108
very	-10.5126
▁names	-10.5128
=60.7	-10.5168
=72.8	-10.5168
=85.3	-10.5168
=85.5	-10.5168
=89.1	-10.5168
=90.9	-10.5168
=98.2	-10.5168
=99.0	-10.5168
=92.0	-10.5168
▁usage	-10.5168
▁show	-10.5181
spray	-10.5206
▁n	-10.5227
▁cycle	-10.5251
=62.9	-10.5253
=63.6	-10.5253
=66.1	-10.5253
=73.8	-10.5253
=86.2	-10.5253
=96.6	-10.5253
▁department	-10.5253
amil	-10.5253
▁losses	-10.5254
▁another	-10.5256
▁way	-10.5261
=16.2	-10.5279
khand	-10.5304
▁thin	-10.5332
▁india	-10.5338
=72.7	-10.5338
=74.6	-10.5338
=85.2	-10.5338
=93.3	-10.5338
=95.9	-10.5338
▁would	-10.5338
▁feet	-10.5339
▁stand	-10.534
=17.8	-10.534
▁tractor	-10.5341
▁phosphorus	-10.5341
▁reasonabl	-10.5381
bar	-10.5404
▁nad	-10.5412
▁rs	-10.5414
=39.5	-10.5425
=69.4	-10.5425
=73.2	-10.5425
=86.1	-10.5425
=89.3	-10.5425
=91.3	-10.5425
=93.8	-10.5425
=97.2	-10.5425
▁deficiency	-10.5425
▁registration	-10.5425
term	-10.5444
▁produce	-10.5445
▁manual	-10.5448
=62.5	-10.5512
=62.6	-10.5512
=65.2	-10.5512
=65.7	-10.5512
=66.7	-10.5512
=70.3	-10.5512
=86.5	-10.5512
=88.3	-10.5512
=88.8	-10.5512
=98.4	-10.5512
▁energy	-10.5512
▁erosion	-10.5512
▁continuous	-10.5538
▁supports	-10.5568
ant	-10.5579
=68.2	-10.5599
=88.6	-10.5599
=96.7	-10.5599
▁critical	-10.5599
=61.0	-10.5599
=68.0	-10.5599
TI	-10.56
▁cropping	-10.5603
▁minutes	-10.5623
▁diseased	-10.5631
▁Dur	-10.5653
=61.2	-10.5688
=64.3	-10.5688
=64.9	-10.5688
=65.1	-10.5688
=65.3	-10.5688
=66.8	-10.5688
=68.1	-10.5688
=70.2	-10.5688
=73.3	-10.5688
=74.8	-10.5688
=89.9	-10.5688
▁weight	-10.5688
▁dairy	-10.5689
=16.5	-10.569
=16.4	-10.569
▁2019	-10.569
▁beetle	-10.5696
=15.7	-10.5713
as	-10.5766
=63.2	-10.5777
=71.1	-10.5777
=71.7	-10.5777
=85.8	-10.5777
=91.4	-10.5777
=97.8	-10.5777
▁volume	-10.5777
▁straw	-10.5777
▁drinking	-10.578
special	-10.5807
=63.7	-10.5867
=66.5	-10.5867
=69.3	-10.5867
=69.6	-10.5867
=90.7	-10.5867
=91.2	-10.5867
=92.8	-10.5867
▁Dissolv	-10.5867
▁retention	-10.5867
=86.0	-10.5867
▁conservation	-10.5867
=16.8	-10.5869
▁become	-10.5872
▁question	-10.5878
▁final	-10.5892
=16.7	-10.5914
ammonium	-10.5918
▁Planting	-10.5934
=15.3	-10.5935
▁rotation	-10.5943
=60.8	-10.5958
=64.6	-10.5958
=66.3	-10.5958
=8.5	-10.5958
=93.2	-10.5958
=98.1	-10.5958
=97.0	-10.5958
▁choose	-10.596
▁plus	-10.5964
▁stages	-10.5968
▁frequent	-10.5986
▁characteristics	-10.5989
▁monitoring	-10.5993
▁offer	-10.5997
6	-10.6001
▁@1	-10.6005
▁structur	-10.6011
▁caterpillars	-10.6033
=60.5	-10.605
=61.6	-10.605
=65.9	-10.605
=91.1	-10.605
▁foliar	-10.6055
▁tillage	-10.6058
▁carp	-10.6062
▁hole	-10.6067
=16.9	-10.6073
▁meters	-10.6087
▁provided	-10.609
=60.3	-10.6142
=62.3	-10.6142
=64.7	-10.6142
=67.3	-10.6142
=85.1	-10.6142
=94.8	-10.6142
=95.5	-10.6142
▁thrips	-10.6142
=94.0	-10.6142
▁digestion	-10.6142
▁sunlight	-10.6143
▁products	-10.6161
-0	-10.6194
▁300	-10.6199
▁sprinklers	-10.6232
▁stems	-10.6234
=62.1	-10.6236
=62.2	-10.6236
=63.5	-10.6236
=65.5	-10.6236
=74.1	-10.6236
▁Irrigation	-10.6236
▁entire	-10.6236
=63.0	-10.6236
▁credit	-10.6236
▁hand	-10.6247
▁range	-10.6251
▁purpose	-10.6252
=16.	-10.6257
ccording	-10.6261
▁solve	-10.6262
▁Add	-10.6266
▁correct	-10.6268
▁facilitate	-10.6279
▁documents	-10.6292
=64.8	-10.633
=69.8	-10.633
=8.1	-10.633
=89.5	-10.633
=89.7	-10.633
=97.5	-10.633
=98.8	-10.633
▁Acacia	-10.633
▁Answer	-10.633
▁set	-10.6348
▁lesions	-10.6349
▁kill	-10.641
=62.8	-10.6425
=63.4	-10.6425
=69.2	-10.6425
=94.4	-10.6425
=96.2	-10.6425
▁raising	-10.6425
▁bengal	-10.6426
▁selection	-10.6426
▁maturity	-10.6428
▁direct	-10.643
▁milk	-10.6442
M	-10.6445
▁16	-10.6453
▁non	-10.6472
=15.5	-10.65
=61.5	-10.6522
=61.7	-10.6522
=72.2	-10.6522
=90.4	-10.6522
=94.5	-10.6522
▁initiation	-10.6522
=96.0	-10.6522
=70.0	-10.6522
=15.8	-10.6523
hi	-10.6527
▁my	-10.6539
▁dressed	-10.6576
P	-10.6599
L	-10.6602
▁inhibit	-10.6619
=74.5	-10.6619
=91.6	-10.6619
=97.1	-10.6619
▁litchi	-10.6619
▁maharashtra	-10.6619
▁turmeric	-10.6623
▁applying	-10.6634
=15.9	-10.6641
▁1.0	-10.6672
▁manager	-10.6683
and	-10.6696
=5.4	-10.6717
=63.3	-10.6717
=64.5	-10.6717
=70.6	-10.6717
=72.4	-10.6717
=90.5	-10.6717
=91.9	-10.6717
=93.7	-10.6717
=97.6	-10.6717
=91.0	-10.6717
▁Avoid	-10.6717
▁culture	-10.6718
▁semi	-10.6718
▁sp	-10.6721
▁mid	-10.676
▁adjust	-10.6783
▁33	-10.6799
=65.8	-10.6816
=90.3	-10.6816
=93.1	-10.6816
=94.6	-10.6816
▁formation	-10.6818
▁permanent	-10.6822
▁10-15	-10.6826
▁come	-10.6827
▁Remov	-10.6834
▁199	-10.6844
green	-10.6856
▁mg	-10.688
▁offers	-10.6901
=87.8	-10.6916
ujarat	-10.6916
▁carrie	-10.6917
/4.5	-10.6917
▁4-5	-10.692
▁bio	-10.6921
▁increases	-10.6929
▁techniques	-10.6953
is	-10.6955
▁block	-10.698
▁covered	-10.6987
-12	-10.6988
0	-10.6991
▁birds	-10.6999
=69.1	-10.7017
=73.4	-10.7017
=89.2	-10.7017
=93.4	-10.7017
▁dimensions	-10.7017
▁robust	-10.7017
▁could	-10.7017
▁pointed	-10.7037
=15.1	-10.7044
U	-10.7057
▁consider	-10.7063
=5.2	-10.7119
=68.8	-10.7119
=72.9	-10.7119
=86.8	-10.7119
=94.2	-10.7119
=95.2	-10.7119
=74.0	-10.7119
▁below	-10.7119
▁decis	-10.712
▁value	-10.7135
-20,	-10.7173
▁bud	-10.7176
▁cleaning	-10.7187
=71.8	-10.7222
=87.3	-10.7222
=92.3	-10.7222
=88.0	-10.7222
▁centimeter	-10.7222
▁five	-10.7223
▁components	-10.7244
▁vary	-10.7246
▁treated	-10.7246
▁Plant	-10.725
▁orange	-10.7254
▁determine	-10.7265
=16.3	-10.7283
litres	-10.7312
▁4.5	-10.7314
▁miner	-10.7317
=71.9	-10.7326
=86.4	-10.7326
=90.8	-10.7326
=92.9	-10.7326
ajasthan	-10.7326
▁govt	-10.7326
▁However	-10.7327
▁rotting	-10.7327
=15.4	-10.7328
▁1250	-10.7329
▁fertilizing	-10.733
▁boron	-10.7331
▁work	-10.7332
▁free	-10.7335
▁kufri	-10.734
▁post	-10.7345
▁ability	-10.7346
▁arka	-10.7349
aking	-10.7358
▁advantage	-10.7366
▁creat	-10.738
▁falling	-10.7397
▁avail	-10.7398
▁furrow	-10.7405
10	-10.7406
▁resistant	-10.7413
=16.1	-10.7425
=63.1	-10.7431
▁infiltration	-10.7431
▁spine	-10.7431
▁bolus	-10.7431
▁tetracycline	-10.7436
▁portable	-10.7438
▁includes	-10.7453
▁skin	-10.7475
▁manures	-10.7482
▁6.0	-10.7497
▁testing	-10.75
=61.1	-10.7538
=89.4	-10.7538
=95.4	-10.7538
▁competition	-10.7538
▁several	-10.7538
▁sissoo	-10.7538
▁cake	-10.7538
▁areca	-10.7543
▁power	-10.7545
▁pipe	-10.7547
▁suffering	-10.7547
▁made	-10.7548
▁implications	-10.755
=15.6	-10.7583
K	-10.7586
=60.1	-10.7645
=70.7	-10.7645
=91.5	-10.7645
=96.8	-10.7645
▁drilling	-10.7645
▁sponge	-10.7645
=64.0	-10.7645
▁steel	-10.7645
▁clogging	-10.7648
▁aid	-10.7684
october	-10.7694
ma	-10.7705
-1	-10.7748
=93.9	-10.7754
▁poplar	-10.7754
▁appearance	-10.7754
▁sustainability	-10.7754
▁guava	-10.7754
▁save	-10.7754
▁chemicals	-10.7755
▁mature	-10.7757
▁ma	-10.7758
▁efficiently	-10.7798
▁animal	-10.7803
▁round	-10.7836
▁bananas	-10.7856
=70.5	-10.7864
=85.9	-10.7864
=91.7	-10.7864
▁grass	-10.7865
▁de	-10.787
▁wounds	-10.7872
▁dip	-10.7879
▁1.25	-10.7912
▁loam	-10.7922
▁furrows	-10.7932
▁sprayed	-10.7955
=94.7	-10.7975
▁stability	-10.7975
▁coverage	-10.7975
ither	-10.7976
▁bark	-10.7977
▁removal	-10.7979
▁waterlogging	-10.7988
▁integrated	-10.7993
▁analyze	-10.7995
45	-10.7997
▁ask	-10.8
▁At	-10.8003
▁hid	-10.8003
▁accurate	-10.8025
▁herbicide	-10.803
▁ground	-10.8037
▁vitamins	-10.8044
▁fall	-10.8069
▁fertilize	-10.8087
ES	-10.8087
=72.5	-10.8087
▁Laser	-10.8087
▁life	-10.8087
▁response	-10.8087
▁easy	-10.8087
▁additional	-10.8095
19,	-10.8105
▁only	-10.8106
▁co	-10.8123
ng	-10.8126
▁places	-10.8126
▁change	-10.8144
▁service	-10.8146
▁stock	-10.8181
▁jhar	-10.82
=72.1	-10.8201
=92.6	-10.8201
=93.5	-10.8201
▁yojana	-10.8201
▁reproduction	-10.8201
▁wait	-10.8201
▁technologies	-10.8202
▁ph	-10.8205
▁calcium	-10.8206
▁dr	-10.8208
nt	-10.8214
▁indicate	-10.8225
▁irrigate	-10.8254
month	-10.8256
▁population	-10.8261
▁36	-10.8284
▁success	-10.8311
▁chloropyriphos	-10.8315
▁spp	-10.8317
▁wind	-10.8319
▁2018-	-10.8319
▁5-6	-10.8323
▁Fusarium	-10.8325
▁chlorpyriphos	-10.8328
=16.6	-10.833
S	-10.836
▁precise	-10.8367
tight	-10.8372
▁instructions	-10.8385
▁fed	-10.8419
▁store	-10.8425
▁kilograms	-10.8431
▁text	-10.8432
=67.5	-10.8432
▁cristocycline	-10.8433
▁infest	-10.8449
▁establish	-10.8518
▁pow	-10.8548
=92.4	-10.855
▁identify	-10.855
▁transport	-10.855
▁start	-10.8557
▁sun	-10.8573
▁flowers	-10.8588
▁filling	-10.8592
▁enhanced	-10.8593
▁eggplants	-10.861
▁shape	-10.8612
▁stored	-10.8616
▁issue	-10.8619
▁20-25	-10.8627
▁fruiting	-10.8632
▁corn	-10.8668
=92.1	-10.8669
▁acacia	-10.8669
=95.0	-10.8669
▁activities	-10.8669
▁cultivars	-10.8691
▁wash	-10.8726
▁careful	-10.8726
rough	-10.8743
▁cutting	-10.875
ies	-10.8768
=94.1	-10.8789
▁radius	-10.8789
▁consistency	-10.8789
▁prepared	-10.8789
▁quickly	-10.8829
▁warm	-10.8832
▁involved	-10.8839
ne	-10.8868
▁900	-10.8904
=61.3	-10.8911
▁enough	-10.8911
▁back	-10.8941
8,	-10.8972
compost	-10.8975
▁repellent	-10.8993
▁slope	-10.8995
▁function	-10.9028
▁pomegranate	-10.9035
▁king	-10.9035
▁climat	-10.904
▁few	-10.9051
ity	-10.9086
like	-10.91
▁minimiz	-10.9101
▁tuber	-10.9104
▁optimiz	-10.9106
▁eye	-10.9107
▁sand	-10.912
▁soak	-10.9123
▁risks	-10.9131
ana	-10.9144
▁removed	-10.9155
▁pruning	-10.916
▁Ensur	-10.916
=100.0	-10.916
▁betelvine	-10.916
▁fungus	-10.9163
▁who	-10.9181
▁dissolved	-10.9204
▁successful	-10.9224
▁supplement	-10.9231
▁investment	-10.9239
▁(1	-10.9273
▁carbon	-10.9285
▁WP	-10.9286
▁favor	-10.9287
▁easier	-10.9288
▁digested	-10.9293
microbial	-10.9298
▁mm	-10.9327
@50	-10.9354
▁operat	-10.9363
▁smooth	-10.9404
ese	-10.9404
▁attract	-10.9413
▁chilly	-10.9414
▁panicle	-10.9415
▁veterinary	-10.9416
▁shade	-10.9421
▁contribut	-10.9432
▁amounts	-10.947
▁mitigate	-10.9478
▁normal	-10.9478
▁ideal	-10.9498
▁expert	-10.9503
▁fully	-10.9534
▁dark	-10.9541
=92.2	-10.9544
▁company	-10.9544
at	-10.9546
▁june	-10.9556
▁evaluate	-10.9559
▁vermicompost	-10.9598
▁generally	-10.9602
▁remov	-10.9631
▁leveller	-10.9635
▁fire	-10.9636
▁die	-10.9638
▁vir	-10.9663
▁excess	-10.9674
▁purple	-10.9676
▁timing	-10.9676
▁position	-10.9676
▁adoption	-10.9676
having	-10.9679
▁Malathion	-10.9683
▁boost	-10.9689
9	-10.9703
▁try	-10.9726
fym	-10.9749
free	-10.9808
▁diarrhoea	-10.9809
▁shallow	-10.9809
▁adaptability	-10.9809
▁fertile	-10.981
▁recomended	-10.9811
▁multi	-10.9812
▁ecological	-10.9813
▁punjab	-10.9818
▁inspect	-10.9829
▁tools	-10.9832
quality	-10.9884
▁mushroom	-10.9904
ized	-10.991
=15.	-10.9941
▁nutrition	-10.9941
▁facilities	-10.9944
=93.0	-10.9944
▁mz	-10.9946
▁strong	-10.9948
▁injection	-10.9949
▁protein	-10.9951
tic	-10.9953
▁transplant	-10.9983
fter	-10.9998
tis	-11.0024
▁destroy	-11.0049
▁sa	-11.0061
▁wanted	-11.0071
▁influen	-11.0079
▁run	-11.0081
=64.1	-11.0081
▁pumkin	-11.0081
▁understand	-11.0081
▁comprehensive	-11.0081
▁medicine	-11.0083
ay	-11.009
▁hold	-11.0095
▁ahu	-11.01
▁mulch	-11.0142
▁residues	-11.0155
@2.5	-11.0159
▁optimize	-11.0177
▁gap	-11.0181
ily	-11.0194
=90.6	-11.022
▁Eucalyptus	-11.022
▁subsidy	-11.0225
▁2.0	-11.0266
▁safe	-11.0272
▁H	-11.0297
30	-11.031
▁demand	-11.0332
▁product	-11.0335
mg	-11.0348
▁line	-11.0358
▁adapt	-11.0361
▁national	-11.0361
▁maximum	-11.0361
▁squash	-11.0361
▁uniformity	-11.0362
▁Here	-11.0363
▁tata	-11.0368
15-16	-11.038
days	-11.0415
ex	-11.0428
20	-11.0486
▁presence	-11.0504
▁Management	-11.0504
▁shisham	-11.0504
▁next	-11.0504
▁simple	-11.0505
▁Sprinkler	-11.0509
▁total	-11.0513
▁Bacteria	-11.0519
for	-11.0524
▁limited	-11.053
7	-11.0563
▁focus	-11.0573
▁dense	-11.0585
▁retain	-11.0606
▁plantations	-11.0608
60	-11.061
▁answer	-11.0615
▁present	-11.0616
▁dilute	-11.0623
▁state	-11.0624
▁inspection	-11.0624
▁72	-11.0629
0.0	-11.0636
▁points	-11.0648
▁government	-11.065
▁1-1.75	-11.065
▁weather	-11.0651
▁weeks	-11.0655
▁duration	-11.0668
▁Farmers	-11.0685
▁open	-11.0715
▁protected	-11.0718
▁Ric	-11.0718
▁general	-11.0733
@1.5	-11.0734
Yes	-11.0743
▁wet	-11.076
ora	-11.0786
▁megha	-11.0796
=8.3	-11.0796
▁methane	-11.0796
▁mechanical	-11.0797
aryana	-11.0797
▁short	-11.0797
▁Mak	-11.0798
▁length	-11.0798
▁sown	-11.0799
▁fertlizer	-11.08
ther	-11.081
▁schemes	-11.0856
▁cuttings	-11.0857
▁inj	-11.0863
▁forest	-11.0874
borne	-11.0884
soake	-11.0898
▁hormone	-11.0923
▁machine	-11.0924
▁1.3	-11.0928
▁Biogas	-11.0945
▁insightful	-11.0945
▁knowledge	-11.0945
▁hispa	-11.0945
▁utilization	-11.0945
▁knol	-11.0945
▁runoff	-11.0945
▁mint	-11.0946
▁clear	-11.0951
▁dithane	-11.0958
▁ppm	-11.0958
▁logging	-11.0958
bic	-11.0972
▁tillering	-11.0973
hra	-11.0974
▁Pest	-11.1027
ally	-11.1029
jacket	-11.1036
tive	-11.1042
▁composting	-11.1046
Y	-11.1061
▁adopt	-11.1063
▁concern	-11.1072
▁unit	-11.1078
rice	-11.1081
▁site	-11.1097
▁stable	-11.1098
ural	-11.1099
▁plastic	-11.1101
▁fert	-11.1108
▁tall	-11.1111
▁emergence	-11.1113
▁holder	-11.112
▁ready	-11.1131
ent	-11.1133
▁immediately	-11.1138
erala	-11.116
▁populations	-11.117
▁Monitor	-11.1173
▁stocking	-11.1203
▁Mala	-11.1223
▁hopper	-11.1235
▁ways	-11.125
▁fisheries	-11.1251
▁urine	-11.1251
dexona	-11.1251
▁patches	-11.1251
▁spary	-11.1251
▁advantageous	-11.1252
▁vital	-11.1252
▁station	-11.1253
▁upon	-11.1255
▁now	-11.1258
▁wp	-11.1269
▁fungicides	-11.127
▁develop	-11.1276
▁container	-11.1304
▁pump	-11.1315
▁texture	-11.1343
▁orchards	-11.1344
▁E	-11.1344
mustard	-11.1349
▁tra	-11.1349
▁600	-11.1393
▁moth	-11.1394
▁stands	-11.1404
garh	-11.1407
=8.2	-11.1407
▁High	-11.1407
▁chhat	-11.1407
▁relevan	-11.1407
▁insurance	-11.1407
ical	-11.1411
▁transplantation	-11.1413
▁january	-11.1413
▁laying	-11.1422
ur	-11.143
▁her	-11.1449
15	-11.1462
▁act	-11.1474
▁wound	-11.1476
▁ha	-11.1478
▁close	-11.1504
also	-11.1507
▁suggestion	-11.1559
▁1%	-11.1559
recision	-11.1564
▁responsible	-11.1566
▁schedule	-11.1566
▁ultimately	-11.1566
▁With	-11.1566
▁multiple	-11.1566
▁little	-11.1566
▁System	-11.1566
▁2017	-11.1568
▁7-10	-11.157
▁fine	-11.1571
▁appliances	-11.158
▁const	-11.1581
▁channels	-11.1603
▁branch	-11.1617
gricultural	-11.1655
▁bran	-11.1659
▁influences	-11.1668
▁move	-11.1674
T	-11.1703
▁project	-11.1715
▁price	-11.1721
▁apple	-11.1722
▁hour	-11.1724
=100.5	-11.1727
=8.4	-11.1727
▁agroforestry	-11.1727
▁consumption	-11.1727
▁enemies	-11.1727
▁concrete	-11.1727
▁crown	-11.1727
▁kranti	-11.1727
▁care	-11.1732
=9.0	-11.1733
▁ranjit	-11.1735
▁inter	-11.174
▁follows	-11.1747
▁guide	-11.1762
▁color	-11.1781
▁1.8	-11.1789
▁uniformly	-11.1793
▁solutions	-11.1809
10-12	-11.1815
furrow	-11.183
▁1:1	-11.1831
▁we	-11.1845
▁bags	-11.1847
▁example	-11.1883
▁tablet	-11.1885
▁400	-11.189
▁fusariu	-11.1891
▁monsoon	-11.1891
▁entry	-11.1893
▁devices	-11.1895
▁useful	-11.1895
▁dwarf	-11.1898
▁Dri	-11.1909
▁15-20	-11.1915
▁micronutrients	-11.1917
re	-11.1923
▁transplanted	-11.193
▁uprooting	-11.1934
▁efforts	-11.1941
▁operate	-11.1945
▁controll	-11.1956
holders	-11.1966
▁rapid	-11.1994
▁detect	-11.2023
▁occur	-11.2055
▁streptocyclin	-11.2055
=101.1	-11.2057
=101.6	-11.2057
▁samman	-11.2057
▁rapeseed	-11.2057
▁serious	-11.2057
▁iron	-11.2058
▁frequency	-11.2058
▁Common	-11.2059
▁handling	-11.2059
▁together	-11.2059
▁5-7	-11.2061
▁leaching	-11.2067
co	-11.2073
▁approximately	-11.2077
ish	-11.2089
▁rose	-11.2092
▁guns	-11.211
0%	-11.2134
▁global	-11.2162
▁remains	-11.2174
▁point	-11.2195
old	-11.2209
ia	-11.2218
▁diameter	-11.2227
▁evaporation	-11.2227
▁wastage	-11.2227
▁sandalwood	-11.2227
▁commercial	-11.2227
▁nidhi	-11.2229
▁vaccination	-11.2229
9,	-11.224
▁cracking	-11.2242
▁Sowing	-11.2243
▁applications	-11.2247
gun	-11.2249
▁till	-11.2256
it	-11.2268
▁plan	-11.227
▁mala	-11.2288
NS	-11.2299
▁Harvest	-11.2321
▁muri	-11.2326
scale	-11.2337
2,	-11.2341
ter	-11.2351
▁release	-11.2356
▁beetles	-11.2384
▁Do	-11.2393
▁earth	-11.2397
efore	-11.2398
=109.2	-11.2399
=113.1	-11.2399
▁stomach	-11.2399
▁setup	-11.24
▁lack	-11.24
▁breadth	-11.2401
▁liv	-11.2401
▁income	-11.2404
▁percent	-11.2405
-18,	-11.241
▁Spraying	-11.2417
▁recovery	-11.2419
▁east	-11.2425
ide	-11.2436
▁leaks	-11.2443
ness	-11.2472
ful	-11.2488
▁herbicides	-11.2489
▁receiver	-11.2506
@1.75	-11.251
▁covering	-11.252
▁800	-11.2525
8-9	-11.2555
▁savings	-11.2562
▁drag	-11.2574
▁Fertilization	-11.2575
▁easily	-11.2575
▁happen	-11.2575
▁mohaphol	-11.2575
▁policy	-11.2575
▁valuable	-11.2575
▁amister	-11.2575
▁spike	-11.2575
▁movement	-11.2575
▁formalin	-11.2576
▁2006	-11.2579
▁palm	-11.2581
▁managed	-11.2582
▁house	-11.2585
▁germs	-11.261
nd	-11.262
▁aspects	-11.2632
▁developing	-11.2662
▁heat	-11.2678
rovide	-11.2678
ver	-11.2679
▁obtain	-11.272
▁chili	-11.2747
=105.9	-11.2753
=107.1	-11.2753
▁flexibility	-11.2753
▁guidelines	-11.2753
▁extension	-11.2754
▁enrocin	-11.2755
▁1.75	-11.2756
▁highlight	-11.2759
▁decompose	-11.2759
▁Disease	-11.2761
▁symptom	-11.2765
▁mineral	-11.277
▁thoroughly	-11.2775
▁larger	-11.2775
▁fo	-11.2775
▁dist	-11.2779
▁Fertilizer	-11.278
▁continue	-11.2795
-4	-11.2802
▁marketing	-11.2826
use	-11.2834
w	-11.284
east	-11.2842
▁great	-11.2849
▁turn	-11.2858
5,	-11.287
el	-11.2896
effective	-11.2897
▁3.5	-11.2898
land	-11.2899
the	-11.2928
ymptoms	-11.2934
▁19:19:19	-11.2935
▁minimal	-11.2935
▁dead	-11.2935
▁kind	-11.2935
▁Which	-11.2935
▁pink	-11.2935
▁rhizome	-11.2935
▁fishery	-11.2936
▁halves	-11.2937
▁vimeral	-11.2938
▁associat	-11.294
▁fluctuations	-11.294
▁suggestions	-11.2947
▁saving	-11.2962
▁harm	-11.2963
ative	-11.2998
▁promoter	-11.3028
▁repeat	-11.3092
year	-11.3107
▁Select	-11.312
=113.6	-11.312
=117.7	-11.312
=119.8	-11.312
▁consecutive	-11.312
▁lavender	-11.312
▁hygiene	-11.312
▁kept	-11.312
▁synthetic	-11.312
▁uptake	-11.312
▁recent	-11.3121
▁topicure	-11.3121
,3	-11.3121
▁plantomycin	-11.3129
▁whe	-11.3142
▁demands	-11.3159
▁november	-11.316
▁just	-11.32
▁features	-11.322
z	-11.3221
▁facilitat	-11.3246
▁respective	-11.3249
spread	-11.3249
▁added	-11.3274
ve	-11.3283
et	-11.3303
▁collar	-11.3308
▁caterpiller	-11.3309
▁integrity	-11.3309
▁timber	-11.3309
▁luffa	-11.3309
▁mycelium	-11.3309
▁underground	-11.3309
▁spring	-11.331
▁upper	-11.331
▁quantity	-11.3311
▁night	-11.3316
▁load	-11.3322
▁dhan	-11.3323
▁regional	-11.3324
▁hot	-11.3325
-10	-11.3329
▁setting	-11.3333
▁mud	-11.3345
▁processing	-11.3348
▁lines	-11.3348
50	-11.3353
▁harvested	-11.3367
▁perform	-11.34
6.	-11.3424
▁handle	-11.3435
▁laterals	-11.344
hectare	-11.3441
▁quick	-11.3443
▁conduc	-11.3449
v	-11.3451
EC	-11.3454
hose	-11.3459
▁burn	-11.3461
▁extend	-11.3466
=116.4	-11.3501
=117.4	-11.3501
▁extensive	-11.3501
▁sesamum	-11.3501
▁sanitation	-11.3501
▁varities	-11.3501
▁characterize	-11.3503
▁cases	-11.3508
▁cement	-11.351
▁installment	-11.3513
▁Un	-11.3525
▁bearing	-11.3547
holder	-11.3555
▁mt	-11.3578
▁bl	-11.3582
eak	-11.3588
▁st	-11.359
)@	-11.3616
▁suck	-11.3631
tightness	-11.3637
▁drain	-11.364
▁advance	-11.3654
▁holes	-11.3667
▁refer	-11.367
▁modern	-11.3677
▁achieved	-11.3694
▁broad	-11.3697
▁depletion	-11.3697
▁empty	-11.3697
▁eucalyptus	-11.3697
▁difference	-11.3697
▁transmitter	-11.3697
▁preferred	-11.3698
▁bitterness	-11.37
▁agrimycin	-11.3701
▁monocrotophos	-11.3704
▁processes	-11.3705
▁gape	-11.3705
▁1/2	-11.3711
▁professional	-11.3717
▁relationship	-11.372
▁shoots	-11.3729
anoderma	-11.3742
3.	-11.375
▁tillers	-11.3758
▁0	-11.3759
▁termites	-11.3761
ul	-11.3764
▁@10	-11.377
▁monitor	-11.3786
▁Fung	-11.3789
▁animals	-11.3807
▁z	-11.3808
▁break	-11.3819
,30	-11.3826
▁optim	-11.3893
▁implement	-11.3894
albergia	-11.3897
=101.9	-11.3897
=111.3	-11.3897
=114.2	-11.3897
▁passbook	-11.3897
▁veterinarian	-11.3897
▁choice	-11.3897
▁overflow	-11.3898
▁lodging	-11.3898
3-14	-11.3899
▁collection	-11.3899
▁pure	-11.3899
▁university	-11.3899
2011-12	-11.39
▁kcc	-11.3902
▁3-5	-11.3909
▁stick	-11.3921
5.	-11.393
▁batch	-11.3933
ndhu	-11.3939
▁1-2	-11.3941
-40	-11.3982
▁worms	-11.4009
▁dispos	-11.4019
▁programs	-11.4023
unny	-11.4024
▁conventional	-11.4033
ile	-11.4046
▁@5	-11.4071
▁goats	-11.4076
▁3.0	-11.4078
▁avoided	-11.4086
enba	-11.4091
no	-11.4097
▁correspond	-11.4102
▁square	-11.4102
▁201	-11.4105
off	-11.4107
▁mililitre	-11.4107
▁pro	-11.4108
▁mentioned	-11.4111
▁Indian	-11.4111
▁Re	-11.4112
▁dursban	-11.4112
▁ventilated	-11.4113
▁0.2	-11.4122
▁pigeon	-11.4125
▁weevil	-11.4136
▁regulator	-11.4138
▁filled	-11.4138
▁improvement	-11.4144
▁bird	-11.4146
25	-11.4146
were	-11.4149
▁1.2	-11.416
▁achiev	-11.427
▁limit	-11.4277
▁locate	-11.4286
▁involve	-11.4288
▁uses	-11.43
=108.6	-11.431
=115.6	-11.431
=119.4	-11.431
▁Leaf	-11.431
▁context	-11.431
▁guidance	-11.431
▁longevity	-11.431
▁appear	-11.431
▁foster	-11.431
▁employment	-11.431
▁nearby	-11.431
▁susceptib	-11.4311
▁frame	-11.4312
li	-11.4313
12-13	-11.4313
▁ease	-11.4316
▁output	-11.4318
=9.	-11.4319
▁trichoderma	-11.4321
▁longer	-11.4323
▁aim	-11.4329
▁2007	-11.433
▁inorganic	-11.434
▁constructed	-11.4342
▁report	-11.4343
▁Seed	-11.4344
▁climates	-11.4362
▁conduct	-11.4367
12	-11.4372
▁divers	-11.4379
▁precautions	-11.4381
▁side	-11.4384
▁burning	-11.4394
▁changes	-11.4415
▁carefully	-11.4421
▁maximize	-11.4456
intensive	-11.4462
march	-11.4463
day	-11.4467
▁naga	-11.4479
▁construct	-11.449
raditional	-11.449
▁align	-11.4522
▁incidence	-11.4523
▁moderate	-11.4523
▁sulfate	-11.4523
▁Africa	-11.4523
▁nationalise	-11.4523
▁paid	-11.4524
▁dual	-11.4524
▁possible	-11.4524
▁fluton	-11.4525
▁complex	-11.4526
▁durability	-11.4526
▁security	-11.4527
ria	-11.453
▁technical	-11.453
▁soft	-11.4544
▁chicks	-11.4558
▁adjusted	-11.4593
▁infestations	-11.4609
up	-11.4621
▁conserve	-11.4655
▁41	-11.4657
▁reasonably	-11.4659
pressure	-11.468
▁An	-11.471
mong	-11.473
surface	-11.4736
▁scientific	-11.474
=100.1	-11.474
=101.4	-11.474
=101.5	-11.474
=102.6	-11.474
=104.1	-11.474
=104.3	-11.474
=105.3	-11.474
=106.0	-11.474
=106.4	-11.474
=106.5	-11.474
=107.0	-11.474
=108.0	-11.474
=108.2	-11.474
=108.5	-11.474
=110.6	-11.474
=114.6	-11.474
=115.9	-11.474
=117.5	-11.474
▁loofah	-11.474
▁necrosis	-11.474
=117.0	-11.474
▁countries	-11.474
▁intercropping	-11.474
01-0	-11.474
▁foliage	-11.4742
▁stunted	-11.4745
▁6-7	-11.4745
▁diarrhea	-11.475
▁23	-11.4753
▁damaged	-11.4756
ome	-11.4767
▁roles	-11.4769
-3	-11.4773
▁chickens	-11.479
▁separate	-11.4792
▁encourage	-11.4792
▁De	-11.48
▁ploughing	-11.4801
▁mite	-11.481
▁Micro	-11.484
▁46	-11.484
▁surfaces	-11.4862
▁inputs	-11.4892
▁subsequent	-11.4894
▁sprayer	-11.4895
▁fill	-11.4896
▁dissolve	-11.4906
-6	-11.4918
▁determin	-11.4919
ol	-11.4953
ectin	-11.4954
▁2005-06	-11.4962
▁Research	-11.4962
▁emptied	-11.4962
▁facility	-11.4962
▁bottom	-11.4962
▁exposure	-11.4962
▁stop	-11.4962
▁hinder	-11.4962
▁moving	-11.4963
▁2016	-11.4965
▁arise	-11.4966
▁pose	-11.4967
▁greens	-11.4969
▁gently	-11.4971
▁february	-11.4972
▁65	-11.4977
▁intervals	-11.4977
▁pumps	-11.4983
7-9	-11.4994
▁@3	-11.5006
▁combination	-11.5012
00,	-11.5013
▁failure	-11.5015
-17,	-11.503
controlled	-11.5051
▁experience	-11.5064
▁put	-11.5112
▁mono	-11.5115
▁Weed	-11.5116
aero	-11.5129
Thi	-11.513
▁sig	-11.5144
▁anti	-11.5151
▁treatments	-11.5155
ted	-11.5156
▁ft	-11.5159
▁U	-11.517
▁Control	-11.5186
▁vegeta	-11.5189
=103.5	-11.519
=104.5	-11.519
=105.5	-11.519
=105.8	-11.519
=107.5	-11.519
=107.6	-11.519
=110.0	-11.519
=111.7	-11.519
=115.0	-11.519
=115.1	-11.519
=115.5	-11.519
=116.5	-11.519
=116.8	-11.519
=117.3	-11.519
=118.9	-11.519
=119.7	-11.519
▁account	-11.519
▁accumulation	-11.519
▁coffee	-11.519
▁degree	-11.519
▁lifespan	-11.519
▁studies	-11.519
▁coriander	-11.519
=116.0	-11.519
▁sheath	-11.519
=111.0	-11.519
▁resilience	-11.519
▁attain	-11.519
▁average	-11.519
▁Early	-11.519
=5.0	-11.519
▁splitting	-11.519
▁programme	-11.5192
▁north	-11.5192
▁1999	-11.5194
▁beneficiary	-11.5194
▁desired	-11.5198
▁blue	-11.5214
▁khol	-11.5221
▁1500	-11.5237
▁egg	-11.5247
▁outlet	-11.525
▁bag	-11.5252
▁plot	-11.5252
pl	-11.5258
▁grains	-11.5273
water	-11.5308
▁agro	-11.5313
▁user	-11.5347
▁immediate	-11.5359
proof	-11.5361
blitox	-11.5362
▁mites	-11.537
▁reach	-11.5371
▁dalbergia	-11.5417
ertigation	-11.5422
▁piping	-11.5422
▁livestock	-11.5422
▁puddling	-11.5422
▁medicinal	-11.5423
▁getting	-11.5423
▁circular	-11.5423
▁contribution	-11.5423
▁reduction	-11.5423
▁scum	-11.5423
▁mahafal	-11.5425
▁vigorous	-11.5425
▁divide	-11.5425
▁mouth	-11.543
▁dig	-11.5458
▁alkali	-11.5475
▁july	-11.5476
▁tissue	-11.5484
09,	-11.5488
▁adjustments	-11.5502
▁sc	-11.5531
▁spreading	-11.5539
-15	-11.5539
7,	-11.5541
▁dosages	-11.5549
▁splits	-11.5561
-8	-11.5572
age	-11.5594
biovita	-11.5599
multiplex	-11.56
-100	-11.5612
-5	-11.5615
▁hard	-11.5619
▁offering	-11.5621
▁pan	-11.5623
lix	-11.5634
▁irrigat	-11.5637
▁loose	-11.5659
elangana	-11.5659
=100.8	-11.566
=102.7	-11.566
=102.8	-11.566
=105.1	-11.566
=105.2	-11.566
=106.8	-11.566
=109.6	-11.566
=112.4	-11.566
=112.8	-11.566
=117.6	-11.566
=118.8	-11.566
runachal	-11.566
▁contrast	-11.566
▁solani	-11.566
▁industry	-11.566
▁imidacloprid	-11.566
▁fail	-11.566
▁broccoli	-11.566
▁carry	-11.566
▁moong	-11.566
▁masonry	-11.566
▁permanganate	-11.5661
▁gandhi	-11.5661
iscuss	-11.5661
▁sheet	-11.5661
▁sap	-11.5663
▁jyoti	-11.5664
▁br	-11.5665
▁20-30	-11.5667
oshan	-11.5669
▁khanapara	-11.567
▁intake	-11.5676
▁liver	-11.5681
▁meal	-11.5683
▁inspections	-11.5702
id	-11.5704
ce	-11.5704
200	-11.5704
▁gund	-11.5716
▁marigold	-11.5725
utrient	-11.5731
▁toria	-11.5745
8-	-11.5749
▁gardening	-11.5751
▁collected	-11.577
▁pumping	-11.578
▁sept	-11.578
not	-11.5787
▁soaking	-11.581
j	-11.5839
back	-11.5847
2-3	-11.5873
il	-11.5877
rganic	-11.5903
▁bunch	-11.5903
▁absorption	-11.5904
▁film	-11.5904
▁consequence	-11.5904
▁greenhouse	-11.5904
▁amista	-11.5905
eliable	-11.5906
▁diet	-11.5907
▁occurs	-11.5908
▁checked	-11.5909
▁Tracel	-11.591
▁thiram	-11.5912
▁streptocycline	-11.5914
▁insufficient	-11.5917
▁remain	-11.5921
▁guwahati	-11.5923
▁jorhat	-11.5924
▁arize	-11.5933
▁streptomycine	-11.5934
▁350	-11.5942
▁returns	-11.5945
▁insecticides	-11.5956
▁ca	-11.5962
▁130	-11.5969
▁date	-11.5974
▁piece	-11.5979
▁mechanism	-11.598
▁center	-11.5981
▁lateral	-11.5986
▁step	-11.5988
▁tonne	-11.599
sible	-11.5996
▁structures	-11.6004
ra	-11.6009
▁designs	-11.6019
▁pra	-11.6025
▁input	-11.6043
01,	-11.6055
▁ammonium	-11.608
▁premature	-11.6083
▁external	-11.6083
▁prune	-11.6084
▁plots	-11.6088
▁monthly	-11.6095
▁incorporat	-11.6107
▁regulators	-11.611
na	-11.6118
▁disrupt	-11.612
▁agri	-11.6121
▁questions	-11.6124
▁settings	-11.6128
▁Effective	-11.6136
▁W	-11.6146
=102.2	-11.6154
=102.5	-11.6154
=103.9	-11.6154
=104.6	-11.6154
=104.9	-11.6154
=106.2	-11.6154
=106.7	-11.6154
=107.7	-11.6154
=108.7	-11.6154
=110.3	-11.6154
=112.1	-11.6154
=114.9	-11.6154
=116.2	-11.6154
=116.9	-11.6154
=117.2	-11.6154
=118.1	-11.6154
=118.4	-11.6154
=118.6	-11.6154
=118.7	-11.6154
dimecron	-11.6154
▁purchase	-11.6154
▁Urea	-11.6154
▁bordeux	-11.6154
▁chlorothalonil	-11.6154
▁lost	-11.6154
▁machinery	-11.6154
▁Apple	-11.6155
▁photosynthesis	-11.6157
@10	-11.6159
▁weak	-11.6159
▁methyl	-11.6159
▁suitability	-11.6159
▁phone	-11.616
potting	-11.616
▁lt	-11.6161
▁discovered	-11.6173
▁ripe	-11.6182
3,	-11.6188
▁Ant	-11.6191
▁hexaconazole	-11.6198
▁oct	-11.6208
▁0.3	-11.6214
▁Increase	-11.622
tion	-11.623
▁situation	-11.6235
▁considerations	-11.6249
ut	-11.626
▁solids	-11.628
▁produced	-11.6347
-30	-11.6364
▁improvements	-11.6365
@1	-11.6367
▁becom	-11.6401
enerally	-11.6408
▁colour	-11.641
▁biomass	-11.641
▁bodies	-11.641
▁percentage	-11.6411
▁polythene	-11.6411
of	-11.6415
2-0	-11.6415
▁numbers	-11.6416
▁horticultur	-11.6419
om	-11.6426
▁heavi	-11.6438
=19.	-11.6442
▁ton	-11.6447
ory	-11.6458
▁ra	-11.646
04-0	-11.6462
▁flooding	-11.648
▁hills	-11.649
▁routine	-11.6495
ice	-11.6496
▁weedicide	-11.6499
▁operator	-11.6502
▁element	-11.6505
seed	-11.6514
▁pits	-11.6518
▁1000	-11.6521
▁u	-11.6526
one	-11.6534
less	-11.6537
▁services	-11.6542
▁pod	-11.6546
▁functioning	-11.6573
▁fruitfl	-11.6622
sowing	-11.6631
▁bees	-11.6639
▁100.0	-11.6644
pit	-11.6651
▁jack	-11.6674
=100.4	-11.6674
=101.3	-11.6674
=103.6	-11.6674
=103.8	-11.6674
=104.4	-11.6674
=104.7	-11.6674
=109.4	-11.6674
=110.4	-11.6674
=110.9	-11.6674
=111.6	-11.6674
=111.8	-11.6674
=112.7	-11.6674
=114.1	-11.6674
=114.3	-11.6674
=114.7	-11.6674
=117.9	-11.6674
=118.5	-11.6674
=119.0	-11.6674
▁discoloration	-11.6674
▁tripura	-11.6674
▁opportunities	-11.6674
▁centre	-11.6674
▁functionality	-11.6674
▁flat	-11.6674
▁diversity	-11.6674
laya	-11.6674
▁bottlegourd	-11.6675
▁august	-11.6678
▁eligible	-11.6678
▁four	-11.6678
▁surrounding	-11.6679
▁2009	-11.6682
▁There	-11.6691
-78	-11.6692
mid	-11.6692
=18.	-11.6696
▁Bed	-11.6707
▁prepar	-11.6727
▁nagar	-11.6733
▁2.8	-11.6734
▁reason	-11.6749
▁observed	-11.675
▁direction	-11.676
▁compound	-11.6773
▁moved	-11.6782
▁bo	-11.6798
▁greate	-11.6801
▁grapes	-11.6802
▁enabl	-11.6806
▁tubers	-11.6807
▁1-	-11.6808
▁installations	-11.683
21	-11.684
▁frequently	-11.686
▁concentrations	-11.6865
▁raise	-11.6885
▁procedures	-11.6902
▁install	-11.6911
H	-11.6912
-10,	-11.6937
▁125	-11.6939
our	-11.6939
▁consist	-11.6944
▁female	-11.6944
▁differ	-11.6944
domil	-11.6944
▁gypsum	-11.6945
▁vet	-11.6945
▁college	-11.6946
▁actual	-11.6947
▁community	-11.6948
▁sinc	-11.6953
10-11	-11.6955
▁cold	-11.6955
▁glass	-11.6958
ram	-11.6961
▁nozzle	-11.6979
▁machines	-11.6982
7.	-11.6987
▁poly	-11.6991
▁described	-11.7018
▁forte	-11.702
▁trap	-11.7043
▁seedbed	-11.7043
▁program	-11.705
4.	-11.7085
▁plough	-11.7117
A	-11.7119
▁Can	-11.7157
▁observe	-11.7161
guide	-11.7161
▁systemic	-11.7185
ri	-11.7195
In	-11.721
▁tetracyclin	-11.7219
▁0.	-11.7219
▁pseudostem	-11.7222
=100.2	-11.7222
=100.3	-11.7222
=100.6	-11.7222
=101.2	-11.7222
=103.4	-11.7222
=104.0	-11.7222
=105.6	-11.7222
=107.2	-11.7222
=107.8	-11.7222
=107.9	-11.7222
=108.4	-11.7222
=109.3	-11.7222
=109.9	-11.7222
=110.5	-11.7222
=112.2	-11.7222
=114.4	-11.7222
=116.3	-11.7222
=117.1	-11.7222
=119.2	-11.7222
=119.3	-11.7222
=119.6	-11.7222
ashmir	-11.7222
▁profitability	-11.7222
▁honey	-11.7222
▁nuvacron	-11.7222
▁relative	-11.7222
▁difficult	-11.7222
=113.0	-11.7222
▁labour	-11.7222
▁circulation	-11.7222
▁groundwater	-11.7222
▁shedding	-11.7222
▁canopy	-11.7223
▁das	-11.7223
▁pathogenic	-11.7225
▁sulphur	-11.7226
▁bush	-11.7227
▁artificial	-11.7229
▁syngenta	-11.7231
▁tailored	-11.7232
▁hydrogen	-11.7235
▁2000-	-11.7235
▁Rogor	-11.7235
▁var	-11.7242
▁8-10	-11.7246
▁building	-11.7256
▁q	-11.7256
revention	-11.7265
▁dimethoate	-11.7273
▁dipping	-11.7275
▁completely	-11.7275
-25	-11.7276
▁cracks	-11.7279
▁mealy	-11.7284
ncil	-11.7284
40	-11.7318
▁chickpea	-11.7322
▁floor	-11.7331
▁orchard	-11.7336
▁document	-11.7336
▁suckers	-11.7354
▁vines	-11.7359
▁successfully	-11.7364
▁cankers	-11.7373
2003	-11.7378
▁700	-11.7404
▁selected	-11.7407
cum	-11.7424
▁bloom	-11.7426
▁hi	-11.7432
▁don	-11.7436
▁alternative	-11.7443
▁decrease	-11.7443
november	-11.7447
indofil	-11.7448
rogor	-11.7449
▁bor	-11.7491
▁designed	-11.7494
▁j	-11.7503
▁biodiversity	-11.7507
▁deficiencies	-11.7507
▁mukta	-11.7507
▁invasion	-11.7507
▁trouble	-11.7507
▁jamm	-11.7508
▁respirat	-11.7508
▁bevistin	-11.7508
▁Feed	-11.7511
▁intra	-11.7511
▁coconuts	-11.7512
▁horticulture	-11.7513
▁1/3	-11.7516
14-15	-11.7518
▁scar	-11.7531
▁bu	-11.7565
▁bar	-11.7572
▁0.4	-11.7575
17	-11.7577
▁appropriately	-11.7582
ey	-11.7583
te	-11.7587
▁periods	-11.7594
▁six	-11.76
ara	-11.7602
▁0.6	-11.7614
▁vector	-11.7623
▁installation	-11.7629
▁cucumbers	-11.7653
▁ponds	-11.7691
▁enriche	-11.7696
set	-11.7708
▁id	-11.772
▁uproot	-11.7725
bavistin	-11.7741
▁eliminat	-11.7754
-72	-11.7757
▁interest	-11.7768
owdery	-11.7778
base	-11.7784
ffic	-11.7788
▁choos	-11.7797
▁vigor	-11.7801
▁agents	-11.7801
▁humid	-11.7801
=102.0	-11.7802
=102.1	-11.7802
=102.3	-11.7802
=102.9	-11.7802
=103.1	-11.7802
=103.2	-11.7802
=105.0	-11.7802
=105.4	-11.7802
=106.6	-11.7802
=106.9	-11.7802
=109.7	-11.7802
=110.1	-11.7802
=111.1	-11.7802
=113.4	-11.7802
=114.0	-11.7802
=115.8	-11.7802
=118.2	-11.7802
=118.3	-11.7802
▁deltoides	-11.7802
▁tridemorph	-11.7802
▁basis	-11.7802
▁liming	-11.7802
▁planning	-11.7802
▁salinity	-11.7802
▁whiteflies	-11.7802
▁Prune	-11.7802
▁rubber	-11.7802
▁Mix	-11.7802
▁Stem	-11.7802
▁survival	-11.7802
▁deka	-11.7802
▁udder	-11.7802
▁farmland	-11.7804
▁million	-11.7805
▁preferably	-11.7806
▁nagaon	-11.7807
▁expected	-11.7817
▁fas	-11.7817
-52	-11.7824
▁tropical	-11.7825
▁attachments	-11.7825
▁wett	-11.7834
▁forests	-11.7854
▁slowly	-11.7854
▁0.2%	-11.7865
hrough	-11.7883
war	-11.7884
▁w	-11.7891
▁target	-11.7891
▁saplings	-11.7898
if	-11.7909
▁conserv	-11.7918
▁option	-11.793
▁leakage	-11.7931
planting	-11.7936
▁disadvantages	-11.794
▁soybean	-11.7943
▁cows	-11.7954
26	-11.7959
8.	-11.7959
35	-11.7975
la	-11.7979
▁reasons	-11.7988
▁attacks	-11.8001
▁induce	-11.8015
▁face	-11.8019
▁manually	-11.8022
▁eat	-11.8029
▁boo	-11.8033
▁pour	-11.8038
▁negative	-11.8044
even	-11.8045
after	-11.8048
▁alwa	-11.8056
ty	-11.8065
▁compact	-11.8068
per	-11.8085
▁1200	-11.8086
▁atmospher	-11.8092
▁measur	-11.8093
▁ro	-11.8094
▁initially	-11.8096
▁tractors	-11.8101
▁restrict	-11.8104
▁Agriculture	-11.8105
▁solarisation	-11.8105
▁visual	-11.8105
▁Saaf	-11.8105
▁unique	-11.8105
▁harmful	-11.8105
▁integration	-11.8105
▁centi	-11.8105
▁decline	-11.8105
▁ridgegourd	-11.8105
▁assist	-11.8105
▁decreasing	-11.8106
▁saline	-11.8107
▁hairy	-11.8109
▁ganoderma	-11.8109
▁quintle	-11.8109
▁slight	-11.8111
▁particles	-11.8119
▁feb	-11.8119
▁find	-11.812
TE	-11.812
▁spe	-11.8124
▁suited	-11.8125
line	-11.8126
▁tasks	-11.8129
▁inform	-11.8142
▁gur	-11.8144
ting	-11.8145
▁producing	-11.8148
▁delivery	-11.8151
oct	-11.8175
▁valves	-11.8183
▁pressures	-11.8186
▁rounded	-11.8196
▁loans	-11.8214
shaped	-11.8215
▁v	-11.822
27	-11.8226
▁inside	-11.8228
▁fingerling	-11.8239
▁location	-11.824
▁Integrate	-11.8282
▁leveled	-11.8288
▁@50	-11.8288
▁20%	-11.8311
▁continuously	-11.833
▁pull	-11.8331
▁acres	-11.8342
half	-11.8357
tree	-11.8359
▁fac	-11.8361
▁hectares	-11.8363
▁treating	-11.8373
▁necessitat	-11.8376
▁castrat	-11.8383
▁list	-11.8384
▁mo	-11.8389
▁firm	-11.8416
=108.8	-11.8417
=109.5	-11.8417
=110.8	-11.8417
=112.6	-11.8417
=114.8	-11.8417
=115.2	-11.8417
=115.3	-11.8417
=115.4	-11.8417
=116.7	-11.8417
=117.8	-11.8417
=119.1	-11.8417
=119.5	-11.8417
=119.9	-11.8417
▁Fruit	-11.8417
▁combat	-11.8417
▁penetration	-11.8417
▁substantial	-11.8417
▁Eggplant	-11.8417
▁blood	-11.8417
▁Environmental	-11.8417
▁composition	-11.8417
▁faster	-11.8417
▁gummosis	-11.8417
▁potion	-11.8417
▁yellowish	-11.8418
▁molases	-11.8418
▁seen	-11.8419
▁bittergourd	-11.8419
▁industries	-11.842
▁colocasia	-11.842
▁cloth	-11.8421
▁tafgor	-11.8422
▁self	-11.8424
▁uttara	-11.8425
▁shoulders	-11.8425
▁december	-11.8426
▁automation	-11.8429
▁gardens	-11.843
▁apart	-11.8431
op	-11.8432
lary	-11.8434
▁smaller	-11.8439
▁butt	-11.8444
▁thir	-11.8444
80	-11.8448
▁amendments	-11.8453
▁ni	-11.8454
▁cum	-11.8455
▁units	-11.8467
▁implemented	-11.8468
B	-11.8469
▁survive	-11.8472
▁adversely	-11.8475
▁developed	-11.8487
▁drops	-11.8491
▁inlet	-11.8493
min	-11.8508
▁pigs	-11.851
▁tightness	-11.8516
▁experts	-11.8517
▁skills	-11.852
▁procure	-11.8535
▁human	-11.8555
▁spider	-11.8557
9.0	-11.856
▁feature	-11.8569
▁residue	-11.8573
▁maintained	-11.8579
nutrient	-11.8583
▁Alterna	-11.8607
▁containers	-11.8631
▁correctly	-11.8633
▁digesters	-11.8643
▁desi	-11.8664
affected	-11.8679
wheat	-11.868
▁substrates	-11.8685
usa	-11.8697
AS	-11.8699
▁learn	-11.8703
hisham	-11.8739
▁benzoate	-11.874
▁spawn	-11.874
▁suppliment	-11.874
▁taste	-11.874
▁flavor	-11.874
▁cifax	-11.874
▁diagnosis	-11.874
▁similar	-11.874
▁recommanded	-11.8741
▁anamika	-11.8741
▁weaken	-11.8742
▁bulk	-11.8743
▁corrosion	-11.8743
▁serve	-11.8743
▁quinalphos	-11.8745
▁viable	-11.8745
cel	-11.8748
▁30-40	-11.8749
▁nos	-11.8756
▁FIRB	-11.8757
7.0	-11.876
▁fishes	-11.8762
▁0.1%	-11.8771
inal	-11.8776
▁sustain	-11.8778
ll	-11.8784
▁inefficient	-11.8792
▁distributed	-11.8792
▁current	-11.8793
▁mains	-11.88
▁destroyed	-11.8818
▁established	-11.8831
▁recommendations	-11.8835
▁intensive	-11.8846
rich	-11.8846
▁Weeding	-11.8851
▁enquire	-11.886
▁heating	-11.8884
▁safely	-11.8888
▁group	-11.8898
▁Timel	-11.8902
▁prefer	-11.891
ble	-11.8916
▁mi	-11.8917
F	-11.892
▁complete	-11.8939
ta	-11.894
▁traps	-11.8945
▁0.8	-11.8983
▁eggs	-11.8986
▁hydra	-11.8986
ium	-11.8988
-22	-11.9004
dimethoate	-11.9012
batch	-11.9013
acre	-11.9013
captaf	-11.9013
streptomycin	-11.9013
▁others	-11.9023
drive	-11.9034
▁la	-11.9042
▁electric	-11.9066
ultural	-11.9069
▁specifi	-11.9071
▁thick	-11.9072
▁oxy	-11.9073
▁involv	-11.9073
▁nagamruta	-11.9073
=100.9	-11.9073
=103.3	-11.9073
=104.2	-11.9073
=105.7	-11.9073
=108.9	-11.9073
=109.0	-11.9073
=109.1	-11.9073
=110.2	-11.9073
=111.4	-11.9073
=111.9	-11.9073
=112.3	-11.9073
=113.5	-11.9073
▁science	-11.9073
▁andaman	-11.9073
▁prior	-11.9073
▁homogeneous	-11.9073
▁viridi	-11.9073
▁fever	-11.9073
▁suction	-11.9074
▁male	-11.9076
▁tiny	-11.9076
▁mobile	-11.9077
▁magnesium	-11.9078
▁Remember	-11.9078
▁kahikuchi	-11.908
33	-11.9081
▁litter	-11.9084
▁bipul	-11.9087
▁rocket	-11.9087
▁fittings	-11.9094
▁pe	-11.9099
-1,	-11.9103
▁growers	-11.9107
bima	-11.9122
▁identified	-11.913
▁performed	-11.9131
▁utilized	-11.914
▁means	-11.9146
▁850	-11.915
▁shed	-11.9161
▁suppress	-11.9162
▁ducks	-11.9187
▁min	-11.9195
▁borne	-11.9213
▁Improve	-11.9218
▁37	-11.9222
▁maggot	-11.9235
▁breeds	-11.9239
I	-11.924
23	-11.9243
▁solid	-11.9245
▁mulching	-11.9267
▁nov	-11.9272
-14	-11.9286
▁operators	-11.9298
▁dependenc	-11.9327
▁term	-11.9333
D	-11.9334
reen	-11.9338
▁adverse	-11.9354
friendly	-11.9356
hexaconazole	-11.9357
▁later	-11.9364
late	-11.9376
▁assess	-11.9378
▁absorb	-11.9385
▁submit	-11.9386
▁residu	-11.9412
▁Tomato	-11.9417
▁Chin	-11.9417
▁popular	-11.9418
▁Evaluat	-11.9418
▁communities	-11.9418
▁convenient	-11.9418
▁intercropped	-11.9418
▁minimum	-11.9418
▁molasses	-11.9418
▁ustad	-11.9418
▁degradation	-11.9418
▁sawani	-11.9418
▁instance	-11.9418
▁alter	-11.9418
▁Pruning	-11.9419
▁placement	-11.942
▁topography	-11.942
▁Potassium	-11.9421
▁syrup	-11.9421
▁borux	-11.9421
flox	-11.9421
▁kamrup	-11.9422
▁central	-11.9423
▁mold	-11.9429
▁tablets	-11.9431
▁trifos	-11.9432
▁automated	-11.9432
▁drippers	-11.9439
ers	-11.9443
urad	-11.9458
▁hemispheric	-11.9459
reventive	-11.9462
▁necessitate	-11.9463
▁sulfur	-11.9464
biotic	-11.9497
lo	-11.9498
▁introduced	-11.9502
king	-11.9505
▁metals	-11.9507
▁rodents	-11.9507
9.	-11.9513
ari	-11.9526
▁standards	-11.9526
▁melons	-11.9542
▁enrich	-11.9543
SE	-11.9556
▁jacket	-11.956
▁@2.5	-11.9583
▁enable	-11.9597
▁katha	-11.9599
▁sequence	-11.9599
▁filter	-11.96
▁ecosystem	-11.9601
▁pattern	-11.9601
-9	-11.9602
▁grape	-11.9603
▁challenge	-11.9604
▁mar	-11.9615
▁leakages	-11.9619
▁sep	-11.9622
▁bugs	-11.9647
▁jan	-11.9672
=17.	-11.9674
arka	-11.9683
▁cross	-11.9694
▁broadcast	-11.9695
▁determined	-11.9695
▁resolve	-11.9703
-18	-11.9703
▁slow	-11.9711
ESP	-11.9712
identified	-11.9714
▁compromise	-11.9715
▁deliver	-11.9721
▁hybrids	-11.9729
75	-11.973
▁extra	-11.9737
24	-11.9752
TR	-11.9764
▁chillie	-11.9768
▁manipu	-11.9771
▁Develop	-11.9774
ifferent	-11.9775
▁cool	-11.9775
▁resist	-11.9775
=100.7	-11.9775
=101.8	-11.9775
=106.3	-11.9775
=109.8	-11.9775
=110.7	-11.9775
=111.2	-11.9775
=112.5	-11.9775
=113.2	-11.9775
=113.7	-11.9775
=116.1	-11.9775
=121.8	-11.9775
=127.6	-11.9775
▁escape	-11.9775
▁fodder	-11.9775
▁fumigation	-11.9775
▁ladybugs	-11.9775
▁mascularly	-11.9775
▁sesame	-11.9775
▁enrox	-11.9775
▁vessel	-11.9775
▁positive	-11.9775
▁middle	-11.9775
▁chin	-11.9775
▁numerous	-11.9775
▁tilth	-11.9775
▁master	-11.9775
▁preservation	-11.9775
▁viability	-11.9775
▁Poor	-11.9775
▁dolichos	-11.9775
▁calf	-11.9776
achal	-11.9777
▁locality	-11.9778
▁nuvan	-11.9778
▁flora	-11.9778
▁lakhimpur	-11.9779
ft	-11.9779
▁dibrugarh	-11.9781
▁microorganisms	-11.9785
uri	-11.9797
▁saturate	-11.98
▁spores	-11.9804
▁pana	-11.9819
▁compromis	-11.9835
▁extended	-11.9837
▁vety	-11.9847
ood	-11.9861
▁substances	-11.9861
90	-11.9864
▁portions	-11.9866
▁proof	-11.987
▁capital	-11.9879
▁farms	-11.9886
▁67	-11.9892
▁Rais	-11.9917
▁47	-11.9921
fuse	-11.9925
44	-11.9929
ltr	-11.9956
▁Y	-11.9956
▁disadvantage	-11.9972
▁sucker	-11.9974
▁tip	-11.998
▁succin	-11.9992
harvest	-12.0001
5.0	-12.0016
The	-12.0027
▁Prevent	-12.0037
▁dec	-12.0039
#	-12.0082
▁180	-12.0083
treatment	-12.0085
▁rational	-12.0085
ure	-12.0098
UC	-12.0103
▁mu	-12.0105
▁5.0	-12.0107
july	-12.011
▁incorporate	-12.012
em	-12.0125
▁giv	-12.0138
▁po	-12.0139
ctober	-12.0144
▁exhibit	-12.0145
▁distinct	-12.0145
▁displace	-12.0145
▁intensity	-12.0145
▁oxysporum	-12.0145
▁spinach	-12.0145
▁stumps	-12.0145
▁south	-12.0145
▁women	-12.0145
▁ranchi	-12.0145
▁classification	-12.0145
▁future	-12.0145
▁susceptibility	-12.0145
▁carbofuran	-12.0145
▁rotating	-12.0145
▁knife	-12.0145
▁solar	-12.0145
▁storing	-12.0145
▁cercospora	-12.0145
▁horizontal	-12.0145
▁insulation	-12.0146
▁30-35	-12.0146
▁displacement	-12.0146
▁stimulate	-12.0146
▁meat	-12.0147
ternal	-12.0147
▁nature	-12.0147
▁sulcoprim	-12.0151
▁vipul	-12.0151
▁cylindrical	-12.0151
▁extract	-12.0151
▁lady	-12.0152
▁25-30	-12.0153
▁cypermethrin	-12.0156
▁grading	-12.0157
anta	-12.016
1.0	-12.0163
@4	-12.0166
inch	-12.0166
▁sell	-12.0172
▁pride	-12.018
▁intercultur	-12.0181
▁hoppers	-12.0187
▁influenc	-12.0194
▁jo	-12.0198
▁saw	-12.0203
▁picking	-12.0206
dian	-12.0215
▁buy	-12.0215
32	-12.0217
▁topdressing	-12.0221
he	-12.0223
▁spaced	-12.0224
▁negatively	-12.0224
▁weeder	-12.0224
▁home	-12.0226
▁compensat	-12.0238
▁Be	-12.0244
04	-12.025
▁fires	-12.0259
▁incorporated	-12.0261
▁maximiz	-12.0263
▁culms	-12.0282
▁yrs	-12.0299
ph	-12.0309
▁CA	-12.0317
side	-12.0343
▁antibiotic	-12.0356
tur	-12.037
dium	-12.0382
1.	-12.0404
dap	-12.0415
▁seal	-12.0419
▁via	-12.042
ak	-12.0433
-1.5	-12.0436
▁topdress	-12.0452
mona	-12.0454
/4	-12.0456
▁70%	-12.0463
FYM	-12.0468
▁alternate	-12.0469
value	-12.047
▁introduce	-12.0473
ery	-12.049
▁cultivat	-12.0494
▁Implement	-12.0498
▁Time	-12.0513
▁bi	-12.0514
▁aqua	-12.0517
▁palms	-12.0518
▁Bavistin	-12.0525
mm	-12.0526
▁manifest	-12.0529
=103.7	-12.053
=106.1	-12.053
=108.3	-12.053
=112.0	-12.053
=112.9	-12.053
=113.8	-12.053
=114.5	-12.053
=120.3	-12.053
=121.2	-12.053
=124.7	-12.053
=128.9	-12.053
=133.9	-12.053
▁Planofix	-12.053
▁coordinator	-12.053
▁provision	-12.053
▁sector	-12.053
▁neck	-12.053
▁lychee	-12.053
▁niger	-12.053
▁pollution	-12.053
=120.0	-12.053
▁specifications	-12.053
▁steady	-12.053
▁propagation	-12.053
▁define	-12.053
▁vein	-12.053
▁Sandal	-12.053
▁Tricel	-12.0531
▁rainwater	-12.0533
▁2.75	-12.0533
▁practical	-12.0533
▁helpful	-12.0533
▁vascular	-12.0534
▁stresses	-12.0535
▁toxic	-12.0536
▁ibd	-12.0536
▁nath	-12.0538
▁beam	-12.0538
▁1-1.5	-12.0539
▁enhancement	-12.054
▁fermentation	-12.0542
▁agrimin	-12.0543
adine	-12.0545
▁poisoning	-12.0547
▁tower	-12.0548
▁48	-12.0556
ational	-12.0562
known	-12.0571
▁Indofil	-12.0572
70	-12.0574
▁rat	-12.0584
▁layers	-12.0585
▁parasites	-12.0623
▁started	-12.0639
▁bring	-12.0654
▁10.0	-12.066
▁No	-12.0674
▁2000	-12.0681
oom	-12.0686
▁formed	-12.0702
16	-12.0722
▁ferro	-12.0731
▁He	-12.0753
▁section	-12.0754
▁bee	-12.0762
70.0	-12.0772
▁sizes	-12.078
▁action	-12.0786
iological	-12.0788
eka	-12.0808
37	-12.0824
▁considering	-12.0831
▁weekly	-12.0834
▁infect	-12.0839
▁3000	-12.084
▁poorly	-12.0857
▁75%	-12.0858
ated	-12.0859
bred	-12.086
aerated	-12.086
▁weevils	-12.0861
(2	-12.0867
air	-12.0869
more	-12.0871
ready	-12.0877
▁did	-12.0881
▁Fertilize	-12.0882
amycin	-12.0895
,000	-12.0898
36	-12.0904
▁cal	-12.0923
▁dept	-12.0928
movable	-12.093
▁crystal	-12.093
▁institute	-12.093
▁masoor	-12.093
▁pregnan	-12.093
▁severity	-12.093
▁versatility	-12.093
▁withstand	-12.093
▁strategic	-12.093
▁exist	-12.093
▁lucidum	-12.093
▁reinforc	-12.093
▁analysis	-12.093
▁expansion	-12.093
▁injuries	-12.093
antho	-12.093
▁arhar	-12.093
pproval	-12.093
▁pkt	-12.093
▁compaction	-12.0931
▁First	-12.0931
▁Pepper	-12.0931
▁statement	-12.0931
▁phytophth	-12.0932
▁Rose	-12.0933
▁emulsion	-12.0934
▁taro	-12.0935
▁dipp	-12.0936
ntri	-12.0937
▁ions	-12.0939
infest	-12.094
▁sandal	-12.0943
▁ambiplex	-12.0944
▁rupees	-12.0945
▁suspect	-12.0947
▁ostocalcium	-12.0951
▁elevated	-12.0955
▁instead	-12.0958
▁moths	-12.0968
▁bear	-12.0969
ali	-12.097
▁emitt	-12.0971
4,	-12.0972
▁com	-12.0977
draw	-12.0984
80.0	-12.0984
▁shifting	-12.0989
ification	-12.0999
▁hazards	-12.1005
500	-12.1027
▁wetting	-12.1028
19	-12.1034
minor	-12.104
▁thr	-12.1058
▁rapidly	-12.1087
▁Con	-12.1092
ors	-12.11
▁antibiotics	-12.1116
▁rd	-12.1119
hoot	-12.1134
▁con	-12.1143
aid	-12.116
▁lentil	-12.1162
▁proportion	-12.1167
▁pa	-12.1168
▁roller	-12.117
▁intervention	-12.117
▁fertilized	-12.1172
▁gall	-12.1175
ior	-12.119
18	-12.12
▁centers	-12.1216
ather	-12.1261
nalyze	-12.1278
750	-12.128
hind	-12.1283
effectiveness	-12.1287
sagorika	-12.1289
▁facilitated	-12.1292
3.0	-12.131
▁genetic	-12.1328
28	-12.133
1.5	-12.133
-150	-12.1331
▁fix	-12.1334
▁fe	-12.1339
▁550	-12.1342
hytophth	-12.1345
▁dew	-12.1346
▁Fixed	-12.1347
=102.4	-12.1347
=104.8	-12.1347
=107.3	-12.1347
=107.4	-12.1347
=108.1	-12.1347
=122.9	-12.1347
=133.6	-12.1347
=133.8	-12.1347
=135.1	-12.1347
=142.1	-12.1347
=143.1	-12.1347
=143.4	-12.1347
=147.7	-12.1347
=149.6	-12.1347
▁Furrow	-12.1347
▁Identify	-12.1347
▁challenging	-12.1347
▁cream	-12.1347
▁phytoplasma	-12.1347
▁strip	-12.1347
▁family	-12.1347
▁Depend	-12.1347
▁flame	-12.1347
▁stubble	-12.1347
▁caterpilar	-12.1347
▁deterioration	-12.1347
▁jackfruit	-12.1347
▁dioxide	-12.1347
▁frost	-12.1347
▁lettuce	-12.1347
▁defoliation	-12.1347
▁sugget	-12.1347
▁gasket	-12.1347
▁midge	-12.1348
▁droop	-12.1348
▁dk	-12.1349
anate	-12.1349
▁seek	-12.1349
▁NPK	-12.135
▁pile	-12.135
▁Economic	-12.1351
▁gravity	-12.1353
parasitic	-12.1353
▁fallen	-12.1355
▁japanese	-12.1356
▁avil	-12.1357
▁forming	-12.1357
▁carboxin	-12.1358
68	-12.136
mizo	-12.1361
▁enquiry	-12.1365
▁275	-12.1366
▁active	-12.137
▁band	-12.137
▁though	-12.1378
▁(10%	-12.1379
▁Carr	-12.1379
ustification	-12.1383
housing	-12.1388
▁toward	-12.1388
▁speed	-12.139
14	-12.1393
▁tre	-12.1398
▁installed	-12.1399
▁friendly	-12.1426
meter	-12.1438
ization	-12.1449
ac	-12.1454
▁reache	-12.1454
IC	-12.1459
▁cutworms	-12.1478
▁barriers	-12.1493
▁yr	-12.1498
▁blades	-12.1516
so	-12.1522
▁galls	-12.1524
▁advis	-12.1526
▁34	-12.1527
▁compar	-12.1556
velling	-12.1562
io	-12.1592
▁adaptation	-12.1593
▁piglet	-12.1598
▁scraper	-12.1599
▁person	-12.16
▁phase	-12.1602
▁habitat	-12.1606
▁blade	-12.1607
producing	-12.1613
▁nozzles	-12.1617
▁net	-12.1618
size	-12.1629
▁buds	-12.1635
▁naturally	-12.164
time	-12.1643
▁mechanisms	-12.1646
▁rains	-12.1647
ied	-12.1658
▁sw	-12.1683
khol	-12.1698
▁sides	-12.1699
▁preserve	-12.1714
with	-12.1721
▁utilize	-12.1725
▁discover	-12.1749
sucking	-12.1751
▁ulcer	-12.1757
ap	-12.1766
-2.5	-12.1774
assava	-12.178
▁Spread	-12.1781
▁algae	-12.1781
▁appetite	-12.1781
▁transpiration	-12.1781
▁vapor	-12.1781
▁chandramukhi	-12.1781
▁corm	-12.1781
▁education	-12.1781
▁scab	-12.1781
▁shelter	-12.1781
▁miligram	-12.1781
▁chance	-12.1781
▁diversification	-12.1781
▁infrastructure	-12.1782
▁Sever	-12.1782
▁implementation	-12.1782
▁gardeners	-12.1782
▁room	-12.1783
▁anistamin	-12.1783
▁seven	-12.1783
▁findings	-12.1783
ond	-12.1786
▁urban	-12.1788
▁looper	-12.1789
▁viruses	-12.1789
▁call	-12.179
▁trade	-12.1791
▁riser	-12.1807
▁discharge	-12.1808
cent	-12.1814
▁outbreaks	-12.1817
▁demonstrate	-12.1818
▁twigs	-12.1819
22	-12.182
▁adequately	-12.1821
▁entering	-12.1832
▁blockages	-12.1832
▁4.0	-12.1836
▁sealing	-12.1871
▁scales	-12.1887
pped	-12.1894
▁beet	-12.1896
875	-12.1908
▁note	-12.1915
▁until	-12.1936
▁see	-12.1956
▁densely	-12.1979
liance	-12.1981
▁cons	-12.1998
▁patterns	-12.1998
▁driv	-12.2
@12	-12.2033
-60	-12.2033
ake	-12.2033
ious	-12.2042
▁Scheme	-12.2047
▁elevation	-12.2047
▁finger	-12.2048
▁village	-12.2051
tv	-12.206
▁nematode	-12.2061
▁technique	-12.2065
▁consideration	-12.2065
▁factor	-12.2067
ine	-12.2072
▁starting	-12.2084
▁ba	-12.2086
▁drive	-12.209
bout	-12.2119
▁pr	-12.2126
▁28	-12.213
▁environments	-12.2131
q	-12.2147
▁agril	-12.2149
ducing	-12.2164
▁implements	-12.2168
sulfur	-12.2175
kufri	-12.2176
potassium	-12.2176
variety	-12.2176
economic	-12.2176
3000	-12.2185
▁introduc	-12.2193
repare	-12.2234
ilute	-12.2236
▁irregular	-12.2236
▁socio	-12.2236
=101.0	-12.2236
=111.5	-12.2236
=121.4	-12.2236
=121.6	-12.2236
=121.9	-12.2236
=122.2	-12.2236
=129.9	-12.2236
=132.9	-12.2236
=138.0	-12.2236
=138.7	-12.2236
=140.5	-12.2236
=142.5	-12.2236
=145.8	-12.2236
=147.2	-12.2236
▁Appropriate	-12.2236
▁accuracy	-12.2236
▁decomposition	-12.2236
▁fountain	-12.2236
▁individual	-12.2236
▁khaki	-12.2236
▁look	-12.2236
▁nicobar	-12.2236
▁pineapple	-12.2236
▁microbes	-12.2236
▁spices	-12.2236
=126.0	-12.2236
=143.0	-12.2236
▁basic	-12.2236
▁strawberry	-12.2236
▁spoon	-12.2236
=118.0	-12.2236
▁whitefly	-12.2236
▁tolerance	-12.2236
▁render	-12.2236
▁chlorosis	-12.2236
▁transfer	-12.2237
▁forestry	-12.2237
erefore	-12.2237
▁heart	-12.2237
▁colder	-12.2237
▁eligibility	-12.2238
▁criteria	-12.2238
MAR	-12.2238
▁pox	-12.2238
▁phorate	-12.224
▁mistakes	-12.2241
▁Soak	-12.2244
▁varies	-12.2245
▁overwatering	-12.2246
▁ration	-12.2247
▁cart	-12.2248
74	-12.2251
▁succession	-12.2252
▁press	-12.2252
▁setts	-12.2257
mix	-12.2257
▁own	-12.2262
▁employed	-12.2266
▁Populus	-12.2266
pic	-12.2269
▁40-50%	-12.2269
▁topical	-12.2273
▁inadequate	-12.2275
▁targeted	-12.2291
una	-12.2297
▁rationally	-12.2316
▁nodes	-12.2317
▁organisms	-12.232
▁board	-12.2326
mart	-12.2333
ride	-12.2333
▁stagna	-12.2345
▁limitations	-12.2347
▁economical	-12.2359
oph	-12.2364
-48	-12.2365
▁210	-12.2372
▁legumes	-12.238
mu	-12.2396
cal	-12.2419
▁nuts	-12.2421
▁succini	-12.2431
8.0	-12.2439
▁ecosystems	-12.2463
▁wounding	-12.2466
ro	-12.2472
▁phosph	-12.2474
▁sl	-12.2478
▁cap	-12.25
38	-12.2504
86	-12.2505
▁streak	-12.2523
▁culm	-12.2538
▁weedicides	-12.2547
ontinuous	-12.2552
▁biovita	-12.2568
▁2.4	-12.2569
▁2.1	-12.2597
ability	-12.2599
▁pick	-12.2601
@25	-12.2627
da	-12.2631
plain	-12.2632
.55	-12.2632
worm	-12.2641
-70	-12.2644
▁ga	-12.2651
irrigation	-12.2652
along	-12.2653
▁Bo	-12.2656
rained	-12.2656
▁recover	-12.2658
▁delay	-12.2678
20.0	-12.2684
/200	-12.2689
▁Specific	-12.2703
hizoctonia	-12.2711
ological	-12.2712
▁link	-12.2712
▁Banana	-12.2712
▁Central	-12.2712
▁balancing	-12.2712
▁colony	-12.2712
▁exchange	-12.2712
▁germinate	-12.2712
▁intensification	-12.2712
▁people	-12.2712
▁quantities	-12.2712
▁uneconomical	-12.2712
▁algal	-12.2712
▁sprinkling	-12.2712
▁continous	-12.2712
▁shock	-12.2712
▁neglect	-12.2712
▁country	-12.2712
▁rigid	-12.2712
▁restor	-12.2712
▁concentrate	-12.2712
▁Adjust	-12.2712
▁raw	-12.2712
▁rotten	-12.2712
▁lab	-12.2713
mala	-12.2713
▁systematic	-12.2713
▁cater	-12.2713
▁September	-12.2713
▁inches	-12.2713
▁association	-12.2713
▁resilien	-12.2714
▁Chemical	-12.2714
▁aluminium	-12.2714
▁deptt	-12.2714
▁bahadur	-12.2717
▁firb	-12.2717
▁mission	-12.2723
▁sird	-12.2723
▁ruby	-12.2724
▁deworming	-12.2726
duaprim	-12.2727
▁web	-12.2727
▁damaging	-12.2729
▁ganga	-12.2729
400	-12.2729
▁inch	-12.2731
6.4	-12.2731
▁abha	-12.2734
▁ge	-12.2737
-24	-12.2739
▁productive	-12.2742
▁1750	-12.2742
▁heights	-12.2743
▁smallholder	-12.2753
▁wheels	-12.276
▁Introduc	-12.2768
50.0	-12.2773
▁hoeing	-12.2775
▁cleaned	-12.2786
ig	-12.279
▁carrots	-12.2815
▁decreased	-12.2825
▁Ex	-12.2844
▁0.7	-12.2847
ried	-12.2849
07	-12.2854
▁faced	-12.287
▁panacur	-12.2886
▁boards	-12.2888
▁supplements	-12.289
▁termina	-12.2902
rient	-12.2905
▁regard	-12.2933
60.0	-12.2939
▁filters	-12.2951
sh	-12.2959
▁So	-12.2979
▁feeds	-12.2981
35.0	-12.2985
▁rid	-12.2986
ox	-12.299
6.0	-12.3022
▁prevented	-12.3038
▁barrier	-12.3038
▁precaution	-12.304
▁characteristic	-12.3041
▁adjustment	-12.3042
▁tri	-12.3044
25.0	-12.3047
2.	-12.3051
▁custom	-12.3079
▁ch	-12.3102
till	-12.3108
▁gumm	-12.3127
1,	-12.3131
wp	-12.3142
▁emphasiz	-12.3146
▁replac	-12.3149
kilogram	-12.3152
tracel	-12.3153
▁integrat	-12.3154
mi	-12.3156
@5	-12.3157
told	-12.3157
▁aadha	-12.3164
▁Sali	-12.3165
am	-12.3169
▁employ	-12.3179
▁ex	-12.3179
lime	-12.3187
R	-12.3187
▁Diseases	-12.319
▁Ea	-12.3193
▁rang	-12.3195
▁leav	-12.3209
▁Potato	-12.3211
▁undulat	-12.3212
▁invest	-12.3212
=113.9	-12.3212
=116.6	-12.3212
=122.5	-12.3212
=127.7	-12.3212
=127.9	-12.3212
=129.8	-12.3212
=133.4	-12.3212
=134.3	-12.3212
=135.8	-12.3212
=137.4	-12.3212
=137.5	-12.3212
=137.8	-12.3212
=138.3	-12.3212
=138.4	-12.3212
=138.8	-12.3212
=138.9	-12.3212
=139.8	-12.3212
=141.6	-12.3212
=143.3	-12.3212
=144.5	-12.3212
=145.6	-12.3212
=145.9	-12.3212
=146.9	-12.3212
=147.0	-12.3212
=149.4	-12.3212
▁affordable	-12.3212
▁false	-12.3212
▁folder	-12.3212
▁penicle	-12.3212
▁photosynthetic	-12.3212
▁plague	-12.3212
▁reliability	-12.3212
▁Bamboo	-12.3212
▁delicious	-12.3212
▁vertical	-12.3212
▁abnormalities	-12.3212
=134.0	-12.3212
▁blossom	-12.3212
▁washington	-12.3212
▁agromycin	-12.3212
▁chamber	-12.3212
▁sunken	-12.3212
▁policies	-12.3212
▁counter	-12.3212
▁Treat	-12.3212
▁cultiv	-12.3213
▁researchers	-12.3213
▁rhizoctonia	-12.3213
▁blb	-12.3213
▁ekka	-12.3214
▁antracol	-12.3214
▁quail	-12.3214
▁classified	-12.3214
▁mother	-12.3216
▁mastitis	-12.3216
▁prohibit	-12.3217
▁catch	-12.3218
▁examine	-12.322
▁ekalux	-12.322
▁Controll	-12.322
▁things	-12.3221
▁accelerate	-12.3221
gp	-12.3222
▁islands	-12.3222
▁7-8	-12.3223
▁soon	-12.3224
▁rest	-12.3224
eath	-12.3225
▁coorg	-12.3226
▁1.5-2	-12.3228
▁models	-12.3235
fabricat	-12.3236
▁Classic	-12.3236
▁gum	-12.3236
cular	-12.3242
▁pgr	-12.3243
▁automatic	-12.3247
▁granules	-12.3262
▁aroma	-12.3282
-27	-12.3287
▁pin	-12.3289
▁constraints	-12.3289
▁paints	-12.329
▁ws	-12.3293
▁@15	-12.3302
▁sales	-12.3317
▁(20	-12.3335
▁forms	-12.3344
53	-12.338
3%	-12.3384
▁force	-12.34
lic	-12.3408
▁nematodes	-12.3408
▁processed	-12.3413
adhar	-12.3438
▁rats	-12.3438
47	-12.344
▁closed	-12.3445
dry	-12.3446
▁us	-12.3447
▁@1.5	-12.3462
▁far	-12.3465
▁dis	-12.3501
▁toleran	-12.3519
▁110	-12.3552
▁thread	-12.3557
▁repair	-12.3564
▁sapling	-12.3565
▁skill	-12.3566
▁cell	-12.3573
33.0	-12.3581
▁optimized	-12.3599
▁aspect	-12.3604
can	-12.361
▁failures	-12.3613
▁shift	-12.3626
▁steriliz	-12.363
▁160	-12.3639
▁san	-12.3654
▁led	-12.3663
table	-12.3666
zoxystrobin	-12.3667
▁loosen	-12.3668
▁thorough	-12.3675
functional	-12.3676
repellent	-12.3678
related	-12.3678
measure	-12.3678
zinc	-12.3679
spacing	-12.3679
▁distribute	-12.368
@20	-12.3681
opper	-12.3682
,50	-12.3683
please	-12.3688
▁dissolv	-12.3698
▁Wood	-12.3723
▁promoters	-12.3728
▁fibr	-12.3733
▁dima	-12.3738
▁neuro	-12.3738
▁Bitter	-12.3738
▁State	-12.3738
▁budget	-12.3738
▁carbaryl	-12.3738
▁cashew	-12.3738
▁chronic	-12.3738
▁crystocyclin	-12.3738
▁ectoparasite	-12.3738
▁floriculture	-12.3738
▁industrial	-12.3738
▁outcomes	-12.3738
▁South	-12.3738
▁Under	-12.3738
▁linseed	-12.3738
▁Special	-12.3738
▁cowdang	-12.3738
▁jackpot	-12.3738
▁breakdown	-12.3738
▁Melia	-12.3738
▁chandan	-12.3738
▁Coconut	-12.3738
▁aloe	-12.3738
▁reddish	-12.3738
▁snowball	-12.3739
▁subsidiz	-12.3739
▁aggregation	-12.3739
▁formulation	-12.3739
▁immunity	-12.3739
▁desp	-12.3739
EM	-12.3739
▁introduction	-12.3739
▁besides	-12.3739
▁layout	-12.3739
▁capture	-12.3739
▁butox	-12.3739
▁sapota	-12.3739
▁5.2	-12.3739
▁deepali	-12.374
▁detection	-12.374
▁Blitox	-12.374
▁flubendiamide	-12.374
▁Insect	-12.374
▁broader	-12.374
▁abnormal	-12.3741
▁Compost	-12.3741
▁cage	-12.3741
▁casing	-12.3741
▁bales	-12.3743
▁estimate	-12.3744
TAT	-12.3745
▁fipronil	-12.3747
▁smoking	-12.3747
▁March	-12.3747
▁varity	-12.3747
▁peak	-12.3747
▁sensitiv	-12.3749
▁glyphosate	-12.375
/100	-12.375
▁collectively	-12.3751
▁waterlogged	-12.3754
▁alternat	-12.3759
▁healing	-12.376
suitable	-12.376
▁pass	-12.3764
▁replanting	-12.3767
▁Tea	-12.3768
▁iff	-12.3774
▁advancements	-12.3774
▁traits	-12.3782
▁institutions	-12.3791
▁Transplanting	-12.3792
▁combined	-12.3799
irus	-12.3802
40.0	-12.381
▁loosening	-12.3817
▁FYM	-12.3824
▁workers	-12.383
▁Pests	-12.3833
▁obtained	-12.3838
▁adopted	-12.3856
▁cu	-12.3861
▁aadhar	-12.3869
oo	-12.3875
ton	-12.3878
No	-12.3883
▁checks	-12.3885
watering	-12.3888
INM	-12.3888
xin	-12.3892
▁decisions	-12.3897
▁threats	-12.3897
▁hose	-12.39
▁bhu	-12.3904
▁levellers	-12.3906
@18	-12.3909
▁cuts	-12.392
-16	-12.3931
▁aero	-12.3934
▁140	-12.3944
/30	-12.3948
▁mon	-12.3969
▁4-	-12.3985
▁big	-12.3986
,1.	-12.3988
fi	-12.401
▁Monitoring	-12.4016
▁hu	-12.4021
ba	-12.4037
▁pron	-12.4038
72	-12.4049
▁tiller	-12.4062
,1	-12.4077
2.0	-12.41
▁standard	-12.4103
ean	-12.4104
▁fuel	-12.4108
▁image	-12.4112
▁earthworm	-12.4116
▁pipeline	-12.4117
▁configuration	-12.4118
▁cutworm	-12.4121
▁legume	-12.4122
▁pieces	-12.4122
▁effort	-12.4122
15.0	-12.4129
▁sixt	-12.4129
▁hill	-12.4129
▁ensured	-12.416
▁purposes	-12.4197
egarding	-12.4209
top	-12.4218
▁bot	-12.4218
90.0	-12.4228
▁she	-12.423
blue	-12.4233
emergence	-12.4234
ground	-12.4234
chlorpyriphos	-12.4234
large	-12.4234
application	-12.4234
▁sprinkle	-12.4247
100	-12.4256
▁works	-12.4261
rot	-12.4281
com	-12.4287
ash	-12.4289
▁garo	-12.429
nfected	-12.4292
66	-12.4292
▁tilt	-12.4294
=103.0	-12.4294
=113.3	-12.4294
=122.1	-12.4294
=122.4	-12.4294
=125.1	-12.4294
=125.5	-12.4294
=125.7	-12.4294
=126.2	-12.4294
=126.6	-12.4294
=130.5	-12.4294
=131.1	-12.4294
=131.2	-12.4294
=135.6	-12.4294
=136.1	-12.4294
=136.2	-12.4294
=136.3	-12.4294
=138.2	-12.4294
=140.6	-12.4294
=142.9	-12.4294
=144.6	-12.4294
=146.1	-12.4294
=146.7	-12.4294
=149.8	-12.4294
▁Australia	-12.4294
▁Field	-12.4294
▁Liquid	-12.4294
▁Policy	-12.4294
▁accidents	-12.4294
▁dakshin	-12.4294
▁dormant	-12.4294
▁flexib	-12.4294
▁punching	-12.4294
▁replenish	-12.4294
▁seventies	-12.4294
▁swarna	-12.4294
▁velvet	-12.4294
=120.7	-12.4294
▁leftover	-12.4294
▁permeability	-12.4294
=125.0	-12.4294
=133.0	-12.4294
=141.0	-12.4294
▁vigour	-12.4294
▁illustrate	-12.4294
=124.0	-12.4294
▁necrotic	-12.4294
▁cough	-12.4294
▁ornamental	-12.4294
▁tines	-12.4295
▁transmission	-12.4295
▁dichlorvo	-12.4296
▁sheep	-12.4296
▁cipro	-12.4296
▁cumin	-12.4296
▁Aspergillus	-12.4297
▁tridermorph	-12.4299
52	-12.4299
▁Long	-12.43
▁live	-12.4302
▁2,4-	-12.4303
▁road	-12.4306
uous	-12.4307
▁craft	-12.4307
▁topsoil	-12.4308
▁April	-12.431
▁withered	-12.4312
▁trim	-12.4317
▁stabilize	-12.4323
▁5-10	-12.4323
▁contract	-12.4328
▁emissions	-12.433
24.0	-12.4336
pus	-12.4337
▁maturing	-12.4338
▁consumed	-12.4338
▁vit	-12.434
▁tsf	-12.434
gold	-12.4343
▁hrs	-12.4351
▁shell	-12.4355
▁replace	-12.4365
30.0	-12.4367
rum	-12.4374
▁sagorika	-12.4377
▁pot	-12.4378
▁Di	-12.4386
▁clones	-12.439
me	-12.4391
E	-12.4396
▁calculate	-12.4399
▁2-4	-12.44
▁gain	-12.4402
▁errors	-12.4411
▁va	-12.4419
▁initiatives	-12.4421
ope	-12.4431
▁ir	-12.4444
48	-12.4465
32.0	-12.4471
native	-12.4478
-50)	-12.4493
51.0	-12.4503
▁streamline	-12.4516
▁dispose	-12.4532
71	-12.4555
▁Harvesting	-12.4556
▁had	-12.4559
333333333333333	-12.456
▁ali	-12.4567
▁focuse	-12.4599
▁flooded	-12.4609
▁seeding	-12.4612
ti	-12.4617
▁Enhance	-12.4621
▁options	-12.4627
59	-12.4655
▁warming	-12.4669
▁washing	-12.4673
28.0	-12.4675
88	-12.4693
▁leg	-12.4697
▁Top	-12.4698
▁scientist	-12.4703
▁threat	-12.4705
▁ben	-12.4709
▁tons	-12.4709
▁decision	-12.471
put	-12.4711
▁1.4	-12.4717
▁leave	-12.4718
ern	-12.472
ance	-12.4746
▁wasp	-12.475
▁indicat	-12.4755
les	-12.4759
PE	-12.4771
/1	-12.4774
▁trunks	-12.4792
▁dog	-12.4811
▁hoe	-12.4812
▁share	-12.4813
boost	-12.4821
farm	-12.4822
wood	-12.4822
kvk	-12.4822
made	-12.4822
assam	-12.4822
▁Dry	-12.4825
31	-12.4827
▁mitigat	-12.4837
▁fluctuat	-12.4847
richoderma	-12.485
itation	-12.4851
ill	-12.4858
▁emam	-12.4869
enerate	-12.4871
▁mosquito	-12.4875
tle	-12.4879
▁setups	-12.488
echanical	-12.488
seudomon	-12.4881
bhani	-12.4882
osphaer	-12.4882
▁Celsius	-12.4882
▁Factors	-12.4882
▁MKP	-12.4882
▁adult	-12.4882
▁children	-12.4882
▁excavation	-12.4882
▁hospital	-12.4882
▁jalakia	-12.4882
▁kingdom	-12.4882
▁malathian	-12.4882
▁preperation	-12.4882
▁raddish	-12.4882
▁sequester	-12.4882
▁simplifie	-12.4882
▁chosen	-12.4882
▁corporation	-12.4882
▁mohafol	-12.4882
▁smell	-12.4882
▁fluid	-12.4882
ethylene	-12.4882
▁lameness	-12.4882
▁Brazil	-12.4882
▁Manure	-12.4882
▁Spot	-12.4882
▁Stor	-12.4882
▁sindhuri	-12.4882
▁strict	-12.4882
ecial	-12.4882
▁HD	-12.4883
▁fixation	-12.4883
▁variability	-12.4883
▁Food	-12.4883
▁strengthen	-12.4883
▁East	-12.4884
▁kotha	-12.4884
▁participat	-12.4884
▁Climate	-12.4885
tious	-12.4886
▁warmer	-12.4886
▁Asha	-12.4886
▁vers	-12.4886
explo	-12.4887
▁intend	-12.4887
▁suryamukhi	-12.4888
▁reply	-12.4888
▁fmd	-12.4888
▁rear	-12.4889
▁graz	-12.489
▁Blight	-12.489
iplex	-12.4891
▁conidia	-12.4892
▁golaghat	-12.4892
▁aau	-12.4895
addy	-12.4895
ose	-12.4896
by	-12.4896
@6	-12.4899
▁readi	-12.4903
▁Anthracnose	-12.4903
▁25-35	-12.4903
oiller	-12.4906
▁ostovet	-12.4907
▁0.25%	-12.4908
▁mass	-12.491
▁240	-12.4911
▁designing	-12.4911
▁makers	-12.4915
▁plaster	-12.4917
▁prices	-12.4922
▁suc	-12.4927
EN	-12.4929
▁bury	-12.4931
▁thought	-12.4932
▁spreader	-12.4947
6%	-12.4948
▁expenses	-12.4952
▁initiate	-12.4953
▁Are	-12.4955
▁hens	-12.4964
▁sites	-12.4964
▁km	-12.4968
▁costly	-12.4969
▁functional	-12.4973
sp	-12.4977
ge	-12.4978
▁slugs	-12.4996
▁pac	-12.5008
▁met	-12.5035
▁customiz	-12.5038
▁complicate	-12.5056
600	-12.5057
▁separately	-12.5059
fed	-12.506
▁retains	-12.5064
▁immun	-12.5066
pt	-12.5069
ke	-12.5077
▁ne	-12.5079
ime	-12.5089
ow	-12.5089
▁handled	-12.5094
▁arrange	-12.5101
▁habitats	-12.5127
▁Integrat	-12.5145
ava	-12.5155
▁tend	-12.5167
▁tips	-12.517
▁separat	-12.5173
may	-12.5187
-36,	-12.5198
▁injected	-12.52
▁groups	-12.5204
ell	-12.5209
rowth	-12.5218
▁sprout	-12.5247
▁coat	-12.525
74.0	-12.5251
▁Rot	-12.5255
nol	-12.5256
▁par	-12.5263
▁bro	-12.5275
▁sh	-12.5276
▁compounds	-12.5281
▁56	-12.5287
ama	-12.529
▁pods	-12.5292
▁disc	-12.5297
78	-12.5303
▁Car	-12.531
▁lakh	-12.5318
▁aesthetic	-12.5321
▁paper	-12.5325
▁drug	-12.5328
os	-12.5331
▁app	-12.5331
ture	-12.5333
▁minute	-12.5339
efficiencies	-12.5354
▁2.7	-12.5388
▁tempor	-12.5391
98	-12.5397
97.0	-12.5416
▁plow	-12.5429
29	-12.543
▁disinfect	-12.5433
▁prompt	-12.5444
▁notice	-12.5445
designed	-12.5446
tillage	-12.5447
fertilization	-12.5447
asking	-12.5448
agricultural	-12.5451
dip	-12.5457
▁25%	-12.5458
nov	-12.5458
56	-12.5462
▁almo	-12.5463
▁observ	-12.5464
▁sign	-12.5467
▁digest	-12.5475
eating	-12.5484
Re	-12.5484
▁markets	-12.5485
▁steril	-12.5499
29.0	-12.5502
▁Limit	-12.5503
▁Compos	-12.5504
igatoka	-12.5506
▁Botry	-12.5506
▁defoliat	-12.5507
▁azadirac	-12.5507
=101.7	-12.5507
=121.3	-12.5507
=122.6	-12.5507
=123.3	-12.5507
=123.8	-12.5507
=123.9	-12.5507
=124.6	-12.5507
=126.4	-12.5507
=126.9	-12.5507
=127.5	-12.5507
=128.3	-12.5507
=129.3	-12.5507
=129.6	-12.5507
=130.3	-12.5507
=131.5	-12.5507
=131.9	-12.5507
=133.1	-12.5507
=133.7	-12.5507
=137.2	-12.5507
=139.9	-12.5507
=140.3	-12.5507
=141.7	-12.5507
=141.9	-12.5507
=142.4	-12.5507
=144.3	-12.5507
=144.7	-12.5507
=148.5	-12.5507
=149.7	-12.5507
▁Center	-12.5507
▁Energy	-12.5507
▁Flood	-12.5507
▁Natural	-12.5507
▁Streptomycin	-12.5507
▁accommodat	-12.5507
▁afanil	-12.5507
▁amaranth	-12.5507
▁chlorophyll	-12.5507
▁efficacy	-12.5507
▁exact	-12.5507
▁excreta	-12.5507
▁extreme	-12.5507
▁humus	-12.5507
▁hygienic	-12.5507
▁inaccurate	-12.5507
▁infringement	-12.5507
▁inoculum	-12.5507
▁insecticidal	-12.5507
▁malformation	-12.5507
▁spoilage	-12.5507
▁strategy	-12.5507
▁study	-12.5507
▁universal	-12.5507
▁utility	-12.5507
▁Determin	-12.5507
▁cricket	-12.5507
▁katki	-12.5507
=132.0	-12.5507
=139.0	-12.5507
=145.0	-12.5507
▁Breed	-12.5507
▁Clear	-12.5507
▁eventual	-12.5507
▁chlorpyrifos	-12.5507
▁kunwari	-12.5507
▁jolokia	-12.5507
▁capillarity	-12.5507
▁liq	-12.5507
▁ferment	-12.5507
▁website	-12.5507
=146.0	-12.5507
=122.0	-12.5507
consuming	-12.5507
▁dynamics	-12.5507
▁pradhan	-12.5507
▁thickness	-12.5507
▁abundant	-12.5507
▁decay	-12.5508
▁halflong	-12.5508
IPM	-12.5508
▁applicable	-12.5508
▁disinfection	-12.5508
▁Well	-12.5508
▁improper	-12.5508
▁MI	-12.5508
▁viz	-12.5509
thora	-12.5509
▁contamination	-12.551
▁partial	-12.551
▁payment	-12.5512
▁transition	-12.5513
▁grandis	-12.5514
▁Benefits	-12.5514
▁bloat	-12.5518
42.0	-12.5518
▁coupler	-12.5518
▁lesser	-12.5519
▁himani	-12.5519
95	-12.5519
▁mangoes	-12.5522
▁Healthy	-12.5523
▁indicators	-12.5525
▁wooden	-12.5525
▁mililiter	-12.553
▁ripening	-12.5531
▁fu	-12.5534
▁climbing	-12.5535
▁compete	-12.5536
▁qu	-12.5537
)@200	-12.5537
stry	-12.5539
▁Set	-12.5539
▁examples	-12.5539
patial	-12.5556
▁May	-12.5557
45.0	-12.5558
▁tonic	-12.5562
700	-12.5566
irect	-12.5566
har	-12.5569
ever	-12.557
-200	-12.5573
▁16.0	-12.5573
▁cat	-12.5576
▁bur	-12.5577
▁plowing	-12.5587
▁sprouting	-12.5588
▁rearing	-12.5591
▁.5	-12.5599
▁Lo	-12.56
▁households	-12.5605
▁windbreaks	-12.5605
og	-12.561
300	-12.5613
-19	-12.5618
sia	-12.562
4.0	-12.5624
▁sulf	-12.5632
ward	-12.5634
htin	-12.5638
85	-12.5654
▁presented	-12.5655
rov	-12.5661
▁alternatively	-12.5663
sted	-12.5669
▁record	-12.5675
▁im	-12.5681
▁durable	-12.5685
rmal	-12.569
.0	-12.569
58	-12.5693
neem	-12.5702
cron	-12.5707
▁configurations	-12.571
78.0	-12.5711
68.0	-12.5712
▁0.1	-12.5718
▁amend	-12.5731
gar	-12.575
65	-12.5756
ki	-12.5764
▁functions	-12.5766
▁6444	-12.5766
pe	-12.5775
▁char	-12.5775
▁20.0	-12.578
▁turning	-12.5794
▁cop	-12.5815
46	-12.5819
▁cane	-12.5823
▁sequences	-12.5829
ible	-12.5836
oth	-12.5861
cation	-12.5873
cherry	-12.5875
19.0	-12.5905
ina	-12.5907
▁ap	-12.5925
▁plac	-12.5956
▁situations	-12.5957
arming	-12.5983
96.0	-12.5986
athi	-12.5988
▁medication	-12.5991
▁joint	-12.5994
▁rock	-12.5996
▁explosion	-12.5996
urface	-12.5999
▁rodent	-12.6
▁valve	-12.6001
rootex	-12.6004
▁wall	-12.6004
▁suppresse	-12.6005
fen	-12.6006
expensive	-12.6007
▁metal	-12.6007
di	-12.6008
▁enter	-12.6026
▁real	-12.6026
▁leak	-12.6026
logging	-12.6033
going	-12.6037
▁kills	-12.6041
yan	-12.6062
ere	-12.6066
@3	-12.6073
▁din	-12.6083
▁prolif	-12.6095
41.0	-12.6104
gourd	-12.6105
▁slop	-12.6112
killer	-12.6112
zim	-12.6113
june	-12.6114
climat	-12.6114
potash	-12.6114
tricel	-12.6114
cultivation	-12.6115
▁users	-12.6116
▁build	-12.6117
pride	-12.6118
▁technolog	-12.612
rize	-12.6123
▁utiliz	-12.6126
▁2.5-3	-12.6128
-13	-12.6134
▁prolong	-12.614
ithane	-12.6142
▁emphasize	-12.6144
▁integrate	-12.6146
▁minerals	-12.6147
give	-12.615
▁whit	-12.6151
▁read	-12.616
▁compet	-12.6168
▁teaspoon	-12.617
▁mode	-12.617
▁renovat	-12.6173
yielding	-12.6173
▁beginn	-12.6174
▁Canker	-12.6174
▁Conduct	-12.6174
▁Mission	-12.6174
▁Yellow	-12.6174
▁bajra	-12.6174
▁barpeta	-12.6174
▁bleeding	-12.6174
▁darrang	-12.6174
▁gradually	-12.6174
▁ketki	-12.6174
▁sustainably	-12.6174
▁yojna	-12.6174
▁Assam	-12.6174
▁Moder	-12.6174
▁wild	-12.6174
▁jaggery	-12.6174
▁nitrate	-12.6174
▁feroliv	-12.6174
▁prevail	-12.6174
▁proliferation	-12.6174
bserve	-12.6174
▁syp	-12.6174
▁sapwood	-12.6174
▁hamper	-12.6174
▁thinning	-12.6174
▁interaction	-12.6174
▁silk	-12.6174
▁dispersion	-12.6174
▁percolation	-12.6174
▁digging	-12.6174
▁vaccinate	-12.6174
▁calculation	-12.6174
▁airflow	-12.6174
▁profile	-12.6174
▁burners	-12.6174
▁trials	-12.6174
▁dipali	-12.6174
▁chow	-12.6174
▁openers	-12.6174
▁caseworm	-12.6174
▁insights	-12.6174
▁Rogol	-12.6174
▁undulation	-12.6175
▁Compare	-12.6175
▁vitality	-12.6175
▁soap	-12.6175
▁bath	-12.6175
▁minister	-12.6175
▁Potatoes	-12.6175
PS	-12.6175
osis	-12.6176
▁hiring	-12.6176
▁laboratory	-12.6176
▁fertilzer	-12.6176
▁sonitpur	-12.6176
▁stuck	-12.6176
▁tobacco	-12.6176
▁frenchbean	-12.6177
▁sunny	-12.6177
▁askin	-12.618
▁bullet	-12.6181
▁endo	-12.6181
▁allocation	-12.6181
▁Eur	-12.6182
▁grafting	-12.6182
▁mice	-12.6184
▁stain	-12.6184
▁NMMI	-12.6185
▁genome	-12.6186
▁disturbed	-12.6187
raft	-12.6187
▁50-60	-12.6189
▁simultaneously	-12.619
ometr	-12.6191
▁cycles	-12.6192
▁nmmi	-12.6193
98.0	-12.6199
▁pulp	-12.6201
▁Nitrogen	-12.6202
▁here	-12.6202
SSP	-12.6203
▁ingredients	-12.6205
▁pos	-12.6205
▁plans	-12.6206
▁binding	-12.6209
-750	-12.6209
▁grade	-12.6213
▁mild	-12.6213
▁path	-12.6226
▁ducklings	-12.6229
▁intact	-12.6235
▁parameters	-12.6242
facet	-12.6258
▁suspen	-12.6266
ace	-12.6271
ement	-12.6284
▁alternately	-12.6289
42	-12.629
umar	-12.6296
▁imp	-12.6315
-11	-12.6319
ame	-12.6336
▁1.7	-12.6343
early	-12.6344
▁walls	-12.6353
▁ltd	-12.6358
99	-12.6358
▁sens	-12.6358
▁buckets	-12.6359
▁Land	-12.6363
▁hop	-12.6365
▁dictate	-12.6369
89.0	-12.6369
mo	-12.6395
▁Man	-12.6399
mt	-12.6419
▁cub	-12.6421
▁bad	-12.6431
▁breaking	-12.6448
▁interventions	-12.6466
▁sections	-12.6478
-6444	-12.6488
tre	-12.6491
▁And	-12.6494
ultivation	-12.6495
91	-12.6498
ot	-12.6504
ray	-12.6513
▁kathas	-12.6519
▁si	-12.6537
37.0	-12.6546
34.0	-12.6566
lint	-12.6568
▁zones	-12.6575
▁vermicomposting	-12.6595
93.0	-12.6611
61.0	-12.6616
▁66	-12.6627
▁regulate	-12.6627
▁0.5%	-12.6627
44.0	-12.6637
mar	-12.6655
43.0	-12.667
46.0	-12.6674
apr	-12.6683
▁tissues	-12.6695
▁et	-12.6697
38.0	-12.6697
▁kid	-12.6704
▁pole	-12.6709
▁burden	-12.6711
71.0	-12.6712
▁limitation	-12.6715
▁channel	-12.6717
▁substance	-12.6717
.5	-12.6719
▁Rhizo	-12.6721
57	-12.6725
▁parasite	-12.6726
ole	-12.6734
10.0	-12.6738
▁practic	-12.6741
36.0	-12.6752
▁raingun	-12.6754
uke	-12.677
ley	-12.6771
,500	-12.6775
do	-12.6777
▁going	-12.6778
thion	-12.6781
12.0	-12.6785
81	-12.6786
tr	-12.6787
▁Introduce	-12.6792
56.0	-12.6807
ew	-12.6818
pproximately	-12.6818
new	-12.6826
@9	-12.6826
jorhat	-12.6827
september	-12.6828
ppm	-12.6828
cutting	-12.6828
type	-12.6828
leaf	-12.6828
loss	-12.6833
▁combine	-12.6849
suggested	-12.685
▁sea	-12.6853
54	-12.6863
▁bacteri	-12.6863
rea	-12.6875
▁Reduce	-12.6883
▁plug	-12.6886
ikki	-12.6886
▁Pick	-12.6886
▁subsidi	-12.6887
hamp	-12.6887
mproper	-12.6887
ophil	-12.6888
niform	-12.6888
anuary	-12.6888
ajpur	-12.6888
▁Phytoplasma	-12.6888
=115.7	-12.6888
=121.1	-12.6888
=122.3	-12.6888
=123.5	-12.6888
=124.2	-12.6888
=124.5	-12.6888
=125.6	-12.6888
=125.8	-12.6888
=126.8	-12.6888
=127.2	-12.6888
=129.1	-12.6888
=129.5	-12.6888
=129.7	-12.6888
=130.6	-12.6888
=131.0	-12.6888
=132.1	-12.6888
=132.2	-12.6888
=132.4	-12.6888
=132.5	-12.6888
=134.5	-12.6888
=134.8	-12.6888
=135.7	-12.6888
=135.9	-12.6888
=137.3	-12.6888
=137.6	-12.6888
=137.7	-12.6888
=141.1	-12.6888
=143.2	-12.6888
=143.7	-12.6888
=144.9	-12.6888
=145.4	-12.6888
=146.8	-12.6888
=147.5	-12.6888
=148.4	-12.6888
=149.1	-12.6888
▁Implication	-12.6888
▁Initial	-12.6888
▁Intensification	-12.6888
▁Lemon	-12.6888
▁Propiconazole	-12.6888
▁alcohol	-12.6888
▁neomec	-12.6888
▁reflect	-12.6888
▁scheduling	-12.6888
▁solanacearum	-12.6888
▁stolonifera	-12.6888
▁turbine	-12.6888
▁versatile	-12.6888
=120.4	-12.6888
▁nutrei	-12.6888
=128.0	-12.6888
=144.0	-12.6888
=148.0	-12.6888
▁Maize	-12.6888
▁Large	-12.6888
▁categories	-12.6888
▁expand	-12.6888
▁sivasagar	-12.6888
▁steptomycin	-12.6888
▁yojona	-12.6888
▁fowl	-12.6888
,1250	-12.6888
▁insemination	-12.6888
=135.0	-12.6888
ounti	-12.6888
▁marigaon	-12.6888
▁ttb	-12.6888
▁upright	-12.6888
▁identification	-12.6888
▁rhizobium	-12.6888
=137.0	-12.6888
oragen	-12.6888
▁wire	-12.6888
▁capabilities	-12.6888
▁slaking	-12.6888
▁husbandry	-12.6888
▁straight	-12.6889
▁ball	-12.6889
▁reward	-12.6889
▁observation	-12.6889
▁Row	-12.6889
▁Strategies	-12.6889
rena	-12.6889
▁pivotal	-12.6889
agati	-12.6889
▁author	-12.6889
ivate	-12.6889
▁media	-12.6889
▁detach	-12.6889
▁suppression	-12.6889
▁ridf	-12.689
▁neutralize	-12.689
▁weigh	-12.689
ellent	-12.689
▁chewing	-12.6891
▁feasible	-12.6891
▁ethrel	-12.6891
▁deppt	-12.6891
▁threaten	-12.6891
▁(10	-12.6891
▁exc	-12.6891
▁sugested	-12.6892
▁adaptable	-12.6893
▁signal	-12.6893
itrus	-12.6894
▁suit	-12.6894
▁stopp	-12.6895
▁physi	-12.6896
▁addresses	-12.6898
▁Mini	-12.6898
▁pseudomon	-12.6899
▁sagarika	-12.69
▁streptcycline	-12.69
▁malbhog	-12.69
dithane	-12.69
▁saturation	-12.69
▁knolkhol	-12.69
▁Bavistine	-12.69
▁baksa	-12.6904
▁1/4	-12.6905
▁grey	-12.6906
▁flash	-12.6909
▁cucurbits	-12.6922
apota	-12.6923
rendra	-12.6924
resh	-12.6926
▁valid	-12.6929
▁ghy	-12.6932
▁fri	-12.6942
▁feeder	-12.6944
-36	-12.6944
▁mounted	-12.6946
▁fences	-12.6948
▁scaling	-12.6955
▁crd	-12.6955
▁drawbacks	-12.6961
▁killer	-12.6961
▁goals	-12.6968
▁eus	-12.6975
▁scale	-12.6986
▁azoxystrobin	-12.6986
▁78	-12.6988
ban	-12.699
tab	-12.7011
▁planters	-12.7047
▁hydr	-12.7048
rming	-12.7049
mut	-12.7062
▁(3	-12.7064
ence	-12.708
va	-12.7083
▁@20	-12.7097
▁wasps	-12.7111
16.0	-12.7121
bi	-12.7123
▁repairs	-12.7134
AF	-12.7141
▁Incorporat	-12.7159
▁swin	-12.7169
sri	-12.717
kar	-12.7181
69	-12.7196
▁saff	-12.7222
phos	-12.7226
prid	-12.7249
53.0	-12.727
▁clearing	-12.7283
▁falls	-12.7294
▁precisely	-12.7308
5%	-12.733
ili	-12.733
ix	-12.7331
mycin	-12.7347
all	-12.7356
▁5.5	-12.7381
ken	-12.7409
▁abo	-12.7412
host	-12.7414
men	-12.7438
27.0	-12.7438
▁Ma	-12.7448
ities	-12.7457
▁bao	-12.7461
▁coc	-12.7468
▁packet	-12.7469
▁Ch	-12.747
oat	-12.7473
▁experiment	-12.7474
▁habit	-12.748
▁preference	-12.748
▁initiative	-12.7482
▁component	-12.7486
▁nutri	-12.7494
96	-12.7501
transplant	-12.7516
ax	-12.7519
▁accessib	-12.7543
▁complet	-12.7548
sety	-12.7548
▁bet	-12.7558
nion	-12.7564
season	-12.7567
103	-12.7571
▁coating	-12.7573
▁emit	-12.7577
▁Transplant	-12.7579
▁Sow	-12.7582
▁Fa	-12.7583
propell	-12.7588
▁previous	-12.759
@13	-12.7592
though	-12.7595
maturing	-12.7596
nodes	-12.7596
be	-12.7596
▁Sub	-12.7596
tropical	-12.7597
keep	-12.7597
guwahati	-12.7597
Fusarium	-12.7597
again	-12.7597
thought	-12.7597
coconut	-12.7597
specific	-12.7597
classic	-12.7597
pulses	-12.7597
control	-12.7597
management	-12.7597
brown	-12.7598
bacterial	-12.7598
▁fitt	-12.76
mod	-12.7601
▁SA	-12.7605
jul	-12.7608
▁Super	-12.7616
ark	-12.7619
que	-12.7621
▁expect	-12.7625
▁se	-12.7634
▁40-50	-12.7637
▁wart	-12.7637
▁fer	-12.7638
▁boil	-12.7644
era	-12.7645
▁promoted	-12.7647
▁possibl	-12.7652
obile	-12.7653
gaon	-12.7654
▁succe	-12.7655
oisture	-12.7655
enturi	-12.7656
ufri	-12.7656
▁Protect	-12.7657
▁attach	-12.7657
▁toxim	-12.7657
▁oint	-12.7657
▁Liv	-12.7657
▁sarma	-12.7657
▁enem	-12.7657
▁Efficien	-12.7657
▁Floating	-12.7657
▁Application	-12.7657
▁Challenges	-12.7657
▁District	-12.7657
▁Institute	-12.7657
▁Moringa	-12.7657
▁Science	-12.7657
▁Spacing	-12.7657
▁approved	-12.7657
▁circumstances	-12.7657
▁colonies	-12.7657
▁fiber	-12.7657
▁impregnation	-12.7657
▁nabard	-12.7657
▁patta	-12.7657
▁sunshine	-12.7657
▁MZ	-12.7657
▁bunds	-12.7657
▁butachlor	-12.7657
▁extent	-12.7657
▁ferilizer	-12.7657
▁funag	-12.7657
▁polish	-12.7657
▁shaping	-12.7657
▁Design	-12.7657
▁beekeeping	-12.7657
▁disturbance	-12.7657
▁kalita	-12.7657
▁Region	-12.7657
▁Local	-12.7657
▁prevalent	-12.7657
▁export	-12.7658
▁transformation	-12.7658
▁Storage	-12.7658
▁Mango	-12.7658
▁sulfex	-12.7658
▁automatically	-12.7658
tonia	-12.7658
▁bait	-12.7658
ensis	-12.7658
▁subsidies	-12.7658
▁organization	-12.7658
▁vill	-12.7658
▁khas	-12.7659
▁shel	-12.7659
▁outside	-12.7659
▁wear	-12.766
▁mould	-12.766
▁underside	-12.766
▁China	-12.766
▁Fish	-12.766
▁stream	-12.766
▁hyaline	-12.766
▁recommne	-12.7661
▁ointment	-12.7661
enni	-12.7661
anical	-12.7661
▁acet	-12.7662
▁showcas	-12.7663
▁viride	-12.7665
▁tinsukia	-12.7665
▁series	-12.7665
▁karbi	-12.7665
▁basil	-12.7665
sept	-12.7667
▁engineering	-12.7667
21.0	-12.7668
▁necessity	-12.7669
▁vera	-12.7669
▁refixed	-12.7669
▁fund	-12.767
▁ustaad	-12.767
▁chief	-12.767
▁approaches	-12.7671
▁refill	-12.7672
▁capabilit	-12.7673
▁bora	-12.7674
▁dug	-12.7675
▁left	-12.7675
▁hydration	-12.7675
▁mean	-12.7684
▁triazophos	-12.7685
ould	-12.7687
▁pathology	-12.7688
▁burnihat	-12.769
▁genu	-12.7691
▁lot	-12.7691
▁450	-12.7691
11	-12.7692
▁ear	-12.7693
▁noon	-12.7697
▁Cucumbers	-12.7708
▁Practices	-12.7708
▁picked	-12.7713
▁lay	-12.7719
95.0	-12.7732
▁completi	-12.7733
▁Methods	-12.7736
▁220	-12.774
US	-12.7744
▁jobs	-12.7751
ibility	-12.7752
gur	-12.7752
gery	-12.7755
,100	-12.7766
▁eco	-12.7767
▁sms	-12.7773
▁locat	-12.7773
▁aminos	-12.7774
75.0	-12.7781
▁dibble	-12.7788
▁begins	-12.7794
trol	-12.7803
orant	-12.7806
▁states	-12.7816
sulf	-12.7817
▁nom	-12.7819
▁tyres	-12.7823
▁exacerbate	-12.7824
▁equi	-12.785
▁burdens	-12.7852
43	-12.7856
olo	-12.7856
▁Watering	-12.7856
av	-12.7876
lin	-12.7878
po	-12.788
▁str	-12.7898
▁li	-12.7906
▁pipelines	-12.7911
▁am	-12.7914
▁cells	-12.7925
▁Mos	-12.7933
▁ltr	-12.7949
eb	-12.7953
▁Co	-12.7957
▁Tra	-12.7962
▁hay	-12.7985
▁slopes	-12.7988
▁performing	-12.7992
▁Small	-12.7997
▁Rotat	-12.8049
rowing	-12.8055
94.0	-12.8056
▁rec	-12.8059
34	-12.8061
▁emerg	-12.8068
ct	-12.8081
-6444,	-12.8108
▁locations	-12.8117
▁Hand	-12.8118
▁accurately	-12.8129
alv	-12.8155
89	-12.8163
▁330	-12.8165
han	-12.818
ock	-12.8181
ca	-12.82
▁crack	-12.82
jan	-12.8207
west	-12.8208
76.0	-12.8213
▁adv	-12.8221
▁locally	-12.8222
▁-1	-12.823
crop	-12.8233
▁specialize	-12.8235
▁pant	-12.8235
00	-12.8243
▁persist	-12.8244
za	-12.8258
ea	-12.8267
▁rise	-12.8272
ps	-12.8273
▁Ho	-12.8275
▁stag	-12.8285
▁Ripe	-12.829
▁receiv	-12.8292
overnment	-12.8293
▁Impact	-12.8302
▁bedrock	-12.8311
▁sale	-12.8316
▁tyre	-12.8316
84	-12.8317
▁lesion	-12.8319
▁cereal	-12.832
▁error	-12.8322
▁germ	-12.8322
midon	-12.8329
W	-12.834
▁2.6	-12.8352
▁excessively	-12.8352
▁Captaf	-12.8356
genous	-12.8356
▁eu	-12.8359
dhan	-12.8369
▁register	-12.837
▁da	-12.8372
▁consume	-12.8374
▁lid	-12.8386
▁555	-12.8386
stone	-12.8389
▁plugg	-12.8407
▁suffer	-12.8414
▁invade	-12.8421
▁scal	-12.8427
soluble	-12.8428
infected	-12.8429
fall	-12.843
soybean	-12.843
load	-12.843
hybrid	-12.8431
okra	-12.8431
carbendazim	-12.8431
saving	-12.8431
stage	-12.8432
about	-12.8433
wash	-12.8436
rid	-12.8441
marketing	-12.8441
▁distribut	-12.8445
prepared	-12.8445
▁discard	-12.8453
▁mention	-12.8458
▁tailor	-12.8459
▁consistently	-12.8462
▁Fertilizers	-12.8465
▁para	-12.8466
▁plane	-12.8468
▁230	-12.8472
▁formula	-12.8473
ack	-12.8476
ception	-12.8478
▁houses	-12.848
▁origin	-12.8483
▁ooz	-12.8484
▁cristocyclin	-12.8486
arlic	-12.8488
jyot	-12.8489
▁Strategi	-12.849
onventional	-12.849
▁emulsi	-12.849
▁obstruct	-12.849
▁horse	-12.849
aroda	-12.849
arieties	-12.8491
▁Zn	-12.8491
▁tripod	-12.8491
▁Consider	-12.8491
▁evidence	-12.8491
▁inimox	-12.8491
▁termeric	-12.8491
=120.1	-12.8491
=121.7	-12.8491
=122.7	-12.8491
=123.4	-12.8491
=123.7	-12.8491
=125.2	-12.8491
=125.3	-12.8491
=125.4	-12.8491
=125.9	-12.8491
=126.1	-12.8491
=128.4	-12.8491
=128.5	-12.8491
=128.6	-12.8491
=128.7	-12.8491
=129.4	-12.8491
=130.2	-12.8491
=130.7	-12.8491
=130.9	-12.8491
=133.2	-12.8491
=134.7	-12.8491
=135.3	-12.8491
=135.4	-12.8491
=136.6	-12.8491
=138.6	-12.8491
=139.2	-12.8491
=139.5	-12.8491
=139.7	-12.8491
=141.2	-12.8491
=141.4	-12.8491
=144.4	-12.8491
=144.8	-12.8491
=145.7	-12.8491
=146.2	-12.8491
=146.4	-12.8491
=146.6	-12.8491
=147.6	-12.8491
=148.1	-12.8491
=148.9	-12.8491
=149.5	-12.8491
=149.9	-12.8491
activator	-12.8491
onsequently	-12.8491
sevin	-12.8491
▁Captan	-12.8491
▁Nursery	-12.8491
▁Semi	-12.8491
▁brijal	-12.8491
▁chiili	-12.8491
▁discipline	-12.8491
▁dumka	-12.8491
▁explanation	-12.8491
▁helopeltis	-12.8491
▁larvae	-12.8491
▁maturation	-12.8491
▁meausre	-12.8491
▁pistil	-12.8491
▁prioritize	-12.8491
▁puddle	-12.8491
▁pudu	-12.8491
▁represent	-12.8491
▁sweep	-12.8491
▁valley	-12.8491
▁world	-12.8491
=120.5	-12.8491
▁Training	-12.8491
▁nalbari	-12.8491
▁udalguri	-12.8491
▁zucchini	-12.8491
=129.0	-12.8491
=142.0	-12.8491
▁conveyance	-12.8491
▁worldwide	-12.8491
ormulate	-12.8491
▁Also	-12.8491
▁Careful	-12.8491
=149.0	-12.8491
▁domestic	-12.8491
▁heartwood	-12.8491
▁juice	-12.8491
▁relieve	-12.8491
▁guarantee	-12.8491
▁lawn	-12.8491
▁Fire	-12.8491
▁pencil	-12.8491
▁firewood	-12.8491
▁supervision	-12.8491
▁17.8	-12.8491
▁manganese	-12.8491
▁figure	-12.8491
▁crusting	-12.8491
▁summarize	-12.8491
▁ev	-12.8491
▁Cover	-12.8491
▁book	-12.8492
▁replacement	-12.8492
ostatic	-12.8492
▁vle	-12.8492
▁pail	-12.8492
▁tectonae	-12.8492
▁cash	-12.8492
▁true	-12.8492
▁micronuit	-12.8492
▁Development	-12.8492
-1250	-12.8492
▁charge	-12.8492
▁incorporation	-12.8493
▁cooler	-12.8493
▁assembly	-12.8493
▁portal	-12.8493
▁appetide	-12.8494
▁harzianum	-12.8494
▁jwala	-12.8494
▁request	-12.8494
▁levelled	-12.8494
▁quicker	-12.8494
▁belts	-12.8494
▁girdling	-12.8495
walled	-12.8495
▁moveable	-12.8495
▁stronger	-12.8496
igest	-12.8496
▁therefore	-12.8497
▁Ridomil	-12.8499
▁push	-12.8499
▁catla	-12.8499
▁tender	-12.8499
pend	-12.85
▁bone	-12.8501
▁harrowing	-12.8502
▁healthily	-12.8502
▁needle	-12.8503
▁phytop	-12.8504
hiran	-12.8504
▁zineb	-12.8504
▁vo	-12.8507
nic	-12.8514
▁route	-12.8514
▁detergents	-12.8515
▁protocols	-12.8515
▁Krish	-12.8515
▁cooking	-12.8515
▁TS	-12.8516
▁converg	-12.8517
▁submerged	-12.8517
oving	-12.8519
▁cutter	-12.8524
▁registered	-12.8525
▁krh	-12.8526
jor	-12.8528
▁carbonate	-12.8528
▁alone	-12.8528
▁stones	-12.853
atch	-12.853
uestions	-12.853
▁technicians	-12.853
▁livelihoods	-12.853
▁dries	-12.8532
▁prolonged	-12.8534
enka	-12.8535
▁dirty	-12.8537
87.0	-12.8542
▁wel	-12.8542
▁Increas	-12.8542
▁planer	-12.8544
ustainable	-12.8545
▁markers	-12.8546
▁painting	-12.8551
▁phos	-12.8557
drying	-12.8557
▁11.0	-12.856
▁basins	-12.8561
▁absorbed	-12.8574
inj	-12.8582
▁noticed	-12.8584
▁tight	-12.8585
hilis	-12.859
▁ploughed	-12.8596
▁tanks	-12.8598
▁du	-12.8608
▁stalks	-12.8608
▁tied	-12.8609
▁cent	-12.8613
▁Hav	-12.862
▁ado	-12.8621
▁upwards	-12.8624
▁ho	-12.863
▁,2	-12.8631
anti	-12.8632
▁table	-12.8633
▁233	-12.8639
-34	-12.864
▁reactions	-12.8656
▁30.0	-12.8657
▁desir	-12.8664
▁purb	-12.8674
▁minimized	-12.8678
acc	-12.868
▁preferences	-12.8688
▁habits	-12.8688
▁expose	-12.8691
azine	-12.8692
▁abou	-12.8698
110	-12.8705
13	-12.8713
▁gaps	-12.8713
▁explosions	-12.8719
55	-12.872
61	-12.8748
▁grama	-12.8748
▁droping	-12.8753
▁pots	-12.876
▁brand	-12.8775
handi	-12.8795
oj	-12.8797
▁investments	-12.8822
kha	-12.8825
▁globally	-12.8829
▁rea	-12.883
cl	-12.8835
77.0	-12.8854
tu	-12.8854
▁op	-12.8858
▁41,	-12.8878
lam	-12.8886
oid	-12.8902
ella	-12.8921
▁My	-12.8933
▁Non	-12.8948
▁198	-12.8955
▁adha	-12.8971
▁prop	-12.8984
▁grounds	-12.8986
69.0	-12.899
mper	-12.8997
▁damp	-12.9
etail	-12.9011
▁composit	-12.903
▁phospho	-12.9041
▁cr	-12.9048
▁microf	-12.9048
▁@25	-12.9094
tyl	-12.9113
are	-12.9128
ction	-12.9159
▁encourag	-12.9176
tech	-12.9183
efficient	-12.919
ids	-12.9198
▁network	-12.9205
▁ju	-12.9208
▁attribute	-12.9211
▁sample	-12.922
▁reaction	-12.9222
▁Sa	-12.9222
▁mast	-12.9223
▁slug	-12.9224
▁hazard	-12.9226
▁cultivar	-12.9229
then	-12.9238
▁droppings	-12.9245
feed	-12.9256
▁ranges	-12.9257
yield	-12.9261
ga	-12.9276
vic	-12.9278
man	-12.9279
81.0	-12.9287
▁foods	-12.929
▁bulbs	-12.9301
treat	-12.9304
92.0	-12.931
▁demonstrat	-12.9321
irrigating	-12.9334
eri	-12.9336
hut	-12.9336
raingun	-12.9338
effect	-12.9339
total	-12.9339
punjab	-12.9339
super	-12.934
quintal	-12.934
density	-12.934
disease	-12.934
summer	-12.934
SRI	-12.934
uniform	-12.9341
plus	-12.9341
power	-12.9342
▁52	-12.9344
▁preserv	-12.9353
▁wt	-12.9376
ranja	-12.9382
▁pressur	-12.9395
▁diagnos	-12.9399
▁Adopt	-12.9399
andhi	-12.9399
enomyl	-12.9399
▁confirm	-12.9399
requent	-12.9399
▁vermi	-12.94
itamin	-12.94
▁public	-12.94
lihood	-12.94
▁9435564391	-12.94
▁ahmed	-12.94
▁empower	-12.94
plasm	-12.94
▁Arunachalam	-12.94
▁Market	-12.94
▁Plantae	-12.94
▁Preparation	-12.94
▁Raja	-12.94
▁adhere	-12.94
▁aluminum	-12.94
▁belief	-12.94
▁bundle	-12.94
▁catterpillar	-12.94
▁catterpiller	-12.94
▁certificate	-12.94
▁charmil	-12.94
▁chrysanthemum	-12.94
▁collapse	-12.94
▁complement	-12.94
▁demethon	-12.94
▁exercise	-12.94
▁finances	-12.94
▁homogeniz	-12.94
▁illustrating	-12.94
▁maceration	-12.94
▁message	-12.94
▁nasdar	-12.94
▁quinolphos	-12.94
▁seepage	-12.94
▁sequestration	-12.94
▁supplied	-12.94
▁supplies	-12.94
▁tufgor	-12.94
▁vicinity	-12.94
▁behavior	-12.94
▁deplete	-12.94
▁leverag	-12.94
▁provok	-12.94
▁rhino	-12.94
▁gilvus	-12.94
▁iverm	-12.94
▁cachar	-12.94
▁dissemination	-12.94
▁nutritious	-12.94
▁angle	-12.94
▁instrumentation	-12.94
▁business	-12.94
▁pigeonpea	-12.94
▁confidence	-12.94
▁mechanization	-12.94
▁tolerate	-12.94
▁hoof	-12.94
mmam	-12.94
▁cheap	-12.94
▁fytolan	-12.94
kuchi	-12.94
▁meghabor	-12.94
▁buildup	-12.94
▁grapevines	-12.94
▁fertilier	-12.94
growing	-12.94
▁scientifically	-12.94
-2.1	-12.9401
▁arrangement	-12.9401
▁complexity	-12.9401
aceous	-12.9401
▁pullet	-12.9401
▁mung	-12.9401
▁Handa	-12.9401
▁laborious	-12.9401
tesh	-12.9401
▁involvement	-12.9402
▁Armillaria	-12.9402
▁strain	-12.9404
-45@2.5	-12.9404
hu	-12.9404
▁oxygenation	-12.9405
▁correction	-12.9405
▁relie	-12.9406
▁0.75	-12.9406
▁gather	-12.9406
4)	-12.9407
▁stir	-12.9408
mixed	-12.9408
▁parbhani	-12.9409
▁csc	-12.9409
▁personal	-12.941
▁brace	-12.9412
rajan	-12.9412
▁attractive	-12.9413
rocin	-12.9414
▁ICRISAT	-12.9415
mx	-12.9418
▁fit	-12.942
▁anglong	-12.9421
▁older	-12.9421
▁moss	-12.9423
▁instruments	-12.9426
▁agrochemicals	-12.9426
▁14,	-12.9428
▁highest	-12.9429
▁guard	-12.9429
garding	-12.9437
▁contents	-12.9441
▁engines	-12.9443
▁mealybugs	-12.9443
▁@4	-12.9444
▁18.0	-12.9446
▁premises	-12.9446
▁consumer	-12.9455
▁Resources	-12.946
omycin	-12.9461
▁delayed	-12.9466
150	-12.9466
dried	-12.9472
,13	-12.948
anesh	-12.9484
86.0	-12.9484
▁bordo	-12.9488
ci	-12.9491
oria	-12.9496
▁Sp	-12.9498
▁aug	-12.95
▁listed	-12.9502
▁castrated	-12.9505
▁quar	-12.9509
▁bricks	-12.9512
▁propagate	-12.9513
▁@40	-12.9515
spect	-12.9519
▁structured	-12.9519
0,000	-12.9522
▁650	-12.9524
▁bay	-12.9528
▁officials	-12.9529
000	-12.9532
▁Fi	-12.9557
▁hormones	-12.9562
▁regulations	-12.9564
ja	-12.9566
gh	-12.9568
▁@18	-12.9575
wo	-12.958
▁populi	-12.9582
93	-12.9584
pan	-12.9586
FA	-12.9592
▁detected	-12.9593
lower	-12.9595
▁lea	-12.9614
▁225	-12.962
▁answered	-12.9623
▁inefficiencies	-12.963
▁nozzled	-12.9637
▁decid	-12.9649
pyrit	-12.9651
▁rocks	-12.9651
cy	-12.9656
▁cont	-12.9658
▁@12	-12.966
pro	-12.9663
▁Cercospor	-12.9664
▁IR	-12.9669
▁Forest	-12.9669
▁coats	-12.9671
hold	-12.9673
erox	-12.9684
agor	-12.9689
cmx	-12.9717
-7	-12.9724
39.0	-12.9749
▁-2	-12.976
▁20-25%	-12.9768
59.0	-12.9768
▁ulcers	-12.9787
▁Provid	-12.9795
▁na	-12.9828
tall	-12.9833
76	-12.9844
02	-12.9864
▁meri	-12.9871
64	-12.9875
/20	-12.9904
01.0	-12.9926
▁holders	-12.9928
01	-12.9929
84.	-12.993
,17	-12.9978
79.0	-12.9987
▁chillis	-12.9989
ho	-12.9997
vit	-12.9997
▁touch	-13.0008
otic	-13.0008
ist	-13.0031
ger	-13.0041
tilizer	-13.0053
66.	-13.0072
39	-13.0084
350	-13.0086
120	-13.0089
▁2,2	-13.0097
2.5	-13.0103
gent	-13.0108
09	-13.0118
▁roll	-13.0131
▁applicat	-13.0132
ase	-13.0137
rrigated	-13.0138
▁0.0	-13.0142
ian	-13.0145
hap	-13.0153
48.0	-13.0153
outlet	-13.0159
▁combinations	-13.0172
▁Eas	-13.0174
hy	-13.0175
organic	-13.0195
88.	-13.0196
▁deposit	-13.0205
▁course	-13.022
▁predator	-13.022
▁begin	-13.0222
▁regulation	-13.0222
tia	-13.0222
▁organism	-13.0225
▁chick	-13.0226
▁return	-13.0227
▁worker	-13.0232
▁border	-13.0233
▁danger	-13.0234
▁clone	-13.0235
▁133	-13.025
▁dhi	-13.0251
▁Pradesh	-13.0259
73	-13.0269
▁propagat	-13.0275
▁relationships	-13.0282
▁magur	-13.0286
---	-13.0302
▁medic	-13.0309
flow	-13.0316
67.	-13.0318
▁layering	-13.0319
▁float	-13.0325
dequate	-13.0329
▁elevat	-13.0329
utomatic	-13.033
horsepower	-13.0333
▁0.9	-13.0333
▁particular	-13.0337
@250	-13.0337
discharge	-13.0339
pgr	-13.0339
(4	-13.034
oxychloride	-13.034
You	-13.034
slurry	-13.034
nursery	-13.034
black	-13.034
contact	-13.034
permanent	-13.034
Wh	-13.034
portable	-13.0341
wide	-13.0341
copper	-13.0341
weeder	-13.0342
wanted	-13.0344
▁dirt	-13.0344
At	-13.0344
▁brief	-13.0347
ust	-13.0349
-38	-13.035
▁ja	-13.0354
once	-13.0355
▁generate	-13.0356
000/	-13.0357
▁3-	-13.036
▁aks	-13.0365
uk	-13.0369
-2,	-13.0374
▁mount	-13.0377
▁genom	-13.0382
im	-13.0382
▁en	-13.0385
ort	-13.0385
▁groov	-13.0391
▁pop	-13.0392
urrent	-13.0392
gular	-13.0397
▁bact	-13.0399
▁Assess	-13.0399
▁Inject	-13.0399
egetable	-13.04
igorous	-13.04
▁submer	-13.04
=120.6	-13.04
=124.4	-13.04
=124.8	-13.04
=126.5	-13.04
=127.8	-13.04
=128.2	-13.04
=129.2	-13.04
=130.4	-13.04
=131.3	-13.04
=132.6	-13.04
=132.8	-13.04
=133.5	-13.04
=134.2	-13.04
=135.2	-13.04
=136.7	-13.04
=137.1	-13.04
=139.3	-13.04
=139.4	-13.04
=140.7	-13.04
=140.9	-13.04
=142.2	-13.04
=142.3	-13.04
=142.6	-13.04
=142.7	-13.04
=142.8	-13.04
=143.5	-13.04
=143.6	-13.04
=143.8	-13.04
=144.1	-13.04
=145.5	-13.04
=146.3	-13.04
=147.1	-13.04
=147.9	-13.04
=148.8	-13.04
=149.2	-13.04
=152.8	-13.04
=155.4	-13.04
=158.5	-13.04
apotranspiration	-13.04
▁Agroforestry	-13.04
▁Carbon	-13.04
▁Establish	-13.04
▁Scab	-13.04
▁arrival	-13.04
▁balangir	-13.04
▁chatra	-13.04
▁chetki	-13.04
▁cooperative	-13.04
▁depict	-13.04
▁dhanbad	-13.04
▁dormancy	-13.04
▁drudgery	-13.04
▁gogoi	-13.04
▁hamirpur	-13.04
▁homogenous	-13.04
▁kissan	-13.04
▁lamp	-13.04
▁mahafol	-13.04
▁maneuver	-13.04
▁miracl	-13.04
▁narrow	-13.04
▁prophylactic	-13.04
▁qualities	-13.04
▁rajma	-13.04
▁ranikhet	-13.04
▁repayment	-13.04
▁saharsa	-13.04
▁salmonicolor	-13.04
▁simplicity	-13.04
▁smoke	-13.04
▁spouse	-13.04
▁swiftly	-13.04
▁syndrom	-13.04
▁verification	-13.04
▁vulnerability	-13.04
▁written	-13.04
=120.2	-13.04
=120.9	-13.04
▁Process	-13.04
▁practise	-13.04
=120.8	-13.04
=123.0	-13.04
▁Bihar	-13.04
▁Contact	-13.04
▁English	-13.04
▁beaut	-13.04
▁enjoy	-13.04
▁flock	-13.04
▁mesure	-13.04
▁monoculture	-13.04
▁trauma	-13.04
▁depression	-13.04
▁Space	-13.04
▁cashewnut	-13.04
▁deshi	-13.04
▁friction	-13.04
▁orifice	-13.04
▁Soft	-13.04
▁solvents	-13.04
=121.0	-13.04
▁rhinocero	-13.04
▁impair	-13.04
▁lift	-13.04
▁queries	-13.04
▁cardamom	-13.04
▁conflict	-13.04
▁purchasing	-13.04
▁earlier	-13.04
▁Mahafur	-13.04
▁gumla	-13.04
=136.0	-13.04
▁miraculan	-13.04
hellin	-13.04
▁Purple	-13.04
▁Wheat	-13.04
▁Move	-13.04
▁digital	-13.04
▁otherwise	-13.04
▁subven	-13.04
▁glands	-13.04
▁overfilling	-13.04
▁army	-13.04
▁breast	-13.04
▁vikas	-13.04
=130.0	-13.04
▁benomyl	-13.04
▁splash	-13.04
▁kannada	-13.04
▁wish	-13.0401
▁cip	-13.0401
ldin	-13.0401
▁mastile	-13.0401
▁Alternative	-13.0401
▁munger	-13.0401
▁Communit	-13.0401
▁tidy	-13.0401
▁box	-13.0401
▁bordeu	-13.0401
▁Creat	-13.0401
▁wk	-13.0401
▁sathi	-13.0402
▁trimming	-13.0402
▁principle	-13.0402
▁itself	-13.0402
anized	-13.0402
▁churn	-13.0402
▁garm	-13.0402
▁prize	-13.0403
▁preferable	-13.0403
▁Selection	-13.0403
▁predict	-13.0403
▁slower	-13.0403
▁profit	-13.0403
▁kale	-13.0403
▁bleach	-13.0403
▁napier	-13.0404
▁9435044574	-13.0404
▁eel	-13.0404
▁deficient	-13.0404
▁transmitted	-13.0404
▁rubi	-13.0404
▁batches	-13.0404
▁packaging	-13.0405
▁insert	-13.0405
▁star	-13.0406
running	-13.0407
lox	-13.0407
▁convert	-13.0407
▁bongaigaon	-13.041
▁planthoppers	-13.041
1/2	-13.0411
▁agitated	-13.0411
/2	-13.0411
▁jc	-13.0412
▁tridomorph	-13.0412
▁List	-13.0416
▁blite	-13.0417
▁septate	-13.0418
▁renewa	-13.0419
▁distorted	-13.0423
1.8	-13.0425
▁injury	-13.0426
▁cleaner	-13.0428
.@	-13.0429
RI	-13.0429
▁Kenya	-13.0429
ample	-13.0431
▁oxytetracyclin	-13.0435
inous	-13.0436
▁possess	-13.0436
▁Post	-13.0439
productive	-13.0444
▁shrubs	-13.0448
▁formers	-13.0449
130.0	-13.0449
▁fry	-13.045
▁cloves	-13.0452
metalaxyl	-13.0458
deaux	-13.0458
dam	-13.0458
ika	-13.046
▁biting	-13.0465
▁shifted	-13.0467
17.0	-13.0474
af	-13.0475
▁soluble	-13.0477
art	-13.0477
▁generated	-13.0481
stem	-13.0483
▁rootstocks	-13.0486
▁clogs	-13.0486
@33	-13.0493
▁equitabl	-13.0498
ops	-13.0503
▁gro	-13.0503
▁downwards	-13.0505
▁platforms	-13.0525
@11	-13.0527
▁sen	-13.0539
▁develops	-13.0539
▁Drying	-13.0541
▁Dinana	-13.0543
erization	-13.0553
cide	-13.0555
▁variations	-13.0563
selective	-13.0569
▁gp	-13.057
▁NH	-13.0574
▁#	-13.0578
HM	-13.0581
annum	-13.0584
ended	-13.0593
▁tool	-13.0593
@17	-13.0607
rani	-13.0608
igure	-13.0617
▁bedrocks	-13.0621
▁rises	-13.0622
▁persists	-13.0623
▁recognize	-13.0623
270	-13.0625
▁broadcasting	-13.0636
thio	-13.0639
▁periodic	-13.0651
ual	-13.067
ahu	-13.0677
▁slen	-13.0691
▁1.1	-13.0693
iv	-13.0698
▁drugs	-13.0699
▁wastes	-13.0709
ata	-13.071
▁49	-13.0718
▁dogs	-13.0719
▁scientists	-13.0719
▁legs	-13.072
bor	-13.072
▁Examin	-13.073
▁emerge	-13.0753
ticul	-13.0763
ug	-13.0766
inc	-13.0766
move	-13.0766
▁wa	-13.0773
▁safer	-13.0777
opulus	-13.0784
.1	-13.0787
ntensive	-13.0796
2500	-13.0812
▁cy	-13.0819
▁persons	-13.0839
,2500	-13.0851
▁proportions	-13.0857
▁rollers	-13.0857
▁halo	-13.0867
▁created	-13.0873
▁actions	-13.0873
22.0	-13.0875
▁0.25	-13.0882
pa	-13.0893
▁considerabl	-13.0911
▁pv	-13.092
7%	-13.0924
▁justif	-13.0926
11.4	-13.0929
▁modifie	-13.0933
sulfa	-13.0936
▁ko	-13.0937
▁branching	-13.0938
▁isolate	-13.0959
▁We	-13.0963
nel	-13.0972
fer	-13.0974
800	-13.099
67.0	-13.1028
▁Kerala	-13.1038
91.0	-13.1041
99.0	-13.1042
82.0	-13.1045
idge	-13.1056
▁vectors	-13.1057
666666666666666	-13.1062
▁wither	-13.1083
sel	-13.1088
ab	-13.109
04.0	-13.1096
▁seedbeds	-13.1097
lium	-13.1101
net	-13.1113
▁1.6	-13.1121
▁routines	-13.1138
inner	-13.1142
eart	-13.1145
▁Not	-13.115
▁equip	-13.1162
hot	-13.1165
@15	-13.117
thrin	-13.1172
▁206	-13.1177
val	-13.1178
▁capita	-13.1183
jg	-13.1198
▁herb	-13.1202
79	-13.1207
eaux	-13.1219
▁offed	-13.1221
▁43	-13.1221
140	-13.1222
970	-13.1224
▁carbend	-13.1224
ication	-13.1231
▁continu	-13.1248
▁paint	-13.1265
▁(1.5	-13.1267
33333333333333	-13.1277
bility	-13.1283
utritional	-13.1291
dia	-13.1291
active	-13.1297
▁9435	-13.1297
73.0	-13.1302
lum	-13.1314
▁strength	-13.132
▁Seeds	-13.1322
rit	-13.1323
▁objective	-13.1325
▁terrain	-13.1328
▁Cost	-13.1329
▁amino	-13.1333
uitable	-13.1334
▁windbreak	-13.1335
▁upward	-13.1335
▁household	-13.1335
▁constraint	-13.1337
▁synerg	-13.1337
▁hands	-13.1338
▁variation	-13.1341
direct	-13.1345
hal	-13.1348
ollow	-13.1365
52.	-13.1375
▁carps	-13.138
hang	-13.1384
▁tar	-13.1396
@200	-13.1396
ficial	-13.14
▁concept	-13.1401
ang	-13.1403
sheds	-13.1403
▁histor	-13.1407
cnose	-13.1408
▁innova	-13.141
▁rag	-13.1417
own	-13.1423
we	-13.1425
faci	-13.1428
▁flush	-13.1429
▁browning	-13.1438
colored	-13.1441
▁seeded	-13.1442
▁update	-13.1444
othe	-13.1446
pollination	-13.1447
ostocalcium	-13.145
FIRB	-13.145
glass	-13.145
boro	-13.145
dursban	-13.145
ranjit	-13.1451
protein	-13.1451
Malathion	-13.1451
tsf	-13.1451
saaf	-13.1451
allowing	-13.1453
ota	-13.1455
▁capacit	-13.1457
nut	-13.1458
dressing	-13.1462
full	-13.1465
ectona	-13.1473
▁tie	-13.1479
▁died	-13.1483
11.0	-13.1499
▁def	-13.1505
ypsum	-13.1508
-250	-13.1509
▁Asia	-13.151
anpur	-13.151
ponsor	-13.151
met	-13.151
▁ammoni	-13.1511
▁wok	-13.1511
▁import	-13.1511
▁Scientific	-13.1511
▁North	-13.1511
ariety	-13.1511
▁nanha	-13.1511
lachlor	-13.1511
▁Deep	-13.1511
▁Machine	-13.1511
▁Phyllostict	-13.1511
▁Potential	-13.1511
▁Strengthen	-13.1511
▁Support	-13.1511
▁Tip	-13.1511
▁Understand	-13.1511
▁Utiliz	-13.1511
▁accumulate	-13.1511
▁agronomic	-13.1511
▁alleviate	-13.1511
▁butterfly	-13.1511
▁celphos	-13.1511
▁compatibility	-13.1511
▁display	-13.1511
▁diversify	-13.1511
▁doctor	-13.1511
▁economy	-13.1511
▁encounter	-13.1511
▁evolution	-13.1511
▁feasibility	-13.1511
▁gauge	-13.1511
▁gravel	-13.1511
▁incubate	-13.1511
▁polyester	-13.1511
▁potao	-13.1511
▁pustules	-13.1511
▁scorching	-13.1511
▁tympanitis	-13.1511
▁underscore	-13.1511
▁utensil	-13.1511
▁vienna	-13.1511
▁wildlife	-13.1511
▁Amister	-13.1511
▁Mancozeb	-13.1511
▁More	-13.1511
▁birth	-13.1511
▁borrer	-13.1511
▁estrus	-13.1511
▁exceed	-13.1511
▁filed	-13.1511
▁reagr	-13.1511
▁recomemnd	-13.1511
▁Drainage	-13.1511
▁filtration	-13.1511
▁inspire	-13.1511
▁sick	-13.1511
▁campbell	-13.1511
▁conjunctivitis	-13.1511
▁dinanath	-13.1511
azacel	-13.1511
▁alok	-13.1511
▁accessories	-13.1511
▁shillongani	-13.1511
▁turbidity	-13.1511
▁bilahi	-13.1511
▁bolster	-13.1511
ship	-13.1511
▁bull	-13.1511
▁Mono	-13.1511
▁bikas	-13.1511
▁possibilit	-13.1511
▁resum	-13.1511
▁crush	-13.1511
▁ditch	-13.1511
▁strawberries	-13.1511
▁hyphae	-13.1511
▁debility	-13.1511
▁sharing	-13.1511
allel	-13.1511
▁Education	-13.1511
▁emitters	-13.1511
▁dilution	-13.1511
▁edible	-13.1511
▁varuna	-13.1511
▁coarse	-13.1511
▁label	-13.1511
▁code	-13.1511
▁photo	-13.1511
▁ivy	-13.1511
▁unproductive	-13.1511
▁sikkim	-13.1511
▁sound	-13.1511
▁disinfectant	-13.1511
▁Follow	-13.1511
▁motion	-13.1512
▁ifsc	-13.1512
▁spell	-13.1512
▁held	-13.1512
▁Cifax	-13.1512
▁dieback	-13.1512
▁premiu	-13.1512
▁Promote	-13.1512
▁Disinfect	-13.1512
▁vinegar	-13.1512
▁stressors	-13.1512
▁sudden	-13.1512
▁sink	-13.1512
-72@2	-13.1512
▁Final	-13.1512
▁krishna	-13.1512
▁incite	-13.1512
inimiz	-13.1513
TL	-13.1513
▁bayer	-13.1513
mosa	-13.1513
cute	-13.1513
▁indication	-13.1513
ttar	-13.1513
▁radic	-13.1514
▁oval	-13.1514
▁feel	-13.1514
otrich	-13.1514
▁offset	-13.1514
Profex	-13.1514
▁mesh	-13.1514
▁marginal	-13.1514
amping	-13.1515
▁hinosan	-13.1515
▁circle	-13.1515
▁dhubri	-13.1515
▁furadan	-13.1515
▁honeydew	-13.1515
▁kitchen	-13.1515
▁mahyco	-13.1515
▁pactus	-13.1515
▁saikia	-13.1515
▁Aphid	-13.1515
arbendazim	-13.1516
▁opportunit	-13.1516
▁aquaculture	-13.1516
▁creation	-13.1517
▁9435521447	-13.1518
▁however	-13.1519
ustard	-13.152
sured	-13.1521
▁opt	-13.1522
▁stay	-13.1522
▁kanaklata	-13.1522
▁division	-13.1522
leanliness	-13.1522
spindle	-13.1523
▁starch	-13.1524
▁amb	-13.1526
▁Technology	-13.1529
-900	-13.153
▁director	-13.153
▁darken	-13.1531
▁12.5	-13.1533
▁drenches	-13.1536
onidiophores	-13.1537
▁dalbergiae	-13.1537
▁agitation	-13.1539
ene	-13.154
▁3/4	-13.154
▁fallow	-13.1543
▁manuring	-13.1545
▁sugges	-13.1546
pankaj	-13.1546
▁Start	-13.1551
▁1.50	-13.1558
dot	-13.1559
▁staking	-13.1559
▁Kendra	-13.156
▁chloropyriphose	-13.1565
iri	-13.1566
easonal	-13.1569
83.0	-13.157
earing	-13.1575
▁incorrect	-13.1576
▁phyto	-13.1577
▁undern	-13.1578
▁13.0	-13.1581
▁Line	-13.1582
▁host	-13.1582
▁suppliers	-13.1586
▁20-50	-13.1587
maneb	-13.1589
▁40-45	-13.159
85.0	-13.1591
▁ecto	-13.1593
▁inefficiency	-13.1594
pension	-13.1601
▁2.2	-13.1602
dging	-13.1606
rima	-13.161
▁applic	-13.1614
▁projects	-13.1614
AR	-13.1619
▁apples	-13.1619
▁exudat	-13.162
34.	-13.1622
▁faces	-13.1627
▁fast	-13.1628
▁90%	-13.1636
▁inhal	-13.1642
iphos	-13.1643
▁shared	-13.1646
▁interested	-13.1646
olus	-13.1647
225	-13.165
▁indoors	-13.1651
outlets	-13.1651
▁19.0	-13.1656
▁trays	-13.1673
▁disorders	-13.1673
ze	-13.1675
▁settle	-13.1675
▁screens	-13.1677
▁2-5	-13.168
nding	-13.1683
sow	-13.1691
▁39	-13.1692
▁inactive	-13.1693
63	-13.1694
▁easter	-13.1694
▁26.0	-13.1695
▁singh	-13.1698
,15	-13.1718
-500	-13.1719
ua	-13.1737
▁samples	-13.1738
▁Manu	-13.1741
1%	-13.1741
▁4.8	-13.1755
ythi	-13.1755
76.	-13.1757
▁branched	-13.1763
reening	-13.1777
92	-13.178
23.0	-13.1791
▁fus	-13.1799
ori	-13.1805
▁che	-13.1806
▁spa	-13.1806
▁ban	-13.1815
▁wi	-13.182
oty	-13.1821
▁Pre	-13.1823
▁pouring	-13.1825
▁joints	-13.1826
0-120	-13.1833
▁mil	-13.1835
▁prof	-13.1835
▁ab	-13.1848
▁sprouts	-13.185
-50/	-13.1854
▁mushrooms	-13.1875
4.5	-13.188
fit	-13.1882
ast	-13.1895
tara	-13.1896
pical	-13.1917
▁63	-13.1921
ridge	-13.1923
▁bitt	-13.1929
▁40%	-13.1943
▁440	-13.1944
▁Extensi	-13.1945
lon	-13.1951
96.	-13.1954
▁Tre	-13.1958
tox	-13.1975
▁cit	-13.1976
degrad	-13.1979
ize	-13.1986
▁noted	-13.1988
130	-13.1991
found	-13.1994
92.	-13.1998
▁phases	-13.2004
47.0	-13.2008
▁volatiliz	-13.2033
▁clearly	-13.2038
▁boarde	-13.2056
66.0	-13.2065
-1.75	-13.2081
arm	-13.2099
▁secure	-13.2109
▁stores	-13.2123
aff	-13.2125
▁36%	-13.2145
ati	-13.2156
▁mins	-13.2159
49.0	-13.2162
etter	-13.2172
▁opening	-13.2176
wa	-13.2186
▁Ro	-13.2191
....5	-13.2203
oral	-13.2204
▁fin	-13.221
0-100%	-13.2221
▁mitigated	-13.2221
ran	-13.2231
▁targets	-13.2232
ula	-13.2244
rose	-13.2246
▁6444,	-13.2246
pest	-13.2249
ign	-13.2268
iling	-13.2297
▁reshape	-13.2297
,18	-13.2305
orn	-13.231
▁floors	-13.2312
▁bit	-13.2335
ala	-13.2345
▁bore	-13.2355
livia	-13.2361
ect	-13.2362
borer	-13.2366
lade	-13.2372
rous	-13.2382
ercospora	-13.2402
▁solved	-13.2403
▁ka	-13.2406
-50,	-13.241
▁marigolds	-13.2414
oli	-13.2415
▁fro	-13.242
rusting	-13.2437
▁sm	-13.2449
ko	-13.2451
-17	-13.2456
tone	-13.2463
nions	-13.2463
▁nor	-13.2469
▁recogniz	-13.2485
▁expos	-13.2517
▁(100	-13.2545
ah	-13.2552
rown	-13.2553
1960	-13.2557
▁rega	-13.2561
▁mah	-13.2564
▁grub	-13.2566
rative	-13.2571
▁US	-13.2571
▁gerbera	-13.2575
▁armyworm	-13.2577
▁Bean	-13.258
▁screen	-13.2581
▁disorder	-13.2581
omatic	-13.2583
cil	-13.2584
▁stalk	-13.2584
esh	-13.2587
▁basket	-13.2592
its	-13.2598
▁Du	-13.2599
▁ke	-13.2602
▁Manag	-13.2608
▁fr	-13.261
volv	-13.2613
hr	-13.2617
▁sticks	-13.2618
erm	-13.2631
dec	-13.2632
▁gene	-13.2636
ven	-13.2641
ude	-13.2641
▁gi	-13.2652
▁medi	-13.2655
▁automat	-13.2655
iz	-13.2664
contain	-13.2664
(20	-13.2672
grow	-13.2673
stead	-13.2674
▁//	-13.2674
root	-13.2689
▁leach	-13.269
▁eliminated	-13.2693
@1250	-13.2695
@19	-13.2695
▁cure	-13.2695
sulphide	-13.2695
judicious	-13.2696
▁map	-13.2696
trace	-13.2698
micro	-13.2699
Classic	-13.2699
house	-13.27
hydrogen	-13.27
february	-13.27
ventilated	-13.27
dwarf	-13.2701
fix	-13.2701
fruit	-13.2701
captan	-13.2701
while	-13.2701
bearing	-13.2701
white	-13.2701
calcium	-13.2701
vine	-13.2702
local	-13.2702
feb	-13.2702
from	-13.2703
grown	-13.2704
cement	-13.2705
mounted	-13.2706
▁official	-13.2707
It	-13.2708
dostem	-13.2711
▁remedi	-13.2712
▁mukh	-13.2714
▁gentl	-13.2718
locat	-13.2719
▁Sprinkle	-13.2719
lep	-13.272
▁applie	-13.2722
echnical	-13.2726
▁Conidi	-13.2732
▁imidachlo	-13.2733
form	-13.2736
▁44	-13.2744
win	-13.2746
▁fa	-13.2749
tillering	-13.275
▁1800	-13.2752
▁schem	-13.2755
▁legum	-13.2756
magne	-13.2757
ermanent	-13.2759
▁progress	-13.2759
athogens	-13.2759
▁micr	-13.2759
▁minist	-13.276
nternational	-13.276
ket	-13.276
▁tract	-13.2761
eterinary	-13.2761
▁weakness	-13.2761
ployment	-13.2761
▁nemato	-13.2761
▁flour	-13.2761
▁temperat	-13.2761
=123.2	-13.2761
=123.6	-13.2761
=124.9	-13.2761
=126.3	-13.2761
=127.1	-13.2761
=127.3	-13.2761
=128.1	-13.2761
=128.8	-13.2761
=131.6	-13.2761
=131.7	-13.2761
=131.8	-13.2761
=132.3	-13.2761
=132.7	-13.2761
=134.1	-13.2761
=134.9	-13.2761
=136.5	-13.2761
=137.9	-13.2761
=138.1	-13.2761
=138.5	-13.2761
=139.1	-13.2761
=140.2	-13.2761
=140.4	-13.2761
=141.3	-13.2761
=141.8	-13.2761
=144.2	-13.2761
=145.1	-13.2761
=145.2	-13.2761
=145.3	-13.2761
=146.5	-13.2761
=147.3	-13.2761
=148.3	-13.2761
=149.3	-13.2761
=151.8	-13.2761
=152.6	-13.2761
=153.2	-13.2761
=158.6	-13.2761
=159.9	-13.2761
=169.5	-13.2761
=177.2	-13.2761
ICFRE	-13.2761
lxbxh	-13.2761
xocortis	-13.2761
▁Acre	-13.2761
▁Advantages	-13.2761
▁Bengal	-13.2761
▁CBSD	-13.2761
▁Coffee	-13.2761
▁Dehradun	-13.2761
▁Mineral	-13.2761
▁SALT	-13.2761
▁Study	-13.2761
▁Uganda	-13.2761
▁anthalmintic	-13.2761
▁archetype	-13.2761
▁arwal	-13.2761
▁asafoetida	-13.2761
▁aurangabad	-13.2761
▁bardhaman	-13.2761
▁beehive	-13.2761
▁budaun	-13.2761
▁buxar	-13.2761
▁canopies	-13.2761
▁category	-13.2761
▁champaran	-13.2761
▁chikkaballapura	-13.2761
▁cloud	-13.2761
▁coalesce	-13.2761
▁coimbatore	-13.2761
▁communicat	-13.2761
▁detrimental	-13.2761
▁flammable	-13.2761
▁geographic	-13.2761
▁guord	-13.2761
▁hazaribagh	-13.2761
▁hibiscus	-13.2761
▁hypocotyls	-13.2761
▁kanchipuram	-13.2761
▁kandhamal	-13.2761
▁kanker	-13.2761
▁kantha	-13.2761
▁karimganj	-13.2761
▁katihar	-13.2761
▁kerosene	-13.2761
▁kolar	-13.2761
▁koraput	-13.2761
▁lenght	-13.2761
▁lifecycle	-13.2761
▁nizamabad	-13.2761
▁oppos	-13.2761
▁pleasing	-13.2761
▁porbandar	-13.2761
▁prasad	-13.2761
▁proceed	-13.2761
▁radioactiv	-13.2761
▁recycl	-13.2761
▁sevak	-13.2761
▁suffocation	-13.2761
▁tirunelveli	-13.2761
▁transaction	-13.2761
▁unakoti	-13.2761
▁vulnerab	-13.2761
▁wireworms	-13.2761
=160.4	-13.2761
=160.5	-13.2761
▁9435066297	-13.2761
▁Sanitation	-13.2761
▁changing	-13.2761
▁godrej	-13.2761
▁gutter	-13.2761
▁title	-13.2761
=127.0	-13.2761
▁Drink	-13.2761
▁Inspections	-13.2761
▁insulate	-13.2761
▁metabolism	-13.2761
▁pathway	-13.2761
embel	-13.2761
▁chandra	-13.2761
▁examination	-13.2761
▁flea	-13.2761
▁meghdoot	-13.2761
▁araria	-13.2761
▁except	-13.2761
▁Nigeria	-13.2761
▁Wound	-13.2761
▁iodine	-13.2761
▁bracket	-13.2761
▁collaborati	-13.2761
▁swelling	-13.2761
duced	-13.2761
▁Neem	-13.2761
▁silver	-13.2761
▁enlarge	-13.2761
▁Mahaphal	-13.2761
▁Borax	-13.2761
▁electro	-13.2761
▁enrofloxacin	-13.2761
▁luit	-13.2761
▁immovable	-13.2761
▁baby	-13.2761
▁Employ	-13.2761
▁Folia	-13.2761
plication	-13.2761
▁inflammation	-13.2761
kela	-13.2761
▁Myrta	-13.2761
▁vlew	-13.2761
▁accompan	-13.2761
▁Amend	-13.2761
▁scarcity	-13.2761
▁generation	-13.2761
67	-13.2761
▁planket	-13.2761
▁tires	-13.2761
▁fungicidal	-13.2761
▁tabaci	-13.2761
imetho	-13.2761
▁suhara	-13.2761
▁innovation	-13.2761
euti	-13.2761
▁Excessive	-13.2761
▁interior	-13.2761
▁misconception	-13.2761
▁publication	-13.2761
▁Bird	-13.2761
▁prominent	-13.2761
▁search	-13.2762
▁progression	-13.2762
▁ripeness	-13.2762
▁overnight	-13.2762
▁Wilt	-13.2762
▁borah	-13.2762
▁demonstration	-13.2762
▁dangerous	-13.2762
▁scatter	-13.2762
▁governance	-13.2762
▁restoration	-13.2762
▁venture	-13.2762
▁profitable	-13.2762
▁req	-13.2762
▁Treatment	-13.2762
libor	-13.2763
▁foil	-13.2763
▁Improvement	-13.2763
▁owner	-13.2763
▁passes	-13.2763
▁freshness	-13.2763
▁garhwal	-13.2763
▁thioph	-13.2763
▁subject	-13.2764
▁West	-13.2764
▁Tomatoes	-13.2764
▁boran	-13.2765
▁outline	-13.2765
▁3-3.5	-13.2765
quin	-13.2765
▁comparable	-13.2765
▁goatery	-13.2765
▁biofertilizer	-13.2765
▁dryers	-13.2766
▁anthurium	-13.2766
▁dhemaji	-13.2766
▁Amaranth	-13.2766
▁Participat	-13.2766
▁mashuri	-13.2766
▁Multiplex	-13.2766
▁rinse	-13.2766
▁vegetation	-13.2766
▁Indonesia	-13.2767
▁bettle	-13.2767
▁ulceration	-13.2767
▁beetel	-13.2768
▁Cut	-13.2768
▁nest	-13.2769
▁sticker	-13.277
▁dadr	-13.277
▁np	-13.277
▁chain	-13.2771
▁chl	-13.2771
▁organically	-13.2772
▁haveli	-13.2773
bloatosil	-13.2773
▁Phosphorus	-13.2774
▁piller	-13.2774
sawdust	-13.2775
▁jain	-13.2775
▁toximer	-13.2775
▁wise	-13.2775
▁trapping	-13.2776
▁trenches	-13.2778
▁2.3	-13.2778
▁Pump	-13.2781
▁November	-13.2782
rhiz	-13.2783
714285714285714	-13.2787
▁goa	-13.2789
▁suk	-13.279
▁0.02	-13.2791
▁propiconazole	-13.2792
▁recomm	-13.2792
▁pack	-13.2794
emisi	-13.2795
▁soften	-13.2798
▁Examples	-13.2798
▁ruminants	-13.2798
▁raha	-13.2799
▁sometimes	-13.28
▁watre	-13.28
▁foll	-13.2804
▁event	-13.2805
▁80-100	-13.2805
▁remedie	-13.281
▁hac	-13.2812
▁30-50	-13.2812
▁qt	-13.2813
▁boiled	-13.2818
▁rotate	-13.2819
-75	-13.2821
▁rogu	-13.2825
▁2,4	-13.2825
minerax	-13.2826
▁roses	-13.2827
▁port	-13.2831
▁stunting	-13.2832
▁pollination	-13.2834
62.0	-13.2834
▁attc	-13.2834
ok	-13.2835
transplanting	-13.2837
▁rani	-13.2839
bo	-13.2841
emember	-13.2845
▁wo	-13.2845
▁Phom	-13.2847
oestrous	-13.2849
/3	-13.2852
▁kar	-13.2853
▁radishes	-13.2854
▁flushing	-13.2854
▁hen	-13.2858
▁bite	-13.2863
▁nose	-13.2864
▁thistle	-13.2864
-29	-13.2865
aph	-13.2866
▁invaded	-13.2868
135	-13.2877
▁/10	-13.2877
▁gases	-13.2877
▁loses	-13.2897
▁57%	-13.2897
ini	-13.2902
▁12.0	-13.2905
▁pho	-13.2907
ai	-13.2907
adi	-13.2908
113	-13.2909
acy	-13.2911
▁let	-13.2913
▁Manage	-13.2916
▁KCl	-13.2917
▁impli	-13.2921
05	-13.2929
iram	-13.293
By	-13.2937
▁blacken	-13.2939
gas	-13.2945
▁baskets	-13.2946
butt	-13.2948
▁Safe	-13.2949
▁ste	-13.2952
▁Bur	-13.2958
-46,	-13.2959
▁synergist	-13.2962
▁242	-13.2965
▁hind	-13.2965
▁longe	-13.2971
1000	-13.2975
▁concerns	-13.2983
▁dangers	-13.2996
▁ESP	-13.3
▁disseminate	-13.3007
cer	-13.3009
▁repeated	-13.301
ntrol	-13.3013
▁ava	-13.3016
▁wor	-13.3025
900	-13.3033
▁50.0	-13.3055
,25	-13.3056
elling	-13.3058
▁ram	-13.3064
▁organize	-13.3069
5)	-13.3075
▁pheno	-13.3089
vir	-13.3093
▁poles	-13.3096
▁pur	-13.3099
rka	-13.3102
oma	-13.3104
▁kal	-13.3117
▁releas	-13.3129
250	-13.313
▁tray	-13.3134
65.0	-13.3137
▁dev	-13.3137
▁blooming	-13.3142
468	-13.3144
pping	-13.3146
▁3.1	-13.3159
▁fent	-13.3169
275	-13.3173
▁car	-13.3179
▁pep	-13.3184
▁-3	-13.3186
ino	-13.3194
▁images	-13.3197
▁availed	-13.3206
(1	-13.3209
inject	-13.3218
▁threads	-13.3222
▁mahi	-13.3226
14,000	-13.3229
▁mat	-13.324
▁1.9	-13.3265
▁@1.75	-13.3269
▁popul	-13.3288
ada	-13.3301
still	-13.3308
▁boot	-13.3318
online	-13.3327
▁50/	-13.3328
▁Affect	-13.3335
port	-13.3347
hree	-13.3351
▁malthi	-13.3356
▁@6	-13.3358
▁Enhanc	-13.3359
utting	-13.3369
▁ce	-13.3376
6-4	-13.3386
▁cho	-13.3387
84.0	-13.3392
▁transmit	-13.3394
ceae	-13.3395
▁Irrigate	-13.3409
prim	-13.3418
▁ve	-13.3437
66666666666666	-13.3442
▁normally	-13.3463
▁cam	-13.3475
▁smoothly	-13.3477
▁stocks	-13.3507
▁0.91	-13.3508
▁pl	-13.3518
(6	-13.352
live	-13.3522
vi	-13.3564
▁advocat	-13.3589
25.	-13.3596
▁cou	-13.3612
pk	-13.3615
ff	-13.3662
▁sant	-13.3668
rust	-13.3683
ib	-13.3684
56.	-13.3688
▁ri	-13.3689
▁Fluctuati	-13.3692
offs	-13.372
▁supervise	-13.3725
ssel	-13.3729
▁User	-13.3729
▁sk	-13.3729
amine	-13.3747
990	-13.3768
tin	-13.3772
lot	-13.3785
1200	-13.3789
▁covers	-13.3795
tching	-13.3808
cium	-13.3838
ave	-13.384
▁alkalin	-13.3849
bl	-13.3856
nia	-13.389
▁epil	-13.3893
ngo	-13.3906
▁3.7	-13.3907
▁calculat	-13.3913
istic	-13.3928
...10	-13.3938
rive	-13.3942
ck	-13.3943
▁tube	-13.3948
730	-13.3956
▁milking	-13.3956
vegetable	-13.3959
▁potas	-13.3964
▁manipulat	-13.3972
weed	-13.3976
long	-13.3976
ach	-13.3981
▁fen	-13.3983
udi	-13.3988
▁chole	-13.3992
▁gran	-13.3996
▁---	-13.3997
▁shop	-13.4001
▁snail	-13.4004
▁framework	-13.4004
▁bactericide	-13.4007
▁Yield	-13.4009
▁leafhopper	-13.4009
▁indoor	-13.4009
▁platform	-13.401
▁corner	-13.401
▁brick	-13.4011
▁expense	-13.4014
▁job	-13.4014
▁blockage	-13.4017
▁amendment	-13.4018
▁implication	-13.4018
▁135	-13.4021
now	-13.4021
▁overly	-13.4032
nal	-13.404
lize	-13.404
▁professionals	-13.4041
ardening	-13.4042
ndofil	-13.4049
wel	-13.4054
sid	-13.4055
▁mor	-13.406
ette	-13.4064
▁advi	-13.4066
ima	-13.4072
▁stunt	-13.4075
▁defici	-13.4077
round	-13.4078
▁Consisten	-13.4089
etc	-13.4098
,33	-13.4099
grain	-13.41
vised	-13.4105
oon	-13.4112
ccess	-13.4118
▁1320	-13.4121
way	-13.4122
(100	-13.4123
@850	-13.4125
▁relate	-13.4126
cover	-13.4126
krh	-13.4127
burnihat	-13.4127
Nitrogen	-13.4128
41	-13.4128
ostovet	-13.4128
experience	-13.4128
intact	-13.4128
suspect	-13.4128
rocket	-13.4129
bipul	-13.4129
khanapara	-13.4129
recommended	-13.4129
turmeric	-13.4129
january	-13.4129
first	-13.4129
agriculture	-13.413
foot	-13.413
potato	-13.413
▁combin	-13.413
cauliflower	-13.413
including	-13.413
tomato	-13.413
high	-13.4131
output	-13.4131
irrigated	-13.4131
pass	-13.4132
pig	-13.4134
food	-13.4134
▁folia	-13.4142
▁Regula	-13.4142
▁altitud	-13.4151
oti	-13.4151
-125	-13.4155
alone	-13.4155
▁distort	-13.4155
@30	-13.4156
▁replant	-13.4165
arden	-13.4167
tte	-13.4174
▁Program	-13.4178
▁miss	-13.4178
▁clos	-13.4179
thir	-13.418
▁medicin	-13.4181
▁mimic	-13.4182
▁featur	-13.4184
▁margin	-13.4185
▁(201	-13.4186
▁tannin	-13.4187
▁princip	-13.4187
▁recei	-13.4187
▁Powder	-13.4188
rolonged	-13.4188
ontaf	-13.4188
ummarize	-13.4188
pm	-13.4189
eek	-13.4189
hlorosis	-13.4189
▁Excess	-13.4189
inancial	-13.4189
▁byrnih	-13.4189
▁colocas	-13.4189
aishali	-13.4189
milil	-13.4189
clusion	-13.4189
▁Evidence	-13.4189
▁Multi	-13.4189
▁dang	-13.4189
▁Scleroti	-13.4189
▁favour	-13.4189
▁vulgaris	-13.4189
/2021/02	-13.4189
aldehyde	-13.4189
dhanucop	-13.4189
erucosis	-13.4189
rrhoea	-13.4189
▁Calcium	-13.4189
▁Close	-13.4189
▁Hexaconazole	-13.4189
▁Infrastructure	-13.4189
▁Precautions	-13.4189
▁Project	-13.4189
▁Slurry	-13.4189
▁Studies	-13.4189
▁abscission	-13.4189
▁album	-13.4189
▁anorexia	-13.4189
▁bhattacharya	-13.4189
▁biswanath	-13.4189
▁buck	-13.4189
▁chhuhara	-13.4189
▁chirang	-13.4189
▁chocking	-13.4189
▁dermatitis	-13.4189
▁drumstick	-13.4189
▁encompass	-13.4189
▁fluorescens	-13.4189
▁hdfc	-13.4189
▁inherent	-13.4189
▁interpla	-13.4189
▁juggery	-13.4189
▁jyotiprasad	-13.4189
▁kavach	-13.4189
▁language	-13.4189
▁limb	-13.4189
▁mercur	-13.4189
▁patna	-13.4189
▁rahman	-13.4189
▁staple	-13.4189
▁synthesis	-13.4189
▁taxonom	-13.4189
▁trolley	-13.4189
▁verify	-13.4189
▁vigilant	-13.4189
▁vitaplex	-13.4189
▁wonder	-13.4189
▁wrong	-13.4189
CSA	-13.419
▁Further	-13.419
▁blister	-13.419
▁certification	-13.419
▁dicofol	-13.419
▁glucose	-13.419
▁phenotypi	-13.419
azotobacter	-13.419
▁Ustad	-13.419
▁chocolate	-13.419
▁husk	-13.419
▁iii	-13.419
▁oryzae	-13.419
▁suugest	-13.419
769230769230769	-13.419
▁palak	-13.419
▁plaque	-13.419
▁tendency	-13.419
▁Hydr	-13.419
CBS	-13.419
DAP	-13.419
▁deforestation	-13.419
▁methodologies	-13.419
▁sonalika	-13.419
▁bacill	-13.419
▁multiply	-13.419
▁respond	-13.419
▁nurocombi	-13.419
▁social	-13.419
overty	-13.419
▁compliance	-13.419
▁explore	-13.419
▁pregnancy	-13.419
▁sporangia	-13.419
▁Dairy	-13.419
▁certified	-13.419
▁fertizer	-13.419
▁stool	-13.419
▁Head	-13.419
▁ethanol	-13.419
▁finish	-13.419
▁biopesticide	-13.419
▁Pink	-13.419
▁Production	-13.419
▁expire	-13.419
▁goalpara	-13.419
▁sarai	-13.419
▁Melam	-13.419
▁sclerotia	-13.419
champa	-13.419
▁exclusion	-13.419
▁campus	-13.419
▁bioactive	-13.419
▁stagnation	-13.419
▁buyers	-13.419
▁money	-13.419
▁sq	-13.419
▁incubating	-13.419
▁quarry	-13.419
dig	-13.419
▁clods	-13.419
▁worth	-13.419
▁goal	-13.419
▁korea	-13.419
olokia	-13.419
▁companies	-13.419
▁baroda	-13.419
▁CMD	-13.419
▁slant	-13.419
▁fulfill	-13.419
▁resp	-13.4191
▁gender	-13.4191
▁watr	-13.4191
▁fear	-13.4191
blon	-13.4191
▁dat	-13.4191
▁sponsor	-13.4191
▁lamd	-13.4191
var	-13.4191
▁psu	-13.4191
▁hypochlor	-13.4191
▁infestata	-13.4191
▁patch	-13.4191
▁deter	-13.4191
▁colouration	-13.4192
▁rope	-13.4192
▁SAF	-13.4192
HRT	-13.4192
▁Drench	-13.4192
▁woodland	-13.4192
▁Sigatoka	-13.4192
▁alternata	-13.4193
▁mob	-13.4193
▁lomo	-13.4193
▁slime	-13.4193
▁fura	-13.4193
▁fair	-13.4193
▁qtl	-13.4193
▁0361-	-13.4194
▁byrnihat	-13.4194
ffice	-13.4194
▁acidity	-13.4194
▁rake	-13.4194
▁china	-13.4194
▁supplementation	-13.4194
1750	-13.4194
▁500-600	-13.4194
▁masur	-13.4194
▁judicious	-13.4195
▁Protein	-13.4195
▁Second	-13.4195
▁demeton	-13.4195
▁hampshire	-13.4195
▁reuse	-13.4195
gal	-13.4195
onil	-13.4197
▁cup	-13.4198
▁customer	-13.4198
laborat	-13.4198
▁aggressi	-13.4199
cole	-13.4199
▁horn	-13.42
▁sally	-13.42
▁hormon	-13.42
ouble	-13.42
▁belong	-13.4201
omite	-13.4203
▁validate	-13.4204
▁aski	-13.4204
▁originat	-13.4204
▁teat	-13.4204
▁bw	-13.4204
▁kuwari	-13.4205
▁swimming	-13.4205
▁exclude	-13.4205
▁bheti	-13.4205
▁producers	-13.4205
▁participants	-13.4205
▁incentives	-13.4205
▁parasitoids	-13.4205
▁sessions	-13.4205
▁fame	-13.4206
bhog	-13.4207
▁ether	-13.4208
▁acidic	-13.4209
▁surveying	-13.4209
▁lice	-13.4209
view	-13.421
culinary	-13.4212
▁degrade	-13.4212
▁prescrib	-13.4213
urf	-13.4214
▁convenience	-13.4215
▁romai	-13.4215
▁berry	-13.4215
▁572	-13.4217
▁moc	-13.4217
ecognition	-13.4219
▁temp	-13.4219
uery	-13.422
▁fee	-13.4222
▁marking	-13.4222
▁paan	-13.4223
ommended	-13.4224
gue	-13.4226
▁5.6	-13.4227
-2000	-13.423
▁Mulching	-13.4234
▁reference	-13.4235
▁authority	-13.4238
▁bind	-13.4242
gromin	-13.4243
▁accordingly	-13.4244
versely	-13.4244
...1	-13.4249
▁Note	-13.425
-1.2	-13.425
▁atmosphere	-13.4251
minamil	-13.4253
▁genetical	-13.4257
fa	-13.426
72.0	-13.4262
▁Trees	-13.4262
▁52.0	-13.4268
▁sel	-13.4272
cept	-13.4272
▁(1%)	-13.4272
▁tax	-13.4275
▁fluctuate	-13.4277
addle	-13.428
▁Myr	-13.4289
▁pk	-13.4292
▁milliliter	-13.4295
▁coal	-13.4307
▁withering	-13.4308
lace	-13.4312
281	-13.4312
▁ticks	-13.4319
▁@100	-13.4319
idum	-13.432
▁previously	-13.432
▁Then	-13.4322
▁chilies	-13.4326
▁zim	-13.4335
▁spher	-13.4336
aug	-13.4338
/50	-13.4343
▁worsens	-13.4346
oin	-13.4346
hili	-13.4347
▁beginners	-13.4348
elina	-13.4348
▁280	-13.4358
▁Divers	-13.4363
erry	-13.4367
They	-13.4367
▁engage	-13.4379
zin	-13.438
▁disinfecting	-13.4388
ado	-13.4389
4,000	-13.4391
▁,50	-13.4395
referred	-13.4403
▁Beans	-13.4405
7.5	-13.4418
RE	-13.4419
ni	-13.4419
▁emergen	-13.4432
▁Costs	-13.4434
▁terrains	-13.4434
rtilizer	-13.4438
14.0	-13.4454
pea	-13.4456
▁monitored	-13.446
▁overcom	-13.4463
▁predators	-13.4463
▁courses	-13.4463
oa	-13.4465
▁rolls	-13.4466
▁gra	-13.4467
ricyclazole	-13.4469
uring	-13.4474
sion	-13.4474
▁Combine	-13.4476
▁lu	-13.4492
tan	-13.4508
▁Des	-13.4511
olu	-13.4528
▁,3	-13.4547
▁sto	-13.4547
▁ears	-13.4548
▁miter	-13.4551
▁experiments	-13.4551
▁rem	-13.4551
▁coatings	-13.4551
▁89	-13.4555
▁tables	-13.4564
▁1050	-13.4566
oxide	-13.4579
ecause	-13.4588
950	-13.4602
▁625	-13.4604
▁irre	-13.4604
▁muc	-13.4607
▁pruned	-13.4625
▁-5	-13.4649
hini	-13.4659
cing	-13.466
:12	-13.4663
rom	-13.4668
▁har	-13.4693
▁earthworms	-13.4699
▁mal	-13.4702
▁patholog	-13.4705
▁dim	-13.4705
▁propert	-13.4709
,40	-13.4738
haphol	-13.4742
rtici	-13.476
urni	-13.4767
▁supervis	-13.4767
▁3,00,00	-13.4771
uli	-13.4778
times	-13.4779
▁antha	-13.478
▁Thiram	-13.4793
rance	-13.4815
▁ova	-13.4815
aj	-13.4835
textured	-13.4836
,2.5	-13.4839
▁Alternat	-13.4843
,11	-13.4844
▁piglets	-13.485
77	-13.4852
▁dam	-13.4852
vid	-13.4855
54.0	-13.4865
819	-13.4889
lai	-13.4892
ka	-13.4913
part	-13.4918
tro	-13.4919
▁appl	-13.4926
0.5	-13.493
hor	-13.4942
▁contr	-13.4973
izer	-13.4975
▁isolat	-13.4975
ung	-13.4985
▁ago	-13.4989
ial	-13.5001
vitamin	-13.5018
▁sol	-13.5018
▁maggots	-13.5033
saic	-13.5045
aci	-13.5062
▁bol	-13.5063
337	-13.5076
naa	-13.5087
▁spiders	-13.5094
▁fingerlings	-13.5126
▁correlati	-13.5126
▁enquir	-13.5144
▁soybeans	-13.5155
rine	-13.5161
@45	-13.5166
▁fat	-13.5187
13.0	-13.5214
oni	-13.5227
206	-13.5235
ef	-13.5253
SP	-13.5272
▁wat	-13.5274
-90	-13.5282
49	-13.5295
88.0	-13.5296
▁oranges	-13.5332
▁landholder	-13.5338
▁gour	-13.5359
ubic	-13.536
mor	-13.5364
▁84	-13.5373
▁dates	-13.5375
▁finally	-13.538
ete	-13.5386
▁scrap	-13.5386
mmonium	-13.5387
▁seeder	-13.5395
▁Ba	-13.5398
rash	-13.5423
zo	-13.544
▁meant	-13.5442
gene	-13.5444
5-8	-13.5446
tem	-13.5447
58.0	-13.5451
nium	-13.5461
inter	-13.5466
26.0	-13.5476
▁exacerbat	-13.5488
▁experienc	-13.5489
▁(25	-13.5492
rals	-13.5503
▁engag	-13.5511
▁fills	-13.5516
but	-13.5521
▁dep	-13.5522
190.0	-13.5538
infa	-13.5541
reca	-13.5558
ira	-13.5563
fos	-13.5571
▁reports	-13.5574
▁durg	-13.5577
▁sanj	-13.5592
head	-13.5601
▁sanitiz	-13.5605
▁Tri	-13.561
ncy	-13.5612
eclips	-13.5615
afety	-13.5625
▁col	-13.5634
myc	-13.5635
51	-13.5638
adequate	-13.5649
▁4.3	-13.5653
▁wit	-13.5657
pi	-13.5658
▁evaluat	-13.5661
▁squirrel	-13.5667
▁connection	-13.5669
▁assessment	-13.567
▁meta	-13.5671
▁beginner	-13.5675
▁worsen	-13.5675
pra	-13.5676
▁institution	-13.5676
▁downward	-13.5678
▁ferti	-13.5678
▁drawback	-13.568
▁parameter	-13.568
▁wheel	-13.5683
▁granule	-13.5683
▁lose	-13.5686
▁los	-13.5687
▁pulse	-13.5687
▁Ha	-13.5697
▁Method	-13.5698
emp	-13.5699
stock	-13.5706
rial	-13.5713
77.	-13.5715
gor	-13.5716
lu	-13.5723
goat	-13.5723
▁hatch	-13.5726
▁grower	-13.5735
▁fig	-13.5736
▁reccom	-13.5739
▁repel	-13.5743
=1	-13.5747
-300	-13.5748
▁pla	-13.5764
fish	-13.5765
ined	-13.5767
119	-13.5768
cidal	-13.5769
▁Fill	-13.5771
▁node	-13.5772
▁3.2	-13.5775
filled	-13.5775
alk	-13.5776
▁poison	-13.5779
▁113	-13.5784
▁international	-13.5786
▁fortnight	-13.5787
1.3	-13.5787
utomation	-13.5787
micron	-13.5787
233	-13.5788
▁conver	-13.579
mrigal	-13.5791
▁cycl	-13.5793
kisan	-13.5793
cutter	-13.5794
carbonate	-13.5794
triazophos	-13.5794
bw	-13.5794
mililiter	-13.5794
Anthracnose	-13.5794
damaging	-13.5795
compete	-13.5795
ambiplex	-13.5795
agrimin	-13.5795
Rogor	-13.5795
mouth	-13.5796
damaged	-13.5796
monocrotophos	-13.5796
decompose	-13.5796
repeat	-13.5796
phosphorus	-13.5796
chicken	-13.5796
followed	-13.5796
units	-13.5796
planofix	-13.5796
thiram	-13.5796
clean	-13.5796
district	-13.5796
banana	-13.5797
transplantation	-13.5797
bird	-13.5797
ganga	-13.5797
daily	-13.5798
grade	-13.5798
@40	-13.5799
qt	-13.5799
plantomycin	-13.5799
▁neg	-13.58
fertilizing	-13.5804
▁pul	-13.5805
nipur	-13.5806
05.0	-13.5807
pre	-13.5809
cane	-13.5813
▁qw	-13.5814
syngenta	-13.5814
subsidy	-13.5815
▁mange	-13.5826
▁cob	-13.5834
coal	-13.5837
▁disturb	-13.5841
pillar	-13.5843
▁parag	-13.5845
▁pou	-13.5847
▁Up	-13.5847
▁Climat	-13.5848
salt	-13.5849
▁herbicid	-13.585
▁Mahaf	-13.5851
tinction	-13.5851
▁topicur	-13.5851
▁garhwa	-13.5853
▁Construct	-13.5853
▁annua	-13.5853
▁Infectio	-13.5855
uffa	-13.5855
▁Pipe	-13.5855
▁kannad	-13.5855
▁trellis	-13.5855
▁count	-13.5855
▁chur	-13.5855
▁complain	-13.5855
▁compani	-13.5855
hlorothalonil	-13.5856
onservation	-13.5856
onsult	-13.5856
▁situat	-13.5856
roccoli	-13.5856
▁incubati	-13.5856
▁Colle	-13.5856
entilation	-13.5856
▁convey	-13.5856
▁flubensik	-13.5856
=121.5	-13.5856
=122.8	-13.5856
=123.1	-13.5856
=126.7	-13.5856
=127.4	-13.5856
=130.1	-13.5856
=133.3	-13.5856
=134.4	-13.5856
=134.6	-13.5856
=135.5	-13.5856
=136.9	-13.5856
=140.1	-13.5856
=143.9	-13.5856
=147.8	-13.5856
=148.2	-13.5856
=148.6	-13.5856
=148.7	-13.5856
=151.5	-13.5856
=153.8	-13.5856
=154.2	-13.5856
=154.5	-13.5856
=156.8	-13.5856
=157.1	-13.5856
=157.3	-13.5856
=158.1	-13.5856
=158.8	-13.5856
=161.6	-13.5856
=162.5	-13.5856
=164.4	-13.5856
=165.1	-13.5856
=165.8	-13.5856
=167.3	-13.5856
=168.7	-13.5856
=171.8	-13.5856
=172.3	-13.5856
=175.1	-13.5856
=178.2	-13.5856
=179.5	-13.5856
=179.7	-13.5856
=185.5	-13.5856
=186.4	-13.5856
=193.9	-13.5856
BBF	-13.5856
thiamethoxam	-13.5856
▁54,112	-13.5856
▁Animal	-13.5856
▁Auger	-13.5856
▁August	-13.5856
▁Aurepalle	-13.5856
▁Foot	-13.5856
▁Phaeo	-13.5856
▁Ranjit	-13.5856
▁Smok	-13.5856
▁Species	-13.5856
▁Structure	-13.5856
▁Tanzania	-13.5856
▁Women	-13.5856
▁acephate	-13.5856
▁adilabad	-13.5856
▁agencies	-13.5856
▁alappuzha	-13.5856
▁anthracknose	-13.5856
▁azospirillum	-13.5856
▁barabanki	-13.5856
▁bastar	-13.5856
▁belagavi	-13.5856
▁bhiwani	-13.5856
▁bilaspur	-13.5856
▁bishnupur	-13.5856
▁calamities	-13.5856
▁chamoli	-13.5856
▁cholesterol	-13.5856
▁corriander	-13.5856
▁cuddalore	-13.5856
▁cumbersome	-13.5856
▁damoh	-13.5856
▁dedicate	-13.5856
▁defense	-13.5856
▁dehradun	-13.5856
▁demarcat	-13.5856
▁deogarh	-13.5856
▁dharmapuri	-13.5856
▁dholpur	-13.5856
▁dhule	-13.5856
▁diamond	-13.5856
▁electrolyte	-13.5856
▁ernakulam	-13.5856
▁expertise	-13.5856
▁explosive	-13.5856
▁fetus	-13.5856
▁gadag	-13.5856
▁gadchiroli	-13.5856
▁giridih	-13.5856
▁gopalganj	-13.5856
▁gorakhpur	-13.5856
▁haridwar	-13.5856
▁hoshiarpur	-13.5856
▁hypertrophy	-13.5856
▁idukki	-13.5856
▁infiltrate	-13.5856
▁inoculate	-13.5856
▁instalment	-13.5856
▁jagatsinghapur	-13.5856
▁jajapur	-13.5856
▁jalpaiguri	-13.5856
▁jamtara	-13.5856
▁jamui	-13.5856
▁jashpur	-13.5856
▁jehanabad	-13.5856
▁jhalawar	-13.5856
▁kadapa	-13.5856
▁kalimpong	-13.5856
▁karaikal	-13.5856
▁khagaria	-13.5856
▁khammam	-13.5856
▁kharsawan	-13.5856
▁kozhikode	-13.5856
▁kullu	-13.5856
▁lignosus	-13.5856
▁lohardaga	-13.5856
▁madhubani	-13.5856
▁maharajganj	-13.5856
▁mahoba	-13.5856
▁malappuram	-13.5856
▁malkangiri	-13.5856
▁manohar	-13.5856
▁muscle	-13.5856
▁nabarangpur	-13.5856
▁narayanpur	-13.5856
▁nawada	-13.5856
▁nectar	-13.5856
▁neemacin	-13.5856
▁nuapada	-13.5856
▁occations	-13.5856
▁palakkad	-13.5856
▁pallidoroseum	-13.5856
▁parsley	-13.5856
▁partnership	-13.5856
▁pentachlor	-13.5856
▁rajnandgaon	-13.5856
▁rayagada	-13.5856
▁reservoir	-13.5856
▁roshon	-13.5856
▁sangli	-13.5856
▁segments	-13.5856
▁serchhip	-13.5856
▁sericulture	-13.5856
▁shedule	-13.5856
▁sheohar	-13.5856
▁singhbhum	-13.5856
▁singhbum	-13.5856
▁sitamarhi	-13.5856
▁sleeve	-13.5856
▁sonbhadra	-13.5856
▁sundargarh	-13.5856
▁tapioca	-13.5856
▁thoubal	-13.5856
▁thuringiensis	-13.5856
▁tocklai	-13.5856
▁vinayak	-13.5856
=160.1	-13.5856
=160.3	-13.5856
BSF	-13.5856
electral	-13.5856
mmediate	-13.5856
▁Socio	-13.5856
▁Tropic	-13.5856
▁albendazole	-13.5856
▁competitiveness	-13.5856
▁crumbl	-13.5856
▁feces	-13.5856
▁logistic	-13.5856
▁macro	-13.5856
▁malnutrition	-13.5856
▁perceive	-13.5856
▁recommened	-13.5856
▁troubleshoot	-13.5856
=154.0	-13.5856
rowers	-13.5856
▁Leave	-13.5856
▁acow	-13.5856
▁godda	-13.5856
▁indicus	-13.5856
▁invading	-13.5856
▁kalahandi	-13.5856
▁nashik	-13.5856
▁pursu	-13.5856
▁sealants	-13.5856
▁solapur	-13.5856
▁tenure	-13.5856
▁warning	-13.5856
ndulat	-13.5856
▁luphos	-13.5856
53080	-13.5856
=171.4	-13.5856
▁Chryso	-13.5856
▁discolouration	-13.5856
▁drastic	-13.5856
▁harbor	-13.5856
▁purnia	-13.5856
▁darsba	-13.5856
▁quintol	-13.5856
▁rhizop	-13.5856
▁##	-13.5856
▁sparay	-13.5856
▁relation	-13.5856
Stage	-13.5856
lobia	-13.5856
▁applicability	-13.5856
▁trigger	-13.5856
=160.0	-13.5856
▁Next	-13.5856
▁Temperature	-13.5856
▁resident	-13.5856
▁Fund	-13.5856
▁justified	-13.5856
▁raigarh	-13.5856
▁stagger	-13.5856
▁unnecessary	-13.5856
▁safeguard	-13.5856
▁brahma	-13.5856
▁gumosis	-13.5856
▁irregularities	-13.5856
monium	-13.5856
▁anthrax	-13.5856
▁citri	-13.5856
=140.0	-13.5856
▁paddocks	-13.5856
uality	-13.5856
▁Bangla	-13.5856
ediment	-13.5856
▁luck	-13.5856
tutia	-13.5856
▁hasao	-13.5856
▁mistaken	-13.5856
▁internet	-13.5856
▁Mitigation	-13.5856
▁dyas	-13.5856
ixin	-13.5856
▁hazari	-13.5856
▁hailstorm	-13.5856
▁musk	-13.5856
▁ballia	-13.5856
▁coast	-13.5856
▁breath	-13.5857
otrim	-13.5857
▁usability	-13.5857
▁additive	-13.5857
▁odor	-13.5857
▁Plantomycin	-13.5857
▁brood	-13.5857
rocla	-13.5857
▁roof	-13.5857
▁catfish	-13.5857
▁families	-13.5857
▁fci	-13.5857
▁revolv	-13.5857
acaricid	-13.5857
▁edges	-13.5857
ractor	-13.5857
▁pollen	-13.5857
▁superphosphate	-13.5857
▁toxicity	-13.5857
▁overfeeding	-13.5857
▁Adoption	-13.5857
▁Rust	-13.5857
FS	-13.5857
▁wage	-13.5857
▁softness	-13.5857
roiler	-13.5857
▁weaknesses	-13.5857
illus	-13.5857
▁pool	-13.5857
▁1551(	-13.5858
▁baan	-13.5858
▁botle	-13.5858
▁Stripe	-13.5858
▁kota	-13.5858
nofix	-13.5858
▁kushal	-13.5858
▁Enhancement	-13.5858
▁assistant	-13.5858
▁rubb	-13.5858
▁aauc	-13.5858
▁hapur	-13.5858
▁humic	-13.5858
▁unaffected	-13.5858
▁Drought	-13.5858
roundnut	-13.5859
▁sbi	-13.5859
▁Plus	-13.5859
▁problematic	-13.5859
1.25	-13.5859
emic	-13.5859
thimet	-13.5859
▁identi	-13.5859
▁jasmine	-13.5859
▁prunning	-13.5859
▁secret	-13.5859
▁0.60	-13.586
ought	-13.586
ordinar	-13.586
▁regardin	-13.586
▁scion	-13.586
▁raya	-13.5861
▁banda	-13.5861
▁abis	-13.5861
chim	-13.5862
▁dots	-13.5862
▁wrap	-13.5862
▁Trace	-13.5862
rumi	-13.5862
▁Delay	-13.5863
▁February	-13.5863
▁nfsm	-13.5863
▁Punjab	-13.5863
▁apeda	-13.5863
▁hailakandi	-13.5863
▁khumtai	-13.5863
▁gelapukhuri	-13.5863
▁drrh	-13.5863
▁hactre	-13.5863
▁planned	-13.5863
treated	-13.5863
▁comfort	-13.5863
▁anything	-13.5863
gmail	-13.5863
▁usable	-13.5863
▁fabric	-13.5864
▁Boil	-13.5864
▁shriveling	-13.5865
▁mimick	-13.5865
▁overcrowd	-13.5865
▁jhargram	-13.5865
teel	-13.5865
▁myceli	-13.5866
▁reko	-13.5866
▁paraquat	-13.5866
teaspoonful	-13.5867
▁coccidi	-13.5867
▁Santa	-13.5867
▁concise	-13.5868
▁Address	-13.5869
▁seperate	-13.5869
▁zai	-13.587
▁eradicate	-13.587
▁aminose	-13.587
ospora	-13.5871
▁obstruction	-13.5872
▁inflorescence	-13.5873
▁30:1	-13.5873
.7500	-13.5874
▁jahaji	-13.5874
▁phosphamidon	-13.5874
▁tatamono	-13.5874
▁silos	-13.5874
scarce	-13.5875
▁riverbanks	-13.5875
▁carriages	-13.5875
▁sedd	-13.5876
spaces	-13.5876
raja	-13.5877
flowering	-13.5879
▁groove	-13.588
▁fis	-13.588
▁fooder	-13.5881
ji	-13.5882
▁9864	-13.5882
▁pine	-13.5882
▁coper	-13.5883
▁hactare	-13.5886
▁rohu	-13.5886
▁7500	-13.5888
▁End	-13.5888
▁-12	-13.5888
▁2.50	-13.5889
▁dispers	-13.5892
▁timeline	-13.5892
▁90-1	-13.5894
▁measuer	-13.5894
▁peeling	-13.5894
▁1400	-13.5894
▁shading	-13.5895
zoli	-13.5896
▁precipitates	-13.5898
▁electrical	-13.5898
▁sanitary	-13.5898
ptomycin	-13.5898
microcontrollers	-13.5899
▁3.3	-13.5899
arid	-13.5899
▁wate	-13.5899
▁thank	-13.59
▁contol	-13.5901
▁Building	-13.5901
▁acar	-13.5905
igging	-13.5906
▁Measures	-13.5907
▁ailments	-13.5908
▁petioles	-13.5908
▁stoves	-13.5908
▁priya	-13.591
▁lakhmi	-13.591
▁mosquitoes	-13.5911
▁banka	-13.5911
lla	-13.5915
tter	-13.5915
strong	-13.5915
xb	-13.5917
ghy	-13.5918
bio	-13.5919
▁mrigal	-13.5922
▁2/3	-13.5924
▁metaboli	-13.5926
▁avia	-13.5928
ving	-13.5932
amic	-13.5935
▁Chickens	-13.5942
▁imbalances	-13.5942
▁orchids	-13.5942
▁sulphide	-13.5946
▁tail	-13.5948
ress	-13.5955
▁formal	-13.596
▁@850	-13.5961
▁intercrops	-13.5961
▁58.0	-13.5963
▁calvi	-13.5963
caus	-13.5965
▁updated	-13.5967
tial	-13.5975
▁heal	-13.5976
▁masons	-13.5976
▁forecasts	-13.5976
▁3000/	-13.5978
nother	-13.5979
arbo	-13.5983
▁dre	-13.5985
humi	-13.5999
▁alum	-13.6001
▁2-2.5	-13.6002
▁rolling	-13.6004
mpro	-13.601
▁tightly	-13.601
▁storms	-13.6011
▁Seedlings	-13.6011
▁dealers	-13.6012
▁@250	-13.6013
ou	-13.6016
▁harvester	-13.6022
▁submitt	-13.6025
▁extracted	-13.6025
160	-13.603
NR	-13.6031
rat	-13.6032
mary	-13.6038
ource	-13.6038
▁men	-13.6045
▁encr	-13.6046
arathane	-13.6046
97.	-13.6067
ils	-13.607
▁Hal	-13.6072
▁Ca	-13.6075
zole	-13.6076
609	-13.6079
▁45.0	-13.608
▁Yields	-13.608
▁snails	-13.608
▁frameworks	-13.608
mail	-13.608
▁leafhoppers	-13.608
▁bactericides	-13.6081
▁tubes	-13.6082
orium	-13.6086
▁Mr	-13.6087
15-20	-13.6089
▁ob	-13.6097
▁nil	-13.6097
▁dehydrat	-13.6104
▁disrupted	-13.6112
ency	-13.6112
▁eclip	-13.6113
▁gerberas	-13.6115
▁genes	-13.6115
ico	-13.612
▁potassi	-13.6129
▁por	-13.613
dose	-13.613
aint	-13.613
fold	-13.6133
most	-13.6138
▁Change	-13.6142
ilage	-13.6145
▁lip	-13.6146
▁/200	-13.6147
mite	-13.6149
▁yo	-13.615
▁objectives	-13.615
▁Ful	-13.6151
▁herbs	-13.6156
▁dai	-13.6157
▁alwar	-13.6158
▁sup	-13.6159
▁capsulari	-13.6163
itte	-13.6163
▁@200	-13.6173
▁stra	-13.6176
▁(0.5	-13.6178
rogen	-13.6181
▁distinguish	-13.6184
▁borders	-13.6184
▁palat	-13.6187
▁57	-13.6193
▁bid	-13.6194
▁mega	-13.6213
▁ure	-13.6217
▁indi	-13.624
▁tempora	-13.6246
wed	-13.6249
▁nas	-13.6249
adu	-13.625
non	-13.6263
▁15-45	-13.6278
829	-13.628
ams	-13.6292
rti	-13.6298
▁composted	-13.6302
done	-13.6323
▁gir	-13.6324
rey	-13.6326
084	-13.6329
▁gh	-13.6329
▁ghos	-13.634
,250	-13.6341
▁260	-13.6343
▁Late	-13.6345
cts	-13.6345
▁gasholder	-13.6347
▁bin	-13.6349
▁recomme	-13.6359
▁medications	-13.6362
induce	-13.6371
▁aesthetics	-13.6398
850	-13.6399
-26	-13.64
▁subsequently	-13.6423
▁mag	-13.6433
▁@30	-13.6437
▁@9	-13.6443
▁span	-13.6445
▁saf	-13.6448
52.0	-13.6449
▁53	-13.6468
▁fuels	-13.6469
-1200	-13.6474
verse	-13.6479
fermentation	-13.6482
55.0	-13.6491
▁(2.5	-13.6503
nda	-13.651
▁malat	-13.6515
▁regulat	-13.6524
hase	-13.6528
bu	-13.6531
▁Mal	-13.6531
1-2	-13.6536
vo	-13.6546
▁cur	-13.6566
731	-13.6587
▁Farmer	-13.659
▁mus	-13.6591
nc	-13.6613
▁villages	-13.6615
▁compos	-13.6621
kur	-13.6621
ica	-13.6628
atory	-13.6629
▁scrapers	-13.6651
▁deen	-13.6651
-600	-13.6656
bound	-13.666
▁eyes	-13.6666
▁-4	-13.6667
13.	-13.6668
abor	-13.6674
umber	-13.6677
▁lentils	-13.6688
5-35	-13.6703
▁repellents	-13.6707
▁Pea	-13.6709
eight	-13.6712
200-300	-13.6715
nly	-13.6716
ept	-13.6722
▁flu	-13.673
▁una	-13.6734
449	-13.6741
462	-13.6753
62.	-13.6755
▁reshap	-13.6759
hould	-13.6776
▁contaminate	-13.6789
02.0	-13.6798
287	-13.68
1600	-13.6804
▁travel	-13.6805
ffected	-13.681
▁50-100	-13.6812
962	-13.6818
,1.75	-13.6824
▁karat	-13.6834
06.0	-13.6848
▁pari	-13.685
▁sho	-13.6872
▁Demonstrat	-13.6876
flower	-13.6877
ail	-13.688
ove	-13.6881
▁83	-13.6883
▁Cultivat	-13.6885
ooper	-13.6907
ber	-13.6907
▁smoothe	-13.6936
grading	-13.6939
,200	-13.6942
▁humans	-13.6945
▁formulate	-13.6968
enome	-13.6983
ctur	-13.6989
▁amp	-13.7007
bia	-13.7008
▁cla	-13.7016
2%	-13.7024
▁streamlin	-13.7038
▁oxid	-13.7052
▁procur	-13.707
night	-13.7074
-45/	-13.7095
agasi	-13.7098
▁chickpeas	-13.71
▁molecul	-13.7107
▁ulcerat	-13.7119
916	-13.7119
lets	-13.713
835	-13.7138
▁compensati	-13.7159
▁0.64	-13.7162
▁pu	-13.7163
▁cha	-13.7172
▁directions	-13.7177
toxin	-13.7185
eckle	-13.7186
▁Sal	-13.7187
97	-13.7191
▁El	-13.721
olone	-13.7211
mun	-13.7217
644	-13.7224
▁chlorot	-13.7229
ita	-13.7232
main	-13.7233
▁complicat	-13.7247
▁sugg	-13.7248
804	-13.7252
880	-13.7273
▁gu	-13.7275
,20	-13.73
▁mtr	-13.731
023	-13.7314
▁meals	-13.732
perational	-13.7321
...2	-13.7323
376	-13.7326
▁tone	-13.7344
orus	-13.7351
vil	-13.7383
▁masta	-13.7387
lera	-13.7405
▁experiences	-13.7411
bandh	-13.7421
cycline	-13.7421
desh	-13.7424
gov	-13.7434
▁swi	-13.7452
32.	-13.7457
▁fl	-13.7462
anga	-13.7462
▁distinguishe	-13.747
you	-13.7488
rry	-13.7489
kb	-13.7493
thane	-13.7505
abi	-13.7506
inta	-13.7519
▁1100	-13.7526
3.6	-13.7529
▁outlets	-13.7533
rog	-13.7536
▁ripen	-13.7538
oi	-13.754
58.	-13.7546
rium	-13.7554
cul	-13.7557
jus	-13.7569
lem	-13.7581
how	-13.7595
113.0	-13.7597
▁ineffective	-13.7599
▁ura	-13.76
▁ek	-13.7604
qua	-13.7605
▁pigeons	-13.7607
▁bli	-13.7621
▁Straw	-13.7645
cterial	-13.7648
▁93	-13.7649
▁epi	-13.7651
take	-13.7652
▁Custom	-13.7655
▁kernel	-13.7662
▁evaluation	-13.7663
▁storm	-13.7671
▁Seedling	-13.7672
▁tick	-13.7673
▁eater	-13.7673
▁clog	-13.7676
care	-13.7677
efficiency	-13.7678
▁basin	-13.7679
▁rootstock	-13.7681
▁duckling	-13.7681
▁outbreak	-13.7682
▁twig	-13.7682
▁spore	-13.7683
▁task	-13.7683
▁trait	-13.7684
▁appliance	-13.7685
▁fence	-13.7686
▁ku	-13.769
▁dealer	-13.7691
▁evolv	-13.7694
puri	-13.7701
▁(75	-13.7705
phag	-13.7711
tiller	-13.7717
▁Da	-13.7722
ano	-13.7722
▁installments	-13.7726
SS	-13.7728
tory	-13.7738
▁chilie	-13.7739
▁micronu	-13.7745
bank	-13.7746
pray	-13.7746
▁alterna	-13.7748
rench	-13.7748
add	-13.7749
hing	-13.7749
level	-13.776
▁25:1	-13.7762
5-6	-13.7765
pollinat	-13.7766
pac	-13.7768
▁palnt	-13.7772
▁pani	-13.7777
@16	-13.7779
172	-13.7783
▁ple	-13.7787
multineem	-13.7788
▁submerge	-13.7788
▁guar	-13.7788
teroc	-13.7789
reference	-13.779
equi	-13.7791
lakhmi	-13.7791
wak	-13.7791
llowing	-13.7793
▁buil	-13.7793
manuring	-13.7793
floors	-13.7793
flash	-13.7794
nmmi	-13.7794
structured	-13.7794
▁Health	-13.7794
April	-13.7795
coorg	-13.7795
makers	-13.7795
carboxin	-13.7795
cypermethrin	-13.7795
december	-13.7795
force	-13.7796
kill	-13.7796
quick	-13.7796
mililitre	-13.7796
associat	-13.7796
fertlizer	-13.7796
limited	-13.7796
plastic	-13.7796
chloropyriphos	-13.7796
insecticide	-13.7796
conazole	-13.7796
bordeaux	-13.7796
nitrogen	-13.7796
cowdung	-13.7796
tonne	-13.7796
mancozeb	-13.7796
small	-13.7796
drop	-13.7797
branch	-13.7797
pesticide	-13.7797
web	-13.7797
bean	-13.7797
weak	-13.7797
▁rub	-13.7797
zone	-13.7798
taken	-13.7798
paddy	-13.7799
tip	-13.7799
pipe	-13.78
priya	-13.78
noon	-13.7802
cost	-13.7802
have	-13.7804
▁injur	-13.7806
state	-13.7808
wit	-13.7809
good	-13.7812
▁Dig	-13.7819
ection	-13.7821
▁chopp	-13.7821
75.	-13.7823
▁refix	-13.7824
740	-13.7827
(10	-13.7827
▁Prioritiz	-13.7831
leveled	-13.7831
added	-13.7832
▁estimat	-13.7834
atio	-13.7836
glu	-13.7838
single	-13.7845
idate	-13.7845
▁bacter	-13.7848
oultry	-13.7849
ligible	-13.785
▁neutral	-13.785
▁Perform	-13.7851
▁chisel	-13.7852
▁secreti	-13.7852
asonry	-13.7854
ifax	-13.7854
Step	-13.7855
ynthetic	-13.7855
abbit	-13.7855
acket	-13.7855
midachlo	-13.7855
imple	-13.7855
nsurance	-13.7855
averi	-13.7855
▁trans	-13.7855
fforts	-13.7856
ommercial	-13.7856
oncrete	-13.7856
▁Plan	-13.7856
▁aggregat	-13.7856
▁interact	-13.7856
▁object	-13.7856
▁circulat	-13.7856
8908	-13.7856
perators	-13.7856
ebris	-13.7856
eglect	-13.7856
nagement	-13.7856
▁Invest	-13.7856
ouple	-13.7856
uinoa	-13.7856
▁conjuncti	-13.7856
▁numer	-13.7856
▁Ruby	-13.7856
▁kordoibam	-13.7856
▁satisfact	-13.7856
dawarf	-13.7856
flagella	-13.7856
hotspot	-13.7856
kelthane	-13.7856
▁01123382401	-13.7856
▁9613856696	-13.7856
▁Analysis	-13.7856
▁Cowpea	-13.7856
▁December	-13.7856
▁Dispos	-13.7856
▁Encourage	-13.7856
▁FMNR	-13.7856
▁Fertilizing	-13.7856
▁Herbicide	-13.7856
▁Insecticide	-13.7856
▁Maharashtra	-13.7856
▁Marker	-13.7856
▁Prompt	-13.7856
▁Recogniz	-13.7856
▁Risk	-13.7856
▁Solution	-13.7856
▁Soybean	-13.7856
▁Strategy	-13.7856
▁Weevil	-13.7856
▁arthritis	-13.7856
▁baruah	-13.7856
▁beneficiaries	-13.7856
▁bhattacharyya	-13.7856
▁bishnuprasad	-13.7856
▁buffalo	-13.7856
▁butterflies	-13.7856
▁capsici	-13.7856
▁cardboard	-13.7856
▁chauhan	-13.7856
▁chiilli	-13.7856
▁clamps	-13.7856
▁clippings	-13.7856
▁cocconut	-13.7856
▁commence	-13.7856
▁comparison	-13.7856
▁description	-13.7856
▁deterrent	-13.7856
▁dothidea	-13.7856
▁expenditure	-13.7856
▁fussariu	-13.7856
▁grannery	-13.7856
▁grasshopper	-13.7856
▁haflong	-13.7856
▁hepatitis	-13.7856
▁hierarchy	-13.7856
▁impurities	-13.7856
▁inconsistent	-13.7856
▁inetrval	-13.7856
▁inoculant	-13.7856
▁intervel	-13.7856
▁joymati	-13.7856
▁joymoti	-13.7856
▁leafcurl	-13.7856
▁malfunctions	-13.7856
▁masturd	-13.7856
▁metrics	-13.7856
▁migration	-13.7856
▁modify	-13.7856
▁molybdenum	-13.7856
▁mulberry	-13.7856
▁notified	-13.7856
▁pharmaceutical	-13.7856
▁pmfby	-13.7856
▁resolution	-13.7856
▁retailer	-13.7856
▁sarbat	-13.7856
▁scenarios	-13.7856
▁sporophores	-13.7856
▁subsist	-13.7856
▁torticollis	-13.7856
▁verified	-13.7856
▁vulnerabilities	-13.7856
▁yeild	-13.7856
▁zink	-13.7856
madhavi	-13.7856
▁Bleach	-13.7856
▁Morning	-13.7856
▁Partial	-13.7856
▁Regenerat	-13.7856
▁Sahel	-13.7856
▁Station	-13.7856
▁admitt	-13.7856
▁bhab	-13.7856
▁bordue	-13.7856
▁compris	-13.7856
▁license	-13.7856
▁mandatory	-13.7856
▁neuter	-13.7856
▁phythop	-13.7856
▁reqiu	-13.7856
▁simplify	-13.7856
▁Adaptability	-13.7856
▁Considerations	-13.7856
▁Internet	-13.7856
▁barsati	-13.7856
▁chikni	-13.7856
▁diatom	-13.7856
▁kuchia	-13.7856
▁lilies	-13.7856
▁lobe	-13.7856
▁playgrounds	-13.7856
▁reddening	-13.7856
▁subcutaneous	-13.7856
▁tricho	-13.7856
▁viscin	-13.7856
▁5251	-13.7856
▁Adher	-13.7856
▁borbengena	-13.7856
▁therapy	-13.7856
▁Planning	-13.7856
▁aonla	-13.7856
▁jump	-13.7856
oarse	-13.7856
▁entail	-13.7856
▁enzyme	-13.7856
▁jatropha	-13.7856
▁members	-13.7856
▁inconsistenc	-13.7856
▁leaflet	-13.7856
▁Borer	-13.7856
▁axil	-13.7856
adver	-13.7856
embryo	-13.7856
matically	-13.7856
▁cafta	-13.7856
▁translate	-13.7856
▁majesty	-13.7856
▁soups	-13.7856
methrin	-13.7856
▁asaftid	-13.7856
▁bomba	-13.7856
▁chlorine	-13.7856
▁intamox	-13.7856
▁parathion	-13.7856
▁suspension	-13.7856
▁1-1.3	-13.7856
▁arjuna	-13.7856
▁cyclone	-13.7856
▁70-80%	-13.7856
▁Expand	-13.7856
▁Heav	-13.7856
▁dhora	-13.7856
▁reforestation	-13.7856
zyme	-13.7856
▁Northeast	-13.7856
▁micronutrin	-13.7856
hailand	-13.7856
▁Insights	-13.7856
▁prevalence	-13.7856
▁quinal	-13.7856
venue	-13.7856
▁kmph	-13.7856
▁crisp	-13.7856
▁submission	-13.7856
▁stabilization	-13.7856
▁trailing	-13.7856
▁execution	-13.7856
▁aauj	-13.7857
▁kowari	-13.7857
▁submergence	-13.7857
▁untreated	-13.7857
▁interban	-13.7857
oryza	-13.7857
▁discussions	-13.7857
▁ppr	-13.7857
▁Diet	-13.7857
9551	-13.7857
▁Ready	-13.7857
▁zig	-13.7857
▁enforc	-13.7857
▁nano	-13.7857
-163,	-13.7857
▁maydis	-13.7857
▁Investment	-13.7857
▁auto	-13.7857
▁proximity	-13.7857
▁copies	-13.7857
▁modernization	-13.7857
▁inclusive	-13.7857
▁potent	-13.7857
▁steam	-13.7857
mura	-13.7857
▁pelvi	-13.7857
▁mangement	-13.7857
▁sapna	-13.7857
▁river	-13.7857
▁progressive	-13.7857
▁carba	-13.7857
▁firmness	-13.7857
▁dolomit	-13.7857
▁jaya	-13.7857
▁agency	-13.7857
▁@1:1	-13.7857
▁Steps	-13.7857
achna	-13.7857
▁pickling	-13.7857
▁rabbit	-13.7857
ucke	-13.7857
▁quil	-13.7858
▁transparent	-13.7858
DS	-13.7858
▁America	-13.7858
cetive	-13.7858
▁sugeg	-13.7858
▁isolation	-13.7858
▁shortage	-13.7858
▁reput	-13.7858
▁clu	-13.7858
kata	-13.7858
▁Home	-13.7858
▁flushes	-13.7858
▁queen	-13.7858
▁Pressure	-13.7858
print	-13.7858
▁coordinate	-13.7858
▁Sign	-13.7858
▁madhuri	-13.7858
▁bill	-13.7858
▁tetra	-13.7858
▁200-250	-13.7858
▁competence	-13.7858
▁refuse	-13.7859
mita	-13.7859
ortable	-13.7859
-175	-13.7859
▁grassland	-13.7859
▁Rotation	-13.7859
outine	-13.7859
onium	-13.7859
rinary	-13.7859
▁resemble	-13.7859
▁Fine	-13.7859
▁distinction	-13.7859
▁wter	-13.786
@233	-13.786
▁surger	-13.786
▁(25%)	-13.786
▁mili	-13.786
▁myco	-13.786
▁chisell	-13.786
▁moment	-13.786
osaic	-13.786
sizing	-13.7861
283	-13.7861
rigaon	-13.7861
▁born	-13.7861
▁pitting	-13.7862
▁fullness	-13.7862
icola	-13.7862
uterine	-13.7862
▁Mars	-13.7862
▁Infestation	-13.7862
▁Sus	-13.7863
▁spry	-13.7863
▁intaly	-13.7863
▁rela	-13.7863
▁Data	-13.7863
=45	-13.7863
▁irritati	-13.7863
ovate	-13.7864
Sprout	-13.7864
▁dragon	-13.7864
▁pratap	-13.7864
oline	-13.7864
▁fenitroth	-13.7864
▁786010	-13.7864
▁Correct	-13.7864
▁faizabad	-13.7864
▁lakhimi	-13.7864
▁mahsuri	-13.7864
▁panjab	-13.7864
▁pregnency	-13.7864
▁tezpur	-13.7864
▁shillong	-13.7864
▁cabage	-13.7865
▁bunches	-13.7865
lamb	-13.7865
▁allahabad	-13.7866
vestin	-13.7866
▁feedback	-13.7867
1875	-13.7867
▁Recording	-13.7867
▁shredding	-13.7867
▁consultation	-13.7868
aragu	-13.7868
▁pap	-13.7868
▁elevate	-13.7869
▁115	-13.7869
▁darker	-13.787
▁Cul	-13.7871
▁Alwa	-13.7871
▁starter	-13.7872
▁index	-13.7872
▁gord	-13.7875
60-65	-13.7875
▁Fe	-13.7875
▁jrc	-13.7876
▁pome	-13.7877
▁60-80	-13.7878
▁trishul	-13.7879
▁deltamethrin	-13.7879
▁gentamycin	-13.7879
▁aris	-13.7879
▁carbohydrates	-13.788
▁pollinators	-13.788
▁psyllids	-13.788
▁Boro	-13.7882
▁artemisinin	-13.7882
▁connected	-13.7884
▁tanning	-13.7885
▁Recommendations	-13.7885
▁nav	-13.7885
riate	-13.7886
▁earthen	-13.7886
▁clover	-13.7886
▁yes	-13.7886
▁1551	-13.7886
▁luc	-13.7887
987	-13.7887
▁rars	-13.7887
ntroduction	-13.7891
ested	-13.7891
571428571428571	-13.7891
▁fertil	-13.7891
▁chopped	-13.7892
▁alpha	-13.7893
shakti	-13.7894
▁granate	-13.7894
▁Sun	-13.7894
▁Inspect	-13.7896
▁imidachlorp	-13.7896
▁Historical	-13.7897
diesel	-13.7898
nde	-13.7899
▁Poly	-13.7901
▁Ahu	-13.7903
termite	-13.7907
▁eaten	-13.7907
▁brotone	-13.7908
▁netting	-13.7909
sters	-13.7909
enebank	-13.791
atfish	-13.791
▁win	-13.791
▁100-200	-13.7915
tently	-13.7915
orous	-13.7916
▁trust	-13.7917
▁domains	-13.7921
▁25-40	-13.7921
▁chap	-13.7921
▁manger	-13.7921
▁twisting	-13.7922
ear	-13.7928
▁beak	-13.793
abha	-13.7935
▁lem	-13.7935
▁salin	-13.7937
▁trip	-13.7937
▁quer	-13.794
▁palnting	-13.7941
▁fortnightly	-13.7942
▁naa	-13.7942
down	-13.7945
-42	-13.7953
▁squ	-13.7953
akti	-13.7955
▁blot	-13.7955
▁judiciously	-13.7957
▁Min	-13.7958
▁10.1	-13.7958
▁conditioner	-13.7958
haust	-13.7959
▁1:1:1	-13.7959
powder	-13.7959
▁alon	-13.796
-400	-13.7963
▁@1250	-13.7969
-80	-13.7971
▁ok	-13.7972
▁leader	-13.798
▁55.0	-13.7985
▁14.0	-13.7986
▁aven	-13.7986
▁10000	-13.7987
▁sold	-13.7988
feeding	-13.7994
▁New	-13.7994
repell	-13.7996
▁horsepower	-13.7998
▁dys	-13.7999
▁capsules	-13.8006
exclud	-13.8006
-33	-13.8011
▁supplemental	-13.8012
▁cured	-13.8017
▁evolve	-13.8022
▁ci	-13.803
/40	-13.8033
▁constrain	-13.8035
▁oc	-13.8036
sease	-13.8037
▁compensate	-13.8038
ustainability	-13.804
NE	-13.8042
▁Till	-13.8047
clin	-13.8047
▁eaters	-13.8049
64.0	-13.8049
▁950	-13.805
racnose	-13.8054
▁Inter	-13.8057
▁befor	-13.8058
▁conf	-13.8061
▁Bio	-13.8063
▁mach	-13.8065
iya	-13.8067
▁branding	-13.8075
▁Ang	-13.8081
▁Medi	-13.8088
▁assessments	-13.8092
▁squirrels	-13.8092
zing	-13.8098
▁scraps	-13.8103
tida	-13.8103
route	-13.8104
▁mos	-13.8108
atment	-13.8113
▁compacted	-13.8118
▁@13	-13.812
▁sawfl	-13.8123
▁995	-13.8123
▁1.16	-13.8124
▁shops	-13.8135
▁corners	-13.8137
▁perfor	-13.8137
▁sil	-13.8138
rape	-13.8148
ert	-13.8154
conta	-13.8154
▁ess	-13.8158
122.0	-13.8174
/15	-13.8178
▁armyworms	-13.8179
▁23.0	-13.8181
▁10,000	-13.8197
rod	-13.8199
▁Free	-13.8205
▁overripe	-13.8206
▁77	-13.8208
ibang	-13.821
▁plen	-13.821
▁manj	-13.8215
445	-13.8215
plac	-13.8219
▁strengths	-13.8223
▁phosphat	-13.8228
▁cuti	-13.8236
loom	-13.8238
▁emphasized	-13.8249
▁101	-13.8263
▁94	-13.8284
ember	-13.8292
57.0	-13.8298
harvesting	-13.8307
▁pain	-13.8308
kris	-13.8309
▁preserved	-13.831
▁attributes	-13.831
▁resolved	-13.8312
▁Ak	-13.8316
amukhi	-13.8319
bed	-13.8322
atic	-13.8325
lking	-13.8329
ology	-13.833
-7.5	-13.8332
491	-13.8337
▁topic	-13.8338
six	-13.8338
▁Cap	-13.8338
▁tape	-13.834
▁sterilize	-13.8346
▁mind	-13.8346
31.0	-13.8354
▁Impacts	-13.8355
▁tel	-13.836
auli	-13.8371
▁PR	-13.8381
ank	-13.8381
raf	-13.8396
▁packets	-13.8399
▁saran	-13.8403
▁-(	-13.8413
hyl	-13.8421
vents	-13.8425
▁dh	-13.8431
▁rod	-13.8435
▁22.0	-13.8438
▁prob	-13.8439
stemborer	-13.844
▁fur	-13.8443
▁rainguns	-13.8443
▁kids	-13.8446
▁-25	-13.8448
ional	-13.8449
(1.0%	-13.8458
thri	-13.8463
100.0	-13.8466
▁Al	-13.8473
▁sha	-13.8475
▁exudati	-13.8479
▁asp	-13.8498
,27	-13.8509
▁144	-13.852
,900	-13.852
▁chloro	-13.8524
▁papers	-13.8534
▁lakhs	-13.8534
lex	-13.8542
)50	-13.8543
eather	-13.8548
24.	-13.855
hion	-13.8552
394	-13.8577
▁ea	-13.8581
▁doe	-13.8588
▁Neo	-13.8591
▁79	-13.8594
etel	-13.8602
8.8	-13.8603
118.0	-13.8608
iga	-13.8615
▁bred	-13.8615
igesters	-13.8617
▁conventionally	-13.863
▁-40	-13.8639
142	-13.8652
▁mole	-13.8652
▁deco	-13.8659
▁camp	-13.8679
428571428571428	-13.869
gic	-13.8694
char	-13.872
668	-13.8723
▁0.45	-13.8726
▁killed	-13.8731
coc	-13.8748
▁pal	-13.8758
▁streaks	-13.8762
ona	-13.8769
abale	-13.8771
tant	-13.8775
▁believe	-13.878
▁403	-13.878
▁correlat	-13.8791
@41	-13.8798
▁fingers	-13.8804
▁Schemes	-13.8808
▁elevations	-13.8809
▁cri	-13.8825
mat	-13.8827
fight	-13.8842
▁bolt	-13.8845
▁nets	-13.8854
▁adaptations	-13.8855
▁Ros	-13.8856
▁8-9	-13.8866
▁59	-13.8873
mul	-13.8885
ath	-13.8888
08.0	-13.8888
42.	-13.8898
▁dra	-13.8924
tomycin	-13.8942
nali	-13.8951
aca	-13.8957
ndi	-13.8958
▁Success	-13.8959
▁coop	-13.8971
▁ect	-13.8993
rious	-13.8994
ong	-13.9005
36.	-13.9008
@34	-13.9016
hoo	-13.9016
▁manda	-13.9016
▁mis	-13.9044
542	-13.9075
cate	-13.9093
oil	-13.9096
ascit	-13.9107
dies	-13.9115
825	-13.9121
tha	-13.9135
@23	-13.914
ptimize	-13.9141
cav	-13.9176
▁bah	-13.9185
ost	-13.9207
▁pathologi	-13.9221
111.0	-13.9223
▁anthr	-13.9229
corporate	-13.9237
baha	-13.924
aya	-13.9246
3.9	-13.9275
ttle	-13.9275
03.	-13.9284
▁pollute	-13.9295
spective	-13.93
▁reg	-13.9308
ower	-13.9315
▁Labo	-13.9321
▁micron	-13.9322
-23	-13.9323
▁bana	-13.9341
▁1.33	-13.9347
▁caps	-13.938
zer	-13.9387
0:10	-13.9393
num	-13.9395
trict	-13.9403
mended	-13.9415
tent	-13.9416
175	-13.9421
▁Bi	-13.9441
168	-13.9453
▁preparato	-13.9455
42857142857142	-13.9477
ahar	-13.9483
▁tria	-13.9498
wer	-13.9498
▁dish	-13.9548
ease	-13.9548
hana	-13.955
moha	-13.9554
▁sim	-13.9564
▁phosphor	-13.9567
arrowing	-13.9567
▁jalas	-13.9579
trus	-13.9585
wt	-13.9598
5.5	-13.96
▁el	-13.9605
abe	-13.9611
pply	-13.9621
▁thi	-13.9625
log	-13.9633
hac	-13.9637
ht	-13.9646
liv	-13.9667
hole	-13.968
85.	-13.9693
cona	-13.9697
▁tap	-13.9704
@7	-13.9708
▁rh	-13.9724
endra	-13.9727
▁0.40	-13.9729
▁Mea	-13.9731
inance	-13.9736
166.0	-13.9755
krish	-13.9761
ango	-13.977
▁toler	-13.9776
▁Plac	-13.9786
oderma	-13.9801
6-6.5	-13.9802
@27	-13.9803
579	-13.9805
berries	-13.981
385	-13.9826
▁phn	-13.983
umb	-13.9834
asa	-13.9859
formation	-13.9869
▁bigh	-13.9874
164	-13.9876
une	-13.9877
18.0	-13.9878
mukhi	-13.9886
056	-13.9889
nom	-13.9891
▁1000-	-13.9901
iti	-13.9903
aro	-13.9908
▁spra	-13.9934
509	-13.9941
146	-13.9985
itive	-13.999
wn	-13.9997
(3	-14.0003
ocin	-14.0007
hane	-14.0019
tata	-14.0024
▁colo	-14.0026
▁gre	-14.0026
rnihat	-14.003
iced	-14.0038
-46	-14.0041
▁Yo	-14.0042
▁kit	-14.0045
2222222222222	-14.0047
logged	-14.0053
▁Lab	-14.0059
pecifically	-14.0065
diazin	-14.0068
kh	-14.0068
nning	-14.0075
769	-14.0079
continuous	-14.0085
▁qwa	-14.0089
try	-14.0097
ght	-14.0117
ound	-14.0138
correct	-14.0141
sufficient	-14.0149
▁saturat	-14.016
camb	-14.0161
▁Dinan	-14.0161
▁bih	-14.0163
▁peanut	-14.0164
499	-14.0167
▁capsule	-14.0167
▁ski	-14.0167
trong	-14.0171
▁forecast	-14.0171
▁mason	-14.0171
enta	-14.0171
▁dropp	-14.0174
▁supplier	-14.0176
37.	-14.0177
▁Resource	-14.0178
▁Cucumber	-14.0179
▁marker	-14.0179
▁emission	-14.0182
space	-14.0184
▁Practice	-14.0186
▁attachment	-14.0186
▁advancement	-14.019
▁dripper	-14.0195
▁10.8	-14.0209
364	-14.0211
-28	-14.022
over	-14.0225
oux	-14.0233
ient	-14.0234
625	-14.0244
▁reco	-14.0253
▁track	-14.0266
▁visi	-14.0271
▁generat	-14.0272
▁twist	-14.0272
▁climb	-14.0273
▁Mulch	-14.0274
▁pens	-14.0276
▁deworm	-14.0279
▁drink	-14.028
nterval	-14.0283
▁----	-14.0283
▁,9	-14.0283
rtificial	-14.0287
product	-14.0287
ccurate	-14.0288
bazar	-14.0288
titabor	-14.0288
purifie	-14.0288
▁08	-14.0288
vailable	-14.0289
kamrupa	-14.0289
brotone	-14.029
chloride	-14.0291
netting	-14.0291
sanitary	-14.0291
▁simultaneous	-14.0291
dispers	-14.0291
propiconazole	-14.0292
self	-14.0293
anglong	-14.0294
Krish	-14.0294
rrange	-14.0294
road	-14.0294
ough	-14.0294
baksa	-14.0294
▁Indi	-14.0294
aau	-14.0295
divide	-14.0295
japanese	-14.0295
glyphosate	-14.0295
dependenc	-14.0295
suited	-14.0296
kahikuchi	-14.0296
methyl	-14.0296
mission	-14.0296
beneficiary	-14.0296
step	-14.0296
security	-14.0296
kcc	-14.0296
plough	-14.0296
which	-14.0296
multi	-14.0296
managed	-14.0296
Plant	-14.0296
trifos	-14.0296
duck	-14.0296
foliar	-14.0296
Bordeaux	-14.0296
balance	-14.0296
breed	-14.0296
remaining	-14.0296
Tracel	-14.0296
layer	-14.0296
scheme	-14.0296
advice	-14.0296
deep	-14.0296
common	-14.0296
inactive	-14.0296
pumpkin	-14.0296
brinjal	-14.0296
cabbage	-14.0296
micronutrient	-14.0297
dissolve	-14.0297
reasonabl	-14.0297
boil	-14.0297
milk	-14.0297
left	-14.0297
avoid	-14.0297
ridomil	-14.0297
horticultur	-14.0297
TS	-14.0297
maturity	-14.0298
cut	-14.0298
ges	-14.0298
fungal	-14.0299
around	-14.0299
thy	-14.0299
1800	-14.0299
▁authorit	-14.0299
@100	-14.03
phone	-14.03
ushy	-14.03
0.1%	-14.0301
two	-14.0302
ermites	-14.0304
reach	-14.0306
4-5	-14.0306
provide	-14.0307
naga	-14.0307
▁measue	-14.0308
advised	-14.0308
To	-14.0308
▁couple	-14.0309
tempora	-14.0309
▁variet	-14.031
sub	-14.0312
▁collective	-14.0313
▁agin	-14.0316
▁pseudo	-14.0318
▁connect	-14.032
(7	-14.0321
dress	-14.0322
ridomorph	-14.0322
▁Agri	-14.0323
ogether	-14.0325
▁cook	-14.0326
▁serv	-14.0327
suitability	-14.0327
▁hol	-14.0327
▁ventilat	-14.033
garden	-14.0331
▁interfer	-14.0333
UT	-14.0334
cell	-14.0334
▁eradicat	-14.0334
quire	-14.0335
that	-14.0338
spergillus	-14.0339
▁kra	-14.0339
abar	-14.034
ggested	-14.034
3-4	-14.0342
availability	-14.0343
▁piy	-14.0345
inda	-14.0346
▁Advance	-14.0347
▁definit	-14.0351
▁centimetr	-14.0351
-1.5-2	-14.0351
▁uter	-14.0351
uber	-14.0351
▁benefici	-14.0352
SI	-14.0353
imalaya	-14.0353
▁Compa	-14.0353
ypochlor	-14.0353
ummosis	-14.0353
ullet	-14.0353
1/3	-14.0354
▁contro	-14.0354
apur	-14.0354
▁concentr	-14.0354
▁transparen	-14.0354
MD	-14.0354
urpose	-14.0355
ipul	-14.0355
ompound	-14.0355
▁chamarajanagar	-14.0355
ettuce	-14.0355
amrup	-14.0355
indhuri	-14.0355
nstitutional	-14.0355
esistance	-14.0355
▁diminish	-14.0355
▁famili	-14.0355
solation	-14.0355
arching	-14.0355
▁manufactur	-14.0355
quare	-14.0355
▁patien	-14.0355
▁Educati	-14.0356
ieties	-14.0356
ncozeb	-14.0356
iarrhea	-14.0356
▁ethyl	-14.0356
epartment	-14.0356
ecrotic	-14.0356
-1.7	-14.0356
foliation	-14.0356
▁turbid	-14.0356
▁fytol	-14.0356
▁sequen	-14.0356
▁kapil	-14.0356
▁jagg	-14.0356
Phyllac	-14.0356
▁child	-14.0356
▁hajari	-14.0356
albomar	-14.0356
(19:19:19)	-14.0356
(1:1:25)	-14.0356
11111111111111	-14.0356
45454545454545	-14.0356
=124.1	-14.0356
=124.3	-14.0356
=130.8	-14.0356
=131.4	-14.0356
=136.4	-14.0356
=136.8	-14.0356
=141.5	-14.0356
=147.4	-14.0356
=150.9	-14.0356
=151.4	-14.0356
=152.4	-14.0356
=153.3	-14.0356
=153.7	-14.0356
=154.3	-14.0356
=154.7	-14.0356
=155.3	-14.0356
=155.6	-14.0356
=156.1	-14.0356
=156.4	-14.0356
=156.5	-14.0356
=156.9	-14.0356
=157.5	-14.0356
=158.2	-14.0356
=158.3	-14.0356
=159.3	-14.0356
=159.4	-14.0356
=159.6	-14.0356
=159.7	-14.0356
=159.8	-14.0356
=161.4	-14.0356
=161.9	-14.0356
=162.2	-14.0356
=162.7	-14.0356
=162.8	-14.0356
=162.9	-14.0356
=163.3	-14.0356
=163.9	-14.0356
=164.3	-14.0356
=164.8	-14.0356
=165.7	-14.0356
=166.2	-14.0356
=166.3	-14.0356
=166.5	-14.0356
=166.6	-14.0356
=167.1	-14.0356
=167.2	-14.0356
=167.4	-14.0356
=167.6	-14.0356
=167.9	-14.0356
=168.8	-14.0356
=168.9	-14.0356
=169.4	-14.0356
=169.7	-14.0356
=170.9	-14.0356
=171.2	-14.0356
=171.5	-14.0356
=172.4	-14.0356
=173.4	-14.0356
=173.8	-14.0356
=174.3	-14.0356
=175.2	-14.0356
=176.1	-14.0356
=176.3	-14.0356
=176.6	-14.0356
=176.7	-14.0356
=176.9	-14.0356
=178.3	-14.0356
=179.2	-14.0356
=179.8	-14.0356
=180.2	-14.0356
=180.8	-14.0356
=181.3	-14.0356
=181.6	-14.0356
=181.8	-14.0356
=189.1	-14.0356
=190.7	-14.0356
=190.9	-14.0356
=192.6	-14.0356
=192.7	-14.0356
=192.8	-14.0356
=194.7	-14.0356
=195.1	-14.0356
=197.3	-14.0356
=197.4	-14.0356
=198.1	-14.0356
=198.9	-14.0356
=199.8	-14.0356
=199.9	-14.0356
Roundup	-14.0356
etrieve	-14.0356
iruvananthapuram	-14.0356
marwahi	-14.0356
ophyte	-14.0356
panchasira	-14.0356
pargaon	-14.0356
risteza	-14.0356
ropine	-14.0356
▁(2022)	-14.0356
▁9436709040	-14.0356
▁9954411012	-14.0356
▁Administration	-14.0356
▁Agronomi	-14.0356
▁Branch	-14.0356
▁Collaborat	-14.0356
▁Consortium	-14.0356
▁Experiment	-14.0356
▁Fertility	-14.0356
▁Focus	-14.0356
▁Hybrid	-14.0356
▁Lanka	-14.0356
▁Luoguo	-14.0356
▁Marigold	-14.0356
▁Miracle	-14.0356
▁NAA	-14.0356
▁Pactus	-14.0356
▁Pesticide	-14.0356
▁Productivity	-14.0356
▁Repeat	-14.0356
▁Resilience	-14.0356
▁Rido	-14.0356
▁Runoff	-14.0356
▁Sauvignon	-14.0356
▁Shirapur	-14.0356
▁Solanum	-14.0356
▁Sugarcane	-14.0356
▁Supplement	-14.0356
▁Supply	-14.0356
▁Thorough	-14.0356
▁Wait	-14.0356
▁acervuli	-14.0356
▁ahmadabad	-14.0356
▁alirajpur	-14.0356
▁anantnag	-14.0356
▁anuppur	-14.0356
▁aphanidermatum	-14.0356
▁aravalli	-14.0356
▁ariyalur	-14.0356
▁auraiya	-14.0356
▁bahraich	-14.0356
▁baleshwar	-14.0356
▁baloda	-14.0356
▁barwani	-14.0356
▁basti	-14.0356
▁begusarai	-14.0356
▁belgaum	-14.0356
▁bhadrak	-14.0356
▁bhawan	-14.0356
▁bhilwara	-14.0356
▁bhojpur	-14.0356
▁bhopal	-14.0356
▁bijapur	-14.0356
▁bikaner	-14.0356
▁birbhum	-14.0356
▁bokaro	-14.0356
▁cauvery	-14.0356
▁celery	-14.0356
▁champawat	-14.0356
▁chandigarh	-14.0356
▁chandrapur	-14.0356
▁chhotaudepur	-14.0356
▁chikballapur	-14.0356
▁chikkamagaluru	-14.0356
▁chikmi	-14.0356
▁chitradurga	-14.0356
▁clarithromycin	-14.0356
▁contours	-14.0356
▁coochbehar	-14.0356
▁coriender	-14.0356
▁dantewada	-14.0356
▁darbhanga	-14.0356
▁devastat	-14.0356
▁dhaincha	-14.0356
▁dhamtari	-14.0356
▁dhenkanal	-14.0356
▁diarrohoea	-14.0356
▁dindigul	-14.0356
▁drowsiness	-14.0356
▁economies	-14.0356
▁edema	-14.0356
▁equiseti	-14.0356
▁erode	-14.0356
▁fatehabad	-14.0356
▁fatehpur	-14.0356
▁firozabad	-14.0356
▁fossil	-14.0356
▁gandhinagar	-14.0356
▁ganjam	-14.0356
▁ghaziabad	-14.0356
▁gomati	-14.0356
▁gondia	-14.0356
▁gulbarga	-14.0356
▁gwalior	-14.0356
▁hafir	-14.0356
▁hoshangabad	-14.0356
▁hyacinth	-14.0356
▁indeterminate	-14.0356
▁jabalpur	-14.0356
▁jalandhar	-14.0356
▁jalna	-14.0356
▁jalore	-14.0356
▁jhansi	-14.0356
▁jharsuguda	-14.0356
▁jhunjhunu	-14.0356
▁jodhpur	-14.0356
▁kabirdham	-14.0356
▁kaliapani	-14.0356
▁kameng	-14.0356
▁kannur	-14.0356
▁karimnagar	-14.0356
▁kasaragod	-14.0356
▁keteki	-14.0356
▁khandwa	-14.0356
▁kheri	-14.0356
▁khowai	-14.0356
▁khurpi	-14.0356
▁kishanganj	-14.0356
▁kolasib	-14.0356
▁kolhapur	-14.0356
▁kollam	-14.0356
▁kondagaon	-14.0356
▁kottayam	-14.0356
▁krishnagiri	-14.0356
▁kudzu	-14.0356
▁kumey	-14.0356
▁kurnool	-14.0356
▁kurukshetra	-14.0356
▁lacrima	-14.0356
▁lakhisarai	-14.0356
▁latitude	-14.0356
▁lizards	-14.0356
▁mahabubabad	-14.0356
▁mahesana	-14.0356
▁mandsaur	-14.0356
▁mathura	-14.0356
▁mirzapur	-14.0356
▁miscellaneous	-14.0356
▁mosambi	-14.0356
▁muktsar	-14.0356
▁murshidabad	-14.0356
▁muzaffarpur	-14.0356
▁mysore	-14.0356
▁nagapattinam	-14.0356
▁nagpur	-14.0356
▁nalanda	-14.0356
▁navsari	-14.0356
▁nayagarh	-14.0356
▁palamu	-14.0356
▁palghar	-14.0356
▁palwal	-14.0356
▁panchkula	-14.0356
▁pathanamthitta	-14.0356
▁pathankot	-14.0356
▁perambalur	-14.0356
▁pithoragarh	-14.0356
▁pondicherry	-14.0356
▁poonch	-14.0356
▁propagules	-14.0356
▁purulia	-14.0356
▁rakshak	-14.0356
▁ramanathapuram	-14.0356
▁rangareddi	-14.0356
▁ratnagiri	-14.0356
▁regimen	-14.0356
▁rodenticide	-14.0356
▁rohtak	-14.0356
▁rohtas	-14.0356
▁rupnagar	-14.0356
▁salivation	-14.0356
▁samastipur	-14.0356
▁samrat	-14.0356
▁scissor	-14.0356
▁sharp	-14.0356
▁sheikhpura	-14.0356
▁shravasti	-14.0356
▁sieve	-14.0356
▁singrauli	-14.0356
▁sirmaur	-14.0356
▁sitapur	-14.0356
▁sivaganga	-14.0356
▁smallpox	-14.0356
▁somnath	-14.0356
▁srikakulam	-14.0356
▁subansiri	-14.0356
▁sultanpur	-14.0356
▁surendranagar	-14.0356
▁tablespoon	-14.0356
▁tamenglong	-14.0356
▁thanjavur	-14.0356
▁thiruvallur	-14.0356
▁thiruvarur	-14.0356
▁thousand	-14.0356
▁tiruchirappalli	-14.0356
▁tiruppur	-14.0356
▁tuticorin	-14.0356
▁udupi	-14.0356
▁umaria	-14.0356
▁undercarriages	-14.0356
▁vadodara	-14.0356
▁vanilla	-14.0356
▁varanasi	-14.0356
▁veggie	-14.0356
▁vehicle	-14.0356
▁vellore	-14.0356
▁warangal	-14.0356
▁wtaer	-14.0356
▁yadgir	-14.0356
▁yamunanagar	-14.0356
▁yavatmal	-14.0356
▁yesterday	-14.0356
▁zoospores	-14.0356
▁zunheboto	-14.0356
▁Brief	-14.0356
▁Reckoner	-14.0356
▁Sporangi	-14.0356
▁acknowledg	-14.0356
▁article	-14.0356
▁azara	-14.0356
▁catterpil	-14.0356
▁partners	-14.0356
▁sword	-14.0356
▁threshing	-14.0356
blaze	-14.0356
▁18:17:	-14.0356
▁Burnihat	-14.0356
▁LLS	-14.0356
▁discomfort	-14.0356
▁expulsi	-14.0356
▁grind	-14.0356
▁jaipur	-14.0356
▁karnal	-14.0356
▁larv	-14.0356
▁oblong	-14.0356
▁phytotoxic	-14.0356
▁pukhraj	-14.0356
▁rkvy	-14.0356
zobi	-14.0356
▁bareli	-14.0356
▁bathinda	-14.0356
▁conjunctivities	-14.0356
▁karauli	-14.0356
▁Maxim	-14.0356
▁derma	-14.0356
▁mandla	-14.0356
▁mustrad	-14.0356
▁snakebite	-14.0356
=162.0	-14.0356
=167.0	-14.0356
=182.0	-14.0356
basidi	-14.0356
▁argul	-14.0356
▁commit	-14.0356
▁howrah	-14.0356
▁placenta	-14.0356
▁quantitative	-14.0356
▁rewari	-14.0356
▁tonophosph	-14.0356
=160.2	-14.0356
▁chital	-14.0356
▁cocoon	-14.0356
▁napth	-14.0356
=161.0	-14.0356
▁Boost	-14.0356
▁chives	-14.0356
▁daadi	-14.0356
▁etah	-14.0356
▁hydroxide	-14.0356
▁intercellular	-14.0356
▁pavistin	-14.0356
▁siang	-14.0356
▁thieves	-14.0356
▁musturd	-14.0356
=151.0	-14.0356
=168.0	-14.0356
valent	-14.0356
▁Plastic	-14.0356
▁agree	-14.0356
▁jind	-14.0356
▁launch	-14.0356
▁medak	-14.0356
▁mesta	-14.0356
▁overheating	-14.0356
▁pakur	-14.0356
▁satna	-14.0356
▁(2014)	-14.0356
▁0376-	-14.0356
▁patan	-14.0356
=150.0	-14.0356
▁bundi	-14.0356
▁epidemic	-14.0356
▁precocious	-14.0356
▁softneck	-14.0356
caroten	-14.0356
▁Tillage	-14.0356
▁hardoi	-14.0356
▁zanide	-14.0356
▁vaishali	-14.0356
▁impart	-14.0356
▁mamit	-14.0356
▁sanction	-14.0356
genic	-14.0356
▁quater	-14.0356
▁namdhari	-14.0356
chloropyrifos	-14.0356
▁Divid	-14.0356
▁diversified	-14.0356
▁spicy	-14.0356
itud	-14.0356
ophyl	-14.0356
vani	-14.0356
▁handique	-14.0356
▁oxypro	-14.0356
▁pratapgarh	-14.0356
▁runner	-14.0356
▁advisories	-14.0356
▁cyper	-14.0356
▁dungarpur	-14.0356
▁gaot	-14.0356
▁vacation	-14.0356
▁curve	-14.0356
▁ballari	-14.0356
▁lucknow	-14.0356
▁incur	-14.0356
▁multigene	-14.0356
▁caught	-14.0356
▁Acid	-14.0356
▁gurgaon	-14.0356
▁carbendazole	-14.0356
▁parvati	-14.0356
=164.0	-14.0356
▁Watermelon	-14.0356
dshah	-14.0357
▁hacter	-14.0357
▁Buy	-14.0357
▁interference	-14.0357
▁refine	-14.0357
▁almora	-14.0357
▁bodo	-14.0357
▁mahbubnagar	-14.0357
▁regeneration	-14.0357
▁metagreen	-14.0357
▁betul	-14.0357
▁cochin	-14.0357
▁retard	-14.0357
▁scope	-14.0357
▁sourcing	-14.0357
▁bidar	-14.0357
AMF	-14.0357
▁purity	-14.0357
▁hepawin	-14.0357
▁satara	-14.0357
▁sukma	-14.0357
▁foetida	-14.0357
▁vining	-14.0357
▁jro	-14.0357
▁lablab	-14.0357
▁logical	-14.0357
zoid	-14.0357
▁reproduce	-14.0357
▁icar	-14.0357
▁daman	-14.0357
▁thorn	-14.0357
▁ratna	-14.0357
▁cigar	-14.0357
▁0.05%	-14.0357
▁varification	-14.0357
▁summary	-14.0357
▁curb	-14.0357
▁aligarh	-14.0357
▁bhandara	-14.0357
ontex	-14.0357
▁manufacturer	-14.0357
uava	-14.0357
▁Reduction	-14.0357
▁pmkisan	-14.0357
▁diminishes	-14.0357
▁accessibility	-14.0357
▁koderma	-14.0357
▁dishes	-14.0357
▁distortion	-14.0357
iations	-14.0357
idomi	-14.0357
▁surekha	-14.0357
▁Broiler	-14.0357
perat	-14.0357
▁churu	-14.0357
▁specialist	-14.0358
...1/2	-14.0358
▁wokha	-14.0358
▁sym	-14.0358
▁droplets	-14.0358
▁bargarh	-14.0358
▁tapi	-14.0358
▁popularity	-14.0358
▁trycel	-14.0358
▁augment	-14.0358
mahako	-14.0358
▁diease	-14.0358
aruna	-14.0358
@198	-14.0358
DP	-14.0358
nalphos	-14.0358
▁restraint	-14.0358
rucha	-14.0358
▁Wide	-14.0359
eedling	-14.0359
▁Influence	-14.0359
amol	-14.0359
▁scav	-14.0359
▁vision	-14.0359
▁appro	-14.0359
▁Fall	-14.0359
▁WS	-14.0359
▁downtime	-14.0359
▁roundup	-14.0359
▁Integration	-14.0359
▁smoothness	-14.0359
septic	-14.036
▁baran	-14.036
▁tonk	-14.036
-781354	-14.036
▁determinate	-14.036
▁documentation	-14.036
sioux	-14.036
▁sack	-14.036
▁onwards	-14.036
▁06	-14.036
▁fif	-14.0361
▁chopper	-14.0361
▁ignite	-14.0361
-280	-14.0361
▁wrapp	-14.0361
▁cork	-14.0361
▁acquir	-14.0361
▁nadia	-14.0361
▁ankur	-14.0361
▁enrichment	-14.0361
▁Niger	-14.0361
uradon	-14.0361
▁guntur	-14.0361
▁restriction	-14.0361
▁bright	-14.0362
▁centimetre	-14.0362
▁definite	-14.0362
▁tarzan	-14.0362
ER	-14.0362
▁tackl	-14.0363
▁charg	-14.0363
▁turm	-14.0363
ikkim	-14.0363
▁moti	-14.0363
▁gaya	-14.0363
▁Trip	-14.0363
▁hydrochlori	-14.0363
▁thicker	-14.0363
▁immers	-14.0363
▁mixure	-14.0364
▁Distinct	-14.0364
▁alignment	-14.0364
jana	-14.0364
▁majesti	-14.0364
lokia	-14.0364
▁institutional	-14.0364
▁ashgourd	-14.0365
...30	-14.0365
▁wine	-14.0365
▁harmon	-14.0365
▁tapgor	-14.0365
iph	-14.0365
▁button	-14.0366
▁pru	-14.0366
judo	-14.0366
grama	-14.0366
▁Injection	-14.0367
▁Telangana	-14.0367
▁cellulose	-14.0367
▁01123381092	-14.0367
▁jalgaon	-14.0367
▁sivsagar	-14.0367
▁chambel	-14.0367
ware	-14.0367
▁stimulation	-14.0367
▁lactation	-14.0367
▁cautiously	-14.0368
9)	-14.0368
▁kuru	-14.0368
▁oilseeds	-14.0368
105-11	-14.0368
▁permit	-14.0368
emost	-14.0368
▁assumption	-14.0369
▁acceptance	-14.0369
▁Dev	-14.0369
▁undermin	-14.0369
▁masuri	-14.0369
▁harda	-14.037
ux	-14.037
troph	-14.0371
FI	-14.0371
▁Coun	-14.0371
▁2011	-14.0371
▁wettened	-14.0372
▁harrowed	-14.0372
▁captu	-14.0372
▁tension	-14.0372
▁adj	-14.0373
granular	-14.0373
▁neocyclin	-14.0374
litter	-14.0374
▁Rhi	-14.0375
▁collards	-14.0375
▁butter	-14.0376
▁vetch	-14.0377
tery	-14.0378
▁impede	-14.0379
aterial	-14.0379
▁partur	-14.0379
eady	-14.0379
▁morena	-14.0379
prooting	-14.0379
▁2018	-14.0379
ropyriphos	-14.0379
▁chloropyr	-14.038
solut	-14.038
▁ICT	-14.038
anide	-14.0381
▁grasses	-14.0381
▁sulpha	-14.0381
isan	-14.0382
▁haveri	-14.0382
▁dhe	-14.0382
▁1300	-14.0383
▁inappitance	-14.0383
udge	-14.0383
40,000/	-14.0384
ylactic	-14.0384
auses	-14.0384
▁hisar	-14.0384
968	-14.0385
▁promotion	-14.0385
static	-14.0385
▁7896028773	-14.0386
▁Artemisi	-14.0386
▁glycerin	-14.0386
▁glyodin	-14.0386
▁qntl	-14.0386
▁gitesh	-14.0386
▁dermo	-14.0386
▁pom	-14.0387
▁Care	-14.0387
▁musa	-14.0387
▁dio	-14.0387
▁intramuscularly	-14.0387
▁clumps	-14.0387
▁Frameworks	-14.0387
▁hypothesis	-14.0387
▁Sand	-14.0388
▁15000	-14.0389
▁alfa	-14.039
drench	-14.0391
▁madhu	-14.0393
20%,	-14.0393
-0.5	-14.0393
▁deteriorating	-14.0394
▁9613	-14.0396
▁correlate	-14.0397
186	-14.0397
▁redish	-14.0398
ensitiv	-14.0398
chna	-14.0399
▁inflamm	-14.04
▁suger	-14.04
▁hps	-14.04
▁immunize	-14.0401
nate	-14.0401
-404	-14.0402
▁2:1	-14.0402
▁neemuch	-14.0411
▁que	-14.0411
ibr	-14.0413
▁cancer	-14.0413
▁riski	-14.0414
▁longding	-14.0414
▁australi	-14.0415
-800	-14.0417
vistin	-14.0417
urella	-14.0418
▁2005	-14.0421
craft	-14.0421
promin	-14.0422
apid	-14.0422
▁sat	-14.0424
▁singly	-14.0425
▁purifie	-14.0425
▁bazar	-14.0425
▁titabor	-14.0425
WC	-14.0429
▁170	-14.043
▁abu	-14.043
interval	-14.043
gibber	-14.0431
▁gel	-14.0432
stocking	-14.0434
▁kamrupa	-14.0434
43.	-14.0435
tel	-14.0435
▁num	-14.0435
contained	-14.0435
▁activated	-14.0436
umn	-14.0436
sweet	-14.0436
igar	-14.0436
unch	-14.0438
▁Issues	-14.0442
▁schools	-14.0442
▁eucalypts	-14.0442
▁bedana	-14.0442
boli	-14.0443
▁shakti	-14.0444
gitation	-14.0445
▁multineem	-14.0445
▁80,000	-14.0446
▁Dre	-14.0448
pores	-14.0448
▁0.04	-14.0452
ourav	-14.0454
rnia	-14.0454
nosuperphosphate	-14.0457
▁Basil	-14.0457
▁puri	-14.0459
▁Desi	-14.0464
▁837	-14.0465
600-	-14.0468
▁ngo	-14.0468
▁internationally	-14.0469
▁dob	-14.0471
rates	-14.0471
iphon	-14.0473
▁swa	-14.0477
▁agoat	-14.0481
▁rai	-14.0486
▁sum	-14.0486
▁bactericid	-14.0486
▁bwd	-14.049
▁perme	-14.0492
▁fitting	-14.0492
▁advisor	-14.0493
▁Filling	-14.0494
inning	-14.0494
▁Fib	-14.0494
▁,33	-14.0495
▁logs	-14.0497
▁exhibitions	-14.0497
usual	-14.0498
963	-14.05
▁jar	-14.0503
▁acetam	-14.0507
▁antioxidants	-14.051
▁clogg	-14.0511
▁15,000	-14.0512
nj	-14.0513
▁reject	-14.0517
▁tps	-14.0519
▁tamp	-14.0521
▁Reduc	-14.0523
▁31.0	-14.0525
edge	-14.0531
sird	-14.0536
comended	-14.0541
▁terraces	-14.0543
athane	-14.0544
▁hide	-14.0547
▁peanuts	-14.0554
▁49.0	-14.0558
▁dial	-14.0569
▁320	-14.0571
▁abd	-14.0576
▁divid	-14.0576
▁Ask	-14.058
▁spre	-14.0588
key	-14.0589
▁680	-14.0594
29.	-14.0599
205	-14.06
▁propell	-14.0609
regarding	-14.0609
▁pup	-14.061
▁evaluations	-14.0611
▁kernels	-14.0611
-85	-14.0615
▁bins	-14.0616
136.0	-14.0616
tact	-14.0617
acking	-14.0622
▁bav	-14.0624
▁ever	-14.0624
▁sealed	-14.0628
▁dif	-14.0635
▁hatcher	-14.0637
esser	-14.0639
▁Mad	-14.0641
▁plugging	-14.0646
▁registering	-14.0647
malaria	-14.0649
8333333333333	-14.0656
▁Erythr	-14.0659
▁tones	-14.0661
▁spirit	-14.0661
▁0.15	-14.0663
▁overhea	-14.0664
weeds	-14.0666
▁connections	-14.0668
▁1.5-2.5	-14.0675
▁214	-14.0682
▁learned	-14.0682
▁disa	-14.0683
-77	-14.0684
55555555555555	-14.0692
para	-14.0693
-115	-14.07
ghat	-14.0703
1975	-14.0711
▁@19	-14.0711
▁kes	-14.073
umen	-14.0735
▁phosp	-14.0743
▁tem	-14.0753
▁terrace	-14.0753
00-600	-14.0753
▁past	-14.0755
osa	-14.076
razil	-14.0762
137.0	-14.0766
▁0.95	-14.0766
▁fru	-14.0768
▁@22	-14.077
unburn	-14.0773
azol	-14.0776
rade	-14.0779
▁infectio	-14.0783
bro	-14.0785
551	-14.0788
canut	-14.0789
▁grubs	-14.0795
▁syn	-14.0799
hydration	-14.08
-101	-14.0803
▁asst	-14.0804
▁cul	-14.0809
▁sulfon	-14.0813
▁swim	-14.0825
je	-14.0827
▁measurement	-14.0828
30-60	-14.083
NH	-14.0833
noxi	-14.0838
▁0.73	-14.0838
mental	-14.0852
▁gumming	-14.0853
acron	-14.0865
rgent	-14.0871
▁quinoa	-14.0873
nso	-14.0887
▁Wil	-14.0889
▁94350	-14.0891
▁dilut	-14.0892
guri	-14.0892
-3.5	-14.0897
▁deposits	-14.0901
▁Nutrition	-14.0908
▁aerated	-14.0912
▁barr	-14.0912
cillin	-14.0918
astern	-14.092
▁thane	-14.0922
0.2	-14.0923
▁segregate	-14.0927
aux	-14.0929
▁aap	-14.0931
sonin	-14.0934
tment	-14.094
▁-18	-14.0944
▁allo	-14.0954
rapping	-14.0956
▁networks	-14.096
8543	-14.096
ote	-14.0961
nath	-14.0966
▁dosa	-14.0972
▁6.0-7.	-14.0974
982	-14.0975
▁neo	-14.0975
trib	-14.0977
960	-14.0978
▁dasy	-14.0989
▁Ever	-14.0998
talk	-14.1006
overnments	-14.1012
plen	-14.1012
▁lids	-14.1014
raise	-14.1015
ractical	-14.1022
lies	-14.1027
▁prov	-14.1036
urn	-14.1037
▁gaur	-14.1047
764	-14.1056
dent	-14.1066
hn	-14.107
▁inexpensive	-14.1076
akind	-14.1079
▁Balanc	-14.1081
114	-14.1083
▁carbendi	-14.1086
18181818181818	-14.1088
-21	-14.109
▁ranj	-14.1099
▁potat	-14.1103
▁hardy	-14.1105
nife	-14.1105
igna	-14.1116
▁completed	-14.1123
▁354	-14.1124
arak	-14.1129
eaching	-14.1137
170	-14.1144
▁0.24	-14.1145
PR	-14.1147
-35	-14.115
▁treatm	-14.115
▁crucia	-14.1165
cat	-14.1166
▁pulling	-14.1169
▁cli	-14.1188
▁prematurely	-14.119
▁externally	-14.119
▁colored	-14.1208
6.5	-14.1208
550	-14.1213
▁nk	-14.1226
tra	-14.1229
▁ignit	-14.1233
ircu	-14.1252
oats	-14.1278
▁nem	-14.1296
▁-15	-14.13
onopo	-14.1337
▁music	-14.1346
eatment	-14.1347
63.	-14.1356
▁prac	-14.136
hik	-14.136
tinia	-14.1363
▁80.0	-14.1365
▁71	-14.1379
taion	-14.1387
▁doesn	-14.1406
bharat	-14.1407
vail	-14.1412
iosp	-14.142
athion	-14.1437
anning	-14.1441
tie	-14.1452
▁blocked	-14.1464
ik	-14.1468
▁Technolog	-14.1469
ober	-14.1475
486	-14.1486
tail	-14.1502
285714285714285	-14.1503
nis	-14.1509
▁0.33	-14.1529
tetracycline	-14.1533
313.	-14.1539
mpo	-14.1547
▁mist	-14.1551
117.0	-14.1565
tch	-14.157
rab	-14.1574
018	-14.1576
▁nrc	-14.1577
▁mol	-14.1611
▁03	-14.1623
▁Wi	-14.1664
▁101,	-14.1685
▁brin	-14.1695
▁cherr	-14.17
▁medica	-14.1716
@400	-14.1721
llin	-14.1723
▁cyst	-14.174
1.2	-14.1754
tard	-14.1755
lobal	-14.1803
ptimiz	-14.1837
rupt	-14.1846
vora	-14.1861
▁Plow	-14.1866
should	-14.1874
636	-14.1881
9242	-14.1881
560	-14.1882
832	-14.1892
arma	-14.1898
por	-14.19
▁secur	-14.1904
niv	-14.1934
▁Brus	-14.1944
262	-14.1944
erms	-14.1946
63.0	-14.1949
uccessful	-14.1978
ner	-14.1988
▁0.20	-14.2009
@14	-14.201
atching	-14.201
727272727272727	-14.2013
ecological	-14.2022
▁904	-14.2023
icroorganisms	-14.2043
under	-14.2086
undation	-14.2088
vt	-14.2095
▁volatil	-14.2109
698	-14.2123
kp	-14.2124
116	-14.2124
▁Improv	-14.2127
attle	-14.214
633	-14.2145
228	-14.2147
122	-14.2163
121	-14.2169
▁Broade	-14.2199
eta	-14.2208
rican	-14.222
▁rema	-14.2222
▁173	-14.2235
rabi	-14.2242
▁qua	-14.2251
172.0	-14.2254
1022	-14.226
120.0	-14.2264
----	-14.2293
309	-14.2295
ree	-14.2296
▁indo	-14.2314
tance	-14.2328
▁kat	-14.2342
sperm	-14.2364
▁5.1	-14.2369
mentation	-14.2369
cus	-14.2398
240	-14.2411
841	-14.2421
racks	-14.2438
Pha	-14.2447
▁1.07	-14.2447
▁arrang	-14.2453
ition	-14.246
429	-14.2469
4615384615384	-14.248
nh	-14.2501
1.4	-14.2569
▁0.48	-14.2571
▁managem	-14.2596
hri	-14.2606
954	-14.2614
erval	-14.2634
▁dictat	-14.2642
1500	-14.2647
▁prot	-14.2683
▁differentiat	-14.2698
468.0	-14.2714
▁En	-14.2727
▁mann	-14.2728
▁Even	-14.2731
rol	-14.2746
▁Balance	-14.2761
icket	-14.2764
ospori	-14.2764
pot	-14.2789
apa	-14.2804
▁qualif	-14.2809
▁Practic	-14.2822
155.0	-14.2824
bour	-14.2829
joy	-14.2835
▁163	-14.2842
vol	-14.2851
▁zn	-14.2872
999	-14.2911
1320	-14.2931
TM	-14.2932
▁nip	-14.2977
profeno	-14.2984
til	-14.2984
117	-14.2985
0623	-14.2991
0-15	-14.2998
▁7840	-14.2998
0-6	-14.3001
▁pi	-14.3019
▁intermi	-14.3036
1995	-14.3036
cultural	-14.3037
capsularis	-14.3052
low	-14.3067
lips	-14.3071
burn	-14.3077
cumb	-14.3088
1040	-14.3089
▁fli	-14.309
bium	-14.3094
currently	-14.3099
ani	-14.3134
▁bh	-14.314
▁tru	-14.3142
▁2004	-14.3156
elic	-14.316
▁settl	-14.3162
▁susp	-14.3203
▁375	-14.3206
▁145	-14.3206
▁immu	-14.3214
nova	-14.3221
3.5	-14.3227
draining	-14.3234
52631578947368	-14.324
▁235	-14.3243
▁beta	-14.3273
phal	-14.3273
nose	-14.3275
10000	-14.3275
thromycin	-14.3283
fine	-14.3294
shells	-14.3295
etting	-14.3299
▁vig	-14.3301
sourc	-14.3304
▁hemispher	-14.3306
▁2021	-14.3309
▁Less	-14.3311
▁cinnam	-14.3323
RP	-14.3323
pani	-14.3324
▁9954	-14.3325
166	-14.3333
icrobial	-14.335
semi	-14.3351
199	-14.3358
▁551	-14.3361
ender	-14.3365
fri	-14.3374
▁thriv	-14.3376
versity	-14.338
▁initiat	-14.3394
▁bani	-14.341
kmn	-14.3411
▁fact	-14.3412
▁Cat	-14.3415
phosphate	-14.3419
▁phen	-14.3433
▁sn	-14.3437
vera	-14.3437
...5	-14.3444
▁20:1	-14.3448
▁drie	-14.3449
▁clove	-14.3458
-700	-14.3473
▁clo	-14.3479
▁04	-14.3482
▁antioxidant	-14.3496
weet	-14.3497
▁exhibition	-14.3502
hakti	-14.3502
▁orchid	-14.3505
▁imbalance	-14.3505
▁intercrop	-14.3506
▁Chicken	-14.3506
▁2.00	-14.3507
ijo	-14.3507
oblem	-14.3511
▁engine	-14.3511
▁sett	-14.3511
▁premise	-14.3512
▁mealybug	-14.3512
▁shrub	-14.3512
uestion	-14.3513
▁technician	-14.3513
▁livelihood	-14.3513
▁ingredient	-14.3514
phen	-14.3515
▁Sap	-14.3516
▁particle	-14.3517
ulfi	-14.3519
erative	-14.352
▁expo	-14.3522
▁Tree	-14.3523
noderma	-14.3532
▁337	-14.3535
▁shad	-14.3541
itiate	-14.3541
3992	-14.3546
termit	-14.3551
▁wh	-14.3553
halo	-14.3555
melon	-14.3555
▁former	-14.356
prepare	-14.3568
[...]
