<pad>	0
<s>	0
</s>	0
<unk>	0
,	-3.10938
.	-3.48529
:	-3.74872
▁**	-3.77384
▁(	-3.80062
▁the	-3.81296
▁and	-3.83673
**	-3.87145
▁of	-4.05907
max	-4.17253
▁in	-4.22414
▁is	-4.26068
▁	-4.33409
#	-4.39333
▁##	-4.39376
▁crop	-4.45661
▁to	-4.76613
▁for	-4.85979
▁*	-4.86538
s	-4.89998
)	-4.98451
▁a	-5.08664
▁Response	-5.09265
▁Instruction	-5.09318
-	-5.11792
▁soil	-5.11807
▁C	-5.1261
▁P	-5.12964
▁This	-5.15166
▁K	-5.18007
▁water	-5.23175
▁pH	-5.26421
▁readings	-5.27172
▁on	-5.38026
▁recommended	-5.68545
/	-5.70449
▁has	-5.70998
▁which	-5.7267
%	-5.7341
▁season	-5.78216
▁this	-5.79972
▁through	-5.80216
▁N	-5.81053
N	-5.8246
),	-5.842
ing	-5.85952
▁well	-5.86655
▁Soil	-5.87361
▁best	-5.8793
▁your	-5.90525
▁temperature	-5.90834
▁grown	-5.92112
▁2	-5.93315
▁explain	-5.94577
▁with	-5.94781
▁sources	-5.94869
Crop	-5.9493
▁humidity	-5.95
▁usually	-5.95149
Farming	-5.95173
▁sensor	-5.95318
▁Based	-5.95504
▁Type	-5.9555
▁supported	-5.95591
▁typically	-5.95643
Why	-5.95645
▁match	-5.9602
▁Recommend	-5.96114
▁Awareness	-5.96209
▁briefly	-5.96333
▁Your	-5.96351
▁thrives	-5.96357
▁Temp	-5.96404
▁Conditions	-5.96419
Ideal	-5.96435
?**	-5.97399
▁60)	-6.08207
▁The	-6.15796
▁be	-6.18593
▁are	-6.29445
▁about	-6.31514
▁@	-6.32448
▁by	-6.33037
▁as	-6.33345
100),	-6.36065
▁1	-6.37676
▁at	-6.38025
▁asking	-6.42867
▁40)	-6.51945
Loamy	-6.52449
irrigated	-6.54195
▁control	-6.54259
▁from	-6.55543
ed	-6.61543
▁per	-6.63466
▁or	-6.68316
▁can	-6.69955
▁spray	-6.71569
rainfed	-6.75199
e	-6.78335
▁3	-6.7857
?	-6.80962
vegetables	-6.85736
▁kg	-6.86224
Zaid	-6.87049
▁days	-6.91566
▁80)	-6.92372
▁that	-6.92477
▁was	-6.92616
▁plant	-6.94325
;	-6.94536
▁5	-7.0047
▁ICAR	-7.0331
d	-7.03876
kharif	-7.04003
▁should	-7.08451
▁during	-7.0884
▁farmers	-7.09225
▁apply	-7.09599
▁production	-7.15319
▁7.0	-7.15449
ly	-7.16308
▁A	-7.194
▁s	-7.20238
ha	-7.2046
sandy	-7.20701
▁it	-7.21754
▁gourd	-7.21833
▁20	-7.2471
▁yield	-7.25876
120),	-7.25952
rabi	-7.27141
y	-7.27334
▁crops	-7.28981
g	-7.29672
▁85)	-7.29871
▁him	-7.31244
▁rice	-7.31528
▁management	-7.32559
▁S	-7.3386
▁plants	-7.35537
▁an	-7.35586
▁ml	-7.36131
▁10	-7.37002
▁seed	-7.37504
▁-	-7.38338
▁also	-7.39245
▁In	-7.39948
a	-7.40719
l	-7.40971
▁growth	-7.41472
▁use	-7.42645
▁suggested	-7.43074
▁4	-7.44774
▁7.5)	-7.45145
▁30).	-7.46579
▁disease	-7.47883
▁g	-7.49107
▁50	-7.50867
▁India	-7.51196
▁have	-7.51347
er	-7.51497
▁were	-7.52602
al	-7.53887
▁irrigation	-7.55174
▁seeds	-7.55501
▁fertilizer	-7.5605
▁used	-7.56532
▁fruit	-7.57632
▁time	-7.58756
▁under	-7.5889
▁What	-7.59308
▁year	-7.5981
▁27).	-7.60572
▁area	-7.61628
n	-7.62927
▁Indian	-7.63563
▁after	-7.63691
i	-7.64232
▁urea	-7.64529
▁It	-7.64988
m	-7.6688
▁B	-7.67331
▁been	-7.67935
▁system	-7.68259
▁like	-7.68316
r	-7.68511
▁Agricultural	-7.69396
▁Research	-7.69792
▁15	-7.69875
▁/	-7.70049
▁cultivation	-7.70876
▁y	-7.71464
▁litre	-7.71818
t	-7.72362
▁30)	-7.73416
▁interval	-7.73615
▁their	-7.74186
2	-7.75578
▁other	-7.75865
▁field	-7.75959
▁leaf	-7.76116
ml	-7.76374
▁high	-7.77771
millets	-7.79195
▁t	-7.79846
=6.6	-7.79913
▁not	-7.81314
▁application	-7.81384
▁150)	-7.82316
▁gram	-7.82375
▁such	-7.82531
▁varieties	-7.82831
▁agricultural	-7.83509
▁more	-7.83756
▁planting	-7.83834
▁m	-7.84046
A	-7.85557
1	-7.8593
=6.7	-7.85997
▁measure	-7.8612
▁based	-7.86889
▁0.00	-7.87522
▁land	-7.8765
▁6	-7.87791
▁30	-7.87804
es	-7.90783
▁development	-7.90934
▁regarding	-7.90963
▁l	-7.90978
▁leaves	-7.91833
▁advised	-7.91914
▁quality	-7.92347
▁its	-7.92414
▁agriculture	-7.93024
▁90)	-7.93864
▁Dr	-7.93989
▁M	-7.93998
▁what	-7.95696
▁ITK	-7.96085
▁farming	-7.96581
in	-7.96729
▁does	-7.9715
b	-7.9731
kg	-7.97743
▁dose	-7.98082
▁one	-7.98364
▁Pradesh	-7.98433
=1	-8.0024
▁all	-8.00657
3	-8.00676
▁gm	-8.00821
▁variety	-8.00882
=6.5	-8.01089
4	-8.02987
pulses	-8.0344
▁potato	-8.03618
▁will	-8.03764
▁8.0	-8.0384
▁these	-8.0455
▁T	-8.06323
▁I	-8.06342
▁35).	-8.06942
▁different	-8.06973
=6.8	-8.06997
▁7	-8.0735
▁may	-8.07977
▁How	-8.08622
P	-8.08818
▁query	-8.0897
▁up	-8.0914
▁etc	-8.10271
▁diseases	-8.10484
▁treatment	-8.11135
well	-8.11786
▁practices	-8.11855
C	-8.11872
▁where	-8.11876
S	-8.12837
▁conditions	-8.1313
▁using	-8.13218
▁millet	-8.13266
o	-8.1381
=6.1	-8.13838
=6.9	-8.14363
drained	-8.14404
c	-8.14869
gm	-8.15248
=6.4	-8.15501
th	-8.15508
(	-8.15651
▁technology	-8.15862
=6.3	-8.15952
=6.2	-8.18154
▁fish	-8.18409
▁farm	-8.18414
k	-8.18623
▁income	-8.18644
▁100	-8.18651
B	-8.18861
▁cm	-8.19041
▁F	-8.19596
tuber	-8.19596
st	-8.2063
Root	-8.20962
▁ec	-8.21
▁root	-8.21248
▁pest	-8.21367
▁research	-8.21497
▁bean	-8.22453
▁12	-8.22548
▁Delhi	-8.22634
▁data	-8.2269
▁Agriculture	-8.2271
▁25	-8.2304
▁over	-8.23168
▁rot	-8.23839
▁food	-8.23885
▁8	-8.23991
▁you	-8.24025
▁bigha	-8.24232
5	-8.24273
▁than	-8.24795
▁areas	-8.24939
lit	-8.2524
▁nutrient	-8.25866
▁New	-8.26346
▁sowing	-8.26491
▁tree	-8.26507
▁know	-8.26927
▁measures	-8.27782
R	-8.28011
▁systems	-8.28092
▁70	-8.28265
▁e	-8.28545
▁G	-8.28665
▁how	-8.28729
T	-8.28756
6	-8.28796
or	-8.302
▁19	-8.30481
▁small	-8.30591
▁paddy	-8.3064
▁R	-8.30782
▁health	-8.30835
▁productivity	-8.30857
▁times	-8.31315
).	-8.31519
M	-8.31644
▁developed	-8.31937
▁due	-8.31947
▁method	-8.32007
▁Tables	-8.32821
▁9	-8.33306
▁6.5	-8.33654
▁increase	-8.33777
▁provide	-8.33942
▁Institute	-8.34271
▁malathion	-8.34302
▁tomato	-8.34335
▁For	-8.34432
p	-8.34742
▁0	-8.35222
▁ensure	-8.35429
▁liter	-8.35432
▁mop	-8.35552
▁into	-8.358
ation	-8.37477
h	-8.37571
▁two	-8.3801
=7.0	-8.38382
▁organic	-8.38473
▁years	-8.38475
▁To	-8.38735
▁prevent	-8.39129
▁pests	-8.39421
D	-8.39691
▁against	-8.39966
9	-8.40077
▁25).	-8.40148
ic	-8.40533
▁maize	-8.4112
▁cultivated	-8.41403
▁ssp	-8.41669
O	-8.41748
▁problem	-8.41955
▁18	-8.42261
▁fruits	-8.42544
▁wheat	-8.42607
▁bed	-8.42832
8	-8.42897
=6.0	-8.43229
L	-8.43452
0	-8.43466
▁effectively	-8.43567
▁onion	-8.43913
f	-8.4575
E	-8.45882
▁higher	-8.46128
I	-8.47102
▁help	-8.4718
▁out	-8.48152
▁c	-8.48628
▁some	-8.4865
▁tonnes	-8.48849
▁technologies	-8.48901
bigha	-8.49046
oil	-8.49071
▁D	-8.49132
▁any	-8.50187
▁applied	-8.50652
ur	-8.5074
▁Use	-8.51102
▁coconut	-8.51568
an	-8.51633
▁new	-8.51979
▁when	-8.52025
▁value	-8.52519
▁but	-8.52586
▁before	-8.52706
on	-8.53451
▁hectare	-8.53548
▁reduce	-8.54253
▁various	-8.5429
▁better	-8.54329
▁E	-8.54363
▁good	-8.5484
▁cotton	-8.54852
▁district	-8.54877
▁borer	-8.54885
▁effective	-8.55332
▁i	-8.55372
▁cost	-8.56441
▁oil	-8.56659
▁biogas	-8.56947
▁6.7	-8.573
▁number	-8.58052
▁potential	-8.58224
▁Director	-8.58279
7	-8.58312
▁ha	-8.58321
▁need	-8.58512
▁Name	-8.58532
▁1.	-8.58589
▁suitable	-8.58881
▁40	-8.58939
▁r	-8.59006
ar	-8.59142
▁cowpea	-8.59321
▁important	-8.59773
litre	-8.59792
▁green	-8.59801
▁brinjal	-8.5998
▁University	-8.60101
▁trees	-8.60191
G	-8.60248
▁H	-8.60327
ion	-8.61641
▁cultivate	-8.61906
▁level	-8.62066
▁No	-8.62199
▁improved	-8.63146
▁blight	-8.63373
▁6.8)	-8.63484
▁following	-8.63488
um	-8.63736
▁methods	-8.64212
▁solution	-8.64268
▁16	-8.64451
▁low	-8.64573
K	-8.64807
▁including	-8.65356
▁animals	-8.66012
▁11	-8.66058
▁do	-8.66284
▁stem	-8.66379
▁rate	-8.66415
F	-8.66483
▁f	-8.6651
▁efficiency	-8.66888
▁60	-8.66985
▁products	-8.67248
▁vegetable	-8.67257
▁75	-8.67269
▁between	-8.67515
▁Technology	-8.67976
▁feed	-8.68206
▁training	-8.6826
▁Management	-8.68379
▁content	-8.68381
u	-8.69251
▁moisture	-8.69451
▁large	-8.69488
▁chilli	-8.69601
ent	-8.69814
▁These	-8.69838
▁insect	-8.69989
▁stage	-8.70672
▁45	-8.70701
V	-8.70822
▁told	-8.70851
▁available	-8.71065
us	-8.71098
▁Council	-8.71195
▁dry	-8.71401
H	-8.71634
▁healthy	-8.71692
▁major	-8.72045
▁along	-8.72074
▁recommendation	-8.7223
▁each	-8.72459
▁only	-8.72794
▁total	-8.72812
▁L	-8.7317
▁local	-8.73351
▁found	-8.73416
ers	-8.73426
▁growing	-8.7357
▁National	-8.73709
=7.2	-8.73799
▁first	-8.73931
=5.9	-8.73945
▁long	-8.74132
▁Explain	-8.74166
Laterit	-8.74166
▁raised	-8.74175
▁Describe	-8.74276
=7.4	-8.75052
▁country	-8.75052
▁information	-8.75425
▁p	-8.75444
liter	-8.75961
▁made	-8.76009
=7.1	-8.76096
▁wilt	-8.76148
▁seedlings	-8.76345
▁historical	-8.76434
▁13	-8.76578
=7.3	-8.76698
▁no	-8.77188
▁given	-8.77325
▁State	-8.77345
▁14	-8.77425
▁early	-8.77826
▁if	-8.77896
▁24	-8.78042
▁V	-8.78074
▁natural	-8.78486
▁climate	-8.78664
▁done	-8.78779
▁re	-8.78966
=5.8	-8.78987
▁Farmers	-8.79098
▁take	-8.79199
▁fertilizers	-8.79253
▁support	-8.79427
▁farmer	-8.79556
ee	-8.79557
▁banana	-8.80206
▁period	-8.80475
▁region	-8.80478
▁17	-8.80826
plant	-8.81109
▁sugarcane	-8.81223
ii	-8.81444
▁tthhee	-8.81646
▁grain	-8.81951
▁day	-8.82132
▁fields	-8.82287
▁species	-8.82511
▁sustainable	-8.82625
▁nutrients	-8.82825
▁gas	-8.82884
▁200	-8.83024
▁resources	-8.83173
▁they	-8.83224
=5.7	-8.83324
▁them	-8.83447
▁storage	-8.8389
▁fungal	-8.83971
▁improve	-8.84277
able	-8.84328
▁being	-8.84382
▁rain	-8.84467
▁q	-8.84571
▁animal	-8.84626
▁spread	-8.84813
▁spacing	-8.84975
▁market	-8.85205
▁infestation	-8.86121
▁1.5	-8.86208
▁very	-8.86271
▁poultry	-8.86324
▁contact	-8.86352
▁both	-8.86353
▁required	-8.86909
▁mixture	-8.87271
▁most	-8.87387
▁non	-8.87674
▁there	-8.87914
▁practice	-8.87928
▁KVK	-8.88443
▁impact	-8.88955
re	-8.88969
▁red	-8.89245
▁increased	-8.89456
▁make	-8.89566
▁Total	-8.89651
▁35	-8.89827
▁O	-8.89863
▁milk	-8.89919
▁needs	-8.90348
v	-8.90353
▁around	-8.90652
▁loamy	-8.90702
▁aanndd	-8.90775
▁foot	-8.90814
▁22	-8.91182
▁three	-8.91509
▁de	-8.91553
Sandy	-8.91685
▁nursery	-8.91883
▁ooff	-8.91948
▁40).	-8.9209
▁while	-8.92421
▁then	-8.92506
▁preparation	-8.92696
▁sorghum	-8.92715
▁include	-8.92762
ate	-8.92813
it	-8.92862
▁Singh	-8.93182
▁protect	-8.9369
to	-8.9374
▁process	-8.93793
ir	-8.94013
▁followed	-8.94021
▁size	-8.94236
x	-8.94339
▁top	-8.94455
▁weed	-8.94639
▁vegetables	-8.95021
▁kharif	-8.9548
=20.0	-8.95752
▁specific	-8.96321
pur	-8.96459
=5.6	-8.96485
el	-8.97251
▁harvest	-8.97382
w	-8.9741
▁b	-8.97741
▁proper	-8.98451
▁so	-8.98555
▁Krishi	-8.98645
▁name	-8.98991
ri	-8.99278
▁avoid	-8.99526
la	-8.99575
▁21	-8.99658
ra	-8.99828
▁breeding	-8.99886
at	-8.99975
▁Project	-9.00372
▁fodder	-9.00706
▁2.5	-9.00859
▁making	-9.01161
▁drought	-9.01506
20	-9.01606
▁appropriate	-9.01706
▁All	-9.01895
▁resistant	-9.01908
te	-9.02072
▁mango	-9.02122
▁By	-9.0222
▁compared	-9.02264
▁powder	-9.02983
▁summer	-9.03052
▁lit	-9.03307
▁economic	-9.03448
▁further	-9.03629
▁J	-9.03671
▁2022	-9.03936
▁benefits	-9.03984
▁pumpkin	-9.04045
na	-9.04121
▁amount	-9.04275
▁cropping	-9.04351
▁bio	-9.04464
▁addition	-9.04746
ta	-9.04909
▁less	-9.04972
▁grams	-9.05283
▁activities	-9.05342
▁post	-9.05435
▁processing	-9.05466
▁chemical	-9.05558
▁x	-9.05693
li	-9.05752
▁W	-9.05893
▁bacterial	-9.05995
en	-9.06121
▁rabi	-9.06129
▁Code	-9.06184
▁bottle	-9.0665
▁common	-9.06712
▁damage	-9.06805
▁lemon	-9.07095
▁role	-9.07243
▁significant	-9.07259
▁transplanting	-9.07279
▁cattle	-9.073
▁mustard	-9.07532
-1	-9.07575
▁rural	-9.0766
▁livestock	-9.07697
▁capacity	-9.07781
▁Kumar	-9.08097
▁his	-9.08194
▁availability	-9.08362
ul	-9.08988
▁d	-9.08988
am	-9.0977
▁3.	-9.09809
▁goat	-9.10166
il	-9.10722
▁Farming	-9.10874
▁taken	-9.10911
▁92	-9.11112
▁k	-9.11277
-2	-9.1156
ol	-9.11573
▁helps	-9.11595
▁Tamil	-9.11639
▁change	-9.11788
▁population	-9.11878
▁cucumber	-9.11911
▁harvesting	-9.12082
▁weeds	-9.12139
▁stress	-9.12178
▁produce	-9.12275
▁whole	-9.12296
▁bitter	-9.12386
▁condition	-9.12414
▁Title	-9.12449
▁daily	-9.12503
▁23	-9.12557
▁environment	-9.12605
▁An	-9.12645
▁Education	-9.12698
▁reducing	-9.13152
▁beds	-9.13318
▁main	-9.13413
U	-9.13584
▁essential	-9.13588
▁As	-9.13633
ment	-9.13699
▁material	-9.13818
▁affected	-9.14126
▁same	-9.14758
30	-9.15042
▁un	-9.15203
ash	-9.1527
▁black	-9.15307
▁Pusa	-9.15544
▁type	-9.15617
▁months	-9.15815
▁sector	-9.16094
▁yam	-9.16131
ity	-9.16134
▁Horticulture	-9.16169
▁cauliflower	-9.16213
▁groundnut	-9.16389
ad	-9.16604
▁Development	-9.16691
▁advice	-9.17098
▁source	-9.1711
red	-9.17633
▁work	-9.17761
@	-9.17788
▁state	-9.17809
22	-9.17822
▁Nadu	-9.17849
▁rogor	-9.17997
▁flowering	-9.18212
▁yields	-9.18408
▁surface	-9.18581
▁Animal	-9.18745
▁increasing	-9.18924
▁micro	-9.19011
▁efficient	-9.1918
▁Seed	-9.19261
▁sub	-9.19315
▁mixed	-9.19347
ia	-9.19433
▁within	-9.19616
▁he	-9.19715
▁many	-9.1986
clay	-9.19984
▁neem	-9.20075
▁cow	-9.20096
▁twice	-9.20356
▁nitrogen	-9.20375
ak	-9.2039
▁resistance	-9.20415
▁pond	-9.2055
ine	-9.20708
is	-9.20769
▁timely	-9.20863
▁traditional	-9.20972
▁flower	-9.21039
▁Uttar	-9.21116
0.00	-9.21205
▁conservation	-9.21354
▁annual	-9.21364
▁related	-9.21372
▁2023	-9.21449
▁enhance	-9.21528
▁part	-9.21607
▁regions	-9.21691
▁spraying	-9.21746
▁doses	-9.21754
▁Gujarat	-9.21831
hi	-9.21884
ut	-9.21908
▁month	-9.22029
▁borax	-9.22071
▁provided	-9.22218
▁manure	-9.22226
▁High	-9.22276
and	-9.22641
ant	-9.22642
ec	-9.22709
▁Water	-9.22752
▁light	-9.22767
▁cabbage	-9.22798
vi	-9.22844
▁Plant	-9.22877
▁resource	-9.22884
=7.5	-9.22899
rr	-9.22939
▁maturity	-9.23018
▁drip	-9.23202
W	-9.23547
▁weight	-9.23856
▁%	-9.23989
cereals	-9.24195
▁enhanc	-9.24283
▁hybrid	-9.24403
iinngg	-9.24422
▁Shri	-9.24447
dd	-9.24476
▁Government	-9.24564
ma	-9.24573
▁co	-9.24743
▁n	-9.25072
ss	-9.25086
▁attack	-9.25271
mm	-9.25278
▁address	-9.25335
up	-9.25338
▁deep	-9.25375
cole	-9.25737
▁26	-9.25744
▁would	-9.25752
▁parts	-9.26334
le	-9.26453
15	-9.26493
▁However	-9.26624
▁moringa	-9.2668
▁grow	-9.26727
▁agro	-9.26823
▁acid	-9.2683
▁ensur	-9.26922
▁culture	-9.27117
▁ash	-9.27167
▁white	-9.27246
▁among	-9.27555
▁rainfed	-9.27584
id	-9.27663
as	-9.27679
▁lime	-9.27828
crops	-9.28062
▁Rs	-9.28083
▁)	-9.28341
op	-9.28349
▁reduced	-9.28369
▁pre	-9.28371
12	-9.28386
▁millets	-9.28613
▁Karnataka	-9.28701
▁iinn	-9.28778
ro	-9.28798
▁materials	-9.28843
▁27	-9.28898
▁Science	-9.28931
33	-9.28962
▁maintain	-9.29006
▁because	-9.29071
▁KVKs	-9.29105
ch	-9.29253
▁commercial	-9.29287
ive	-9.29311
▁Table	-9.29414
fibre	-9.29487
▁4.	-9.29771
▁village	-9.29805
▁promote	-9.29818
tapoica	-9.29902
▁Maharashtra	-9.29906
▁every	-9.29908
▁Sciences	-9.29936
▁result	-9.29988
▁near	-9.29993
▁require	-9.29993
▁overall	-9.30232
▁soils	-9.30306
ne	-9.30341
est	-9.30374
▁flowers	-9.30391
ti	-9.30394
kudiraivali	-9.30417
▁mildew	-9.30417
▁General	-9.30508
▁could	-9.30677
▁8.5)	-9.30893
▁Central	-9.30919
▁If	-9.3092
▁rainfall	-9.30935
based	-9.31061
chowchow	-9.31065
▁fresh	-9.31068
▁jute	-9.31211
▁net	-9.31289
▁environmental	-9.3131
▁supply	-9.31325
▁check	-9.31442
▁get	-9.31449
sugar	-9.31451
▁Unit	-9.31461
▁nutritional	-9.31575
samai	-9.31587
▁26).	-9.31634
▁results	-9.31951
se	-9.32047
▁benefit	-9.32069
▁45).	-9.32325
▁20).	-9.32339
▁average	-9.32474
▁old	-9.32598
▁fertility	-9.32636
ll	-9.32725
thinai	-9.32848
▁6.0)	-9.32891
▁study	-9.33033
gingely	-9.33033
▁compost	-9.33071
▁improving	-9.33231
▁knowledge	-9.33298
▁security	-9.33683
sugarbeet	-9.33697
17	-9.33712
▁programmes	-9.33777
▁fixed	-9.33981
44	-9.34013
▁infected	-9.34027
29).	-9.34085
▁erosion	-9.34366
▁ratio	-9.34462
▁approach	-9.34598
▁terms	-9.34644
▁Department	-9.34669
▁regularly	-9.34823
lo	-9.3484
▁Scientist	-9.34855
▁95)	-9.34991
▁sweet	-9.34996
▁must	-9.35054
▁distribution	-9.35108
et	-9.35219
▁without	-9.35223
▁infection	-9.35326
88	-9.35441
▁requirement	-9.35814
18	-9.36137
▁Re	-9.36237
▁why	-9.36406
▁80	-9.36479
▁having	-9.36538
oo	-9.36561
▁affect	-9.36669
▁loss	-9.36719
▁above	-9.36792
▁31	-9.36973
▁off	-9.37082
▁seedling	-9.37161
▁want	-9.37403
▁leading	-9.37844
▁across	-9.38103
▁Keywords	-9.38129
▁row	-9.3816
▁Extension	-9.38249
▁base	-9.38333
▁litres	-9.3861
▁conducted	-9.38643
▁present	-9.38777
▁mm	-9.38856
▁Committee	-9.38881
▁spot	-9.38958
▁28	-9.39059
har	-9.3919
▁ridge	-9.39216
▁respectively	-9.39349
▁Rice	-9.39605
▁fly	-9.39694
▁effect	-9.3974
▁feeding	-9.39833
Y	-9.39874
▁33	-9.40264
cm	-9.40269
▁activity	-9.40385
▁late	-9.40479
▁several	-9.40826
▁January	-9.41011
▁case	-9.4117
J	-9.41291
▁programme	-9.41329
▁shoot	-9.41527
▁age	-9.41557
▁June	-9.4159
▁clean	-9.41981
tic	-9.42031
▁million	-9.42162
▁Black	-9.42317
45	-9.42352
pp	-9.42503
iv	-9.42536
▁He	-9.42684
▁sprays	-9.42694
▁education	-9.42759
10	-9.42767
▁extension	-9.4289
▁yellow	-9.42991
gg	-9.4319
▁Reference	-9.43354
▁bavistin	-9.43409
▁properties	-9.435
▁protein	-9.43844
▁demand	-9.43949
21	-9.43967
im	-9.44051
cc	-9.44125
▁lower	-9.44126
▁half	-9.4425
▁March	-9.4428
▁levels	-9.44346
▁factors	-9.44454
▁problems	-9.44717
▁life	-9.44746
ssp	-9.44888
▁fertilization	-9.44954
▁performance	-9.45056
▁taking	-9.45356
▁structure	-9.45456
▁play	-9.45478
▁providing	-9.45581
▁Centre	-9.45751
▁special	-9.45866
▁colour	-9.45897
▁model	-9.46026
▁May	-9.46067
▁500	-9.46071
▁last	-9.46092
▁necessary	-9.46109
de	-9.46152
▁drop	-9.46203
di	-9.46215
▁form	-9.46233
lluvial	-9.46258
▁techniques	-9.46353
40	-9.46378
▁U	-9.46519
▁Crop	-9.46628
▁crucial	-9.46941
▁o	-9.47068
▁especially	-9.47216
▁who	-9.47241
13	-9.47266
▁states	-9.47388
Clay	-9.474
age	-9.47402
▁order	-9.47455
77	-9.47471
▁challenges	-9.47565
▁prepared	-9.47635
▁issues	-9.47648
▁roots	-9.47885
▁ttoo	-9.47891
ness	-9.4793
▁shall	-9.47977
16	-9.48008
▁pradesh	-9.48089
the	-9.48128
▁suggest	-9.48165
▁sprinkler	-9.4821
99	-9.48412
▁29	-9.48521
▁tea	-9.48594
▁insects	-9.48767
▁cut	-9.489
▁Punjab	-9.48997
14	-9.49082
▁test	-9.49163
▁There	-9.49422
▁set	-9.49431
▁pea	-9.49627
▁matter	-9.49854
▁cowdung	-9.49876
▁Zone	-9.49957
▁mg	-9.5006
▁Jammu	-9.50074
▁Production	-9.50164
▁h	-9.50381
▁significantly	-9.50546
▁height	-9.50667
55	-9.50774
28	-9.50948
co	-9.51017
11	-9.5116
▁super	-9.51281
aa	-9.51325
75	-9.51369
▁chillies	-9.51383
▁end	-9.51469
50	-9.51481
▁Fe	-9.51492
▁considered	-9.51574
Red	-9.52006
▁distance	-9.52098
▁details	-9.52219
=25.3	-9.52257
▁pressure	-9.5229
▁--	-9.52337
▁manage	-9.5251
▁90	-9.52715
▁saaf	-9.5274
19	-9.52796
▁national	-9.52835
▁At	-9.5288
▁zone	-9.53168
▁grains	-9.53179
▁mix	-9.53296
ag	-9.5346
ary	-9.53502
=25.8	-9.5355
▁virus	-9.53582
▁established	-9.5359
▁International	-9.53779
▁types	-9.54118
▁tracel	-9.54436
▁short	-9.54462
▁medium	-9.5461
lt	-9.54671
▁cluster	-9.54895
=25.1	-9.55024
▁81	-9.55107
ana	-9.55738
os	-9.55938
▁project	-9.56034
▁human	-9.56041
▁Control	-9.56153
▁kilogram	-9.56161
▁women	-9.56247
rich	-9.56396
▁financial	-9.56521
▁give	-9.56569
▁Co	-9.56788
▁capsicum	-9.56788
▁services	-9.5682
▁dairy	-9.56857
▁w	-9.56889
64	-9.56959
▁castor	-9.57046
▁observed	-9.57216
▁free	-9.57287
q	-9.57321
▁unit	-9.57361
▁wide	-9.57409
▁2020	-9.57434
▁cause	-9.57459
ted	-9.5758
48	-9.57621
▁36	-9.57621
▁Andhra	-9.57643
▁sp	-9.57699
=26.2	-9.57701
▁West	-9.57726
ni	-9.57785
▁keep	-9.57979
70	-9.58082
▁scale	-9.58143
▁150	-9.58193
▁adoption	-9.58254
ization	-9.58276
▁integrated	-9.58332
▁product	-9.58388
60	-9.58493
▁poor	-9.58509
=26.5	-9.58553
▁contain	-9.58577
▁Rajasthan	-9.58621
▁They	-9.58702
=25.5	-9.58724
▁yy	-9.58807
66	-9.58823
▁2021	-9.58893
▁Hyderabad	-9.58895
▁viz	-9.58999
▁allow	-9.59085
▁strategies	-9.59153
▁Veterinary	-9.59204
=25.4	-9.59239
=25.6	-9.59239
▁deficient	-9.59325
▁v	-9.59372
=26.6	-9.59411
▁(1	-9.59495
=60.0	-9.59498
▁often	-9.59596
▁line	-9.5969
ry	-9.59698
=25.2	-9.59757
▁importance	-9.59758
eedd	-9.59928
▁improvement	-9.60003
▁analysis	-9.60017
ai	-9.60068
▁contribute	-9.60147
▁evening	-9.60196
▁waste	-9.60287
▁potash	-9.60369
▁much	-9.60379
▁clay	-9.60399
=25.0	-9.60452
▁body	-9.60454
▁Pearl	-9.60466
▁pesticides	-9.60467
▁Bengal	-9.60488
=26.4	-9.60626
lu	-9.60702
▁anti	-9.60821
▁particularly	-9.60832
02	-9.60928
ish	-9.6094
▁purpose	-9.60959
=24.9	-9.60976
=25.9	-9.60976
wheat	-9.60986
=26.3	-9.61327
tt	-9.61481
▁global	-9.61514
ty	-9.61629
▁II	-9.61753
▁highly	-9.62167
=26.1	-9.6221
▁germination	-9.6221
▁scheme	-9.62365
▁protection	-9.62517
▁week	-9.62605
▁winter	-9.62732
z	-9.62734
=26.0	-9.62744
▁radish	-9.62745
▁adviced	-9.62811
▁pepper	-9.62814
mop	-9.62821
▁weather	-9.62833
▁120	-9.62837
▁great	-9.62846
=26.9	-9.62922
ce	-9.62967
▁building	-9.62971
▁brown	-9.63017
▁world	-9.631
▁way	-9.63169
▁32	-9.6324
▁Bio	-9.633
▁losses	-9.63329
▁With	-9.6335
ala	-9.63371
me	-9.63622
▁identified	-9.63639
per	-9.63646
▁develop	-9.63652
ip	-9.63764
▁2018	-9.6383
da	-9.63837
▁range	-9.63844
▁System	-9.6399
=26.8	-9.64
▁caused	-9.64
▁rich	-9.64063
▁selection	-9.64113
=26.7	-9.64181
▁had	-9.64528
▁controlling	-9.64544
▁watermelon	-9.64748
▁al	-9.64763
▁released	-9.64801
▁since	-9.64907
▁establishment	-9.65003
85	-9.65196
▁aphids	-9.65262
▁people	-9.65272
ph	-9.65276
▁Fisheries	-9.65322
no	-9.65347
hy	-9.65427
▁marketing	-9.6545
▁Food	-9.65463
▁treat	-9.65573
▁After	-9.65638
▁When	-9.65643
ure	-9.65663
▁OF	-9.65726
▁additional	-9.65827
▁rust	-9.65918
▁2-3	-9.66189
uu	-9.66194
38	-9.66328
▁developing	-9.66391
▁treatments	-9.66685
▁During	-9.66747
=25.7	-9.66932
ap	-9.66953
▁efforts	-9.6699
=24.4	-9.67118
-3	-9.67192
97	-9.67208
▁symptoms	-9.67229
▁Year	-9.67306
ya	-9.67307
65	-9.67339
▁Volume	-9.67398
▁bamboo	-9.67398
▁blast	-9.674
▁even	-9.67535
▁once	-9.67587
24	-9.67605
▁bark	-9.6761
=24.5	-9.67678
▁acre	-9.67719
27	-9.67812
▁carrot	-9.67856
▁go	-9.67967
▁sunflower	-9.68091
▁vitamin	-9.68107
ling	-9.68171
▁reduces	-9.68174
=65.0	-9.68336
▁group	-9.68349
▁moist	-9.68427
Rs	-9.68455
▁44	-9.68583
32	-9.68619
=5.5	-9.6862
▁AND	-9.68639
▁pathogens	-9.68693
▁tricel	-9.68905
▁ant	-9.69095
ru	-9.69111
▁Madhya	-9.69118
▁energy	-9.69143
▁genetic	-9.69176
▁treated	-9.69232
▁key	-9.69289
▁known	-9.69326
▁lakh	-9.69507
▁ring	-9.69539
▁ants	-9.69591
▁produced	-9.69727
=24.1	-9.69761
=24.2	-9.69761
▁(2	-9.69965
▁districts	-9.69965
▁depth	-9.70189
▁sown	-9.70279
▁agent	-9.70285
▁55	-9.7031
ali	-9.70325
▁grass	-9.70385
▁requirements	-9.70606
▁policy	-9.70625
35	-9.70779
86	-9.70799
ter	-9.70988
▁towards	-9.71103
▁incidence	-9.71114
▁french	-9.71121
▁facilities	-9.71206
▁five	-9.71232
▁recorded	-9.71238
=24.3	-9.71303
▁FOR	-9.71407
▁salt	-9.71535
25	-9.7154
▁IC	-9.71584
▁steps	-9.71624
ized	-9.71663
▁papaya	-9.71693
▁access	-9.7188
▁lead	-9.71952
om	-9.71965
▁July	-9.71978
uitable	-9.71991
ated	-9.72062
▁blackgram	-9.72144
37	-9.72188
▁monitoring	-9.7221
29	-9.72338
▁tolerant	-9.72393
nn	-9.72399
=24.6	-9.72475
=24.8	-9.72475
▁Farm	-9.72577
▁pro	-9.72611
▁countries	-9.72673
▁drainage	-9.72674
ba	-9.72797
▁yielding	-9.72957
▁hand	-9.72983
▁greengram	-9.72997
▁potassium	-9.73034
▁promoting	-9.73067
▁needed	-9.73091
▁regular	-9.7319
▁50%	-9.7331
▁status	-9.7331
▁me	-9.73419
▁inter	-9.73514
▁office	-9.73609
=27.0	-9.73662
90	-9.7371
▁0.5	-9.73771
▁bank	-9.73803
▁inputs	-9.73813
▁according	-9.73822
▁maximum	-9.73867
▁semi	-9.73896
▁@2	-9.73906
▁maintenance	-9.73961
▁scientists	-9.73964
=21.1	-9.7426
=24.0	-9.74261
▁layer	-9.7432
▁110	-9.74417
▁dried	-9.74455
▁Income	-9.74474
▁heat	-9.74479
▁250	-9.74497
mo	-9.74539
=22.8	-9.74661
harvest	-9.74662
▁open	-9.74747
▁thereby	-9.74867
▁nutrition	-9.74893
▁technical	-9.74902
▁hours	-9.74994
72	-9.75065
▁zinc	-9.75142
▁power	-9.75151
▁Secretary	-9.75246
=22.3	-9.75266
=23.4	-9.75266
▁scientific	-9.75323
man	-9.75346
▁2019	-9.75359
▁straw	-9.75467
=24.7	-9.75468
▁flood	-9.75468
84	-9.7548
▁cover	-9.75584
▁villages	-9.75613
▁Training	-9.75618
ous	-9.7565
63	-9.75752
▁(%)	-9.75779
one	-9.75782
▁maintaining	-9.75821
▁April	-9.75823
▁students	-9.75837
▁optimal	-9.75976
ac	-9.76003
og	-9.76026
▁asked	-9.76207
=23.2	-9.76282
▁et	-9.76331
43	-9.76388
▁SRI	-9.76432
▁basis	-9.76489
▁5%	-9.76531
▁apple	-9.76612
▁peas	-9.76645
▁single	-9.76692
rs	-9.76718
▁covered	-9.76724
mail	-9.76738
gram	-9.76978
▁AICRP	-9.77043
▁critical	-9.77102
▁fisheries	-9.77104
▁useful	-9.7714
▁GW	-9.77187
▁copper	-9.77205
▁operation	-9.77306
▁stages	-9.77477
▁2017	-9.77603
qu	-9.77637
▁assam	-9.77662
▁showed	-9.77683
▁plan	-9.77755
▁place	-9.77783
=90.0	-9.77825
57	-9.77858
▁please	-9.77943
▁41	-9.78001
76	-9.7808
▁share	-9.78258
▁meet	-9.78287
▁November	-9.78327
=7.6	-9.78345
▁pulses	-9.78349
ance	-9.78453
rice	-9.78544
=23.3	-9.78553
71	-9.78644
ata	-9.78664
.3	-9.7867
=22.9	-9.78762
▁aa	-9.78771
▁air	-9.78882
=21.5	-9.78972
▁duration	-9.78972
89	-9.78997
min	-9.7923
▁extract	-9.79389
=7.7	-9.79393
▁operations	-9.7951
▁October	-9.79574
▁risk	-9.79609
▁Bihar	-9.79728
58	-9.79996
=22.7	-9.80026
=23.5	-9.80026
▁weeding	-9.8006
▁industry	-9.80132
▁vaccine	-9.80143
▁four	-9.80235
▁ground	-9.80295
▁design	-9.80318
▁indigenous	-9.80368
▁beans	-9.80453
▁North	-9.80554
▁basal	-9.80558
ex	-9.80575
=22.2	-9.80664
▁horticultural	-9.80771
ara	-9.81015
▁become	-9.8105
▁Kashmir	-9.81156
=21.6	-9.81306
▁success	-9.81332
51	-9.81372
ICAR	-9.81417
▁adopted	-9.81425
05	-9.81443
=21.9	-9.81521
=23.7	-9.81521
ence	-9.81544
▁utilization	-9.81559
▁contaminated	-9.8163
▁initial	-9.8166
▁laser	-9.81737
98	-9.81764
▁cultural	-9.8182
▁dust	-9.81861
42	-9.81894
▁added	-9.81917
▁juice	-9.81952
▁medicinal	-9.81952
▁paste	-9.81995
56	-9.82025
wa	-9.82132
=23.6	-9.82169
=7.8	-9.82169
▁blitox	-9.82304
▁ragi	-9.82344
▁nut	-9.82349
=23.8	-9.82386
▁37	-9.82403
▁Land	-9.82425
▁reported	-9.8247
ting	-9.82563
▁direct	-9.82571
▁costs	-9.82583
=21.8	-9.82603
=23.1	-9.82603
ox	-9.82794
▁collected	-9.82974
=21.3	-9.83039
▁controlled	-9.83136
▁second	-9.83141
ka	-9.83203
▁65	-9.8321
=23.0	-9.83258
▁snake	-9.83716
ho	-9.8379
▁community	-9.83807
od	-9.83822
=22.1	-9.83916
=23.9	-9.83916
46	-9.83987
79	-9.84009
▁remove	-9.84048
▁Cabbage	-9.84167
▁Post	-9.84232
=27.4	-9.84358
▁38	-9.84525
=22.6	-9.8458
▁consumption	-9.84692
ally	-9.84738
=22.4	-9.84802
▁Report	-9.84806
81	-9.84886
▁branches	-9.84933
▁levelling	-9.84935
▁6.	-9.84987
▁pusa	-9.85012
ium	-9.8505
0.0	-9.85155
=28.1	-9.85248
▁price	-9.85315
▁returns	-9.85369
ci	-9.85376
▁Odisha	-9.85425
▁selected	-9.85455
▁Member	-9.85482
▁7.8	-9.85542
▁units	-9.85553
▁breed	-9.85688
▁Knowledge	-9.85808
j	-9.8582
▁irrigated	-9.8592
nd	-9.85997
▁we	-9.86034
he	-9.8605
▁full	-9.86083
▁slurry	-9.86084
=21.2	-9.86145
=27.1	-9.86145
▁degree	-9.86145
▁horticulture	-9.86145
▁turmeric	-9.86145
▁multi	-9.86246
▁citrus	-9.86259
ies	-9.86367
oc	-9.86496
34	-9.86502
ari	-9.86522
▁Crops	-9.86596
=22.0	-9.86597
▁Application	-9.86597
▁future	-9.86597
▁dung	-9.86606
▁obtained	-9.86681
av	-9.86789
=21.4	-9.86823
=7.9	-9.86823
▁trunk	-9.86823
▁below	-9.86891
▁primary	-9.87051
▁Institutes	-9.8714
=28.2	-9.87278
line	-9.87337
67	-9.87337
va	-9.87384
=22.5	-9.87392
▁sufficient	-9.87506
▁enhanced	-9.87586
▁interventions	-9.87821
▁create	-9.87876
pi	-9.87977
68	-9.88007
▁Low	-9.88018
▁Bank	-9.88046
▁diversification	-9.88079
▁away	-9.88126
=21.7	-9.88194
▁Haryana	-9.88533
▁elephant	-9.88568
▁sali	-9.88614
=28.5	-9.88655
yy	-9.88669
▁con	-9.88758
▁few	-9.88782
▁thus	-9.88792
▁48	-9.88864
▁Ministry	-9.88939
▁hybrids	-9.88952
26	-9.88976
▁pit	-9.89065
▁indofil	-9.89213
▁throughout	-9.89255
▁34	-9.89271
▁42	-9.89275
▁Agri	-9.89365
▁space	-9.89382
mi	-9.89432
52	-9.89477
▁di	-9.89583
▁planofix	-9.89584
-4	-9.89599
▁visit	-9.89656
▁drying	-9.89699
▁young	-9.89845
Table	-9.89869
▁February	-9.89884
▁okra	-9.89934
▁ginger	-9.89936
ab	-9.89941
▁Yield	-9.89991
tomato	-9.90041
nt	-9.90141
rd	-9.90157
▁2016-17	-9.90287
▁Apply	-9.90327
▁Y	-9.90601
▁heavy	-9.90641
un	-9.90679
=28.7	-9.90757
▁Field	-9.90757
▁reduction	-9.9076
▁attention	-9.90793
maize	-9.90877
▁Integrated	-9.90898
62	-9.90946
-45	-9.91002
36	-9.91015
▁effects	-9.91034
▁manag	-9.9105
friable	-9.91111
ca	-9.91128
▁ch	-9.91139
200	-9.91142
▁meat	-9.91245
▁possible	-9.91348
▁sustainability	-9.9135
69	-9.91373
ja	-9.91396
▁cent	-9.91397
=29.6	-9.91467
▁release	-9.91505
93	-9.91589
▁adequate	-9.91628
73	-9.91705
59	-9.91716
▁severe	-9.91747
2.0	-9.91756
95	-9.91785
▁On	-9.91814
▁studies	-9.91944
▁2020-21	-9.91945
row	-9.91988
ng	-9.9204
▁mushroom	-9.92049
ani	-9.92149
ud	-9.92167
=20.3	-9.92183
=29.3	-9.92183
▁affecting	-9.92321
▁tools	-9.92353
▁7.	-9.92364
=28.8	-9.92422
vegetable	-9.92433
▁Number	-9.92543
▁testing	-9.92623
=27.5	-9.92663
▁livelihood	-9.92772
▁Himachal	-9.92799
▁add	-9.92845
=28.6	-9.92904
▁least	-9.92913
▁One	-9.92925
▁47	-9.92941
▁redgram	-9.92967
less	-9.93037
▁carbon	-9.93042
▁adopt	-9.93113
49	-9.93177
▁wood	-9.93203
ub	-9.93207
uc	-9.93229
land	-9.93251
▁beneficial	-9.93266
▁muskmelon	-9.93267
▁stored	-9.93316
=27.9	-9.93387
=28.9	-9.93387
▁garlic	-9.93508
▁2016	-9.93617
=28.4	-9.93629
▁carried	-9.93632
ist	-9.93679
96	-9.93806
▁block	-9.93875
▁birds	-9.94005
=29.5	-9.94116
ating	-9.94276
▁Millets	-9.9432
=28.0	-9.94361
91	-9.9438
▁soyabean	-9.94399
▁urine	-9.94484
▁biological	-9.94487
61	-9.94522
groundnut	-9.94527
▁Assam	-9.94547
pl	-9.94627
▁Net	-9.94631
▁Agro	-9.94642
cotton	-9.94651
▁equal	-9.94775
Indian	-9.94785
=27.2	-9.94851
=29.7	-9.94851
▁orally	-9.94869
small	-9.94975
ragi	-9.94988
▁46	-9.95173
▁EC	-9.95344
▁climatic	-9.954
onion	-9.95481
brinjal	-9.95525
▁plantation	-9.95568
▁2024	-9.95588
▁ex	-9.95591
=20.5	-9.95592
=20.9	-9.95592
=27.6	-9.95592
▁Telangana	-9.95599
sa	-9.95631
▁powdery	-9.95645
▁length	-9.95646
cowpea	-9.95651
blackgram	-9.95655
eer	-9.95657
▁household	-9.95734
cauliflower	-9.95777
▁Green	-9.95781
annual	-9.95902
▁00.0	-9.95949
▁occurrence	-9.95964
▁lateritic	-9.96088
5.00	-9.96184
▁aphid	-9.96227
▁curl	-9.9631
▁conventional	-9.96322
▁phosphate	-9.96337
sorghum	-9.96533
▁NO	-9.96551
=20.7	-9.96587
=21.0	-9.96588
▁Regularly	-9.96652
ver	-9.96708
ose	-9.96815
pumpkin	-9.96913
sunflower	-9.96914
redgram	-9.96927
▁Division	-9.96963
day	-9.97124
bb	-9.97215
▁vi	-9.9723
cluster	-9.97295
varagu	-9.97296
sweet	-9.97296
bengalgram	-9.97424
▁planted	-9.97461
▁popular	-9.97572
=28.3	-9.97593
=29.2	-9.97593
▁another	-9.97617
soyabean	-9.9768
sugarcane	-9.9768
▁started	-9.97724
.7	-9.97758
▁density	-9.97879
▁j	-9.9788
▁enterprises	-9.97903
bottle	-9.97937
▁ffoorr	-9.97975
Cabbage	-9.98065
▁ribbed	-9.98126
▁Kerala	-9.9816
watermelon	-9.98194
jute	-9.98201
elephant	-9.98322
castor	-9.98323
urea	-9.98323
▁transfer	-9.98345
loamy	-9.98452
▁31)	-9.9846
▁bhendi	-9.98489
▁1.0	-9.98491
▁hot	-9.98496
▁micronutrient	-9.98515
▁fibre	-9.98547
▁now	-9.98603
aarr	-9.98603
=20.8	-9.98609
ribbed	-9.9871
▁Please	-9.98737
be	-9.98836
=20.2	-9.98864
=27.7	-9.98864
▁32).	-9.98932
of	-9.98941
▁boro	-9.98946
capsicum	-9.98969
snake	-9.98969
bulb	-9.99092
▁deficiency	-9.99121
▁start	-9.99127
▁2019-20	-9.99161
▁export	-9.99164
▁Area	-9.99196
▁limited	-9.99199
Pearl	-9.99228
panivaragu	-9.9923
tinda	-9.99238
▁precision	-9.99249
▁42).	-9.99301
french	-9.99359
▁Farmer	-9.99364
=27.3	-9.99377
▁business	-9.99393
▁bengalgram	-9.99423
▁38).	-9.9956
greengram	-9.99624
▁organized	-9.99647
▁finger	-9.9972
ill	-9.99727
=29.4	-9.99893
▁nature	-9.99897
▁Universities	-10.0002
▁successful	-10.0008
bhendi	-10.0014
▁arecanut	-10.0015
▁stakeholders	-10.0015
▁cold	-10.0017
▁24).	-10.0018
▁varagu	-10.002
peas	-10.0021
▁De	-10.0025
bi	-10.0026
▁Further	-10.0028
▁those	-10.0029
94	-10.003
▁8.2)	-10.0032
▁eggs	-10.004
▁Agenda	-10.0041
▁22).	-10.0042
▁involves	-10.005
heavy	-10.0054
chillies	-10.0054
radish	-10.0054
▁beetroot	-10.0054
beetroot	-10.0067
muskmelon	-10.0067
▁21).	-10.0067
pa	-10.0073
cucumber	-10.008
▁sulphate	-10.008
bitter	-10.0094
▁sugar	-10.0094
▁lines	-10.0098
▁horsegram	-10.0106
▁wild	-10.0106
ts	-10.0113
▁presented	-10.0131
-20	-10.0132
▁panivaragu	-10.0135
▁uniform	-10.0137
▁marginal	-10.014
=29.8	-10.0146
horsegram	-10.0147
▁split	-10.0155
▁cultivars	-10.0158
▁implementation	-10.016
▁institutions	-10.0161
87	-10.0164
▁parameters	-10.0167
47).	-10.0171
83	-10.0173
for	-10.0174
▁300	-10.0175
▁9.0)	-10.0181
▁institutes	-10.0181
sh	-10.0182
carrot	-10.0187
▁Ex	-10.0189
00	-10.0196
=29.1	-10.0198
▁tinda	-10.0201
▁Zn	-10.0203
▁component	-10.0204
▁rates	-10.0207
▁service	-10.0216
▁Ar	-10.0224
=20.6	-10.0225
▁absence	-10.0225
ite	-10.0233
▁date	-10.0235
▁action	-10.0243
ig	-10.0245
=20.4	-10.0251
tra	-10.0254
▁public	-10.0261
dome	-10.0271
ang	-10.0272
▁cake	-10.0279
▁floating	-10.028
▁gun	-10.0281
ore	-10.0281
hu	-10.0286
▁ppm	-10.0292
▁Capital	-10.0296
▁dis	-10.0298
=27.8	-10.0305
▁physical	-10.0313
II	-10.0317
▁enhances	-10.0318
80	-10.0326
▁assessment	-10.0333
iii	-10.0335
▁180)	-10.0339
▁chain	-10.034
▁shade	-10.0345
ge	-10.0357
▁host	-10.0372
▁input	-10.0372
▁harvested	-10.0384
▁Exclusive	-10.0385
▁our	-10.0387
▁diarrhoea	-10.0398
▁cassava	-10.0412
▁2002	-10.0414
▁come	-10.0415
▁pay	-10.0416
▁39	-10.042
▁stock	-10.0424
▁infrastructure	-10.0425
▁98)	-10.0428
▁teak	-10.043
-5	-10.0438
06	-10.0444
▁entire	-10.0452
▁Maize	-10.0453
▁fed	-10.0456
▁Fish	-10.047
▁causes	-10.0479
cum	-10.0489
=20.1	-10.0493
▁pig	-10.0514
▁18).	-10.0514
▁centre	-10.0522
▁account	-10.0528
09	-10.053
chi	-10.0533
▁features	-10.0552
▁highest	-10.057
▁((	-10.0573
ff	-10.0581
▁agri	-10.0581
ga	-10.0582
▁achieve	-10.0592
cl	-10.0599
▁rotation	-10.0603
du	-10.0622
▁garden	-10.0623
▁models	-10.0626
82	-10.0637
em	-10.0639
▁constraints	-10.0641
▁employment	-10.0644
▁Al	-10.0644
▁SAUs	-10.0647
▁author	-10.067
▁Vice	-10.0673
31	-10.0674
ot	-10.0678
▁Specific	-10.0685
▁concentration	-10.0695
▁monsoon	-10.0697
nu	-10.0697
▁Head	-10.0708
farm	-10.072
ions	-10.0725
03	-10.0739
▁facilitate	-10.074
▁either	-10.0741
▁upon	-10.0741
▁72	-10.0742
▁bring	-10.0762
out	-10.0763
▁caus	-10.0768
▁3-4	-10.0773
bu	-10.0773
sis	-10.078
▁goats	-10.0781
▁self	-10.0783
ili	-10.0783
▁current	-10.0789
▁lack	-10.079
do	-10.0791
=29.9	-10.0797
dy	-10.0818
▁Under	-10.0823
▁chickpea	-10.0839
▁Ch	-10.0846
AD	-10.0862
▁opportunities	-10.0867
▁cases	-10.087
▁mid	-10.0883
▁trials	-10.0907
▁CO	-10.0917
▁December	-10.0919
▁germplasm	-10.0924
▁assistance	-10.0924
fer	-10.0927
▁Mo	-10.0936
tu	-10.0939
▁vine	-10.0939
▁Su	-10.0945
▁multiple	-10.0951
▁associated	-10.0957
▁85	-10.0963
▁package	-10.0966
▁8.	-10.0987
▁generation	-10.0991
▁borers	-10.0997
▁fo	-10.1002
▁0.4	-10.1018
);	-10.1034
▁applications	-10.1038
▁2018-19	-10.1038
▁phosphorus	-10.1042
▁55)	-10.1053
▁flow	-10.1053
▁science	-10.1055
ach	-10.1061
▁kept	-10.1067
han	-10.1071
ors	-10.1071
▁st	-10.1072
▁return	-10.108
▁awareness	-10.1081
▁directly	-10.1091
▁September	-10.1096
▁ii	-10.1098
▁generally	-10.1103
nagar	-10.1104
water	-10.1109
▁uttar	-10.111
▁construction	-10.1125
▁fym	-10.1126
000	-10.1129
▁Fruit	-10.113
RI	-10.1132
▁quantity	-10.1139
▁Action	-10.1141
▁improves	-10.1153
▁portion	-10.1153
▁Sub	-10.1154
▁uses	-10.116
▁palm	-10.1169
54	-10.1169
▁prevention	-10.1178
kk	-10.1179
▁ingredients	-10.118
▁August	-10.1181
▁feet	-10.1185
hh	-10.1186
▁government	-10.1191
▁remaining	-10.1198
▁bug	-10.1198
▁Asia	-10.1199
▁skin	-10.1209
▁pesticide	-10.1212
▁ba	-10.1216
▁breeds	-10.122
▁components	-10.122
▁changes	-10.1251
ay	-10.1252
▁sri	-10.1252
▁recommendations	-10.1274
▁equipment	-10.1276
47	-10.1278
▁dressing	-10.1288
po	-10.1299
▁gene	-10.13
▁Sa	-10.13
▁Directorate	-10.1301
▁back	-10.1301
▁kisan	-10.1315
▁betel	-10.1319
▁Irrigation	-10.1333
uri	-10.1344
=29.0	-10.1344
▁view	-10.1344
▁digester	-10.1359
▁rows	-10.1368
mp	-10.1369
▁Livestock	-10.1374
▁man	-10.1388
▁zones	-10.1404
▁ecosystem	-10.1407
▁pearl	-10.1422
▁2.0	-10.1426
Z	-10.1434
▁certain	-10.1434
▁Regular	-10.1441
ability	-10.1443
▁collaboration	-10.1448
▁increases	-10.1459
war	-10.1459
▁microbial	-10.1472
▁Plan	-10.1481
▁depending	-10.1488
▁Climate	-10.1493
▁fungicide	-10.1495
08	-10.1496
ki	-10.1498
▁includes	-10.1501
▁projects	-10.1505
▁iron	-10.1509
▁aspects	-10.1513
78	-10.1514
▁influence	-10.1525
▁existing	-10.1531
▁49	-10.1535
07	-10.1554
▁43	-10.1558
▁down	-10.1561
-50	-10.1562
go	-10.1563
▁tillage	-10.1566
23	-10.1569
▁advantages	-10.1578
▁labour	-10.1582
▁Improved	-10.1589
▁FYM	-10.159
▁melon	-10.1593
ical	-10.1595
▁head	-10.1595
▁staff	-10.1599
▁weeks	-10.1603
PR	-10.1603
53	-10.1607
92	-10.1625
▁drum	-10.1633
▁Programme	-10.1634
▁tank	-10.1634
▁ca	-10.1637
▁prone	-10.1644
▁private	-10.1645
▁pp	-10.1652
ah	-10.1675
▁guidelines	-10.1675
▁Refer	-10.1678
▁cross	-10.168
gu	-10.1686
▁focus	-10.1692
mar	-10.1718
ea	-10.1737
▁100.00	-10.1738
▁programs	-10.1738
▁technique	-10.174
ind	-10.174
use	-10.1742
▁till	-10.175
▁fungi	-10.1752
▁95	-10.1752
ial	-10.1764
▁protected	-10.1767
▁characteristics	-10.1769
▁Us	-10.177
▁involved	-10.177
▁mainly	-10.1774
ok	-10.1777
▁international	-10.1783
▁achieved	-10.1793
▁covering	-10.1796
▁deal	-10.1802
▁Developed	-10.1802
ve	-10.1809
▁traits	-10.1817
▁tolerance	-10.1819
▁card	-10.1823
▁Sh	-10.1834
,2	-10.1836
▁soybean	-10.1839
▁biomass	-10.186
▁Minister	-10.1861
black	-10.187
act	-10.187
▁select	-10.1874
▁working	-10.1876
▁0.0	-10.1891
▁manner	-10.1892
▁normal	-10.1893
▁Additionally	-10.191
▁institute	-10.1912
▁grant	-10.1921
▁network	-10.1923
▁round	-10.1926
lic	-10.1927
▁foliar	-10.1939
▁rearing	-10.1944
▁organizations	-10.196
▁evaluation	-10.197
▁meeting	-10.1971
41	-10.1977
ase	-10.1985
▁Principal	-10.1987
▁effectiveness	-10.199
▁machine	-10.1991
▁north	-10.2002
▁SS	-10.2017
▁tuber	-10.2032
▁Society	-10.2033
led	-10.2039
if	-10.2039
▁Chhattisgarh	-10.2048
yl	-10.205
▁TThhee	-10.2065
▁general	-10.2068
▁pm	-10.2069
ful	-10.207
▁bacteria	-10.2077
▁alternative	-10.2081
▁site	-10.2082
▁wind	-10.2098
▁Organic	-10.2103
old	-10.2106
▁respect	-10.2113
▁dosage	-10.212
▁Se	-10.2124
seed	-10.2126
▁cycle	-10.2131
▁moderately	-10.2134
▁2012	-10.214
▁similar	-10.2145
▁groups	-10.2158
▁mixing	-10.217
▁52	-10.2203
▁IARI	-10.2207
▁Vigyan	-10.2209
▁interest	-10.2214
▁Sali	-10.2215
▁subject	-10.2217
▁technological	-10.2226
▁About	-10.2226
salty	-10.2229
▁Spray	-10.2229
▁centres	-10.2232
▁collection	-10.2245
▁sow	-10.2254
▁entrepreneurs	-10.2254
▁(19	-10.2258
▁drench	-10.2262
▁minimize	-10.2265
▁held	-10.2267
▁received	-10.2267
▁Tel	-10.2268
tion	-10.2268
term	-10.2289
▁own	-10.2295
▁tri	-10.2302
▁promotion	-10.2307
▁51	-10.2307
▁cell	-10.2317
▁diversity	-10.2323
▁degradation	-10.2323
▁insecticide	-10.2332
▁Some	-10.2343
▁properly	-10.235
▁calcium	-10.2356
▁formulation	-10.2365
▁supplement	-10.237
▁Date	-10.237
ain	-10.2372
▁66	-10.2383
▁optimum	-10.2389
▁schemes	-10.2393
▁prices	-10.2398
ere	-10.2399
=30.0	-10.2405
▁litr	-10.2417
▁Input	-10.242
▁litchi	-10.2423
▁worm	-10.2426
▁leveling	-10.2434
▁next	-10.2438
▁raising	-10.2438
▁Treatment	-10.2439
und	-10.245
SS	-10.2459
end	-10.246
her	-10.2463
▁Pre	-10.2463
▁180	-10.2464
▁Doubl	-10.2474
▁Do	-10.2481
AS	-10.2481
ide	-10.2486
▁Annual	-10.2488
▁volume	-10.2488
▁mulch	-10.2489
▁carp	-10.2489
▁eggplant	-10.2499
pt	-10.2523
▁impacts	-10.2524
▁ss	-10.2524
▁hills	-10.2531
▁right	-10.2536
▁basic	-10.2538
▁signs	-10.254
▁shape	-10.2545
▁US	-10.2546
oli	-10.2549
▁complete	-10.255
au	-10.255
ick	-10.2551
con	-10.256
▁Uttarakhand	-10.2571
▁led	-10.258
▁AI	-10.2589
ities	-10.2594
▁formation	-10.2594
▁whereas	-10.2596
▁Strategies	-10.2597
deep	-10.2601
▁sand	-10.2602
ast	-10.2606
Central	-10.2609
▁prepare	-10.2613
▁78	-10.2614
▁strong	-10.2614
let	-10.2614
our	-10.2624
▁expenditure	-10.2638
▁Board	-10.2638
▁buffalo	-10.2651
▁Leaf	-10.2655
▁relevant	-10.266
▁introduced	-10.2661
▁Horticultural	-10.2672
▁potatoes	-10.2673
▁central	-10.2675
▁mineral	-10.2682
der	-10.2687
▁sheep	-10.2689
▁organization	-10.269
▁real	-10.269
tor	-10.27
shi	-10.27
▁procedure	-10.27
light	-10.2711
cid	-10.2711
ning	-10.2715
▁1000	-10.2717
▁credit	-10.2719
▁samples	-10.2731
ology	-10.2731
6.00	-10.2733
▁na	-10.2735
▁forest	-10.2736
▁my	-10.2743
gi	-10.2749
▁past	-10.2753
ssee	-10.2764
▁Gandhi	-10.2774
AU	-10.2775
era	-10.2785
▁farms	-10.2786
▁Sustainable	-10.2791
0,000	-10.2793
▁experience	-10.2795
▁report	-10.2797
kh	-10.2803
tal	-10.2806
▁called	-10.2814
100	-10.2824
04	-10.2828
▁wilting	-10.2836
▁ability	-10.2837
▁egg	-10.2848
bo	-10.2848
ative	-10.285
▁safety	-10.2853
▁pod	-10.2861
8.00	-10.2866
▁veterinary	-10.2866
▁her	-10.2872
▁Vi	-10.2872
▁solutions	-10.2893
▁social	-10.2894
▁issue	-10.2899
=14.	-10.2902
pe	-10.2904
▁Technical	-10.2904
▁Arka	-10.2908
▁liters	-10.2908
▁autumn	-10.2916
@2	-10.2918
▁Therefore	-10.2929
▁preventing	-10.2929
▁safe	-10.2935
▁Promotion	-10.2946
▁Me	-10.2949
▁turn	-10.2951
ran	-10.296
▁ee	-10.2964
▁FIRST	-10.2981
▁meter	-10.2997
=	-10.3002
ring	-10.3009
▁care	-10.3012
▁73	-10.3013
▁minimum	-10.3016
▁easy	-10.3016
ton	-10.3018
ks	-10.3031
▁universities	-10.3033
65),	-10.3057
res	-10.3071
▁Un	-10.3083
▁creating	-10.3086
▁relative	-10.3086
▁discuss	-10.3088
mon	-10.3089
▁South	-10.3101
▁biodiversity	-10.3104
▁Ludhiana	-10.3104
▁remedy	-10.3104
2.00	-10.3106
ps	-10.3109
ik	-10.3114
▁npk	-10.3121
▁act	-10.3124
iinn	-10.3126
/100	-10.3131
mit	-10.3136
▁beetle	-10.3137
▁modern	-10.3138
▁Tomato	-10.314
time	-10.3152
▁residues	-10.3152
▁First	-10.3157
▁family	-10.3157
▁Di	-10.3172
▁ma	-10.3174
ize	-10.3175
▁mortality	-10.3175
silty	-10.3178
▁DARE	-10.3181
uk	-10.3186
ung	-10.3189
▁saline	-10.3195
▁AA	-10.3195
▁Business	-10.3199
▁AGRO	-10.321
▁presence	-10.321
not	-10.3212
▁continuous	-10.322
▁program	-10.3226
▁schedule	-10.3228
▁oxygen	-10.3228
▁ka	-10.3237
▁College	-10.3246
year	-10.3249
▁obtain	-10.3251
▁might	-10.3267
▁mature	-10.3275
▁Dairy	-10.3282
▁Major	-10.3282
▁18)	-10.3293
▁Mal	-10.3297
▁caterpillar	-10.3299
▁Rain	-10.33
▁excessive	-10.3301
▁term	-10.3301
▁Le	-10.3302
▁streptomycin	-10.3302
volving	-10.3307
▁Other	-10.3308
ect	-10.3323
esh	-10.3325
ual	-10.3327
▁orchards	-10.3328
▁recent	-10.333
mg	-10.333
400	-10.3353
▁resilience	-10.3354
▁detection	-10.3355
▁wet	-10.3364
▁households	-10.3371
oonn	-10.3375
/5	-10.3375
▁infections	-10.3387
tan	-10.339
▁Engineering	-10.339
▁64	-10.339
▁captan	-10.3391
vo	-10.3392
▁57	-10.3401
▁follow	-10.3402
=30.4	-10.3408
CC	-10.3412
▁leads	-10.3417
▁Pest	-10.3417
▁female	-10.3426
▁allied	-10.3427
scale	-10.343
tr	-10.3435
▁medicine	-10.3445
▁investment	-10.3445
▁profitability	-10.3445
▁sa	-10.3446
▁Fax	-10.3447
ep	-10.3462
▁Bengaluru	-10.3464
▁commonly	-10.3473
▁Cost	-10.3476
▁ready	-10.3484
/10	-10.3488
▁Fund	-10.349
▁NRC	-10.3491
▁Ba	-10.3498
▁Average	-10.35
▁99	-10.3501
▁St	-10.3503
▁Z	-10.3504
▁Corresponding	-10.3518
▁response	-10.3519
▁maintained	-10.352
▁plastic	-10.3526
▁74	-10.3537
▁Grant	-10.3537
4.00	-10.354
▁0.6	-10.3543
▁sprayed	-10.3543
▁fall	-10.3544
▁learning	-10.3545
eenn	-10.3546
3.00	-10.355
▁tropical	-10.3551
▁bi	-10.3552
▁innovative	-10.3555
=13.	-10.3558
▁revealed	-10.3558
▁point	-10.3564
ral	-10.3569
▁house	-10.358
▁56	-10.3589
▁resulted	-10.3594
ten	-10.3608
▁youth	-10.3616
▁active	-10.3618
74	-10.3624
=56.6	-10.3629
▁male	-10.364
▁eating	-10.3642
si	-10.3645
tri	-10.3648
ven	-10.365
Adv	-10.3657
ner	-10.3661
▁Value	-10.3675
▁operational	-10.368
▁registration	-10.3685
▁53	-10.3694
▁1%	-10.3704
=30.7	-10.3704
=30.8	-10.3704
=31.0	-10.3704
▁generated	-10.371
▁IPM	-10.3712
▁Be	-10.3719
▁indicated	-10.3729
ita	-10.3736
▁standard	-10.3742
▁diverse	-10.3743
▁bo	-10.375
ell	-10.3753
ue	-10.3753
▁six	-10.3768
▁400	-10.3772
▁English	-10.3779
▁machinery	-10.378
▁labor	-10.3781
aann	-10.379
▁ecological	-10.3791
▁review	-10.3796
▁drenching	-10.3813
=52.0	-10.3817
=8.0	-10.3817
ada	-10.3825
▁750	-10.3834
▁digital	-10.3836
▁just	-10.3836
▁su	-10.384
▁cows	-10.3847
▁ph	-10.3851
▁dark	-10.3856
acre	-10.3863
ora	-10.3869
▁2015	-10.387
fl	-10.3873
▁progress	-10.3873
▁br	-10.3874
vis	-10.3879
io	-10.388
▁unique	-10.3893
tes	-10.3896
▁genes	-10.391
▁responsible	-10.3912
▁Variety	-10.3913
▁ploughing	-10.3925
▁Ta	-10.393
=32.7	-10.3931
▁bihar	-10.3932
▁dome	-10.3933
▁recovery	-10.3934
▁Hindi	-10.3936
▁11.	-10.3936
▁vary	-10.3939
▁describe	-10.3942
▁Introduction	-10.3943
▁designed	-10.3949
-19	-10.395
ke	-10.3954
hat	-10.3956
▁am	-10.3956
▁kill	-10.3968
▁Achievements	-10.397
▁Red	-10.397
▁mentioned	-10.3973
▁2011	-10.3981
▁Man	-10.3981
▁structures	-10.3985
▁OC	-10.3991
▁administer	-10.3995
In	-10.4
tha	-10.4001
No	-10.4001
▁respective	-10.4002
=30.1	-10.4008
▁liquid	-10.4008
▁significance	-10.4008
ort	-10.4009
▁output	-10.401
▁setting	-10.4012
lam	-10.4015
▁spots	-10.4017
=50.8	-10.4028
ice	-10.403
▁sun	-10.4035
▁too	-10.4045
=31.2	-10.4047
=51.9	-10.4047
▁Potato	-10.4047
▁Poultry	-10.4047
▁damping	-10.4047
▁side	-10.4048
▁app	-10.405
▁diameter	-10.4067
▁arid	-10.4078
▁march	-10.4079
▁pathogen	-10.4084
01	-10.4085
=31.8	-10.4086
=33.4	-10.4086
=54.4	-10.4086
=34.0	-10.4086
▁Con	-10.4099
▁means	-10.4099
▁containing	-10.4105
-12	-10.411
▁wounds	-10.4113
▁domestic	-10.4125
=31.3	-10.4125
▁precise	-10.4125
▁tribal	-10.4125
▁target	-10.4125
▁put	-10.4126
▁Jharkhand	-10.4136
ct	-10.415
hal	-10.4153
▁CC	-10.4159
=40.1	-10.4164
=41.8	-10.4164
▁Check	-10.4164
2.5	-10.4166
▁attract	-10.417
▁sh	-10.417
ju	-10.4174
▁saving	-10.4174
▁delivery	-10.4202
▁smooth	-10.4204
▁We	-10.4208
▁growers	-10.4209
▁keeping	-10.4211
▁extent	-10.4223
▁corn	-10.4224
ban	-10.4228
ina	-10.4233
▁balance	-10.4234
▁lesions	-10.4237
▁widely	-10.4241
▁ADG	-10.4243
=30.2	-10.4243
=34.5	-10.4243
▁recommend	-10.4247
▁Details	-10.4255
▁residue	-10.4255
▁aquaculture	-10.4263
▁chloride	-10.4263
▁iiss	-10.4271
▁spp	-10.4273
▁clear	-10.4275
▁superior	-10.4282
▁ideal	-10.4286
specific	-10.4292
▁pods	-10.4294
▁Planting	-10.4299
▁members	-10.4299
osis	-10.4301
▁ridomil	-10.4303
▁Raised	-10.4303
▁iii	-10.4304
▁final	-10.4316
=30.9	-10.4323
=34.6	-10.4323
=40.9	-10.4323
▁fertigation	-10.4323
▁mosaic	-10.4323
▁la	-10.433
▁mean	-10.434
=53.6	-10.4343
=59.8	-10.4343
▁morning	-10.4343
▁orange	-10.4343
▁aeration	-10.4343
▁kilo	-10.4343
▁producing	-10.4345
▁multiplex	-10.4346
▁contribut	-10.4349
▁canker	-10.435
cy	-10.4351
▁So	-10.4354
=30.3	-10.4363
=31.5	-10.4363
▁Mahatma	-10.4363
▁La	-10.4364
▁gap	-10.4373
▁abiotic	-10.4376
▁rainy	-10.4378
▁MM	-10.438
AR	-10.4382
=57.1	-10.4383
▁emerging	-10.4392
▁chemicals	-10.4394
▁markets	-10.4398
=45.1	-10.4403
=49.9	-10.4403
▁advantage	-10.4409
▁54	-10.4412
pro	-10.4414
▁stresses	-10.4417
▁experiment	-10.4422
▁While	-10.4423
▁guava	-10.4423
ow	-10.4423
tre	-10.4428
kar	-10.4428
▁broad	-10.443
500	-10.4432
▁utilized	-10.4435
=30.5	-10.4443
=34.3	-10.4443
=43.2	-10.4443
=57.8	-10.4443
iya	-10.4448
▁location	-10.4449
▁Sher	-10.4455
▁successfully	-10.4455
ack	-10.4455
▁transport	-10.4461
▁dropping	-10.4463
▁hard	-10.4465
▁initiated	-10.4466
-10	-10.4473
▁Professor	-10.4474
=30.6	-10.4483
=31.1	-10.4483
=40.6	-10.4483
=55.5	-10.4483
▁Raj	-10.4494
▁implemented	-10.4496
IS	-10.4504
Ry	-10.4509
▁example	-10.4512
AC	-10.4513
ard	-10.4514
▁mode	-10.4518
▁77	-10.4519
=34.1	-10.4524
=34.7	-10.4524
=44.4	-10.4524
=45.5	-10.4524
▁bordeaux	-10.4524
=41.0	-10.4524
▁almo	-10.4529
▁Establishment	-10.4529
▁vaccination	-10.4529
▁publication	-10.4536
▁Hybrid	-10.4541
▁Kan	-10.4541
▁tobacco	-10.4544
▁cutting	-10.4554
▁ponds	-10.4555
ian	-10.4561
▁com	-10.4561
val	-10.4562
=32.5	-10.4565
=32.8	-10.4565
=33.5	-10.4565
=42.3	-10.4565
=45.8	-10.4565
▁Verma	-10.4565
▁mechanism	-10.4573
▁stems	-10.4574
▁included	-10.4585
=58.8	-10.4585
▁Master	-10.4586
par	-10.4588
▁concerned	-10.4596
▁Sp	-10.4599
▁chicken	-10.4601
=32.6	-10.4606
=54.5	-10.4606
▁Botanical	-10.4606
▁width	-10.4606
▁thin	-10.461
mer	-10.4617
▁67	-10.4618
▁Proper	-10.4626
=51.4	-10.4626
▁Trichoderma	-10.4626
▁emergence	-10.4628
ug	-10.4629
▁directed	-10.4631
ome	-10.4637
tin	-10.4637
yr	-10.4646
=34.8	-10.4647
=52.6	-10.4647
▁nurseries	-10.4647
▁retention	-10.4647
rin	-10.4649
ery	-10.4651
▁Wheat	-10.4655
▁orchard	-10.4656
ification	-10.4659
▁raw	-10.4659
▁(20	-10.466
zo	-10.4662
=53.3	-10.4667
▁branch	-10.4669
▁identify	-10.468
=12.	-10.4684
=33.9	-10.4688
=59.5	-10.4688
▁Geographical	-10.4688
▁percentage	-10.469
▁Breeding	-10.4693
andhan	-10.4693
▁duck	-10.4697
▁2025	-10.4702
▁resilient	-10.4703
-25	-10.4703
ev	-10.4707
▁media	-10.4709
=50.7	-10.4709
▁estimated	-10.4712
▁Resource	-10.4719
=49.6	-10.473
▁together	-10.473
=59.6	-10.475
▁pigeonpea	-10.475
▁shoots	-10.4754
▁Health	-10.4764
▁Th	-10.4769
=41.6	-10.4771
▁oxychloride	-10.4771
▁milli	-10.4773
▁metre	-10.4776
ene	-10.4783
=57.5	-10.4792
▁88	-10.4805
▁removed	-10.4809
▁fat	-10.4811
=33.2	-10.4813
=48.9	-10.4813
Iso	-10.4813
▁Once	-10.4815
▁locally	-10.4815
▁showing	-10.482
IR	-10.4822
▁DD	-10.4824
1.00	-10.4828
ris	-10.483
ree	-10.4835
▁secondary	-10.4837
▁save	-10.4838
gr	-10.4839
▁10-15	-10.4839
▁enhancement	-10.4841
▁offer	-10.4843
▁63	-10.485
=31.6	-10.4855
=51.8	-10.4855
▁aromatic	-10.4855
▁4-5	-10.486
▁Kendra	-10.4862
▁downy	-10.4865
▁position	-10.4874
▁skills	-10.4874
=53.1	-10.4876
=59.3	-10.4876
=59.4	-10.4876
▁applying	-10.4877
▁later	-10.4884
late	-10.4894
▁Bhavan	-10.4897
▁west	-10.4908
mal	-10.491
▁manual	-10.4911
▁Keep	-10.4911
▁IFS	-10.4913
▁tell	-10.4914
=51.3	-10.4918
=52.3	-10.4918
=54.1	-10.4918
aj	-10.4935
=33.7	-10.4939
=34.4	-10.4939
=34.9	-10.4939
=40.7	-10.4939
=42.8	-10.4939
=43.9	-10.4939
=54.2	-10.4939
=58.1	-10.4939
▁Bhubaneswar	-10.4939
▁agroforestry	-10.494
▁bar	-10.4943
▁india	-10.4953
▁01	-10.4954
▁offers	-10.4957
▁po	-10.4959
▁(10	-10.496
=58.4	-10.4961
▁booster	-10.4967
▁substrate	-10.4972
▁02	-10.4975
=32.0	-10.4982
=33.6	-10.4982
=33.8	-10.4982
=41.9	-10.4982
=51.1	-10.4982
▁identification	-10.4982
▁attain	-10.4982
▁funds	-10.4985
▁store	-10.4986
▁show	-10.4995
drum	-10.4999
▁vitamins	-10.4999
▁Group	-10.5003
▁Natural	-10.5003
▁vital	-10.5004
▁fever	-10.5005
ised	-10.5005
▁minutes	-10.5006
▁individual	-10.5016
▁rree	-10.5016
.23	-10.502
▁Accounts	-10.502
▁mo	-10.5024
=32.3	-10.5025
=55.7	-10.5025
▁Govt	-10.5025
▁Policy	-10.5025
▁initiation	-10.5025
▁Anus	-10.5027
eerr	-10.5028
▁(4	-10.5029
▁59	-10.5037
▁combination	-10.5038
adhya	-10.504
aria	-10.5042
▁strategy	-10.5046
tro	-10.5054
▁demonstration	-10.5058
▁initiatives	-10.5064
=42.6	-10.5067
=54.7	-10.5067
=58.2	-10.5067
raj	-10.5068
=33.0	-10.5068
▁intercropping	-10.5068
▁regional	-10.5069
ber	-10.507
▁article	-10.508
ise	-10.5083
600	-10.5084
ees	-10.5085
vv	-10.5089
=55.1	-10.5089
▁husbandry	-10.5089
▁usage	-10.509
▁ff	-10.5102
▁4.5	-10.5102
▁languages	-10.511
=41.3	-10.5111
=41.5	-10.5111
=54.6	-10.5111
▁faculty	-10.5111
▁Jan	-10.5117
▁gold	-10.5117
▁76	-10.5118
▁Disease	-10.5124
▁cereals	-10.5129
▁excess	-10.5131
=55.4	-10.5132
=56.5	-10.5132
=40.2	-10.5154
=43.8	-10.5154
=47.4	-10.5154
=50.5	-10.5154
▁Information	-10.5154
▁economy	-10.5154
▁greenhouse	-10.5155
▁handling	-10.5155
▁reach	-10.5161
▁bbee	-10.5164
rree	-10.5169
▁fruiting	-10.5171
▁yellowing	-10.5173
gRo	-10.5176
cur	-10.5178
▁mono	-10.5183
▁kvk	-10.5188
▁(3	-10.5189
▁wound	-10.519
▁particular	-10.519
▁contribution	-10.5191
ER	-10.5192
▁Ka	-10.5196
=40.4	-10.5197
=47.1	-10.5197
=50.9	-10.5197
=51.7	-10.5197
▁consistent	-10.5213
=52.1	-10.5219
▁removal	-10.5219
▁death	-10.522
▁places	-10.5221
▁2000	-10.5228
gan	-10.5236
=33.1	-10.5241
=33.3	-10.5241
=42.4	-10.5241
=50.4	-10.5241
=53.5	-10.5241
▁simple	-10.5241
▁Non	-10.5241
▁larvae	-10.5242
▁en	-10.5252
▁situation	-10.5256
▁mulching	-10.5257
▁bags	-10.5258
medium	-10.5264
▁Early	-10.5264
▁limit	-10.5264
▁poly	-10.5274
▁Scientists	-10.5282
=19.8	-10.5285
=32.1	-10.5285
=43.1	-10.5285
=44.2	-10.5285
▁61	-10.5286
▁foR	-10.529
=55.9	-10.5307
▁exchange	-10.5307
Black	-10.5308
▁62	-10.5313
▁1.2	-10.532
▁var	-10.5324
▁supports	-10.5325
▁cr	-10.5327
=31.4	-10.5329
=31.7	-10.5329
=32.4	-10.5329
=34.2	-10.5329
=40.5	-10.5329
=43.6	-10.5329
=48.1	-10.5329
▁App	-10.5332
so	-10.5334
▁lands	-10.5342
▁filling	-10.5343
▁pattern	-10.5344
300	-10.5349
▁herb	-10.535
=52.4	-10.5351
▁survey	-10.5351
▁introduction	-10.5351
fa	-10.5354
▁inject	-10.5356
▁Directors	-10.5356
▁enable	-10.536
ace	-10.5362
fi	-10.5363
▁According	-10.5365
=42.9	-10.5373
=55.0	-10.5373
▁planning	-10.5374
▁Neem	-10.5374
=19.1	-10.5375
▁2007	-10.5376
-22	-10.538
▁minerals	-10.5381
▁implement	-10.5388
=51.2	-10.5395
=56.2	-10.5395
▁Medicinal	-10.5395
▁demonstrated	-10.5398
▁biotic	-10.5407
Tech	-10.5407
▁2014	-10.5409
=18.1	-10.5417
=43.7	-10.5417
=54.9	-10.5417
=56.1	-10.5417
=46.0	-10.5417
=19.2	-10.5419
▁distributed	-10.542
▁bud	-10.5422
▁advanced	-10.5423
▁bearing	-10.5428
▁diet	-10.543
=52.7	-10.5439
=53.8	-10.5439
▁Varieties	-10.544
king	-10.5441
▁cure	-10.5441
▁fine	-10.5451
che	-10.5454
▁frequent	-10.5454
▁Active	-10.5456
▁again	-10.5461
=44.5	-10.5462
=46.1	-10.5462
=49.0	-10.5462
▁alternate	-10.5462
▁native	-10.5463
▁consist	-10.5465
resistant	-10.5466
ib	-10.5468
abad	-10.5479
▁trench	-10.5481
▁Par	-10.5481
=50.1	-10.5484
▁Maintain	-10.5484
▁communities	-10.5484
▁pruning	-10.5484
=53.0	-10.5484
=19.0	-10.5484
▁bucket	-10.5484
▁Phone	-10.5485
=19.9	-10.5486
▁Day	-10.5486
IARI	-10.5489
▁Bar	-10.5492
▁detailed	-10.5493
ign	-10.5493
lon	-10.5495
=19.5	-10.5507
=31.9	-10.5507
=32.2	-10.5507
=46.4	-10.5507
=47.7	-10.5507
=47.9	-10.5507
=49.7	-10.5507
▁Traditional	-10.5507
▁easily	-10.5507
▁facility	-10.5507
▁competition	-10.5507
▁little	-10.5508
all	-10.551
▁decrease	-10.552
cal	-10.552
▁tested	-10.5523
▁flies	-10.5524
ls	-10.5527
=52.5	-10.5529
▁pomegranate	-10.5529
▁Eastern	-10.5536
▁demonstrations	-10.5539
▁placed	-10.5548
=42.1	-10.5552
=43.4	-10.5552
=48.5	-10.5552
lready	-10.5552
▁Target	-10.5552
▁budget	-10.5552
ram	-10.5553
fertilizer	-10.5556
▁Hence	-10.5556
▁still	-10.5556
▁peppers	-10.5556
▁shown	-10.5557
ele	-10.5564
▁pulse	-10.5569
▁interaction	-10.5569
▁indicators	-10.5569
▁58	-10.5573
son	-10.5579
▁industries	-10.5579
▁par	-10.5587
pat	-10.5591
Contents	-10.5597
=43.3	-10.5597
=45.3	-10.5597
=49.1	-10.5597
=56.8	-10.5597
=57.3	-10.5597
▁Clean	-10.5597
▁0.2	-10.5601
7.00	-10.5606
=18.2	-10.5622
▁69	-10.5636
▁planter	-10.5639
=42.0	-10.5642
=49.4	-10.5642
=58.6	-10.5642
▁tubers	-10.5643
ear	-10.5647
days	-10.5662
=57.2	-10.5665
▁mahaphal	-10.5665
=59.0	-10.5665
dar	-10.5667
wise	-10.5668
efore	-10.5673
ji	-10.5677
▁tab	-10.5681
=42.2	-10.5688
=42.7	-10.5688
=45.7	-10.5688
=47.2	-10.5688
=47.8	-10.5688
=55.2	-10.5688
=43.0	-10.5688
▁adaptation	-10.5689
tech	-10.5696
▁World	-10.5696
1.5	-10.5696
▁Region	-10.5699
▁intervals	-10.5703
▁Technologies	-10.5706
=55.3	-10.5711
▁Location	-10.5711
▁intensive	-10.5713
▁immediately	-10.5715
ath	-10.5726
=11.	-10.5726
▁standards	-10.5731
=46.7	-10.5734
▁fertiliser	-10.5734
=50.0	-10.5734
▁enough	-10.5734
▁pan	-10.5739
bh	-10.5739
▁drinking	-10.5742
▁far	-10.5756
=57.7	-10.5757
=58.3	-10.5757
▁packaging	-10.5757
-6	-10.5757
▁receive	-10.5762
oda	-10.5763
=45.2	-10.578
=45.6	-10.578
▁Through	-10.578
▁positive	-10.578
▁trade	-10.578
▁(5	-10.5797
▁tissue	-10.5799
=19.4	-10.5805
▁spices	-10.5805
000.00	-10.5806
▁NPK	-10.5816
▁pot	-10.5818
hen	-10.5825
=42.5	-10.5826
=47.5	-10.5826
=48.2	-10.5826
=48.3	-10.5826
=48.4	-10.5826
▁Small	-10.5826
▁Common	-10.5826
▁manures	-10.5833
▁profit	-10.5844
▁concept	-10.5844
=51.6	-10.5849
=58.9	-10.5849
=54.0	-10.5849
▁Phule	-10.5849
ck	-10.585
▁600	-10.5852
▁function	-10.5858
iz	-10.5858
sp	-10.5863
▁processes	-10.5868
▁Special	-10.5872
=32.9	-10.5872
=44.1	-10.5872
=44.3	-10.5872
=50.6	-10.5872
=53.2	-10.5872
=57.9	-10.5872
▁pulp	-10.5873
▁Ranchi	-10.5873
▁socio	-10.5873
▁score	-10.5873
Kashmir	-10.5882
.11	-10.5882
▁Ma	-10.5887
▁guidance	-10.5896
▁stability	-10.5896
▁125	-10.5899
▁elements	-10.5901
▁0.3	-10.5904
▁More	-10.5905
ants	-10.5907
▁2013	-10.5907
▁Fusarium	-10.5909
▁dress	-10.591
▁decision	-10.5917
=18.3	-10.5919
=18.6	-10.5919
=44.7	-10.5919
=52.9	-10.5919
=55.6	-10.5919
▁83	-10.5925
▁Kharif	-10.5928
▁Sorghum	-10.5929
MS	-10.5939
=58.5	-10.5942
▁Sikkim	-10.5942
▁bhindi	-10.5942
▁sectors	-10.5944
thi	-10.5951
National	-10.5953
▁warm	-10.5956
oid	-10.5958
▁Pro	-10.5961
▁created	-10.5961
tur	-10.5964
=44.6	-10.5966
=47.6	-10.5966
=50.3	-10.5966
=47.0	-10.5966
▁comprehensive	-10.5966
=18.8	-10.5968
▁iv	-10.5976
▁Resources	-10.5979
39	-10.598
▁populations	-10.5981
=58.7	-10.5989
=58.0	-10.599
▁promising	-10.599
▁7.5	-10.6003
▁complex	-10.6013
=40.3	-10.6013
=44.8	-10.6013
=46.3	-10.6013
=48.8	-10.6013
=53.9	-10.6013
=18.7	-10.6014
▁Environmental	-10.6015
1,	-10.6015
▁traps	-10.6015
▁Nutrient	-10.6016
▁Vegetable	-10.6018
▁managed	-10.6018
▁z	-10.6019
long	-10.6025
iti	-10.6031
▁012	-10.6032
ages	-10.6033
ship	-10.6035
=53.7	-10.6037
=56.7	-10.6037
▁Karnal	-10.6037
▁mr	-10.6044
▁Data	-10.6044
▁trap	-10.6059
▁tractor	-10.6059
=49.3	-10.606
▁consult	-10.6076
=57.6	-10.6084
▁professional	-10.6092
▁hopper	-10.6106
▁Organization	-10.6107
=49.5	-10.6108
=56.9	-10.6108
=59.1	-10.6108
▁Paddy	-10.6108
side	-10.6114
▁Ha	-10.612
▁You	-10.6126
▁Ra	-10.6129
▁department	-10.6131
▁Description	-10.6132
▁agencies	-10.6132
▁PARTY	-10.6132
▁besides	-10.6132
lin	-10.6137
app	-10.6142
▁furrow	-10.6142
▁Regional	-10.6144
climatic	-10.6145
=41.2	-10.6156
=44.9	-10.6156
=49.8	-10.6156
▁mechanical	-10.6156
=19.6	-10.6158
cent	-10.616
▁mancozeb	-10.6163
▁evenly	-10.6176
▁Indigenous	-10.618
Gross	-10.6181
ica	-10.6181
▁AUs	-10.6181
▁however	-10.6182
▁mouth	-10.6184
-7	-10.6184
▁States	-10.6185
▁practical	-10.6195
ola	-10.6197
ped	-10.6198
cin	-10.6203
=46.6	-10.6204
=52.2	-10.6204
=53.4	-10.6204
▁Grain	-10.6205
▁third	-10.6208
▁efficacy	-10.6209
oordinated	-10.6212
ava	-10.6215
▁00.	-10.6218
▁68	-10.6222
▁Arunachal	-10.6228
▁Besides	-10.6228
=18.4	-10.623
za	-10.624
▁rhizome	-10.624
tric	-10.6241
▁Act	-10.6242
▁Fig	-10.6246
▁regard	-10.6248
=37.5	-10.6252
arid	-10.6254
▁grade	-10.6261
cut	-10.6273
0.5	-10.6274
▁IN	-10.6276
▁Husbandry	-10.6276
▁context	-10.6276
=18.5	-10.6278
▁serve	-10.6282
▁dip	-10.6285
▁assess	-10.629
▁facilitat	-10.6298
=41.7	-10.63
=45.9	-10.63
=51.5	-10.63
=45.0	-10.6301
▁occurs	-10.6307
▁run	-10.6316
▁appear	-10.6319
=54.8	-10.6325
=56.4	-10.6325
▁Jhansi	-10.6325
form	-10.6333
ush	-10.6336
hoose	-10.6345
ete	-10.6346
=45.4	-10.6349
=46.9	-10.6349
=50.2	-10.6349
=57.0	-10.6349
=57.4	-10.6349
=77.4	-10.6349
=51.0	-10.6349
▁expected	-10.6351
lar	-10.6354
ika	-10.6357
ces	-10.636
green	-10.6365
rus	-10.637
=52.8	-10.6374
▁querry	-10.6374
▁scenario	-10.6374
▁Tripura	-10.6374
▁Aid	-10.6376
4.1	-10.6382
▁urban	-10.6382
▁100%	-10.6386
▁approaches	-10.6387
▁sc	-10.6392
=41.4	-10.6398
=47.3	-10.6398
=55.8	-10.6398
=81.2	-10.6398
▁Since	-10.6398
▁Validation	-10.6398
▁proposed	-10.6398
▁Mango	-10.6399
▁soft	-10.6399
▁boost	-10.6404
▁sure	-10.6407
▁mite	-10.6407
port	-10.6409
ew	-10.6412
grained	-10.6414
▁points	-10.6414
economic	-10.6415
.55	-10.6417
▁difficult	-10.6422
=59.7	-10.6423
▁purple	-10.6423
▁herbicide	-10.6423
▁Go	-10.6431
▁001	-10.6431
▁li	-10.6439
▁innovations	-10.6442
▁cleaning	-10.6446
=40.8	-10.6447
=46.5	-10.6447
=54.3	-10.6447
▁artificial	-10.6447
▁shelf	-10.6447
=40.0	-10.6447
▁objective	-10.6448
-15	-10.6449
▁71	-10.6454
uality	-10.6457
arb	-10.6457
▁candidates	-10.6462
=59.2	-10.6472
=78.6	-10.6472
=84.2	-10.6472
▁Provide	-10.6472
▁achieving	-10.6472
▁bodies	-10.6472
▁20-25	-10.6481
=36.3	-10.6497
=48.7	-10.6497
▁policies	-10.6497
▁salinity	-10.6497
▁therefore	-10.6497
▁CAFT	-10.6497
▁shed	-10.6502
▁pipes	-10.6515
-14	-10.6515
▁plains	-10.6518
▁Conference	-10.6522
▁weevil	-10.6522
▁Gun	-10.6525
9.00	-10.6536
▁ja	-10.6541
ix	-10.6542
▁vermicompost	-10.6543
▁risks	-10.6545
▁promotes	-10.6556
llee	-10.6558
▁able	-10.6564
gra	-10.6568
▁Effect	-10.6571
aya	-10.6571
▁Increase	-10.6571
▁phase	-10.6572
ient	-10.6574
▁PRA	-10.6575
2.9	-10.6575
▁infested	-10.6596
=35.3	-10.6596
=37.2	-10.6596
▁Mission	-10.6596
=56.0	-10.6596
▁Assistant	-10.6606
▁officer	-10.6612
▁rapid	-10.6614
▁located	-10.6622
▁Two	-10.6622
▁Scheme	-10.6623
▁Sl	-10.6634
▁suffering	-10.6641
▁skill	-10.6644
▁mass	-10.6644
=36.6	-10.6647
=36.7	-10.6647
=39.7	-10.6647
▁serious	-10.6647
=44.0	-10.6647
4.2	-10.6659
▁percent	-10.6659
▁factor	-10.6662
▁Kashi	-10.6662
▁micronutrients	-10.6666
friendly	-10.6667
▁3.0	-10.667
▁Welfare	-10.6672
▁movement	-10.6676
▁captaf	-10.6688
ster	-10.6689
▁valuable	-10.6697
▁changing	-10.6697
▁class	-10.6699
▁published	-10.67
▁ICT	-10.6704
▁Sar	-10.6706
▁balanced	-10.6708
AI	-10.6711
▁documents	-10.6713
ey	-10.6715
ong	-10.6715
▁september	-10.6718
april	-10.6719
=76.7	-10.6722
▁Sharma	-10.6722
▁perennial	-10.6722
▁groundwater	-10.6723
=19.7	-10.6724
▁Ro	-10.6726
=10.	-10.6727
▁tomatoes	-10.6735
ns	-10.6738
▁1.8	-10.6746
▁Orissa	-10.6747
=36.8	-10.6748
▁Reasonabl	-10.6748
▁anthracnose	-10.6748
▁Banana	-10.6748
▁rainwater	-10.675
▁Dec	-10.6752
▁ways	-10.6755
▁yard	-10.6756
▁preventive	-10.6757
▁Bh	-10.6759
▁agents	-10.6763
▁moderate	-10.6766
hra	-10.6766
▁immature	-10.6773
=19.3	-10.6775
ie	-10.6775
ens	-10.6778
ded	-10.6786
▁Add	-10.6795
=43.5	-10.6799
=48.6	-10.6799
=82.0	-10.6799
▁approximately	-10.6799
▁broiler	-10.6799
▁panicle	-10.6802
=79.0	-10.6824
▁se	-10.6831
ight	-10.6836
▁mobile	-10.6839
▁25%	-10.6842
=46.2	-10.685
=56.3	-10.685
=35.0	-10.685
7.5	-10.685
▁initiative	-10.6854
▁termite	-10.6854
▁Source	-10.6856
az	-10.6865
▁thick	-10.6875
=79.5	-10.6876
▁approved	-10.6876
▁ni	-10.6878
put	-10.6883
-9	-10.6886
▁diseased	-10.6888
▁Das	-10.6889
rt	-10.6891
▁locations	-10.6892
▁correct	-10.6894
▁loam	-10.6896
▁rains	-10.69
=38.6	-10.6901
=49.2	-10.6901
=83.2	-10.6901
▁intensity	-10.6901
▁105	-10.6917
▁86	-10.6918
▁possess	-10.6924
▁concern	-10.6924
▁Am	-10.6925
=78.7	-10.6927
▁Gupta	-10.6927
▁cloth	-10.6927
ole	-10.6929
ella	-10.6932
▁FMD	-10.6933
tar	-10.6935
800	-10.6937
▁Power	-10.6947
Chancellor	-10.695
▁mitigate	-10.6953
▁solve	-10.6953
=59.9	-10.6953
▁accurate	-10.6953
▁participants	-10.6953
▁Sowing	-10.6957
ura	-10.6958
▁10-12	-10.6962
ima	-10.6962
cul	-10.6962
ae	-10.6969
rg	-10.697
quality	-10.6979
=79.3	-10.6979
=79.7	-10.6979
▁debris	-10.6979
▁taste	-10.6979
▁solar	-10.698
ht	-10.6982
▁filled	-10.6987
▁extend	-10.6992
▁Recommended	-10.6993
▁Nagaland	-10.6997
cre	-10.7004
=41.1	-10.7005
▁Amount	-10.7006
▁incubation	-10.7006
▁kind	-10.7007
▁Can	-10.701
▁Over	-10.7027
-18	-10.703
=75.3	-10.7031
=18.9	-10.7033
▁Kannada	-10.7037
ax	-10.7049
▁processed	-10.7057
=35.1	-10.7057
=80.5	-10.7057
▁vegetative	-10.7057
=39.0	-10.7058
▁Local	-10.7058
▁load	-10.7061
-8	-10.7061
▁1.3	-10.7073
ments	-10.7073
round	-10.7076
free	-10.709
▁event	-10.7097
anga	-10.7099
RT	-10.7099
▁holding	-10.7103
coming	-10.7104
oorr	-10.7105
unt	-10.7106
=35.2	-10.711
=35.7	-10.711
=38.3	-10.711
=77.7	-10.711
=79.2	-10.711
=83.9	-10.711
▁runoff	-10.711
▁sunlight	-10.7111
▁bag	-10.7111
250	-10.7113
▁october	-10.7114
▁trained	-10.7116
DA	-10.7116
▁inside	-10.7116
▁Africa	-10.7116
lands	-10.7124
lla	-10.7125
gen	-10.7128
▁soi	-10.7129
▁continue	-10.7133
▁smart	-10.7134
=79.1	-10.7136
▁Shimla	-10.7136
▁honey	-10.7136
▁ornamental	-10.7136
▁brought	-10.7136
▁blood	-10.7137
▁healthier	-10.7137
▁aass	-10.7138
IC	-10.7141
lets	-10.7156
=46.8	-10.7163
=84.4	-10.7163
▁primarily	-10.7163
▁Address	-10.7163
▁appearance	-10.7163
▁caterpillars	-10.7165
▁Cultivation	-10.7175
▁committee	-10.7176
pre	-10.7181
=76.1	-10.7189
=82.4	-10.7189
▁Expenditure	-10.7189
Tamil	-10.7192
▁supporting	-10.7199
▁Pay	-10.7205
▁130	-10.721
▁others	-10.7212
=35.5	-10.7216
=37.9	-10.7216
=76.6	-10.7216
=80.9	-10.7216
=83.1	-10.7216
▁Chief	-10.7216
▁10.00	-10.7219
▁evaluated	-10.7222
▁provision	-10.7223
▁intervention	-10.7223
ture	-10.7223
▁eye	-10.7227
▁find	-10.7229
▁cap	-10.723
▁Ga	-10.7235
▁represent	-10.7243
=80.1	-10.7243
▁Support	-10.7243
▁scope	-10.7243
entrepreneurship	-10.7248
like	-10.7251
▁tender	-10.7252
▁forward	-10.7256
nal	-10.7258
ori	-10.7261
=36.5	-10.7269
=77.9	-10.7269
▁agenda	-10.7269
▁ne	-10.7271
ding	-10.7272
▁East	-10.7272
▁Mean	-10.7273
ww	-10.7276
▁Network	-10.7278
▁pigs	-10.728
gal	-10.7281
▁District	-10.7283
CS	-10.7285
▁fully	-10.7286
rraa	-10.7291
▁bee	-10.7291
▁Impact	-10.7296
▁Moderate	-10.7296
▁oonn	-10.7298
▁crore	-10.7304
▁option	-10.7304
▁slope	-10.7306
▁Experiment	-10.7313
=37.6	-10.7323
=38.5	-10.7323
=78.5	-10.7323
▁examination	-10.7323
▁Road	-10.7324
▁seen	-10.7333
▁strengthening	-10.7343
▁eco	-10.7347
▁pipe	-10.7347
▁south	-10.735
▁Thus	-10.7354
izing	-10.7356
▁forms	-10.7357
▁WP	-10.7357
▁remains	-10.7368
▁options	-10.737
▁mostly	-10.7373
▁hill	-10.7373
Co	-10.7376
=36.1	-10.7377
=79.8	-10.7377
=82.2	-10.7377
▁flour	-10.7377
=48.0	-10.7377
▁borne	-10.7379
▁establish	-10.738
▁soaked	-10.7382
▁PP	-10.7384
▁Weed	-10.7394
▁shows	-10.7396
▁min	-10.74
▁transplanted	-10.7412
matic	-10.7415
▁bl	-10.7415
▁Harvest	-10.7422
RS	-10.7431
=35.9	-10.7431
=39.2	-10.7431
=76.4	-10.7431
=77.8	-10.7431
=83.7	-10.7431
=84.7	-10.7431
▁submission	-10.7432
▁dist	-10.7432
▁home	-10.7433
▁3.5	-10.7441
▁achievements	-10.7444
with	-10.745
▁Ram	-10.7458
=80.6	-10.7459
▁permanent	-10.7459
cing	-10.7459
▁preferred	-10.746
▁plot	-10.7461
asi	-10.7463
▁cool	-10.7464
=37.7	-10.7486
▁aaggrriiccuul	-10.7486
▁principles	-10.7489
wal	-10.7493
▁Bacillus	-10.7493
▁fertile	-10.7497
-1,	-10.7501
▁remain	-10.7509
rat	-10.7511
▁10%	-10.7512
=76.5	-10.7513
=77.3	-10.7513
=80.7	-10.7513
=83.4	-10.7513
=83.6	-10.7513
▁Rural	-10.7515
▁84	-10.7518
▁Processing	-10.7519
▁practiced	-10.7521
▁98	-10.7525
▁oilseeds	-10.7526
gar	-10.7534
ula	-10.7539
▁Annexure	-10.754
=37.8	-10.7541
=75.9	-10.7541
▁Leaves	-10.7541
▁Conservation	-10.7541
▁viral	-10.7543
▁registered	-10.7545
xi	-10.7546
▁Mustard	-10.7551
▁carbendazim	-10.7555
uch	-10.7557
▁compounds	-10.756
▁external	-10.7561
=81.5	-10.7568
=84.1	-10.7568
▁comprise	-10.7568
▁Among	-10.7569
▁exposure	-10.7569
▁Out	-10.7575
▁79	-10.7579
▁Sam	-10.7579
▁maturing	-10.7581
▁ro	-10.7583
▁namely	-10.7586
▁indica	-10.7592
=36.2	-10.7596
=36.9	-10.7596
=38.7	-10.7596
=78.1	-10.7596
=80.3	-10.7596
=80.4	-10.7596
=80.8	-10.7596
▁Cotton	-10.7596
eri	-10.7598
ins	-10.7601
▁loan	-10.7607
men	-10.7608
▁detect	-10.7608
ological	-10.7619
=75.1	-10.7624
=82.6	-10.7624
▁dissemination	-10.7624
▁RABI	-10.7625
▁96	-10.7625
▁integration	-10.7625
rit	-10.7626
sur	-10.7628
▁IP	-10.763
,500	-10.7641
▁But	-10.7643
▁burning	-10.7644
eet	-10.7645
ile	-10.7646
▁th	-10.7647
▁Anand	-10.7647
=18.0	-10.7651
=79.6	-10.7651
▁Resistant	-10.7651
=83.0	-10.7651
▁Avoid	-10.7652
▁desired	-10.7652
▁Mu	-10.7653
ft	-10.7655
▁pain	-10.7659
▁Rainfed	-10.766
▁document	-10.7674
▁spring	-10.7674
▁Micro	-10.7676
▁Higher	-10.7677
▁2010	-10.7678
=75.5	-10.7679
=76.2	-10.7679
▁Aquaculture	-10.7679
▁neck	-10.768
▁undertaken	-10.7681
▁furrows	-10.7682
▁larger	-10.7688
hor	-10.7691
▁values	-10.7696
▁dr	-10.7698
▁moth	-10.77
▁sap	-10.7705
=38.0	-10.7707
=38.2	-10.7707
▁jaggery	-10.7707
▁gave	-10.7711
▁82	-10.7715
▁paper	-10.7725
art	-10.7726
▁depends	-10.7726
▁Senior	-10.7731
▁Insect	-10.7735
=84.6	-10.7735
▁edible	-10.7735
▁entry	-10.7735
▁viable	-10.7739
aadd	-10.7744
ES	-10.7745
▁Chairman	-10.7745
garh	-10.7749
▁determine	-10.7754
▁Economic	-10.7756
▁Genetic	-10.7757
=75.4	-10.7763
=82.1	-10.7763
▁Design	-10.7763
=36.0	-10.7763
▁Associate	-10.7772
ess	-10.7773
▁Telugu	-10.7773
aattiioonn	-10.7773
▁pointed	-10.7784
▁names	-10.7788
=78.3	-10.7792
▁company	-10.7792
▁minimizing	-10.7792
▁robust	-10.7792
▁thrips	-10.7792
▁fire	-10.7794
▁5.0	-10.7795
5.0	-10.7801
▁adult	-10.7803
▁ATARI	-10.7804
ini	-10.7816
=35.8	-10.782
=38.1	-10.782
=39.9	-10.782
rate	-10.7822
▁mud	-10.7826
▁Good	-10.7826
▁consider	-10.7831
▁Per	-10.7831
anda	-10.7837
▁contributed	-10.7839
▁Price	-10.784
enn	-10.7845
▁spreading	-10.7848
▁university	-10.7848
▁ventilation	-10.7848
▁composition	-10.7848
▁Improvement	-10.7849
ARme	-10.7849
▁Manipur	-10.7849
▁strategic	-10.785
▁institutional	-10.7857
vii	-10.7873
=82.9	-10.7876
▁replied	-10.7876
▁Rabi	-10.7878
▁hence	-10.7879
▁87	-10.788
▁cha	-10.7898
▁book	-10.7899
=77.6	-10.7905
=83.8	-10.7905
=77.0	-10.7905
▁004	-10.7908
▁upper	-10.7915
ira	-10.7916
▁IV	-10.7921
=35.4	-10.7934
=35.6	-10.7934
=38.9	-10.7934
=39.3	-10.7934
=39.6	-10.7934
=78.9	-10.7934
▁steel	-10.7934
▁Similarly	-10.7935
rid	-10.7942
▁promoted	-10.7944
ua	-10.7948
▁monitor	-10.7949
jan	-10.7951
=82.8	-10.7962
▁coverage	-10.7964
▁minor	-10.7965
▁ra	-10.7965
▁curling	-10.7971
▁Goat	-10.7976
ory	-10.7977
2)	-10.7977
jo	-10.7981
▁standing	-10.7988
=39.8	-10.7991
=83.5	-10.7991
▁mechanization	-10.7991
adi	-10.7992
▁direction	-10.7995
▁Marathi	-10.7996
les	-10.8002
xx	-10.8005
ement	-10.8007
▁Bhopal	-10.802
▁livelihoods	-10.8022
▁900	-10.8024
▁03	-10.8032
▁boron	-10.8032
▁Its	-10.8033
▁hole	-10.8037
▁periods	-10.8037
▁20%	-10.8039
▁generate	-10.8043
4.8	-10.8043
▁Sector	-10.8049
▁China	-10.8049
ov	-10.805
▁rang	-10.8051
▁DDG	-10.8054
▁rose	-10.8054
▁91	-10.8057
▁Capacity	-10.8057
▁equivalent	-10.8059
▁retain	-10.8064
ese	-10.8065
▁trace	-10.8071
▁si	-10.8073
=76.8	-10.8078
▁From	-10.8079
▁DAT	-10.808
are	-10.8082
▁160	-10.8087
EC	-10.8094
▁course	-10.8105
=77.5	-10.8107
▁shrub	-10.8107
▁sheath	-10.8107
▁cells	-10.8121
▁eastern	-10.8126
▁ar	-10.8127
▁sea	-10.8136
=79.4	-10.8136
=81.4	-10.8136
▁Dry	-10.8146
▁indications	-10.8148
▁longer	-10.815
▁custom	-10.8154
=81.0	-10.8165
▁emphasis	-10.8165
=78.0	-10.8165
=8.7	-10.8165
▁profitable	-10.8167
▁coastal	-10.8167
▁april	-10.817
2.8	-10.8177
▁Mar	-10.8183
▁consumers	-10.8189
▁sale	-10.8191
=84.8	-10.8194
▁Western	-10.8195
▁plus	-10.8196
sc	-10.8201
▁purposes	-10.8205
▁97	-10.8208
▁amounts	-10.8215
▁Enhanc	-10.8224
=82.7	-10.8224
▁failure	-10.8224
osa	-10.8224
▁fuel	-10.8225
▁efficiently	-10.8234
PM	-10.8242
▁gett	-10.8242
▁Sha	-10.8243
▁0.8	-10.8247
=78.8	-10.8253
=84.0	-10.8253
▁rationale	-10.8259
=84.5	-10.8283
=37.0	-10.8283
▁frame	-10.8284
▁table	-10.8293
▁innovation	-10.8299
▁bb	-10.8305
▁fungicides	-10.8309
▁TOTAL	-10.8313
▁removing	-10.8313
▁grading	-10.8313
▁opportunity	-10.8313
▁Chandra	-10.8321
▁rise	-10.8321
▁Station	-10.8322
pal	-10.8328
▁decline	-10.8334
▁forage	-10.8337
▁05	-10.8342
=17.9	-10.8342
=37.3	-10.8342
=75.6	-10.8342
=81.6	-10.8342
▁Bordeaux	-10.8342
▁uneven	-10.8343
▁enterprise	-10.8351
▁joint	-10.8352
▁Yes	-10.8352
▁15-20	-10.8353
uff	-10.8363
3.5	-10.8367
3.6	-10.8369
▁choice	-10.8372
cost	-10.8372
gun	-10.8374
bor	-10.8376
5,000	-10.8376
ST	-10.8378
▁Hon	-10.838
▁channels	-10.8382
▁insecticides	-10.8387
▁Due	-10.8388
▁advise	-10.8393
olo	-10.8393
bit	-10.8396
▁ccoo	-10.8397
▁ko	-10.8397
▁Up	-10.84
=75.8	-10.8402
=76.0	-10.8402
▁Coimbatore	-10.8402
▁Varanasi	-10.8402
▁Ahmednagar	-10.8402
▁Feb	-10.8405
▁III	-10.8408
▁buffaloes	-10.8409
▁us	-10.8413
▁Nagar	-10.8414
brown	-10.8422
season	-10.8422
head	-10.8424
▁experts	-10.8428
▁80%	-10.843
=77.1	-10.8432
=78.2	-10.8432
=84.9	-10.8432
▁Kufri	-10.8432
▁characterized	-10.8432
▁Hisar	-10.8433
▁stocking	-10.8436
▁indicate	-10.8442
4.5	-10.8443
tive	-10.8456
▁Rahuri	-10.8462
▁Zonal	-10.8462
▁lentil	-10.8462
▁Gandhiji	-10.8463
▁follows	-10.8463
▁2021-22	-10.8463
mmenetn	-10.8463
▁structural	-10.8464
=17.7	-10.8464
▁functions	-10.8467
▁Timely	-10.8469
▁trans	-10.8472
rea	-10.8478
▁Inter	-10.8479
▁text	-10.848
▁Bengali	-10.8485
▁fishes	-10.8485
▁pa	-10.8486
ric	-10.8488
san	-10.849
▁Bi	-10.849
cha	-10.8491
=81.7	-10.8493
=83.3	-10.8493
▁excellent	-10.8493
▁Har	-10.85
ode	-10.85
IP	-10.8502
▁eliminate	-10.8503
▁Scientific	-10.8504
off	-10.8508
oi	-10.8508
▁platform	-10.851
set	-10.8511
▁cc	-10.8511
sts	-10.8516
▁herbicides	-10.8522
=75.2	-10.8523
=80.2	-10.8523
▁Collection	-10.8524
▁im	-10.8529
▁sequence	-10.8533
vI	-10.8538
▁quick	-10.8546
SA	-10.8546
▁mi	-10.8547
▁Deputy	-10.8553
▁ooze	-10.8553
▁profile	-10.8553
▁spike	-10.8553
▁seaweed	-10.8553
▁internal	-10.8554
▁uptake	-10.8554
▁promptly	-10.8555
RR	-10.8557
▁Lo	-10.856
▁stable	-10.8564
nic	-10.8567
chemical	-10.8574
=75.7	-10.8584
▁personnel	-10.8584
▁move	-10.8584
▁participation	-10.8584
=17.2	-10.8587
▁rest	-10.8589
▁numbers	-10.8591
▁adjust	-10.86
cop	-10.8608
=76.3	-10.8614
▁Fresh	-10.8614
▁Izatnagar	-10.8614
▁teaching	-10.8614
▁employees	-10.8614
▁adaptability	-10.8615
▁@1	-10.8615
▁build	-10.8616
▁classic	-10.8621
▁synthetic	-10.8622
.47	-10.8624
ries	-10.8625
▁She	-10.8627
▁5-6	-10.8627
▁she	-10.8629
▁gall	-10.8641
ger	-10.8644
▁Bangalore	-10.8645
=8.9	-10.8645
▁classification	-10.8645
▁dwarf	-10.8647
▁rotting	-10.8652
ious	-10.8662
▁quintal	-10.8664
▁Plants	-10.8669
▁enabl	-10.867
▁linkages	-10.8675
comp	-10.8675
=76.9	-10.8676
=95.1	-10.8676
▁pollution	-10.8676
▁huge	-10.8676
▁backyard	-10.8676
dependent	-10.8678
ham	-10.8679
▁face	-10.8683
▁Days	-10.8684
ble	-10.8693
=37.4	-10.8707
▁east	-10.8707
=17.5	-10.871
▁extraction	-10.8712
▁Aug	-10.8718
su	-10.872
AB	-10.8721
▁2.8	-10.8724
▁cereal	-10.8726
▁choose	-10.8734
4.4	-10.8735
▁Most	-10.8736
▁avail	-10.8736
▁Women	-10.8738
=80.0	-10.8738
▁ad	-10.874
▁meters	-10.8746
▁metals	-10.8747
▁repellent	-10.8756
▁Officer	-10.8761
▁tr	-10.8762
=38.8	-10.8769
=39.1	-10.8769
=98.7	-10.8769
▁infiltration	-10.8769
=85.0	-10.8769
▁healing	-10.8769
▁aarree	-10.8769
▁validation	-10.8769
▁pink	-10.877
▁thoroughly	-10.8771
3.1	-10.8773
▁dissolved	-10.8775
PS	-10.8775
▁did	-10.8775
▁Onion	-10.8784
▁115	-10.8785
▁functional	-10.8795
▁04	-10.8797
=81.1	-10.88
=82.5	-10.88
ned	-10.8801
▁AP	-10.8802
▁capital	-10.8804
5%)	-10.8809
sti	-10.8813
kha	-10.8815
tation	-10.8823
iitt	-10.8824
▁acids	-10.8824
ood	-10.8826
▁industrial	-10.8828
▁stomach	-10.8829
▁2009	-10.883
TL	-10.883
=39.5	-10.8831
▁families	-10.8831
▁operating	-10.8831
▁Ltd	-10.8831
▁relationship	-10.8831
▁lo	-10.8832
▁Fruits	-10.8833
▁accounts	-10.8842
▁lits	-10.8842
▁fallow	-10.8846
▁140	-10.8849
3.4	-10.8852
hhaa	-10.8858
▁Results	-10.8862
▁website	-10.8862
▁110012	-10.8863
ever	-10.8865
▁altitude	-10.887
▁inhibit	-10.8871
▁chicks	-10.888
▁mechanisms	-10.8881
ward	-10.8885
▁subsequent	-10.8886
▁stand	-10.8888
=36.4	-10.8894
▁Contact	-10.8894
▁firm	-10.8894
▁2015-16	-10.8894
▁Selection	-10.8896
4.7	-10.8897
▁specialization	-10.8897
▁productive	-10.8897
▁Dis	-10.8898
▁Goa	-10.8905
vvee	-10.8906
ze	-10.8908
Himachal	-10.8921
borax	-10.8921
▁FAO	-10.8923
▁certification	-10.8925
▁diagnosis	-10.8926
▁die	-10.893
▁email	-10.8934
endra	-10.8935
▁BB	-10.8935
aw	-10.8939
sstt	-10.8941
▁though	-10.8945
▁upto	-10.8947
▁items	-10.8949
▁Li	-10.8949
▁Village	-10.8957
▁communication	-10.8957
month	-10.8958
yard	-10.8965
▁reasonabl	-10.8965
AT	-10.897
otic	-10.8976
▁Stem	-10.8977
▁separate	-10.8977
▁substantial	-10.8982
▁hour	-10.8982
MM	-10.8982
pid	-10.8984
ound	-10.8987
=79.9	-10.8989
=84.3	-10.8989
▁Kolkata	-10.8989
ool	-10.8995
▁Such	-10.9007
3.8	-10.9012
ible	-10.9012
▁1500	-10.902
▁pigeon	-10.902
=17.1	-10.9021
▁Chemical	-10.9021
▁Precision	-10.9021
▁Survey	-10.9021
=8.8	-10.9021
▁canopy	-10.9021
▁bending	-10.9021
▁implementing	-10.903
▁hectares	-10.903
aceae	-10.9034
pot	-10.9035
hil	-10.9035
▁Ref	-10.9039
▁step	-10.9044
=74.2	-10.9053
=81.3	-10.9053
▁Nagpur	-10.9053
▁CSV	-10.9053
▁night	-10.9054
=17.3	-10.9054
bal	-10.9058
▁lot	-10.9059
ans	-10.9059
▁Sugarcane	-10.9059
▁1.25	-10.9059
▁lodging	-10.9064
▁fishing	-10.907
effective	-10.9082
Maharashtra	-10.9083
▁800	-10.9083
=37.1	-10.9085
=67.9	-10.9085
▁write	-10.9085
▁Bhawan	-10.9085
▁mal	-10.9086
hara	-10.9089
▁seven	-10.9091
▁extreme	-10.9092
▁producer	-10.9103
▁cuttings	-10.9104
gaon	-10.9106
dra	-10.9107
▁TT	-10.9107
▁mu	-10.9109
▁adverse	-10.9109
▁plantations	-10.9115
oon	-10.9116
=98.5	-10.9117
▁approval	-10.9117
▁Basmati	-10.9117
ona	-10.9123
▁optimize	-10.9125
8.2	-10.9133
▁question	-10.914
▁understanding	-10.9141
▁171	-10.9144
culture	-10.9145
=39.4	-10.9149
=60.6	-10.9149
=81.9	-10.9149
▁online	-10.9151
SOR	-10.9151
▁concentrations	-10.9158
apply	-10.9159
▁pass	-10.917
▁live	-10.9173
=99.4	-10.9181
karnataka	-10.9181
▁constant	-10.9181
▁krishi	-10.9181
▁molecular	-10.9181
▁starch	-10.9181
-30	-10.9184
▁tool	-10.9186
▁manager	-10.9189
▁kh	-10.9198
▁path	-10.9199
▁cane	-10.9204
▁Grow	-10.9205
▁Na	-10.9207
now	-10.9212
-100	-10.9213
=65.1	-10.9214
=77.2	-10.9214
=86.9	-10.9214
=87.9	-10.9214
=98.9	-10.9214
▁spider	-10.9214
▁(2000)	-10.9215
SO	-10.9215
aran	-10.9216
mun	-10.9216
▁dap	-10.9221
dia	-10.9221
▁tall	-10.9222
7.2	-10.9224
▁container	-10.9226
▁extended	-10.9231
▁89	-10.9231
ank	-10.9233
▁Tri	-10.9233
mil	-10.9234
by	-10.9235
▁occur	-10.9237
▁ft	-10.9238
▁PG	-10.9246
▁odisha	-10.9246
Agricultural	-10.9247
▁texture	-10.9261
▁collect	-10.9263
▁40%	-10.9264
▁Mr	-10.9266
▁conserve	-10.927
ire	-10.9271
oot	-10.9275
rri	-10.9275
▁2003	-10.9276
▁varied	-10.9279
Orissa	-10.928
▁susceptible	-10.928
▁workers	-10.9289
▁brand	-10.9289
700	-10.9298
▁93	-10.9301
▁Service	-10.9304
▁u	-10.9304
1.8	-10.9307
sia	-10.9309
=85.6	-10.9312
▁varies	-10.9313
▁2004	-10.9316
▁San	-10.9322
▁except	-10.9329
▁Seeds	-10.9334
▁Fertilizer	-10.9338
▁tonic	-10.9339
▁strength	-10.9341
▁Bas	-10.9341
sel	-10.9342
=38.4	-10.9345
=81.8	-10.9345
=99.5	-10.9345
=99.7	-10.9345
▁kernel	-10.9345
▁NEH	-10.9345
▁gender	-10.9349
▁Model	-10.9349
▁property	-10.9349
cle	-10.9352
ttiioonn	-10.9355
▁En	-10.9355
ern	-10.9356
ssoo	-10.9361
▁adapt	-10.9362
1.2	-10.9372
▁categories	-10.9378
▁insurance	-10.9378
nath	-10.9378
▁Meghalaya	-10.9379
▁IInn	-10.9382
ou	-10.9382
▁said	-10.9385
▁Root	-10.9389
▁completed	-10.9395
▁inorganic	-10.9401
=17.8	-10.9411
=98.4	-10.9411
▁convert	-10.9411
▁Recommendations	-10.9413
▁Key	-10.9421
1)	-10.9424
▁Ab	-10.9426
▁erect	-10.9426
▁hrs	-10.9427
▁ll	-10.944
▁refer	-10.9441
▁reproduction	-10.9444
▁Harvesting	-10.9446
▁nano	-10.9465
▁close	-10.9466
▁researchers	-10.9469
=17.6	-10.9477
=63.6	-10.9477
=66.6	-10.9477
=67.1	-10.9477
=68.3	-10.9477
=69.5	-10.9477
=69.9	-10.9477
▁Jabalpur	-10.9477
▁fungus	-10.9477
▁dilute	-10.9478
▁survival	-10.9478
▁dietary	-10.9479
compost	-10.9481
▁monthly	-10.9488
dis	-10.949
▁Chilli	-10.9492
▁sprinklers	-10.9494
▁newly	-10.9498
ulation	-10.9504
▁grape	-10.9504
=62.7	-10.9511
=87.6	-10.9511
▁bottom	-10.9511
cus	-10.9511
▁index	-10.9511
dh	-10.9514
borne	-10.9515
▁gardens	-10.9522
▁Bureau	-10.9522
▁team	-10.9531
▁rs	-10.9532
pr	-10.9535
▁double	-10.9536
ku	-10.9539
yan	-10.9544
=94.3	-10.9544
=75.0	-10.9545
▁accessions	-10.9546
▁establishing	-10.9546
The	-10.9551
.67	-10.9557
▁slow	-10.9563
▁Sri	-10.9569
▁tanks	-10.9572
2.1	-10.9572
▁challenge	-10.9572
ler	-10.9573
▁objectives	-10.9577
=68.6	-10.9578
=73.2	-10.9578
=89.8	-10.9578
▁society	-10.9578
▁pseudostem	-10.9578
▁minimal	-10.9578
▁Each	-10.9583
.92	-10.9588
▁tillering	-10.9588
▁annually	-10.9589
▁aall	-10.9598
we	-10.9601
▁NAARM	-10.9606
▁becomes	-10.9607
▁trend	-10.9607
aamm	-10.9612
=5.3	-10.9612
=71.4	-10.9612
▁evaporation	-10.9612
▁vector	-10.9612
▁Pune	-10.9612
▁Bacterial	-10.9613
▁Mizoram	-10.9613
▁smut	-10.9616
pusa	-10.9618
▁0.05	-10.9623
▁organisms	-10.9625
▁fast	-10.9627
▁1-2	-10.9631
▁strain	-10.9631
hir	-10.9639
ves	-10.9644
▁hid	-10.9645
=71.6	-10.9646
▁Global	-10.9646
▁Groundnut	-10.9646
▁kendra	-10.9647
proved	-10.9648
▁fishery	-10.965
low	-10.9652
IL	-10.9655
rot	-10.9659
▁Finance	-10.966
▁produces	-10.9665
▁reference	-10.9665
bar	-10.9666
▁encourage	-10.9666
▁destroy	-10.9666
▁pump	-10.9671
▁extensive	-10.9672
9.4	-10.9675
▁fund	-10.9678
ommercialization	-10.9678
=71.0	-10.968
=71.5	-10.968
=78.4	-10.968
=98.2	-10.968
=99.6	-10.968
▁Vidyapeeth	-10.968
▁genome	-10.968
▁digestion	-10.968
▁Dhan	-10.9681
press	-10.9682
lan	-10.9682
▁car	-10.9684
▁1250	-10.9684
lloo	-10.9684
▁spine	-10.9687
▁cor	-10.9689
▁analyze	-10.9694
4.9	-10.9695
▁constituent	-10.9709
▁ble	-10.9712
▁prior	-10.9712
spect	-10.9713
=72.7	-10.9714
=87.0	-10.9714
▁Venue	-10.9714
▁Union	-10.972
isation	-10.9725
yielding	-10.9725
lus	-10.9726
2.2	-10.973
▁miner	-10.9737
▁Nutrition	-10.9741
▁Gujarati	-10.9742
=67.6	-10.9748
=73.5	-10.9748
=99.0	-10.9748
▁sludge	-10.9748
▁PFMS	-10.9748
▁prescribed	-10.9749
▁dryland	-10.9752
una	-10.9764
eess	-10.9765
▁bone	-10.9767
150	-10.9772
▁negative	-10.9775
mma	-10.9778
=60.9	-10.9783
=97.4	-10.9783
▁DG	-10.9788
▁Malayalam	-10.9789
▁composting	-10.9794
PP	-10.9796
▁blue	-10.98
▁disciplines	-10.98
▁experiments	-10.9805
ati	-10.981
▁web	-10.9812
▁CROP	-10.9814
▁aim	-10.9816
=61.9	-10.9817
=62.4	-10.9817
=68.2	-10.9817
=8.6	-10.9817
=82.3	-10.9817
=99.3	-10.9817
▁White	-10.9817
▁always	-10.9817
▁alone	-10.982
▁IVRI	-10.9825
spray	-10.9825
▁patterns	-10.9828
▁Line	-10.9831
worm	-10.9834
var	-10.9834
▁rec	-10.9843
▁My	-10.9847
▁partnership	-10.9848
=64.4	-10.9852
=74.7	-10.9852
=88.1	-10.9852
▁Maturity	-10.9852
▁engineering	-10.9852
▁Also	-10.9852
ade	-10.9859
.74	-10.9862
▁cum	-10.987
ker	-10.9871
▁foods	-10.9872
▁onset	-10.9873
FP	-10.9874
▁funding	-10.9881
▁big	-10.9881
▁Method	-10.9882
more	-10.9885
=66.2	-10.9886
=87.4	-10.9886
=73.0	-10.9886
▁likely	-10.9888
=17.0	-10.9889
▁station	-10.9898
▁Com	-10.9898
▁sucking	-10.9899
▁cash	-10.9901
▁reasons	-10.991
▁agronomic	-10.9915
▁dual	-10.9915
=17.4	-10.9921
▁THE	-10.9921
▁Tr	-10.9924
nc	-10.9925
▁laid	-10.9925
▁boiled	-10.9926
▁tt	-10.9929
▁waterlogging	-10.993
▁Many	-10.9936
MR	-10.9937
uunn	-10.9941
▁fact	-10.9942
▁irrigate	-10.9947
▁Marketing	-10.9949
-40	-10.9952
▁events	-10.9953
-24	-10.9956
=65.5	-10.9956
=66.5	-10.9956
=68.5	-10.9956
=85.7	-10.9956
=86.3	-10.9956
=91.8	-10.9956
▁Brinjal	-10.9956
=68.0	-10.9956
=8.5	-10.9956
▁bbyy	-10.9957
▁heart	-10.9958
andi	-10.997
oids	-10.9972
1.1	-10.9973
▁President	-10.9974
RC	-10.9975
ark	-10.9984
uru	-10.9988
▁devices	-10.9989
▁bird	-10.9989
▁band	-10.999
=69.8	-10.9991
▁companies	-10.9991
▁expansion	-10.9991
=69.0	-10.9991
▁discloser	-10.9991
af	-10.9992
▁221	-10.9995
▁informed	-11.0001
▁94	-11.0002
▁worms	-11.0008
.01	-11.0011
▁raise	-11.0018
▁6.0	-11.0019
▁700	-11.002
=67.8	-11.0026
=70.3	-11.0026
=74.3	-11.0026
=96.2	-11.0026
=96.3	-11.0026
=98.8	-11.0026
▁Lucknow	-11.0026
▁variability	-11.0026
▁creation	-11.0027
▁ultimately	-11.0028
▁CSH	-11.0032
8%	-11.0033
▁physiological	-11.0036
▁HD	-11.004
▁completely	-11.0043
.39	-11.0049
how	-11.0051
=61.8	-11.0062
=63.9	-11.0062
=71.2	-11.0062
=85.4	-11.0062
▁commodities	-11.0062
▁sponge	-11.0062
▁Finger	-11.0062
▁vigya	-11.0063
▁overcome	-11.0064
▁dead	-11.007
▁151	-11.0077
▁SK	-11.0086
▁western	-11.0091
=67.4	-11.0097
=67.7	-11.0097
=89.7	-11.0097
=97.9	-11.0097
▁Different	-11.0097
▁believe	-11.0097
▁road	-11.0099
uli	-11.0105
9.1	-11.0111
ooww	-11.012
ified	-11.0125
▁aid	-11.0125
▁1.4	-11.0128
▁demands	-11.0129
▁RC	-11.013
▁difference	-11.0131
=16.4	-11.0133
=60.7	-11.0133
=68.4	-11.0133
=69.7	-11.0133
=88.3	-11.0133
=88.8	-11.0133
=89.9	-11.0133
▁Yellow	-11.0133
▁decoction	-11.0133
900	-11.0136
▁launched	-11.0136
nia	-11.0139
aal	-11.0141
ttee	-11.015
▁courses	-11.0152
=61.4	-11.0169
=62.6	-11.0169
=66.3	-11.0169
=68.9	-11.0169
=72.8	-11.0169
=73.6	-11.0169
=99.2	-11.0169
=99.9	-11.0169
▁reproductive	-11.0169
▁foster	-11.0169
▁marine	-11.017
▁consumed	-11.0172
▁Market	-11.0176
▁quickly	-11.0178
▁SC	-11.018
▁detail	-11.019
▁du	-11.0194
▁crores	-11.0195
▁gives	-11.0195
▁Implement	-11.0202
=63.8	-11.0204
=87.1	-11.0204
=98.3	-11.0204
fil	-11.0204
▁Incubation	-11.0205
▁priority	-11.0205
▁grafting	-11.0211
most	-11.0214
▁20.00	-11.022
IN	-11.0222
▁Oil	-11.0223
▁lakhs	-11.0229
▁101	-11.0232
▁look	-11.0233
=66.9	-11.024
=70.4	-11.024
=95.7	-11.024
▁evidence	-11.024
▁novel	-11.0242
▁centers	-11.0244
▁damaged	-11.0244
▁pieces	-11.0252
▁gum	-11.0252
Introduction	-11.0254
▁Mi	-11.0254
▁Acacia	-11.0255
▁pen	-11.0259
▁falling	-11.026
▁2017-18	-11.0262
▁works	-11.0266
▁Spraying	-11.0268
▁person	-11.0273
▁30%	-11.0274
▁break	-11.0276
=90.2	-11.0276
nna	-11.0278
▁Vegetables	-11.028
uni	-11.0281
▁dam	-11.0284
ify	-11.0288
▁situations	-11.0289
products	-11.0295
▁flat	-11.0297
ccee	-11.0298
▁scientist	-11.03
ration	-11.0304
▁grows	-11.0305
▁Time	-11.0305
▁met	-11.0309
▁Public	-11.031
=86.7	-11.0313
▁actual	-11.0313
▁extra	-11.0314
▁functioning	-11.0321
▁Va	-11.0329
▁Ca	-11.033
▁environments	-11.0331
▁HI	-11.0345
▁Pea	-11.0346
=74.6	-11.0349
▁frequency	-11.0349
▁rapeseed	-11.0349
▁TNAU	-11.0349
=66.0	-11.0349
TS	-11.035
▁Reddy	-11.035
▁2023-24	-11.035
▁consideration	-11.0351
▁25-30	-11.0352
▁relation	-11.0355
4)	-11.036
▁dressed	-11.037
2.6	-11.0373
▁cage	-11.0377
▁proteins	-11.0382
=60.4	-11.0386
=73.9	-11.0386
▁VCs	-11.0387
▁optimiz	-11.0387
table	-11.0393
▁suffer	-11.0394
ena	-11.0394
▁constituted	-11.0395
Jharkhand	-11.0402
.54	-11.0403
tis	-11.0403
wood	-11.0404
Fig	-11.0406
▁targeted	-11.0411
=64.9	-11.0422
=65.7	-11.0422
=68.7	-11.0422
=69.1	-11.0422
=71.3	-11.0422
▁sometimes	-11.0422
▁submit	-11.0424
▁slightly	-11.0426
▁amino	-11.043
bed	-11.0431
-60	-11.0438
MH	-11.0442
▁ear	-11.0444
▁implements	-11.0446
▁humid	-11.0449
▁2.4	-11.0456
=60.2	-11.0459
=73.8	-11.0459
=89.6	-11.0459
=90.7	-11.0459
▁Complex	-11.0459
▁squash	-11.0459
▁Follow	-11.0459
▁consistency	-11.0459
▁blade	-11.0459
▁cashew	-11.0459
▁mandate	-11.046
▁transportation	-11.0463
▁Ho	-11.0468
▁Current	-11.0488
▁RR	-11.0489
▁Solan	-11.0494
=65.4	-11.0496
=67.2	-11.0496
=67.5	-11.0496
=72.6	-11.0496
=73.7	-11.0496
=74.9	-11.0496
=87.5	-11.0496
=87.7	-11.0496
=88.2	-11.0496
=88.9	-11.0496
▁Building	-11.0496
▁sesame	-11.0496
=98.0	-11.0496
▁suitability	-11.0496
▁thrice	-11.0497
=16.5	-11.0499
▁Long	-11.0499
▁bulb	-11.0505
MV	-11.0505
▁dimensions	-11.0507
▁employed	-11.0508
▁1:1	-11.0508
house	-11.0514
▁got	-11.0515
▁108	-11.0517
iri	-11.0519
▁meetings	-11.0521
▁collecting	-11.0528
=97.1	-11.0533
=99.8	-11.0533
▁stop	-11.0533
▁temperate	-11.0533
=89.0	-11.0533
▁plans	-11.0535
▁Systems	-11.0537
PD	-11.0548
Jammu	-11.0551
.31	-11.0553
▁5.00	-11.0554
air	-11.0561
cel	-11.0569
=70.8	-11.057
=70.9	-11.057
=71.1	-11.057
=86.6	-11.057
▁Financial	-11.057
▁French	-11.057
ism	-11.057
=16.7	-11.0572
▁2006	-11.0576
▁acts	-11.0578
▁Process	-11.0579
▁experimental	-11.058
▁cy	-11.0581
▁propagation	-11.0582
▁river	-11.0587
▁FPOs	-11.0588
6.0	-11.0592
▁Part	-11.0594
▁2.6	-11.0602
0.6	-11.0602
gh	-11.0607
=69.4	-11.0607
=85.2	-11.0607
=86.1	-11.0607
=89.1	-11.0607
▁Milk	-11.0607
▁submitted	-11.0608
▁decis	-11.061
iivvee	-11.0611
▁determined	-11.0619
▁Kar	-11.0624
2019	-11.0625
▁center	-11.0626
▁plots	-11.0633
mid	-11.064
pen	-11.064
=62.0	-11.0645
=72.0	-11.0645
=91.3	-11.0645
=67.0	-11.0645
▁numerous	-11.0645
▁comparison	-11.0645
2.4	-11.0645
nol	-11.0647
▁para	-11.0648
▁specifically	-11.0649
ential	-11.0655
▁ripe	-11.0657
Re	-11.0658
▁conduct	-11.0661
▁indicates	-11.0662
▁allowed	-11.0665
▁bran	-11.0666
dhi	-11.0666
▁shallow	-11.0667
cct	-11.0679
▁distinct	-11.0682
=65.6	-11.0682
=65.9	-11.0682
=69.2	-11.0682
=96.7	-11.0682
▁Microbial	-11.0682
den	-11.0683
▁image	-11.0686
▁faster	-11.069
▁microorganisms	-11.0692
IV	-11.0693
▁106	-11.0696
RA	-11.0696
top	-11.0697
SP	-11.0709
▁gr	-11.0711
▁2005	-11.0719
=63.5	-11.072
=64.2	-11.072
=64.6	-11.072
=95.6	-11.072
=97.3	-11.072
▁Fodder	-11.072
▁requirment	-11.072
▁scarcity	-11.072
▁Large	-11.072
▁tamil	-11.072
▁Biotechnology	-11.072
▁swelling	-11.0721
-110	-11.0725
▁understand	-11.0729
▁genotypes	-11.0732
allowing	-11.0734
rh	-11.0737
▁DNA	-11.0741
▁clinical	-11.0742
▁evaluate	-11.0749
▁dense	-11.0752
▁member	-11.0754
dry	-11.0755
▁methyl	-11.0756
▁decades	-11.0757
=63.3	-11.0758
=74.1	-11.0758
=86.5	-11.0758
=95.5	-11.0758
=96.9	-11.0758
=97.2	-11.0758
=99.1	-11.0758
▁earlier	-11.0758
▁furadon	-11.0758
▁utilizing	-11.0758
=91.0	-11.0758
▁Moreover	-11.0758
▁Agroforestry	-11.0758
=5.2	-11.0758
▁contaf	-11.0758
▁nadu	-11.076
▁cultivar	-11.0762
▁board	-11.0767
3.2	-11.077
▁procedures	-11.077
cho	-11.0774
▁viruses	-11.0775
▁kar	-11.0776
▁bengal	-11.0796
=71.7	-11.0796
=95.9	-11.0796
▁Faculty	-11.0796
▁enemies	-11.0796
▁surplus	-11.0796
▁Level	-11.0796
▁methane	-11.0796
fen	-11.0797
▁handle	-11.081
▁meal	-11.0816
▁5.5	-11.0817
rol	-11.0819
▁230	-11.0824
nes	-11.0826
oC	-11.0833
=16.3	-11.0834
=61.6	-11.0834
=97.7	-11.0834
=98.1	-11.0834
▁Strategy	-11.0834
▁Laser	-11.0834
▁Cooperation	-11.0834
▁laboratory	-11.0834
▁cough	-11.0836
=15.1	-11.0836
▁nematode	-11.0837
DP	-11.0842
▁0.58	-11.0843
US	-11.0845
▁413	-11.0868
cchh	-11.087
▁Cover	-11.0871
=86.8	-11.0873
=91.4	-11.0873
▁ddaattaa	-11.0873
▁wwitithh	-11.0873
▁Zinc	-11.0873
▁gunny	-11.0873
▁bunds	-11.0873
▁strengthen	-11.0873
oor	-11.0874
▁nearby	-11.0874
▁rather	-11.0874
▁Implementation	-11.0875
▁cracking	-11.0879
▁hilly	-11.0883
▁carry	-11.0883
nut	-11.0892
▁immediate	-11.0903
=65.3	-11.0911
=88.5	-11.0911
=97.8	-11.0911
▁reflect	-11.0911
▁Deep	-11.0912
▁calf	-11.0912
=15.9	-11.0913
▁decisions	-11.0917
▁buds	-11.0925
▁laying	-11.0927
car	-11.093
▁Economics	-11.0935
▁pollination	-11.0936
▁machines	-11.0936
-16	-11.0936
pin	-11.0938
▁ban	-11.094
3.9	-11.0948
▁empower	-11.0949
=90.1	-11.095
=96.4	-11.095
▁variable	-11.095
▁speed	-11.095
fish	-11.095
▁Amrit	-11.0953
ommunicated	-11.0956
hang	-11.0958
▁stands	-11.0963
▁continued	-11.0963
phos	-11.0972
▁burn	-11.0978
5.2	-11.0982
=61.7	-11.0988
=66.1	-11.0988
▁poverty	-11.0988
▁children	-11.0988
▁foreign	-11.0989
▁fla	-11.0989
▁loose	-11.0993
▁mar	-11.0993
▁Nutritional	-11.0997
▁toxic	-11.0998
▁ddee	-11.0998
▁Centres	-11.1016
rop	-11.1018
▁sciences	-11.1019
▁avoided	-11.102
=63.2	-11.1027
=95.2	-11.1027
▁alcohol	-11.1027
▁subsidy	-11.1027
▁mites	-11.1028
▁standardized	-11.1029
oma	-11.103
ult	-11.1031
▁kan	-11.1034
▁extracted	-11.1038
tta	-11.1038
▁frequently	-11.1041
OR	-11.1043
tight	-11.1053
▁sl	-11.1055
▁KK	-11.1059
-13	-11.106
▁revolution	-11.1061
▁Office	-11.1061
nam	-11.1063
=64.8	-11.1066
=87.2	-11.1066
=90.9	-11.1066
=92.7	-11.1066
=97.5	-11.1066
▁shrimp	-11.1066
▁proportion	-11.1066
▁govt	-11.1066
▁Ensure	-11.1066
▁zero	-11.1066
6.5	-11.1071
▁emerged	-11.1071
▁expert	-11.1071
▁suited	-11.1075
iicc	-11.1081
▁parasitic	-11.1082
▁cont	-11.1089
▁lac	-11.1091
▁kilograms	-11.1096
▁Departments	-11.11
vit	-11.1105
=64.5	-11.1106
=74.4	-11.1106
=91.1	-11.1106
=92.0	-11.1106
▁Digital	-11.1106
▁Skill	-11.1106
=96.0	-11.1106
=97.0	-11.1106
▁Effective	-11.1106
rib	-11.1108
value	-11.1109
ela	-11.111
▁ten	-11.1111
ract	-11.1123
arabia	-11.1134
▁assist	-11.1134
▁instructions	-11.1135
▁gain	-11.1138
▁Feed	-11.1144
=62.3	-11.1145
=66.4	-11.1145
▁flavour	-11.1145
▁blocks	-11.1145
=61.0	-11.1145
=5.1	-11.1145
8.4	-11.1148
▁ku	-11.1154
▁2303	-11.1165
▁Kisan	-11.1166
atch	-11.1166
▁dd	-11.1177
▁Success	-11.1184
=66.8	-11.1184
=90.3	-11.1184
=98.6	-11.1184
▁cardamom	-11.1184
=74.0	-11.1185
▁Benefits	-11.1185
BS	-11.1189
▁constructed	-11.119
▁bur	-11.119
▁aims	-11.1192
ND	-11.1193
ida	-11.1193
▁90%	-11.1196
▁0.1	-11.1198
ron	-11.1206
▁sold	-11.1206
ef	-11.1209
pan	-11.1211
=66.7	-11.1224
=86.2	-11.1224
=87.3	-11.1224
▁marigold	-11.1224
▁vertical	-11.1224
=15.2	-11.1227
▁Cu	-11.1227
▁UP	-11.1228
rti	-11.1233
▁injection	-11.1234
▁color	-11.1239
▁pits	-11.124
▁Nov	-11.1244
▁concentrate	-11.1255
▁habit	-11.1258
8.8	-11.1262
=65.2	-11.1264
=90.5	-11.1264
=93.6	-11.1264
=96.5	-11.1264
▁implications	-11.1264
▁profex	-11.1264
▁Productivity	-11.1264
▁impart	-11.1264
▁Single	-11.1264
▁Three	-11.1265
▁portable	-11.1265
▁nos	-11.1268
udi	-11.1271
▁Himalayas	-11.1272
▁hydro	-11.1282
▁posts	-11.1284
▁until	-11.1287
▁Da	-11.1288
▁Remove	-11.129
CA	-11.1294
ake	-11.1295
▁advance	-11.1302
=72.9	-11.1304
=85.1	-11.1304
=85.5	-11.1304
=96.1	-11.1304
▁accumulation	-11.1304
CIFA	-11.1305
▁here	-11.1305
▁departments	-11.1307
Ma	-11.1311
▁350	-11.1317
van	-11.1328
▁delay	-11.1331
▁Du	-11.1338
▁tillers	-11.1339
▁try	-11.1339
=61.2	-11.1344
=62.1	-11.1344
=68.8	-11.1344
=72.3	-11.1344
=89.3	-11.1344
=86.0	-11.1344
▁Medium	-11.1348
▁record	-11.1349
eas	-11.1352
▁ccrroopp	-11.1355
com	-11.1357
▁seasonal	-11.1358
▁perform	-11.1364
▁Journal	-11.1371
▁discussed	-11.1375
▁Document	-11.1382
▁Ag	-11.1383
=69.6	-11.1384
=70.1	-11.1384
=70.2	-11.1384
=74.5	-11.1384
=93.8	-11.1384
=95.8	-11.1384
▁Protein	-11.1384
▁dysentery	-11.1384
▁rootstock	-11.1384
▁Protection	-11.1385
became	-11.1385
▁curing	-11.1386
▁Patel	-11.1386
▁stick	-11.1387
▁Documentation	-11.1387
▁MoU	-11.1388
▁beetles	-11.139
▁pair	-11.1394
▁sheet	-11.1396
ID	-11.1417
=15.5	-11.1425
=60.8	-11.1425
=96.6	-11.1425
=97.6	-11.1425
▁Pulses	-11.1425
▁comprising	-11.1425
▁radius	-11.1425
▁Period	-11.1425
▁Work	-11.1425
▁sharing	-11.1425
▁bunch	-11.1425
TT	-11.1428
▁protective	-11.1434
▁living	-11.1436
▁authors	-11.1437
▁Bt	-11.1438
▁dec	-11.1439
▁Start	-11.1441
▁112	-11.1442
▁trial	-11.1444
▁Account	-11.1445
rude	-11.1451
intensive	-11.1459
▁Manager	-11.146
rad	-11.146
▁Gu	-11.1462
9.6	-11.1466
=63.7	-11.1466
=64.7	-11.1466
=95.3	-11.1466
▁Preparation	-11.1466
▁polythene	-11.1466
▁whether	-11.1466
▁Revolution	-11.1466
▁semen	-11.1466
▁cultivating	-11.1466
▁70%	-11.1467
ump	-11.147
▁Strengthening	-11.1471
▁consumer	-11.1476
ila	-11.1476
▁Pig	-11.1488
hum	-11.1488
ition	-11.1491
PG	-11.1498
▁list	-11.1499
icar	-11.1499
=61.5	-11.1506
=93.3	-11.1506
▁criteria	-11.1506
▁answer	-11.1506
▁procurement	-11.1507
its	-11.1507
▁soluble	-11.1507
▁strip	-11.1512
▁109	-11.1527
▁division	-11.1529
PC	-11.1535
▁suppress	-11.1544
▁operated	-11.1546
▁Of	-11.1547
▁Summer	-11.1547
=5.4	-11.1547
=68.1	-11.1547
=73.4	-11.1547
=87.8	-11.1547
▁Revenue	-11.1547
▁fertilizing	-11.1547
▁fortnight	-11.1547
▁floor	-11.1547
aabblele	-11.1547
▁giving	-11.1548
▁fermentation	-11.1548
ame	-11.1548
▁user	-11.1549
▁imp	-11.1551
ists	-11.1551
▁economically	-11.1557
▁tons	-11.1558
CP	-11.1565
TR	-11.157
▁tteecchhnn	-11.1573
▁bor	-11.1576
pest	-11.1577
october	-11.1582
▁Commission	-11.1583
▁le	-11.1586
▁shift	-11.1588
=15.7	-11.1589
=86.4	-11.1589
▁Sanskrit	-11.1589
▁remote	-11.1589
=94.0	-11.1589
▁calves	-11.1589
▁guide	-11.1589
▁uniformity	-11.1592
▁Email	-11.1597
▁leaching	-11.1599
▁111	-11.1599
itis	-11.16
▁majority	-11.1601
rc	-11.1603
▁0.25	-11.1605
▁offering	-11.1605
▁dh	-11.1609
▁lateral	-11.1611
ware	-11.1613
mul	-11.1624
▁horse	-11.1626
▁Lal	-11.1628
=71.9	-11.163
=72.1	-11.163
=72.2	-11.163
=94.4	-11.163
▁middle	-11.163
▁exotic	-11.163
▁rat	-11.1631
▁desi	-11.1635
bio	-11.1642
▁latest	-11.1647
ably	-11.1652
istic	-11.1653
▁bananas	-11.1655
▁logging	-11.1656
rai	-11.1663
char	-11.1669
ifi	-11.1671
=16.2	-11.1671
=88.6	-11.1671
▁Coconut	-11.1671
▁Independence	-11.1671
▁nutritious	-11.1671
▁terminal	-11.1672
▁Storage	-11.1672
▁crown	-11.1672
=16.0	-11.1674
▁DAS	-11.1676
▁helpful	-11.1677
unit	-11.1678
▁module	-11.1681
▁encouraged	-11.1682
▁performed	-11.1685
▁banks	-11.1686
owing	-11.1693
▁holes	-11.1694
phal	-11.1695
uur	-11.1696
tityy	-11.1696
▁BC	-11.1698
▁Mob	-11.171
ET	-11.1711
▁Editor	-11.1713
▁plough	-11.1713
=72.4	-11.1713
=74.8	-11.1713
▁Answer	-11.1713
▁Cuttack	-11.1713
▁Release	-11.1713
▁wastage	-11.1713
▁polyhouse	-11.1713
▁employ	-11.1716
▁grasses	-11.1729
▁decomposed	-11.1731
▁75%	-11.1732
1.4	-11.1735
0.4	-11.1736
▁Bo	-11.174
▁operate	-11.1746
▁Products	-11.1746
▁drain	-11.1754
=63.4	-11.1755
=85.8	-11.1755
▁surrounding	-11.1755
▁wait	-11.1755
▁Mobile	-11.1755
▁Kanpur	-11.1758
▁Saline	-11.1759
AP	-11.1764
▁drug	-11.1766
aka	-11.1766
▁combined	-11.1768
▁incorporated	-11.1771
▁decreased	-11.1771
▁continuously	-11.1773
▁DKMA	-11.1773
▁call	-11.1786
▁purchase	-11.1788
▁Hill	-11.1794
tia	-11.1795
=88.0	-11.1797
▁Identification	-11.1797
▁border	-11.1797
▁transformation	-11.1798
▁Role	-11.1805
▁apart	-11.1806
▁hormone	-11.1808
back	-11.1809
anna	-11.1814
net	-11.1817
ock	-11.1827
▁Schedule	-11.183
▁4.0	-11.1836
efficient	-11.1837
hr	-11.1837
=67.3	-11.1839
=70.5	-11.1839
=94.5	-11.1839
▁Dissolve	-11.1839
▁easier	-11.1839
▁cooking	-11.1839
▁participatory	-11.184
▁installation	-11.184
wan	-11.1845
▁checks	-11.1846
▁discussion	-11.1855
vel	-11.1856
▁forests	-11.1857
▁5-7	-11.1859
▁1.6	-11.1862
▁IISR	-11.1866
▁Districts	-11.187
▁savings	-11.1871
MA	-11.1874
▁Trans	-11.1881
=62.8	-11.1881
=93.4	-11.1881
=95.0	-11.1881
▁diuretic	-11.1881
▁residual	-11.1881
▁prefer	-11.1883
▁earthen	-11.1883
=16.6	-11.1885
spite	-11.1885
MC	-11.1895
-80	-11.1895
▁2.1	-11.1895
.41	-11.1898
0.1	-11.1898
jacket	-11.1899
▁deliver	-11.1904
oe	-11.1905
related	-11.191
bra	-11.1911
▁Industrial	-11.192
fold	-11.1922
=89.4	-11.1924
=89.5	-11.1924
=90.4	-11.1924
=91.5	-11.1924
=92.5	-11.1924
=93.2	-11.1924
▁011-2584	-11.1924
▁coriander	-11.1924
▁gross	-11.1924
▁Cattle	-11.1924
▁widespread	-11.1924
▁Assessment	-11.1924
▁augment	-11.1925
▁outside	-11.1928
▁upland	-11.1928
ppoo	-11.1934
▁Demonstration	-11.1936
▁1.00	-11.1938
por	-11.1943
▁aquatic	-11.1945
sum	-11.1946
▁previous	-11.1959
▁careful	-11.196
▁goal	-11.196
▁Ph	-11.196
▁pure	-11.1965
=88.4	-11.1967
▁Energy	-11.1967
▁digested	-11.1967
▁instead	-11.1967
▁Krishna	-11.1967
▁venture	-11.1967
▁harmful	-11.1967
til	-11.1969
▁Chancellor	-11.1972
▁8-10	-11.1973
que	-11.1973
▁fill	-11.1974
mmi	-11.1975
▁nation	-11.1976
▁GG	-11.1976
▁cons	-11.1976
▁payment	-11.1982
▁450	-11.1988
▁wash	-11.1989
cation	-11.1989
litres	-11.1991
1.6	-11.2002
emp	-11.2003
▁210	-11.2007
llyy	-11.2007
malathion	-11.2008
ras	-11.2009
=15.3	-11.201
=60.3	-11.201
=62.2	-11.201
=93.9	-11.201
=96.8	-11.201
▁Foliar	-11.201
▁sulphur	-11.201
▁(1998)	-11.201
▁Urea	-11.2011
▁attractive	-11.2012
▁recognized	-11.2015
▁seeded	-11.2017
▁grapes	-11.2018
▁king	-11.2018
▁List	-11.202
3.3	-11.2023
para	-11.2025
▁recently	-11.2028
▁described	-11.203
▁2008	-11.204
GR	-11.2041
9.2	-11.2045
▁1.1	-11.2047
▁Multi	-11.2048
▁ecosystems	-11.205
=62.9	-11.2053
=85.3	-11.2053
=85.9	-11.2053
=89.2	-11.2053
=91.6	-11.2053
▁Mahotsav	-11.2053
▁money	-11.2053
=70.0	-11.2053
▁bulk	-11.2053
▁repair	-11.2053
▁phyto	-11.2053
oriented	-11.2054
▁LL	-11.2055
▁Both	-11.2056
▁Environment	-11.2057
bil	-11.2067
▁HH	-11.2067
cious	-11.2076
hri	-11.2079
▁sell	-11.2089
▁formed	-11.2091
soaked	-11.2096
▁Pant	-11.2096
irrigation	-11.2096
=62.5	-11.2096
=64.1	-11.2096
=94.6	-11.2096
▁Mumbai	-11.2096
▁astringent	-11.2096
▁Meeting	-11.2096
▁centimeter	-11.2096
=63.0	-11.2096
▁framework	-11.2096
▁1,000	-11.2103
6.6	-11.2103
▁rep	-11.2104
6.1	-11.2109
▁adapted	-11.2114
vin	-11.2118
-11	-11.2118
▁Ash	-11.2119
win	-11.2126
▁economics	-11.2132
pul	-11.2133
▁oblong	-11.2135
▁nematodes	-11.2136
▁wanted	-11.2137
▁Ja	-11.2139
=64.3	-11.214
=65.8	-11.214
=8.1	-11.214
=94.7	-11.214
=94.8	-11.214
▁sissoo	-11.214
▁tannin	-11.2142
▁MS	-11.2143
▁geographical	-11.2149
▁mah	-11.215
ail	-11.215
FR	-11.2151
▁ripening	-11.2152
▁faced	-11.2152
▁compound	-11.2153
▁07	-11.2172
▁reason	-11.2176
▁vaccines	-11.2179
gin	-11.2182
=73.1	-11.2183
=93.1	-11.2183
▁Marginal	-11.2183
▁deficiencies	-11.2183
▁valley	-11.2183
▁vessel	-11.2183
Uttar	-11.2184
=16.1	-11.2186
eo	-11.2187
aga	-11.2193
7.0	-11.2194
▁09	-11.2196
▁mint	-11.2196
▁proposal	-11.2197
▁Monitor	-11.2198
▁ww	-11.2202
viii	-11.2206
▁selling	-11.2212
aba	-11.2213
way	-11.2214
▁intra	-11.2222
PA	-11.2226
=92.1	-11.2227
=94.9	-11.2227
▁preservation	-11.2227
▁Bharat	-11.2228
▁Coordinator	-11.223
▁engaged	-11.223
▁Series	-11.223
▁suggestions	-11.2232
▁notified	-11.2232
icide	-11.224
wards	-11.224
▁tip	-11.2249
▁splits	-11.2252
▁cucurbits	-11.2253
tam	-11.2255
▁Millet	-11.226
▁drops	-11.226
▁acres	-11.2265
▁30.00	-11.2267
▁mini	-11.2268
=88.7	-11.2271
▁Jodhpur	-11.2271
▁foliage	-11.2271
▁gujarat	-11.2271
▁ABI	-11.2272
▁Rai	-11.2274
▁involve	-11.2276
▁depend	-11.2277
▁origin	-11.2278
▁signed	-11.2281
▁visits	-11.2283
▁Swarna	-11.2287
▁punjab	-11.2287
▁Drip	-11.2289
carp	-11.2289
▁Week	-11.2293
dhar	-11.2294
▁sites	-11.2298
▁aann	-11.2304
situ	-11.2306
▁validated	-11.231
▁emissions	-11.2313
=95.4	-11.2315
▁maggot	-11.2315
▁Biogas	-11.2315
▁Adoption	-11.2316
▁Azadi	-11.2317
=15.6	-11.2318
▁che	-11.232
Entrepreneurship	-11.2324
come	-11.2325
coc	-11.2345
▁starts	-11.2346
▁(6	-11.235
▁characters	-11.2358
=72.5	-11.236
▁Pseudomonas	-11.236
▁certified	-11.236
▁Human	-11.236
▁storing	-11.236
▁Planning	-11.2361
▁vision	-11.2362
=16.8	-11.2363
▁Section	-11.2365
ago	-11.2369
even	-11.2372
-17	-11.2375
rob	-11.2377
▁102	-11.2378
ove	-11.238
.94	-11.238
▁infestations	-11.2384
▁coloured	-11.2384
ender	-11.2389
▁Si	-11.2395
▁enter	-11.2404
ave	-11.2404
=63.1	-11.2404
=71.8	-11.2404
=90.8	-11.2404
=92.8	-11.2404
▁Lecture	-11.2404
▁Mushroom	-11.2404
▁ssooili	-11.2404
▁barley	-11.2405
▁visible	-11.2405
▁Though	-11.2406
▁sensitive	-11.2408
▁arka	-11.2409
▁Pal	-11.2409
ED	-11.2414
dr	-11.2417
▁reports	-11.2417
sam	-11.2419
▁formulations	-11.2426
▁exhibit	-11.2434
▁defined	-11.2435
▁repeat	-11.2436
@2.5	-11.2438
▁Program	-11.2445
=69.3	-11.2449
=91.9	-11.2449
▁administrative	-11.2449
▁timing	-11.2449
NRC	-11.245
DG	-11.2458
0.8	-11.246
▁??	-11.2461
-27	-11.2462
ega	-11.2462
bean	-11.2463
AA	-11.2463
generating	-11.2464
ket	-11.2472
▁promoter	-11.2473
other	-11.2475
2,000	-11.2476
▁pu	-11.2482
▁IT	-11.2485
NS	-11.2488
▁722	-11.2488
▁135	-11.2492
=16.9	-11.2494
=91.2	-11.2494
▁Turmeric	-11.2494
▁chloropyriphos	-11.2494
▁agency	-11.2494
▁mapping	-11.2494
▁sustain	-11.2495
▁dhan	-11.2498
▁Growth	-11.2498
-23	-11.2507
▁harm	-11.2508
▁effort	-11.2511
▁diagnostic	-11.2511
▁producers	-11.2512
▁map	-11.2517
aagg	-11.2521
▁linked	-11.2523
een	-11.2523
kin	-11.2536
▁VL	-11.2538
CR	-11.2538
=60.1	-11.254
=92.9	-11.254
▁Chickpea	-11.254
▁bolus	-11.254
▁bloom	-11.254
▁chlorpyriphos	-11.254
▁Biological	-11.254
▁leveller	-11.2542
household	-11.2545
▁supplementation	-11.2546
ining	-11.255
Term	-11.2554
▁Diseases	-11.2558
rum	-11.2561
pea	-11.2561
▁via	-11.2568
appa	-11.257
▁import	-11.2571
=15.8	-11.2585
▁maharashtra	-11.2585
▁tetracycline	-11.2585
▁beyond	-11.2585
▁Fishery	-11.2586
▁Basic	-11.2589
▁smaller	-11.2599
▁(25	-11.2599
▁candidate	-11.2603
▁thrive	-11.2603
▁inspection	-11.2604
ui	-11.2608
pyr	-11.2619
▁derived	-11.2619
fo	-11.262
▁termites	-11.2624
▁dig	-11.2626
anta	-11.2627
=60.5	-11.2631
=93.5	-11.2631
=94.1	-11.2631
▁Security	-11.2631
▁cloud	-11.2631
▁coffee	-11.2631
▁genomic	-11.2631
▁century	-11.2631
▁capture	-11.2631
▁modified	-11.2631
▁Hand	-11.2635
▁litter	-11.2637
▁Lack	-11.2638
▁friendly	-11.2639
life	-11.2639
▁Here	-11.2645
GG	-11.2647
▁sstt	-11.2649
▁logo	-11.265
▁His	-11.2653
▁earth	-11.2656
hus	-11.2663
inal	-11.2663
ami	-11.2672
▁Review	-11.2677
=70.6	-11.2677
=73.3	-11.2677
after	-11.2677
▁cooperation	-11.2677
▁parent	-11.2677
▁Grand	-11.2677
▁atmospheric	-11.2681
▁fert	-11.2687
direct	-11.2688
▁dia	-11.2691
▁tablet	-11.2692
arla	-11.2694
▁Bur	-11.2696
▁advisory	-11.2697
▁twigs	-11.2698
▁ve	-11.2707
shed	-11.2708
=61.3	-11.2723
=93.0	-11.2723
▁Foundation	-11.2723
▁intensification	-11.2723
▁narrow	-11.2723
▁coordination	-11.2723
▁billion	-11.2725
▁shell	-11.2725
▁SNA	-11.2725
▁format	-11.2726
▁Dryland	-11.2727
aat	-11.2727
▁sodium	-11.2728
▁strains	-11.2731
nate	-11.2732
▁participated	-11.2733
▁rapidly	-11.2737
▁spawn	-11.2741
MP	-11.2741
▁assessed	-11.2748
lai	-11.275
hol	-11.2753
▁103	-11.2753
West	-11.2754
▁fertilize	-11.2754
▁hold	-11.2755
▁Although	-11.2769
▁Province	-11.2769
▁Soybean	-11.2769
▁manufacture	-11.2769
=64.0	-11.2769
▁desirable	-11.2769
▁113	-11.2777
4,000	-11.278
▁legumes	-11.278
fu	-11.2782
hul	-11.2787
emb	-11.2801
▁areca	-11.2805
aattee	-11.2806
▁3-5	-11.2807
▁240	-11.281
ama	-11.2815
▁database	-11.2815
▁absorption	-11.2815
▁linseed	-11.2815
▁clogging	-11.2816
mis	-11.2817
athi	-11.2817
▁CROPS	-11.2819
▁noticed	-11.2821
▁separately	-11.2827
▁Maha	-11.2827
▁preferably	-11.283
▁outlet	-11.2831
▁Jo	-11.2833
▁users	-11.2837
vailable	-11.2847
ray	-11.285
1.3	-11.2857
▁hands	-11.2857
=15.4	-11.2862
=94.2	-11.2862
▁Foxtail	-11.2862
▁responsibility	-11.2862
▁left	-11.2862
▁gundhi	-11.2863
▁hiring	-11.2863
tl	-11.2864
▁freshwater	-11.2865
meter	-11.2865
▁lost	-11.2867
cept	-11.2871
alli	-11.2873
▁Less	-11.2873
odi	-11.2875
▁Commercial	-11.2875
aff	-11.2885
▁Sc	-11.2888
oral	-11.2892
▁Audit	-11.2892
▁habitat	-11.2893
▁yet	-11.2894
▁washing	-11.2894
tn	-11.2899
rav	-11.29
▁AT	-11.2905
▁121	-11.2907
▁EE	-11.2908
▁houses	-11.2909
=70.7	-11.2909
▁association	-11.2909
▁requiring	-11.2909
▁supplied	-11.2909
▁competent	-11.291
▁Block	-11.2912
▁Bhu	-11.2925
graph	-11.2936
met	-11.2942
▁da	-11.2943
Ca	-11.2946
▁statement	-11.295
▁ffrroomm	-11.2956
▁square	-11.2956
▁maximize	-11.2959
▁invest	-11.2959
shan	-11.2964
TA	-11.2965
▁mother	-11.2966
AICRP	-11.2968
▁Mostly	-11.2968
▁ho	-11.2985
▁transplant	-11.2987
oni	-11.2992
▁scar	-11.2996
anti	-11.2998
▁104	-11.3002
▁leafy	-11.3003
▁Campus	-11.3004
▁Malathion	-11.3004
▁mastitis	-11.3004
▁revised	-11.3004
▁Grade	-11.3004
▁disposal	-11.3006
▁decided	-11.3007
▁shortage	-11.3012
▁Services	-11.3015
1.9	-11.3018
▁hair	-11.3019
▁122	-11.3022
▁drill	-11.3023
wari	-11.3025
▁fe	-11.3025
rous	-11.3026
▁publications	-11.3032
nj	-11.3034
-90	-11.3034
▁fu	-11.304
▁fracture	-11.3042
▁Swa	-11.3044
=90.6	-11.3051
▁naturally	-11.3052
▁collar	-11.3052
▁viability	-11.3053
▁yellowish	-11.3056
▁Even	-11.3057
2%)	-11.306
▁vines	-11.306
▁lab	-11.3061
▁starting	-11.3062
▁ccoonn	-11.3062
IIVR	-11.3072
▁inform	-11.3074
▁uniformly	-11.308
ICR	-11.308
▁Is	-11.3082
9.7	-11.3083
▁mark	-11.3084
type	-11.3088
▁IoT	-11.3092
▁Additional	-11.3093
%).	-11.3094
▁Direct	-11.3096
=91.7	-11.3099
=92.4	-11.3099
▁diversified	-11.3099
▁hatchery	-11.3099
▁rhizomes	-11.3101
▁underground	-11.3102
▁Apple	-11.3105
2018	-11.3106
▁seeding	-11.3107
tthh	-11.3108
▁count	-11.3115
▁cat	-11.3118
crop	-11.3118
▁job	-11.3122
▁FF	-11.3124
oct	-11.3126
▁Poor	-11.3126
▁mmaa	-11.3132
▁restrict	-11.3134
▁holders	-11.3136
▁measurement	-11.314
under	-11.3141
▁Bundelkhand	-11.3147
▁category	-11.3147
▁contrast	-11.3147
▁ssyysstteemm	-11.3147
▁studied	-11.3147
▁fair	-11.315
trop	-11.3154
▁CGIAR	-11.316
lab	-11.3163
▁smallholder	-11.3169
▁hope	-11.3169
▁core	-11.3172
aall	-11.3176
▁ease	-11.3181
▁align	-11.3182
hin	-11.3183
▁room	-11.3188
▁differ	-11.3194
▁Adequate	-11.3196
▁Chennai	-11.3196
▁Subscription	-11.3196
▁hygiene	-11.3196
▁shisham	-11.3196
▁2013-14	-11.3196
▁chili	-11.3199
▁7-10	-11.3203
▁America	-11.321
▁platforms	-11.3216
▁5-10	-11.3218
nar	-11.3219
▁tonne	-11.322
▁Ad	-11.3223
▁influences	-11.3237
lll	-11.3239
DS	-11.324
▁integrat	-11.3241
CH	-11.3242
mato	-11.3243
guided	-11.3243
▁00	-11.3244
=92.3	-11.3244
▁Performance	-11.3244
▁Vitamin	-11.3244
▁depletion	-11.3244
▁thousand	-11.3244
▁timber	-11.3244
▁fetch	-11.3244
▁prominent	-11.3244
everal	-11.3245
▁Need	-11.3248
▁consultation	-11.3249
▁Ganga	-11.3249
▁pool	-11.3249
▁alter	-11.3249
eli	-11.3252
▁markers	-11.3253
▁adversely	-11.3256
unc	-11.3256
tru	-11.3264
▁2.2	-11.3264
▁learn	-11.3265
tray	-11.3267
5.9	-11.3272
food	-11.3273
▁Sr	-11.3274
▁mat	-11.3274
▁goals	-11.3279
▁vis	-11.3285
rain	-11.329
vari	-11.3292
▁oorr	-11.3292
▁eligible	-11.3293
▁school	-11.3293
bri	-11.3295
ambi	-11.3295
▁rock	-11.33
7.7	-11.3302
▁seek	-11.3307
asa	-11.3308
▁discipline	-11.3317
▁section	-11.3325
tory	-11.3326
TO	-11.3327
Pa	-11.3339
▁breeder	-11.3341
▁chronic	-11.3342
▁foxtail	-11.3342
▁nominated	-11.3342
▁pineapple	-11.3342
▁beneficiaries	-11.3342
▁Drought	-11.3343
edge	-11.3344
▁bear	-11.3349
inin	-11.3361
▁0.7	-11.3362
▁Practices	-11.3363
▁107	-11.337
▁setup	-11.3372
EE	-11.3373
ota	-11.3374
@1	-11.338
▁id	-11.3383
▁intake	-11.3383
▁peak	-11.3385
▁ovate	-11.3386
=100.0	-11.3391
=61.1	-11.3391
▁contamination	-11.3391
▁film	-11.3391
▁southern	-11.3392
▁Actual	-11.3392
▁transplantation	-11.3394
▁Others	-11.3395
▁pprroo	-11.3398
▁Make	-11.3399
▁facilitated	-11.34
▁nn	-11.3406
availability	-11.341
mmee	-11.3411
▁cu	-11.3416
▁Note	-11.3422
zz	-11.3428
ros	-11.3429
9.3	-11.3429
equi	-11.3434
▁Select	-11.3438
▁focused	-11.3438
ising	-11.344
can	-11.344
▁poplar	-11.3441
▁microbes	-11.3441
▁slender	-11.3441
▁mild	-11.3441
lies	-11.3441
▁Pantnagar	-11.3441
▁gradually	-11.3442
tum	-11.3442
▁audit	-11.3442
▁peel	-11.3444
sulfur	-11.3445
▁Gene	-11.3446
▁wall	-11.3448
ich	-11.3448
▁Nitrogen	-11.3455
@1.5	-11.3456
▁119	-11.3467
▁award	-11.3473
▁weak	-11.3476
▁initially	-11.3476
▁enrich	-11.3478
▁provisions	-11.3478
SRF	-11.3481
▁Important	-11.349
▁Parameter	-11.349
▁vegetation	-11.349
▁yojana	-11.349
▁fiber	-11.349
▁remunerative	-11.3491
▁117	-11.3493
holder	-11.3495
▁INM	-11.3496
CO	-11.3497
ull	-11.3509
adding	-11.3512
▁mill	-11.3522
▁oilseed	-11.3523
▁filter	-11.3527
kal	-11.3529
DU	-11.3531
▁climates	-11.3535
▁Andaman	-11.354
▁immense	-11.354
▁quantities	-11.354
▁vulnerable	-11.354
▁manuring	-11.354
▁husk	-11.3541
▁portal	-11.3541
▁placenta	-11.3541
▁proven	-11.3544
ema	-11.3545
▁rae	-11.3547
▁hairy	-11.3548
▁treating	-11.3548
▁Producer	-11.3549
idae	-11.3554
▁uprooting	-11.3559
General	-11.3561
▁141	-11.3561
▁advisories	-11.3562
▁sample	-11.3568
▁stone	-11.357
ttoo	-11.357
eastern	-11.3573
chlor	-11.3575
▁ensured	-11.3575
▁induced	-11.3575
lle	-11.3576
@50	-11.358
▁batch	-11.3582
she	-11.3582
▁recover	-11.3585
▁situ	-11.3586
lex	-11.3588
▁Applicant	-11.3591
▁grazing	-11.3591
▁receipt	-11.3591
▁veterinarian	-11.3591
▁germinate	-11.3591
▁Ravindra	-11.3591
Ch	-11.3594
AE	-11.3595
BG	-11.3595
alaries	-11.3596
▁30-40	-11.3598
▁Apart	-11.3598
▁Popularization	-11.3604
cu	-11.3605
▁Any	-11.361
ening	-11.3611
▁rope	-11.3612
▁Five	-11.3612
stra	-11.3615
ense	-11.3616
jee	-11.3617
▁Prof	-11.3622
▁145	-11.3629
▁124	-11.3637
▁Social	-11.3641
▁deworming	-11.3641
▁contract	-11.3641
▁progressive	-11.3644
▁UAS	-11.365
▁identifying	-11.3661
cr	-11.3661
▁regulation	-11.3669
▁kufri	-11.3671
hari	-11.3674
▁severely	-11.3674
▁Te	-11.3675
9.9	-11.3691
=92.6	-11.3692
▁Solapur	-11.3692
▁attached	-11.3692
▁insecticidal	-11.3692
▁photosynthesis	-11.3692
▁predominant	-11.3692
▁Transfer	-11.3692
TC	-11.3694
▁art	-11.3695
ttii	-11.3703
▁128	-11.3703
SF	-11.3706
nov	-11.3708
rel	-11.3711
TH	-11.3717
fe	-11.3717
▁chains	-11.3718
▁drawn	-11.3723
▁startups	-11.3725
▁rules	-11.3725
▁utilize	-11.3734
▁favour	-11.3742
▁occasion	-11.3742
▁consequences	-11.3743
▁conserving	-11.3743
▁Linn	-11.3743
▁Staff	-11.3743
▁agroecological	-11.3744
▁Home	-11.3749
ators	-11.3753
▁formal	-11.3755
6.8	-11.3758
sol	-11.3759
1.7	-11.3761
8.7	-11.3765
including	-11.3766
added	-11.3769
▁issued	-11.377
▁MT	-11.377
▁Innovation	-11.3772
pac	-11.3775
zi	-11.3781
▁disorders	-11.3788
▁Mix	-11.379
▁Grants	-11.3793
▁Bikaner	-11.3794
▁Evaluation	-11.3794
▁Joint	-11.3794
▁Summary	-11.3794
▁intelligence	-11.3794
▁magnesium	-11.3794
▁revenue	-11.3794
▁Open	-11.3796
▁lato	-11.3798
▁commercially	-11.3805
▁prediction	-11.3807
▁FFP	-11.3808
ale	-11.3809
▁layers	-11.3812
▁ventilated	-11.3812
PO	-11.3813
▁articles	-11.3815
ups	-11.3824
▁antioxidant	-11.3824
▁men	-11.3827
▁offered	-11.3828
2.3	-11.3829
▁UU	-11.3829
▁pale	-11.383
early	-11.3833
lea	-11.3841
▁routine	-11.3846
▁specified	-11.3846
▁nozzle	-11.3846
▁Vision	-11.3846
Cdn	-11.3849
▁eight	-11.3851
/4.5	-11.3851
▁colleges	-11.3854
▁Generally	-11.3856
▁expenses	-11.3858
-75	-11.386
TE	-11.3864
▁60%	-11.3872
▁Monitoring	-11.388
mor	-11.3883
ides	-11.389
▁came	-11.3892
▁attribut	-11.3894
lia	-11.3895
▁academic	-11.3898
▁doubling	-11.3898
▁sensing	-11.3898
▁manpower	-11.3898
▁reliable	-11.3898
▁0.75	-11.3899
▁considering	-11.3899
▁Award	-11.3901
▁covers	-11.3909
▁Sep	-11.3915
▁ELISA	-11.3919
▁dk	-11.3919
▁pumps	-11.3921
mustard	-11.3923
ecological	-11.3924
also	-11.3926
▁relat	-11.3929
▁Govern	-11.393
pla	-11.3931
IA	-11.3945
col	-11.3945
▁drive	-11.3948
ough	-11.3949
▁Budget	-11.395
▁landscape	-11.395
▁rubber	-11.395
▁couple	-11.395
ciacla	-11.3951
▁indicating	-11.3951
tightness	-11.3951
▁chance	-11.3952
▁feeds	-11.3957
▁embryo	-11.3959
▁5.2	-11.3962
▁holder	-11.3966
east	-11.3966
▁presentation	-11.3967
logy	-11.3977
▁solid	-11.3981
▁Center	-11.3982
ily	-11.3987
IET	-11.3987
▁nuts	-11.3987
▁exc	-11.3988
ensis	-11.399
▁1100	-11.3991
8.9	-11.3991
part	-11.3994
▁flora	-11.3997
▁Tal	-11.3999
▁grey	-11.4002
=92.2	-11.4002
▁Analysis	-11.4002
▁Association	-11.4002
▁cream	-11.4002
▁IRRI	-11.4002
▁words	-11.4002
▁Balance	-11.4003
▁persons	-11.4004
▁itself	-11.4005
▁earned	-11.4012
▁poisoning	-11.4012
▁African	-11.4012
▁06	-11.4015
▁soaking	-11.402
oa	-11.4021
ilo	-11.4023
▁GI	-11.4025
gni	-11.4033
aabb	-11.4038
▁photo	-11.4048
▁5.3	-11.4049
▁Mau	-11.4053
▁Administrative	-11.4055
▁Garlic	-11.4055
▁Nursery	-11.4055
▁ffaarrmmiinngg	-11.4055
▁Prasad	-11.4055
▁Chlor	-11.4055
190	-11.4055
▁Forestry	-11.4055
▁Habit	-11.4055
▁Body	-11.4055
▁Institutions	-11.4055
▁wool	-11.4056
eru	-11.4056
▁rough	-11.4057
▁transferred	-11.4059
▁170	-11.406
gular	-11.4065
▁dependent	-11.4068
▁chlor	-11.4072
▁picking	-11.4072
▁kit	-11.4072
▁Chand	-11.4074
▁PO	-11.4075
▁Sil	-11.4076
eennt	-11.4082
Head	-11.4083
▁000	-11.4084
olu	-11.4087
▁foundation	-11.4088
▁hr	-11.409
▁Sang	-11.409
▁proof	-11.4095
▁designs	-11.4101
▁Members	-11.4102
UESTION	-11.4108
▁Mishra	-11.4108
▁applicable	-11.4108
▁relevance	-11.4108
▁Spices	-11.4108
▁Smart	-11.4108
▁Objective	-11.4108
▁belonging	-11.4108
▁worldwide	-11.4108
▁findings	-11.4108
▁elevation	-11.4111
inc	-11.4113
2000	-11.4118
3.7	-11.412
▁observations	-11.4122
oopp	-11.4125
▁Indo	-11.4133
▁cater	-11.4135
ved	-11.4136
ATARI	-11.4137
shh	-11.4137
▁Im	-11.4147
▁ask	-11.4148
▁prop	-11.415
▁induce	-11.4152
Pro	-11.4153
▁concerns	-11.4154
▁extracts	-11.4158
▁catch	-11.4159
ibility	-11.416
▁inadequate	-11.4161
▁monocrotophos	-11.4161
▁Pension	-11.4161
▁malnutrition	-11.4161
▁folder	-11.4161
▁Change	-11.4163
▁systematic	-11.4163
▁vitro	-11.4163
▁series	-11.4165
▁paid	-11.4168
▁inspect	-11.4169
BB	-11.4181
▁Var	-11.4181
▁rights	-11.4182
▁improvements	-11.4186
planting	-11.4189
▁bees	-11.419
DKMA	-11.4191
log	-11.4199
▁modules	-11.4202
▁heading	-11.4209
vet	-11.4213
▁BOOK	-11.4214
▁Ensuring	-11.4214
▁acacia	-11.4214
▁concrete	-11.4214
▁leaving	-11.4214
▁operator	-11.4214
▁recycling	-11.4214
▁description	-11.4214
▁outcomes	-11.4214
▁protocols	-11.4217
rch	-11.4217
▁crushed	-11.422
▁Principles	-11.422
PU	-11.422
▁muria	-11.4233
IT	-11.4234
▁forecast	-11.4239
▁Developing	-11.424
control	-11.4244
▁journals	-11.4244
driven	-11.4245
ties	-11.4245
oro	-11.4246
ghat	-11.4252
129	-11.4254
elangana	-11.4265
DR	-11.4265
▁images	-11.4265
▁Cucumber	-11.4268
▁Guidelines	-11.4268
▁circular	-11.4268
▁preparing	-11.4268
▁pilot	-11.4268
▁visual	-11.4268
▁grub	-11.4269
riya	-11.4271
▁wooden	-11.4273
▁butter	-11.428
▁contributions	-11.4289
▁seal	-11.4293
num	-11.4293
fruit	-11.43
SC	-11.43
▁highlight	-11.4303
▁Improv	-11.4303
▁grants	-11.4305
▁absorb	-11.431
▁Proso	-11.4311
▁Symptoms	-11.4322
▁jharkhand	-11.4322
▁pursu	-11.4322
-1)	-11.4322
▁immunity	-11.4323
▁recruitment	-11.4323
▁2.00	-11.4323
▁inches	-11.4325
ksa	-11.4326
▁pathogenic	-11.4328
▁1200	-11.433
tree	-11.4331
▁ccaann	-11.4331
▁roles	-11.4334
▁coming	-11.4338
▁pe	-11.4345
AM	-11.4346
atta	-11.4348
▁race	-11.435
▁pet	-11.4351
▁stalk	-11.4357
▁feature	-11.4357
▁114	-11.4358
att	-11.4361
kumar	-11.4371
▁Family	-11.4376
▁prevalent	-11.4376
▁copies	-11.4376
▁expertise	-11.4377
amba	-11.4377
▁2011-12	-11.4377
▁quite	-11.4377
▁2022-23	-11.4378
rang	-11.4379
▁soap	-11.4383
bul	-11.4385
ij	-11.4395
▁PR	-11.4395
org	-11.4397
▁Mon	-11.4404
▁Mn	-11.4408
iness	-11.4411
▁channel	-11.4412
making	-11.4413
ssuu	-11.4413
▁126	-11.4421
2.50	-11.4425
ME	-11.4429
=93.7	-11.4431
▁Activities	-11.4431
▁chamber	-11.4431
▁patches	-11.4431
▁abundant	-11.4431
▁empty	-11.4431
▁glass	-11.4431
▁reforms	-11.4431
▁harrow	-11.4431
▁nutritive	-11.4431
▁bulbs	-11.4434
▁Devi	-11.4434
▁gardening	-11.4435
▁bold	-11.4436
SH	-11.4439
▁2.7	-11.444
irsa	-11.4441
▁Dh	-11.446
DARE	-11.4466
och	-11.4467
▁2001	-11.4474
▁Anti	-11.4478
▁train	-11.4483
▁sanitation	-11.4486
▁Malabar	-11.4486
=8.2	-11.4487
▁survive	-11.4487
▁fr	-11.449
▁divided	-11.4491
▁carefully	-11.4496
▁Keeping	-11.4505
▁ds	-11.4506
Mail	-11.4509
▁replications	-11.4513
ific	-11.4515
▁Assamese	-11.4516
▁currently	-11.4517
3%)	-11.4524
▁Rules	-11.4531
onia	-11.4532
▁orchids	-11.4532
ency	-11.4538
▁Rat	-11.4539
▁file	-11.4541
▁Eucalyptus	-11.4541
▁Sweet	-11.4541
▁staple	-11.4541
▁Despite	-11.4542
▁macro	-11.4542
▁advantageous	-11.4543
▁weedicide	-11.4543
▁Irrigated	-11.4545
▁hypo	-11.4546
rv	-11.455
▁2.3	-11.4552
▁fluctuations	-11.4553
▁20-30	-11.4554
asu	-11.4561
pests	-11.4564
andhu	-11.4565
▁275	-11.4566
▁12.5	-11.4572
▁...	-11.4573
▁genotype	-11.4579
▁piece	-11.4579
▁soon	-11.4579
hot	-11.4588
▁trainings	-11.4591
▁011-25843657	-11.4597
▁Jorhat	-11.4597
▁Yojana	-11.4597
▁conducive	-11.4597
▁engine	-11.4597
▁nitrate	-11.4597
CIFRI	-11.4597
▁dithane	-11.4597
▁Kochi	-11.4597
▁favourable	-11.4598
mala	-11.4599
PV	-11.46
▁(1999	-11.46
▁Sprinkler	-11.4601
eb	-11.4602
▁Advanced	-11.4605
▁trends	-11.4606
GA	-11.4609
▁Sur	-11.4615
cit	-11.4616
▁pose	-11.4618
▁Hy	-11.4622
▁Acid	-11.4623
▁force	-11.4623
▁Way	-11.4627
amine	-11.463
fest	-11.4634
berry	-11.4634
je	-11.4638
aid	-11.4639
120	-11.464
▁scaling	-11.4652
ben	-11.4652
inflammatory	-11.4653
▁Increasing	-11.4653
▁recomended	-11.4653
▁chilly	-11.4653
▁vigorous	-11.4653
▁116	-11.4655
▁wastewater	-11.4655
▁NGOs	-11.4658
▁corm	-11.4661
fra	-11.4661
referred	-11.4661
eu	-11.4664
HB	-11.4666
▁sides	-11.4668
▁metal	-11.467
▁(50	-11.4671
▁coat	-11.4678
▁positions	-11.4681
angi	-11.4684
idi	-11.4688
characterization	-11.4691
▁127	-11.4691
ren	-11.4693
▁drag	-11.4695
jal	-11.4699
▁incorporat	-11.4699
▁shared	-11.4701
LC	-11.4701
▁outer	-11.4705
till	-11.4705
▁Nil	-11.4709
▁Distribution	-11.4709
▁immune	-11.4709
▁terrace	-11.4709
▁vigour	-11.4709
▁Dharwad	-11.4709
▁facing	-11.4709
▁1-1.75	-11.4709
▁Yadav	-11.4709
▁multiplication	-11.4709
▁expression	-11.471
▁ration	-11.4712
▁flu	-11.4712
▁authority	-11.4713
IG	-11.4713
▁sticky	-11.4718
ius	-11.4722
uar	-11.4722
▁AICRPs	-11.4727
MI	-11.4731
▁1).	-11.4732
To	-11.4733
▁don	-11.4737
holders	-11.4738
▁suckers	-11.4739
▁substances	-11.4739
▁drilling	-11.4743
PGS	-11.4744
root	-11.4748
▁ta	-11.4752
▁138	-11.4755
▁personal	-11.4759
▁1.75	-11.4765
▁Cauliflower	-11.4765
▁Chemistry	-11.4765
▁exercise	-11.4765
▁manufacturing	-11.4765
▁pregnant	-11.4765
▁GPF	-11.4765
▁allocation	-11.4766
▁eaten	-11.4766
▁breadth	-11.4768
▁fix	-11.4769
▁ki	-11.4774
logical	-11.4778
ei	-11.4778
▁2017-18,	-11.4789
▁parasi	-11.479
▁pi	-11.479
mu	-11.4791
▁containers	-11.4791
ccaa	-11.4793
mus	-11.4799
▁Genetics	-11.48
▁roller	-11.4802
▁Projects	-11.4803
▁Shi	-11.4804
inter	-11.4804
▁variation	-11.4806
ko	-11.4806
▁cfu	-11.4806
▁conducting	-11.4809
▁outbreaks	-11.4811
▁see	-11.4812
sil	-11.4816
▁code	-11.4818
jj	-11.4819
▁attempt	-11.4822
▁respiratory	-11.4822
▁005	-11.4822
▁beginning	-11.4823
▁betelvine	-11.4823
▁appears	-11.4823
▁Experimenter	-11.4825
▁tend	-11.4831
▁washed	-11.484
001	-11.4845
itit	-11.4847
▁predict	-11.4852
▁sales	-11.4855
▁inj	-11.4858
▁chapters	-11.4863
▁leave	-11.4864
Dr	-11.4865
▁biofortifi	-11.4873
▁broccoli	-11.4879
▁composite	-11.4879
▁hunger	-11.4879
▁Jute	-11.4879
▁Trait	-11.4879
▁Transplanting	-11.4879
arious	-11.488
▁bioactive	-11.488
▁Not	-11.4881
▁Ap	-11.4881
▁Semi	-11.4885
▁vermi	-11.4886
▁aids	-11.4889
▁responsive	-11.4893
imi	-11.4893
▁Gram	-11.4894
▁acidic	-11.49
▁Innovations	-11.4904
▁experienced	-11.4912
parasite	-11.4919
CGIAR	-11.4921
▁observation	-11.4922
▁disc	-11.4926
5.1	-11.4928
▁focusing	-11.4929
▁competitive	-11.4936
▁receiving	-11.4937
▁wwiitthh	-11.4937
officio	-11.4937
▁combat	-11.4937
▁Pvt	-11.4937
▁discharge	-11.4937
▁NRM	-11.4938
AG	-11.4938
▁considerable	-11.494
▁Book	-11.4942
▁Mah	-11.4942
cil	-11.4943
▁boosting	-11.4946
▁ber	-11.4949
▁118	-11.4951
▁Ru	-11.4957
▁5.1	-11.496
▁km	-11.4962
ject	-11.4963
▁aspect	-11.4965
▁hatch	-11.4967
DC	-11.4968
8.5	-11.4969
apa	-11.4972
This	-11.498
▁disrupt	-11.4981
▁pr	-11.4985
▁weekly	-11.4987
▁globally	-11.4988
raft	-11.499
▁5.4	-11.4991
▁barriers	-11.4991
▁read	-11.4993
▁19:19:19	-11.4995
▁Industries	-11.4995
▁Initiative	-11.4995
▁UNDER	-11.4995
▁pollen	-11.4995
CMFRI	-11.4995
▁NEW	-11.4995
▁ghee	-11.4995
▁elite	-11.4995
▁Rajendranagar	-11.4995
roo	-11.4995
uumm	-11.4997
▁isolated	-11.4999
▁cement	-11.4999
ection	-11.5007
▁ranges	-11.5009
7.3	-11.5014
▁220	-11.5015
▁toria	-11.5021
▁screen	-11.5024
▁begin	-11.5024
gam	-11.5025
▁driven	-11.5025
▁forecasting	-11.5025
iidd	-11.5026
▁dosages	-11.5028
▁incorporate	-11.5038
▁opening	-11.5043
▁pots	-11.5048
▁jam	-11.505
des	-11.5051
▁Milestone	-11.5053
▁Shelf	-11.5053
▁deficit	-11.5053
▁AVT	-11.5053
▁northern	-11.5053
▁Alternaria	-11.5054
▁30-35	-11.5056
▁195	-11.5058
▁Lakh	-11.5059
▁makers	-11.5061
▁exist	-11.5067
duction	-11.5067
▁interactions	-11.5068
IM	-11.5074
▁carps	-11.5079
▁adults	-11.5088
▁Bag	-11.5095
Hindi	-11.5098
▁Jam	-11.51
▁Nutri	-11.511
▁DELHI	-11.5111
▁disadvantage	-11.5111
▁parasites	-11.5113
ule	-11.5115
anthus	-11.5115
▁5000	-11.5126
▁earning	-11.5134
▁em	-11.5135
▁Payment	-11.5136
▁133	-11.5137
tak	-11.5142
▁coating	-11.5146
▁Rao	-11.5147
shaped	-11.516
▁herd	-11.5162
breeding	-11.5166
▁liver	-11.5167
▁compact	-11.5168
▁Artificial	-11.517
▁Studies	-11.517
▁Teaching	-11.517
▁flexibility	-11.517
▁molasses	-11.517
▁pheromone	-11.517
▁Pratap	-11.517
▁Industry	-11.517
▁Handbook	-11.517
▁Prepare	-11.5171
▁estimation	-11.5171
▁Short	-11.5171
▁lady	-11.5171
ature	-11.5172
▁paint	-11.5175
▁licensed	-11.5176
CIBA	-11.5178
dan	-11.518
▁Gr	-11.518
▁def	-11.5182
cic	-11.5182
yam	-11.5184
itioonn	-11.5188
puram	-11.5195
▁Give	-11.5197
was	-11.5204
IPM	-11.5208
▁tur	-11.5212
▁legume	-11.5215
IVRI	-11.5218
hl	-11.5221
▁Ac	-11.5223
▁Academy	-11.5229
▁stimulant	-11.5229
▁Prakash	-11.5229
▁compromis	-11.5229
▁Southern	-11.523
▁involvement	-11.5231
▁lowland	-11.5234
▁UG	-11.5242
-78	-11.5242
2023	-11.5243
▁marked	-11.5246
GC	-11.5246
▁therapy	-11.5248
▁1960	-11.5249
▁That	-11.5251
▁manually	-11.5251
▁3000	-11.5256
▁mz	-11.5256
▁Kendras	-11.5259
▁10,000	-11.5265
▁Kodo	-11.5271
tter	-11.5274
▁sanction	-11.5275
2016	-11.5277
▁wastes	-11.5286
owdery	-11.5287
▁june	-11.5289
▁cooked	-11.5289
▁Utilization	-11.529
▁investments	-11.529
▁feedback	-11.5291
phen	-11.5292
thane	-11.5292
531	-11.5297
▁extensively	-11.5302
▁Parliament	-11.5304
▁enriched	-11.5305
▁repeated	-11.5307
▁sal	-11.5311
▁Earth	-11.5311
▁Plantation	-11.5312
aram	-11.5314
pu	-11.5323
▁pull	-11.5334
▁mL	-11.5335
▁trait	-11.5335
▁eat	-11.5337
Karnataka	-11.5338
▁Ms	-11.5339
fertili	-11.5343
▁economical	-11.5345
1%)	-11.5345
▁formalin	-11.5345
▁anthelmintic	-11.5349
▁deciduous	-11.5349
▁glabrous	-11.5349
▁licensing	-11.5349
▁welfare	-11.5349
▁Bitter	-11.5349
▁frontline	-11.5349
▁(100	-11.535
▁knol	-11.5351
▁reared	-11.5357
rab	-11.5362
▁boiling	-11.5367
uda	-11.5369
▁Officers	-11.5371
▁solids	-11.5373
▁eggplants	-11.5373
ural	-11.5376
▁Or	-11.5378
▁Treat	-11.538
▁pil	-11.5385
▁Ri	-11.5388
▁Res	-11.5391
▁Feeding	-11.5393
▁element	-11.5396
▁flooding	-11.5398
▁08	-11.5398
▁enabled	-11.5399
tolerant	-11.5399
▁compare	-11.5399
growing	-11.54
ecosystem	-11.54
west	-11.5402
claim	-11.5405
▁Establish	-11.5406
30.0	-11.5408
6%)	-11.5408
▁AAggrriiccuul	-11.5409
▁Fertilization	-11.5409
▁Valley	-11.5409
▁circumstances	-11.5409
▁consecutive	-11.5409
▁eucalyptus	-11.5409
▁ffaarrmmeersr	-11.5409
▁kitchen	-11.5409
▁vascular	-11.5409
tltuurer	-11.5409
▁ongoing	-11.5409
▁2014-15	-11.541
▁Poly	-11.5411
▁Bee	-11.5413
▁mt	-11.5413
▁Postage	-11.5413
▁theme	-11.5414
▁Well	-11.5415
ending	-11.5417
▁sanctioned	-11.5422
aanndd	-11.5423
▁ga	-11.5425
▁Develop	-11.5426
▁remained	-11.5438
4%)	-11.544
▁threat	-11.5442
▁sole	-11.5446
▁surfaces	-11.5452
▁maximiz	-11.5467
▁Mohapatra	-11.5469
▁behaviour	-11.5469
▁fertlizer	-11.5469
▁irregular	-11.5469
▁instance	-11.547
CPCRI	-11.547
▁track	-11.547
▁roof	-11.5471
▁wire	-11.5471
▁kodo	-11.5471
▁true	-11.5472
▁installment	-11.5473
▁leg	-11.5474
nan	-11.5476
FA	-11.548
New	-11.548
▁144	-11.548
▁corresponding	-11.5483
▁Oriya	-11.5483
▁1.7	-11.5487
▁highlights	-11.5491
▁thought	-11.5494
optera	-11.5502
pee	-11.5502
SD	-11.5503
lation	-11.5505
▁Himalayan	-11.5505
▁jack	-11.5508
▁Format	-11.5511
lele	-11.5518
mmoo	-11.5519
▁Top	-11.5519
▁Jal	-11.5523
▁wheel	-11.553
▁Australia	-11.553
▁Potential	-11.553
▁although	-11.553
▁commitment	-11.553
▁insufficient	-11.553
▁housing	-11.553
▁Copper	-11.553
▁bovine	-11.5531
▁representative	-11.5531
▁thickness	-11.5532
▁CRIDA	-11.5535
try	-11.5535
▁1.52	-11.554
IF	-11.5543
▁experiences	-11.5549
▁Che	-11.5554
▁regulations	-11.5558
▁particles	-11.556
▁incubat	-11.5564
▁190	-11.5575
otype	-11.5575
▁carrying	-11.5576
▁132	-11.5577
▁note	-11.558
5.6	-11.558
▁sq	-11.5581
business	-11.5583
▁Europe	-11.559
▁sandalwood	-11.5592
▁sesamum	-11.5592
ny	-11.5592
▁Feature	-11.5592
▁bajra	-11.5593
▁cristocycline	-11.5593
▁empowerment	-11.5594
▁Marine	-11.5594
▁SBI	-11.5597
▁prevailing	-11.56
▁tu	-11.5605
▁Capsicum	-11.5606
▁herbal	-11.5607
▁draw	-11.561
▁link	-11.5611
▁cal	-11.5618
▁maintains	-11.5619
▁radio	-11.5621
MT	-11.5626
▁10.0	-11.5627
▁adj	-11.5631
▁epi	-11.5635
KVK	-11.5636
ggee	-11.5636
▁carbohydrates	-11.5638
▁wise	-11.5639
▁mangoes	-11.5639
▁basin	-11.5642
▁symptom	-11.5642
▁Then	-11.5643
125	-11.5643
▁@10	-11.5644
ith	-11.5645
▁greatly	-11.5645
shallow	-11.5647
fym	-11.5647
VR	-11.5649
▁conference	-11.5654
▁ranjit	-11.5654
▁silage	-11.5654
▁Rajendra	-11.5654
=8.4	-11.5654
▁preference	-11.5655
▁Phase	-11.5655
▁phone	-11.5657
load	-11.5657
nother	-11.5658
AL	-11.5659
▁Protected	-11.5659
▁lesser	-11.5661
▁AR	-11.5661
▁peach	-11.5664
▁tissues	-11.5664
chin	-11.5666
EPD	-11.5668
▁USA	-11.5671
0.20	-11.5672
▁3.2	-11.5673
▁Pra	-11.5676
▁1990	-11.5676
▁FW	-11.5682
▁suit	-11.5682
onda	-11.5691
2010	-11.5697
soil	-11.5698
▁inclusive	-11.5698
oti	-11.5699
uj	-11.57
▁ram	-11.5713
leaf	-11.5714
ench	-11.5715
▁Litchi	-11.5716
▁Malhotra	-11.5716
▁Physical	-11.5716
▁accuracy	-11.5716
▁straight	-11.5716
▁trouble	-11.5716
▁moving	-11.5716
biovita	-11.5716
▁circulation	-11.5716
▁Authority	-11.5716
▁domain	-11.5717
▁resin	-11.5718
▁Stor	-11.5718
▁specialized	-11.5721
lal	-11.5726
vine	-11.5728
ook	-11.5739
▁ccoomm	-11.5741
thion	-11.5754
▁earthing	-11.5755
iF	-11.5756
▁Introduc	-11.5758
▁eliminat	-11.5758
▁Advance	-11.5759
▁IIHR	-11.5759
▁send	-11.5761
00/-	-11.5762
▁kid	-11.5769
emergence	-11.5773
▁Article	-11.5778
▁HYV	-11.5778
▁Modern	-11.5778
▁perspective	-11.5778
▁ruminants	-11.5778
▁reddish	-11.5778
▁Tribal	-11.5779
▁tied	-11.578
▁vast	-11.5781
▁stake	-11.5781
ogen	-11.5782
▁Operation	-11.5783
▁going	-11.5783
GO	-11.5792
▁slowly	-11.5793
opping	-11.5798
rani	-11.5798
oh	-11.58
▁inclusion	-11.58
▁3.1	-11.5807
▁6-7	-11.5814
▁biochemical	-11.5817
▁pow	-11.5817
eshwar	-11.5825
charge	-11.5829
▁reaction	-11.5831
▁capita	-11.5834
pit	-11.584
hexaconazole	-11.5841
▁COVID	-11.5841
▁therapeutic	-11.5841
▁interface	-11.5841
▁teachers	-11.5841
▁tehsil	-11.5841
1000	-11.5841
▁Aromatic	-11.5841
▁Nodal	-11.5841
▁2012-13	-11.5842
▁replacement	-11.5842
▁Methods	-11.5848
▁join	-11.5851
▁Challenges	-11.5851
▁addressed	-11.5852
ria	-11.5858
▁sprouting	-11.586
lyly	-11.586
▁El	-11.5868
▁lt	-11.5874
ittle	-11.5877
horti	-11.5879
dl	-11.5882
▁happens	-11.5891
▁Rot	-11.5897
-2.5	-11.5899
BC	-11.5903
=9.0	-11.5904
▁Limited	-11.5904
▁durability	-11.5904
▁rajasthan	-11.5904
▁whitefly	-11.5904
▁udder	-11.5904
▁fusariu	-11.5904
▁Patna	-11.5904
▁electronic	-11.5904
▁Community	-11.5904
▁admission	-11.5905
▁Super	-11.5908
▁expressed	-11.5912
▁ddii	-11.5914
plasm	-11.5917
posed	-11.5923
▁sign	-11.5924
▁oxy	-11.5943
▁loans	-11.5946
▁des	-11.5953
▁holdings	-11.5956
stem	-11.596
hhaass	-11.5962
▁TTeecchhn	-11.5966
▁marker	-11.5966
lanceolate	-11.5968
▁equipp	-11.5968
▁kerosene	-11.5968
▁mycelium	-11.5968
▁comparative	-11.5968
▁saplings	-11.5968
▁shelter	-11.5968
▁behind	-11.5968
▁tthhaat	-11.5968
IASRI	-11.5968
▁0.08	-11.5968
▁claims	-11.5969
▁cooling	-11.5971
▁Gender	-11.5972
ccuu	-11.5975
▁Dev	-11.5982
▁college	-11.5982
▁FY	-11.599
RH	-11.5993
▁Care	-11.5994
▁bin	-11.5998
▁golden	-11.6001
▁press	-11.6005
cult	-11.6005
▁holds	-11.6006
▁mold	-11.6007
dev	-11.6018
hand	-11.6019
▁interested	-11.6021
▁gur	-11.6029
▁buy	-11.6031
▁Bhubaneshwar	-11.6032
▁convenient	-11.6032
▁illustrat	-11.6032
▁Citrus	-11.6032
▁assured	-11.6032
▁Seminar	-11.6032
▁fit	-11.6032
▁simultaneously	-11.6034
▁Interest	-11.6034
▁today	-11.6036
▁exposed	-11.6036
▁Av	-11.6037
hhattisgarh	-11.6037
▁RE	-11.6039
amu	-11.6041
▁watershed	-11.6042
▁175	-11.6043
▁label	-11.6044
▁otherwise	-11.6044
PH	-11.605
▁introduc	-11.6053
▁aroma	-11.6066
▁marks	-11.6067
2-3	-11.6075
▁constitute	-11.6077
▁cultiv	-11.608
product	-11.6086
▁Sun	-11.609
▁mission	-11.6091
011	-11.6092
-21	-11.6093
▁Discuss	-11.6097
▁Liquid	-11.6097
▁depression	-11.6097
▁determining	-11.6097
▁encouraging	-11.6097
▁integrity	-11.6097
▁laboratories	-11.6097
▁necrosis	-11.6097
▁Intercropping	-11.6097
▁2010-11	-11.6097
▁toxicity	-11.6098
▁3,000	-11.6101
▁40-50	-11.6105
▁Cell	-11.6105
▁indian	-11.6113
rom	-11.6114
▁placement	-11.6114
▁questions	-11.6114
▁prime	-11.6117
▁traditionally	-11.6118
DD	-11.6119
orp	-11.612
▁aged	-11.6121
elli	-11.6121
▁ob	-11.6121
▁50.00	-11.613
bot	-11.6133
▁took	-11.6133
▁91-	-11.614
▁gaps	-11.614
▁counter	-11.6142
▁slopes	-11.6146
tle	-11.615
▁spin	-11.6153
▁reservoir	-11.6153
active	-11.6153
▁bulls	-11.6155
▁ON	-11.6155
▁rational	-11.6157
alu	-11.6161
ttuurarla	-11.6162
▁drudgery	-11.6162
▁tunnel	-11.6162
▁limitations	-11.6162
▁patent	-11.6162
▁evergreen	-11.6162
▁pathway	-11.6162
FLD	-11.6162
▁mitigation	-11.6163
▁elevated	-11.6167
illary	-11.6168
▁educational	-11.6168
▁discovered	-11.6168
▁Full	-11.6173
▁139	-11.6174
▁camel	-11.6178
▁sprayer	-11.618
icic	-11.6185
▁PAU	-11.6185
iningg	-11.6187
cis	-11.6188
▁adjusted	-11.619
▁metric	-11.6191
▁walls	-11.6193
▁sex	-11.6194
▁0.1%	-11.6214
▁tata	-11.6216
▁hydroponic	-11.6219
▁characteristic	-11.6219
▁exclusive	-11.6219
graduate	-11.622
aximum	-11.622
pada	-11.6224
-35	-11.6224
▁Nicobar	-11.6227
▁Udaipur	-11.6227
▁dedicated	-11.6227
▁imidacloprid	-11.6227
▁inflorescence	-11.6227
▁insights	-11.6227
▁NBPGR	-11.6227
▁Tuber	-11.6227
▁Colour	-11.6227
▁chlorophyll	-11.6227
▁mungbean	-11.6227
▁commodity	-11.6227
▁collaborative	-11.6227
treatment	-11.6228
▁running	-11.6228
atory	-11.6228
states	-11.6228
▁Figure	-11.6229
▁mould	-11.6229
▁rising	-11.6231
▁50-60	-11.6237
Vol	-11.6237
▁realized	-11.624
▁0.9	-11.6251
rah	-11.6254
▁margin	-11.6257
ndra	-11.6257
▁documented	-11.6258
▁cumin	-11.6259
▁guns	-11.6262
ARS	-11.6263
6.7	-11.6266
▁Bala	-11.6276
▁drugs	-11.6276
▁integrate	-11.6278
▁typical	-11.6285
adh	-11.629
capsule	-11.6292
▁respond	-11.6293
▁Bavistin	-11.6293
▁Dehradun	-11.6293
▁escape	-11.6293
▁Narendra	-11.6293
▁injury	-11.6293
▁Creation	-11.6293
▁acceptable	-11.6293
▁moong	-11.6293
English	-11.6294
▁scab	-11.6297
▁render	-11.6297
▁Nations	-11.6298
▁hispa	-11.6299
▁coordinated	-11.6302
▁antimicrobial	-11.6306
▁Test	-11.6308
▁receiver	-11.6309
gene	-11.6313
▁Junagadh	-11.6314
▁limits	-11.6315
▁controll	-11.6316
▁clearly	-11.6319
▁roll	-11.6321
▁sent	-11.6325
▁tail	-11.6325
▁Nano	-11.6325
▁institution	-11.6329
▁rivers	-11.6329
▁forestry	-11.6332
▁Organiz	-11.6337
▁performing	-11.634
-26	-11.6344
▁ammonium	-11.6345
▁preserve	-11.6351
location	-11.6353
▁streptocyclin	-11.6357
▁systemic	-11.6358
▁Potassium	-11.6359
▁algae	-11.6359
▁anaerobic	-11.6359
▁comparable	-11.6359
▁Mandate	-11.6359
▁cylindrical	-11.6359
▁frost	-11.6359
▁samman	-11.6359
▁harness	-11.6359
▁Prime	-11.636
▁influent	-11.636
Variety	-11.6361
bhai	-11.6363
▁attended	-11.6365
▁Late	-11.6367
▁1/2	-11.6369
TI	-11.6375
▁idea	-11.638
999	-11.6391
▁hatching	-11.6392
HP	-11.6393
▁And	-11.6396
650	-11.6396
▁cycles	-11.6398
▁fabric	-11.6401
▁entering	-11.6402
▁@5	-11.6406
▁edge	-11.6406
bol	-11.641
▁tube	-11.6417
▁DH	-11.6417
▁principle	-11.6419
▁Cow	-11.642
▁spice	-11.6421
▁AK	-11.6425
▁Medicine	-11.6426
▁PLAN	-11.6426
▁atmosphere	-11.6426
▁completion	-11.6426
▁declining	-11.6426
▁Pathology	-11.6426
▁transgenic	-11.6426
▁females	-11.6427
▁Wa	-11.6428
▁fixation	-11.6428
▁law	-11.643
qq	-11.6435
ivity	-11.6435
▁reaches	-11.6437
cet	-11.644
▁incorporation	-11.6455
▁Bor	-11.6458
eric	-11.646
▁Bark	-11.647
LS	-11.6473
ulu	-11.6473
.2020	-11.6478
edic	-11.6479
▁fail	-11.6482
bin	-11.6483
kash	-11.6488
▁advancement	-11.6488
▁mitigat	-11.6492
▁2003-04	-11.6493
▁Workshop	-11.6493
▁insightful	-11.6493
▁threshing	-11.6493
▁Portal	-11.6493
▁solani	-11.6493
▁acute	-11.6493
▁outstanding	-11.6493
▁software	-11.6493
ott	-11.6495
holding	-11.6497
▁flush	-11.65
▁requested	-11.6501
▁acidity	-11.6504
▁NGO	-11.652
24.0	-11.652
0.3	-11.6524
▁lay	-11.6526
thu	-11.654
atus	-11.6547
mission	-11.6548
▁IR	-11.655
▁heads	-11.6551
▁(1)	-11.6553
▁print	-11.6553
hala	-11.6556
▁Ran	-11.656
▁irrigating	-11.656
▁mohaphol	-11.656
▁mosquito	-11.656
▁prospects	-11.656
▁substitute	-11.656
▁armyworm	-11.656
▁suspension	-11.6562
▁bugs	-11.6562
▁Manure	-11.6563
jit	-11.6563
▁serves	-11.6563
▁touch	-11.6564
▁Royal	-11.6564
July	-11.6566
iff	-11.6569
▁concepts	-11.6571
▁ecology	-11.6572
▁nutri	-11.6574
▁ancient	-11.6578
Proposed	-11.6581
▁ASRB	-11.6588
180	-11.6588
▁sick	-11.6591
iform	-11.6593
▁tion	-11.6597
▁pole	-11.6599
FI	-11.66
▁broadcast	-11.66
LL	-11.6603
▁Jag	-11.6603
▁shifting	-11.6607
RE	-11.661
nce	-11.6618
▁ulcer	-11.6623
▁3.3	-11.6627
▁Complete	-11.6628
▁Provision	-11.6628
▁deterioration	-11.6628
▁tailored	-11.6628
▁opinion	-11.6628
▁desert	-11.6628
▁girth	-11.6628
▁Ecological	-11.6628
▁nidhi	-11.6629
▁Pesticide	-11.6629
▁quarter	-11.6629
quin	-11.663
TM	-11.6632
50.00	-11.6634
affected	-11.6635
▁tractors	-11.6635
▁ideas	-11.6636
(1)	-11.6642
▁hinder	-11.6643
▁wp	-11.6648
▁0.2%	-11.6656
▁culm	-11.6664
enewable	-11.6668
▁exceed	-11.6668
▁003	-11.667
▁rank	-11.6673
0.30	-11.6673
▁rub	-11.6683
FS	-11.6684
ABI	-11.6684
▁equipments	-11.6696
▁officers	-11.6696
hana	-11.6697
▁finance	-11.6697
▁gypsum	-11.6697
▁hygienic	-11.6697
▁longevity	-11.6697
▁modification	-11.6697
▁stories	-11.6697
▁Okra	-11.6697
▁utility	-11.6697
▁worth	-11.6697
▁BE	-11.6697
Punjabi	-11.6698
Ac	-11.6701
▁Light	-11.6701
▁attributes	-11.6702
lttuurree	-11.6702
▁spary	-11.6703
hopper	-11.6704
▁affordable	-11.6706
illa	-11.6709
▁aatt	-11.671
iioonn	-11.671
mati	-11.6711
▁closely	-11.6713
2244	-11.6714
▁hoeing	-11.6715
ifolia	-11.6716
▁variations	-11.6717
▁matters	-11.6718
cular	-11.6731
▁reached	-11.6739
pra	-11.6742
▁Islands	-11.6743
▁0.50	-11.6745
▁necessitate	-11.6748
sowing	-11.6759
chu	-11.6759
▁brood	-11.6765
▁Company	-11.6766
▁decreasing	-11.6766
▁holistic	-11.6766
▁laxative	-11.6766
▁leakage	-11.6766
▁metabolism	-11.6766
▁recognition	-11.6766
▁HRM	-11.6766
▁Subject	-11.6766
▁diammonium	-11.6766
▁electricity	-11.6766
▁Ashok	-11.6766
▁automation	-11.6766
▁Paras	-11.6767
▁draft	-11.6767
▁prune	-11.6767
▁supplementary	-11.6769
run	-11.6769
▁Organizations	-11.6771
▁stunted	-11.6772
▁Dean	-11.6772
▁combin	-11.6773
clin	-11.6774
ppu	-11.6777
oxide	-11.678
▁Organ	-11.6784
▁introduce	-11.6787
▁landless	-11.6788
▁funded	-11.6793
1.20	-11.6799
▁165	-11.6805
III	-11.6806
cn	-11.6812
▁install	-11.6816
▁stimulate	-11.6818
▁030	-11.6821
etting	-11.6828
▁1970	-11.683
tel	-11.683
eghalaya	-11.6832
▁undertake	-11.6835
scorbic	-11.6835
▁Chapter	-11.6835
▁Mulching	-11.6835
▁campaign	-11.6835
▁urgent	-11.6835
▁transmitter	-11.6835
▁ZPD	-11.6836
odium	-11.6836
path	-11.6836
▁specially	-11.6837
room	-11.684
branch	-11.6844
▁suggestion	-11.6848
point	-11.6849
▁Character	-11.6852
▁highlighted	-11.6853
▁surveillance	-11.6854
▁Regions	-11.6855
Plant	-11.6858
▁governance	-11.686
adu	-11.6864
▁Bhat	-11.6864
weed	-11.6867
▁vein	-11.6868
▁Tree	-11.687
▁amendments	-11.687
pani	-11.6871
▁farmland	-11.6884
ercentage	-11.6888
▁spaced	-11.6889
▁Ti	-11.6892
102	-11.6895
▁workshop	-11.6902
▁protocol	-11.6902
sufficiency	-11.6905
▁Jalkund	-11.6905
▁Moisture	-11.6905
▁Promote	-11.6905
▁Tolerant	-11.6905
▁challenging	-11.6905
▁contingency	-11.6905
▁decomposition	-11.6905
▁lavender	-11.6905
▁Fungal	-11.6905
▁pellet	-11.6905
▁sodic	-11.6905
▁emitt	-11.6905
aatitioonn	-11.6906
▁Kalyan	-11.6906
▁differences	-11.6909
▁bael	-11.6911
NDRI	-11.6915
▁beneficiary	-11.6916
▁Four	-11.6917
▁pin	-11.6921
emia	-11.6924
▁fry	-11.6929
place	-11.693
▁Entomology	-11.6934
▁uussee	-11.6941
▁precautions	-11.6943
pura	-11.6944
VI	-11.6946
ction	-11.6946
ret	-11.6947
▁administered	-11.6954
▁2027	-11.6958
▁estimates	-11.696
▁sept	-11.696
▁kat	-11.6972
oastal	-11.6974
▁ML	-11.6975
▁Bangladesh	-11.6976
▁Calcium	-11.6976
▁Carbendazim	-11.6976
▁IlooTT	-11.6976
▁Secretariat	-11.6976
▁appliances	-11.6976
▁floriculture	-11.6976
▁heavily	-11.6976
▁investigation	-11.6976
▁intended	-11.6976
▁Brown	-11.6976
▁AG	-11.6976
▁edition	-11.6976
▁transition	-11.6976
pertaining	-11.6976
▁serum	-11.6976
▁potting	-11.6977
▁NARS	-11.6977
India	-11.6983
▁constituents	-11.6986
▁mung	-11.6987
▁Units	-11.6988
▁Very	-11.6988
▁VI	-11.6988
▁Treated	-11.6991
▁era	-11.6992
▁syn	-11.6995
▁ARS	-11.6996
▁Tea	-11.7001
ulate	-11.7001
iigg	-11.7008
layer	-11.7013
JRF	-11.7017
▁conc	-11.7018
▁appropriately	-11.7018
mix	-11.7035
over	-11.7037
▁MP	-11.7038
▁antibiotic	-11.7045
▁Raja	-11.7046
Supplement	-11.7046
▁profuse	-11.7046
▁basket	-11.7046
▁proceedings	-11.7047
▁Pradhan	-11.7047
▁Smt	-11.7047
spectrum	-11.7047
▁assets	-11.7047
▁Ginger	-11.7047
Mo	-11.7048
▁VC	-11.7048
▁advancements	-11.7054
▁plate	-11.7054
▁interact	-11.7057
▁profits	-11.7058
▁story	-11.7061
zy	-11.7061
RG	-11.7062
▁Vikas	-11.7062
phon	-11.7064
virus	-11.7065
▁123	-11.7078
▁Sat	-11.7085
cat	-11.7086
▁actions	-11.7086
▁combine	-11.7087
ley	-11.7088
▁endo	-11.7089
▁isolates	-11.709
tteedd	-11.7092
RNA	-11.7092
feed	-11.7096
▁hing	-11.7099
▁gaining	-11.7099
▁piglets	-11.7102
▁Programmes	-11.7104
▁weigh	-11.7106
tura	-11.7107
▁officials	-11.7112
▁Governments	-11.7115
▁enzymes	-11.7117
▁Chinese	-11.7118
▁Laboratory	-11.7118
▁Phosphorus	-11.7118
▁carminative	-11.7118
▁cyclone	-11.7118
▁leadership	-11.7118
▁tremendous	-11.7118
▁halves	-11.7118
▁birth	-11.7118
▁retail	-11.7119
▁history	-11.712
▁bund	-11.7123
▁classes	-11.7129
▁installed	-11.7132
▁intercultur	-11.7132
▁Arid	-11.7141
uv	-11.7142
▁ridges	-11.7143
▁strengthened	-11.7143
▁SAU	-11.7144
▁blend	-11.7145
▁Dam	-11.7148
▁15.00	-11.7148
▁dissolve	-11.7148
izer	-11.7154
cultural	-11.7156
RD	-11.7156
▁kk	-11.7161
▁changed	-11.7165
nom	-11.7169
favorable	-11.7171
eus	-11.7171
▁attacks	-11.7177
▁Gir	-11.7179
abi	-11.718
▁DSR	-11.7183
▁clusters	-11.7185
▁WW	-11.7187
-36	-11.7189
▁Definition	-11.719
▁OUAT	-11.719
▁severity	-11.719
▁Physiology	-11.719
▁Significant	-11.719
▁syrup	-11.719
▁Fixed	-11.719
▁Culture	-11.719
▁amister	-11.719
▁diversify	-11.719
▁Overall	-11.7191
▁splitting	-11.7193
▁201	-11.7193
▁automated	-11.7195
▁commercialized	-11.7197
=15.0	-11.7197
▁Seedling	-11.7198
Rajasthan	-11.7204
June	-11.7204
EP	-11.7205
level	-11.7205
▁subsequently	-11.7208
▁herbs	-11.7212
bir	-11.7214
6000	-11.7215
▁worked	-11.7215
▁marketable	-11.7215
0.80	-11.7217
@1.75	-11.7219
plication	-11.7224
ez	-11.7227
▁subjects	-11.7229
▁Solanum	-11.7229
apati	-11.723
▁gear	-11.7231
▁Ver	-11.7236
▁UN	-11.7238
cap	-11.7238
▁independent	-11.7243
▁Ber	-11.7244
oj	-11.7244
▁tables	-11.725
▁collective	-11.7257
eria	-11.7258
▁convey	-11.7262
pollinated	-11.7262
▁Examination	-11.7262
▁dehydration	-11.7262
▁harzianum	-11.7262
▁message	-11.7262
▁thermal	-11.7263
▁overflow	-11.7265
80.00	-11.7265
▁Presently	-11.7267
▁TSP	-11.7269
▁Pests	-11.727
▁plantomycin	-11.7271
020	-11.7273
▁Conduct	-11.7275
ammonium	-11.7277
▁pour	-11.7277
system	-11.7277
▁Lac	-11.7286
-72	-11.7289
▁destroyed	-11.7291
▁Estimates	-11.7293
▁6.4	-11.73
▁accord	-11.7307
▁mind	-11.7308
▁fingerlings	-11.731
▁dimethoate	-11.7323
▁RNA	-11.7323
625	-11.7324
3000	-11.7326
▁Machine	-11.7335
▁valued	-11.7335
▁Anonymous	-11.7335
▁Microbiology	-11.7335
▁elliptic	-11.7335
▁excellence	-11.7335
▁nutraceutical	-11.7335
▁MOP	-11.7335
▁passbook	-11.7335
▁viride	-11.7336
▁classified	-11.7336
▁practised	-11.7338
▁outcome	-11.7338
▁Meat	-11.7341
▁accounting	-11.7342
▁secure	-11.7343
▁partnerships	-11.7344
aster	-11.7349
security	-11.7352
hydrate	-11.7357
▁delayed	-11.736
▁Bal	-11.7363
▁campus	-11.7366
▁Agronomy	-11.737
fic	-11.737
from	-11.7377
▁books	-11.7378
ethyl	-11.7379
ulating	-11.7388
▁225	-11.7388
2012	-11.7394
▁Investment	-11.7409
▁Molecular	-11.7409
▁Promoting	-11.7409
▁hydraulic	-11.7409
▁puddling	-11.7409
▁safflower	-11.7409
krishna	-11.7409
▁Licens	-11.7409
▁Diversification	-11.7409
▁tolerate	-11.7409
Private	-11.7409
▁Contribution	-11.7415
▁Standard	-11.7417
▁possesses	-11.742
▁leaflets	-11.7421
▁previously	-11.7422
▁emphasized	-11.7425
tropical	-11.7425
controlled	-11.7427
▁BAU	-11.7429
onic	-11.743
▁tract	-11.743
▁environmentally	-11.743
▁Lab	-11.7431
▁Eng	-11.7439
▁qualifications	-11.7439
▁adjustments	-11.7449
▁dug	-11.7452
▁opt	-11.7454
▁designing	-11.746
▁targets	-11.7463
hhaann	-11.7471
▁PPR	-11.7471
▁bread	-11.748
▁Lower	-11.7481
▁Dalbergia	-11.7483
▁Parbhani	-11.7483
▁Vermicompost	-11.7483
▁cherry	-11.7483
▁furnish	-11.7483
▁premature	-11.7483
▁sequestration	-11.7483
▁streak	-11.7483
▁tamarind	-11.7483
▁vimeral	-11.7483
▁norms	-11.7483
▁Enhancement	-11.7483
▁dipped	-11.7484
▁enzyme	-11.7484
▁Shoot	-11.7484
▁language	-11.7484
tiioonn	-11.7484
▁accreditation	-11.7484
NAIP	-11.7485
▁Online	-11.7486
▁checked	-11.7486
▁arise	-11.7488
kot	-11.7494
▁page	-11.75
▁closed	-11.7503
▁restricted	-11.7504
▁lowest	-11.7504
▁exhibited	-11.7505
▁regulator	-11.7509
dhan	-11.7509
▁ever	-11.751
unda	-11.7511
▁0.5%	-11.7517
▁retained	-11.7517
xii	-11.7518
▁partners	-11.7529
mut	-11.7529
▁bullocks	-11.753
▁breeders	-11.7531
tural	-11.7531
▁turning	-11.7531
inngg	-11.7539
ttiinngg	-11.7539
▁bad	-11.754
▁infectious	-11.7547
uantity	-11.7557
▁Communication	-11.7558
▁Fertigation	-11.7558
▁Indicator	-11.7558
▁KKVVKKs	-11.7558
▁arunachal	-11.7558
▁august	-11.7558
▁sseeedd	-11.7558
▁subsidies	-11.7558
▁written	-11.7558
▁Clinical	-11.7558
▁forming	-11.7558
▁niger	-11.7558
▁biotechnology	-11.7559
▁Northern	-11.7559
▁relief	-11.7559
▁workshops	-11.7561
▁FPO	-11.7563
▁charge	-11.7564
ched	-11.7568
761	-11.757
.2021	-11.7572
▁RRee	-11.7587
fed	-11.7589
▁pra	-11.7599
▁accelerate	-11.76
▁emerge	-11.76
▁maps	-11.7606
vation	-11.7608
▁sequences	-11.7608
▁AAU	-11.7608
fortified	-11.7608
aur	-11.7608
DM	-11.7612
▁powdered	-11.7612
▁nor	-11.7615
▁5.6	-11.7616
2013	-11.7623
▁minute	-11.7623
▁demonstrate	-11.7624
28.0	-11.7624
▁155	-11.7626
▁Learning	-11.7633
▁Mancozeb	-11.7633
▁ZONE	-11.7633
▁convergence	-11.7633
▁sponsored	-11.7633
▁Status	-11.7633
▁ratoon	-11.7633
▁Concept	-11.7633
▁contour	-11.7633
▁Coordination	-11.7634
▁Virus	-11.7634
▁barnyard	-11.7634
▁governments	-11.7634
▁Trace	-11.7634
range	-11.7637
▁insert	-11.7639
lines	-11.7643
▁box	-11.7643
mple	-11.7648
lock	-11.765
October	-11.7654
▁incentives	-11.7655
▁Hills	-11.7655
Al	-11.7655
aimed	-11.766
▁ahu	-11.7674
eno	-11.7676
▁gape	-11.7677
▁Second	-11.7678
75.00	-11.768
prim	-11.7687
▁SSP	-11.7688
mum	-11.7701
ppm	-11.7701
▁Livelihood	-11.7708
▁advertisement	-11.7708
▁resolve	-11.7709
▁Pepper	-11.7709
▁Ecosystem	-11.7709
▁transmission	-11.7709
▁paragraph	-11.7709
▁FFaarrmmiinngg	-11.7709
▁strawberry	-11.7709
▁midge	-11.7711
▁decade	-11.7711
▁Life	-11.7711
▁linkage	-11.7712
▁hydroponics	-11.7718
▁plum	-11.7719
▁masses	-11.772
▁waterlogged	-11.7724
▁hazards	-11.7726
resilient	-11.773
proof	-11.7732
▁character	-11.7735
▁ppeerr	-11.7738
▁individuals	-11.7741
0.10	-11.7741
▁harvester	-11.7745
aatt	-11.7748
▁milking	-11.7756
▁exports	-11.776
▁Northeast	-11.7762
pod	-11.7766
▁Ban	-11.7766
▁dynamics	-11.7767
▁vehicles	-11.7772
▁advances	-11.7773
▁Off	-11.7775
▁tasks	-11.7776
nin	-11.7777
▁flesh	-11.7778
mamectin	-11.7785
▁Importance	-11.7785
▁Meerut	-11.7785
▁diarrhea	-11.7785
▁dominant	-11.7785
▁untreated	-11.7785
▁varietal	-11.7785
▁letter	-11.7785
▁PEST	-11.7785
▁hydrogen	-11.7785
▁Prevention	-11.7786
▁considerations	-11.7786
▁planned	-11.7786
▁assisted	-11.7787
▁infect	-11.779
▁129	-11.7793
▁annum	-11.7794
aku	-11.7796
▁replaced	-11.7799
▁NASF	-11.78
▁temp	-11.7801
▁earn	-11.7802
tus	-11.7803
▁tar	-11.7804
▁gained	-11.7811
ukh	-11.7817
flu	-11.7818
wat	-11.7823
rium	-11.7828
nat	-11.7829
▁sound	-11.7832
▁ren	-11.7834
▁vir	-11.7839
lined	-11.7847
▁records	-11.7848
▁Best	-11.7854
▁suck	-11.7858
diff	-11.7859
▁Agreement	-11.7862
▁Component	-11.7862
▁ISBN	-11.7862
▁Sahiwal	-11.7862
▁Statistics	-11.7862
▁pumkin	-11.7862
▁rheumatism	-11.7862
▁thresher	-11.7862
▁trichoderma	-11.7862
▁Assets	-11.7862
▁deploy	-11.7862
▁packing	-11.7862
▁Castor	-11.7862
▁withstand	-11.7862
▁Particular	-11.7862
▁School	-11.7862
▁Duration	-11.7862
▁isolation	-11.7862
▁larval	-11.7865
tensive	-11.7866
▁calculated	-11.7871
▁SI	-11.7874
IIHR	-11.7886
field	-11.7886
*	-11.7886
▁shifted	-11.7887
Sa	-11.789
IFS	-11.7893
▁Dte	-11.7893
grade	-11.7905
▁regulate	-11.7915
▁humans	-11.792
3.20	-11.792
▁drones	-11.7921
tir	-11.7929
▁Thar	-11.793
▁heating	-11.7935
nutrient	-11.7938
▁backstopping	-11.7939
▁built	-11.7939
▁certificate	-11.7939
▁compliance	-11.7939
▁expensive	-11.7939
▁invasion	-11.7939
▁january	-11.7939
▁journey	-11.7939
▁axillary	-11.7939
▁photosynthetic	-11.7939
▁error	-11.7939
▁sulfate	-11.7939
▁Profile	-11.794
▁considerably	-11.794
▁practic	-11.794
▁Nepal	-11.794
▁Raipur	-11.7942
▁emission	-11.7947
▁bitterness	-11.795
ier	-11.7953
▁observe	-11.7959
▁ot	-11.7959
▁Hi	-11.7963
▁pickle	-11.7967
▁Ravi	-11.7968
▁stream	-11.7982
▁assume	-11.7985
▁stated	-11.7986
onta	-11.7987
▁inspections	-11.7988
▁payments	-11.7996
6.50	-11.7997
▁reveal	-11.8004
▁6.2	-11.8012
▁partial	-11.8015
Farm	-11.8017
▁Ganoderma	-11.8017
▁enrocin	-11.8017
▁oxysporum	-11.8017
▁LGP	-11.8017
▁Self	-11.8017
▁quarantine	-11.8018
▁Suresh	-11.8018
▁Extn	-11.8018
▁rely	-11.8018
▁sharp	-11.8019
▁(1993)	-11.8019
▁bright	-11.8019
▁751	-11.8019
kul	-11.8021
▁barrier	-11.8022
▁device	-11.8022
▁DAC	-11.8026
▁expanded	-11.8027
▁1980	-11.8029
pet	-11.803
▁gran	-11.8032
zine	-11.8036
▁moved	-11.8041
idal	-11.8044
▁IIMR	-11.8066
▁(2)	-11.8071
▁uproot	-11.8072
▁fulfill	-11.8073
▁4.3	-11.8075
RF	-11.8082
▁146	-11.8082
▁Recent	-11.8091
uuss	-11.8094
chemistry	-11.8095
▁Compost	-11.8096
▁Recruitment	-11.8096
▁Rhizobium	-11.8096
▁Tobacco	-11.8096
▁Which	-11.8096
▁kranti	-11.8096
▁pandemic	-11.8096
▁Nominee	-11.8096
▁2002-03	-11.8096
▁CIAT	-11.8096
▁Minimum	-11.8096
▁entries	-11.8096
▁bleeding	-11.8096
▁rajma	-11.8096
▁Cropping	-11.8096
▁IInnddiiaann	-11.8096
▁wwaas	-11.8097
▁layout	-11.8097
▁Sheep	-11.8097
▁Thiru	-11.8097
▁biocontrol	-11.8098
posing	-11.8098
▁amaranth	-11.8099
▁antibiotics	-11.8099
▁onwards	-11.81
▁evolved	-11.8101
▁males	-11.8101
tss	-11.8102
▁intercrop	-11.8102
▁former	-11.8103
▁Recently	-11.8104
▁notice	-11.8104
FC	-11.8106
If	-11.8106
40.0	-11.8107
▁220022	-11.8107
▁filed	-11.8109
▁GIS	-11.811
▁mealy	-11.8111
ej	-11.8111
-200	-11.8121
Directorate	-11.8125
fusion	-11.8128
dip	-11.813
▁kits	-11.813
▁1,0	-11.8132
structured	-11.8134
▁normally	-11.8135
▁Page	-11.8136
take	-11.8145
usa	-11.8148
HI	-11.8149
▁silt	-11.8165
▁Main	-11.8167
rata	-11.817
▁Headquarters	-11.8175
▁Technological	-11.8175
▁assigned	-11.8175
▁digestive	-11.8175
▁pivotal	-11.8175
▁insemination	-11.8176
▁jelly	-11.8176
▁silver	-11.8176
▁mmaannaaggee	-11.8176
▁Adult	-11.8176
▁quantitative	-11.8176
consuming	-11.8176
▁dioxide	-11.8176
▁decay	-11.8176
▁assay	-11.8176
▁occurring	-11.8176
▁Indore	-11.8178
▁automatic	-11.8178
▁1/3	-11.8178
▁literature	-11.8178
▁fallen	-11.818
hamp	-11.8181
▁stomachic	-11.8181
▁official	-11.8182
▁SiA	-11.8183
▁cooperative	-11.8183
keep	-11.8184
toxin	-11.8188
ographic	-11.8195
▁broader	-11.8197
▁fee	-11.8204
hectare	-11.8205
inda	-11.8207
Sc	-11.821
▁stores	-11.8211
▁participate	-11.8212
▁stones	-11.8213
ttle	-11.8213
aaggee	-11.8215
▁contained	-11.8221
▁chickens	-11.8222
UT	-11.8223
omycin	-11.8232
ltr	-11.8234
▁continues	-11.8238
ige	-11.8245
▁horizontal	-11.8248
cancer	-11.8253
▁Later	-11.8254
▁phenol	-11.8255
▁Efficient	-11.8256
▁Vaccine	-11.8256
▁colonies	-11.8256
▁dexona	-11.8256
▁calving	-11.8256
▁crystal	-11.8256
▁pprrooddu	-11.8256
▁nurtur	-11.8256
▁2009-10	-11.8256
CIFE	-11.8256
▁accessible	-11.8257
▁refinement	-11.8257
▁8713	-11.8258
▁duckling	-11.8258
▁arhar	-11.8258
▁pages	-11.826
▁pyr	-11.826
HS	-11.826
cies	-11.8262
▁reservoirs	-11.8266
▁17.8	-11.8266
main	-11.8268
BH	-11.8269
▁regime	-11.827
ower	-11.8277
50.0	-11.8278
▁developmental	-11.8282
▁Sree	-11.8293
▁HRD	-11.8294
▁6.8	-11.83
pol	-11.8301
▁187	-11.8306
borer	-11.8313
tat	-11.8313
▁137	-11.8318
lat	-11.8319
▁consume	-11.8322
▁older	-11.8323
▁panicles	-11.8326
▁1.15	-11.8328
earing	-11.833
▁Eco	-11.833
operative	-11.8334
=8.3	-11.8336
▁Enterprise	-11.8336
▁Guwahati	-11.8336
▁Rupees	-11.8336
▁TThhisi	-11.8336
▁pregnancy	-11.8336
▁Expert	-11.8336
▁editing	-11.8336
▁injuries	-11.8336
▁percolation	-11.8336
▁digging	-11.8336
▁snowfall	-11.8336
▁Seaweed	-11.8336
▁transaction	-11.8336
▁Bottle	-11.8336
Gangeti	-11.8336
▁AM	-11.8337
▁economies	-11.8337
▁subtropical	-11.8337
▁Solar	-11.8337
azole	-11.8338
▁curd	-11.8338
flower	-11.8338
▁gather	-11.8341
▁ulcers	-11.8343
▁Iron	-11.8343
▁agreement	-11.8343
▁Incharge	-11.8344
▁eht	-11.8345
▁persist	-11.8345
▁mushrooms	-11.8346
aru	-11.835
udu	-11.8352
▁browning	-11.8353
▁fig	-11.8363
▁2.75	-11.8363
4.50	-11.8364
technology	-11.8367
▁Mid	-11.8369
▁cart	-11.8371
▁Ven	-11.8376
rreess	-11.8382
DB	-11.8387
▁emphasize	-11.8387
yt	-11.8389
▁Only	-11.8389
mani	-11.8398
▁laterals	-11.84
▁9.0	-11.8407
arnyard	-11.8417
▁Azolla	-11.8417
▁Structure	-11.8417
▁Website	-11.8417
▁evident	-11.8417
▁feasible	-11.8417
▁haryana	-11.8417
▁influencing	-11.8417
▁piggery	-11.8417
▁subtilis	-11.8417
▁Vivek	-11.8417
▁Course	-11.8418
▁spinach	-11.8418
▁SHG	-11.8418
▁Content	-11.8418
▁capsules	-11.8419
▁envisaged	-11.842
▁proso	-11.842
▁Sale	-11.842
▁Mt	-11.842
▁spatial	-11.8421
rian	-11.8422
▁popularity	-11.8424
▁cutter	-11.8426
▁dependence	-11.8426
bari	-11.8427
▁generations	-11.8428
▁AESR	-11.8431
▁Trial	-11.8431
▁floods	-11.8432
gur	-11.8433
fected	-11.8433
▁linear	-11.8434
▁purchased	-11.8435
▁greenish	-11.8435
gradation	-11.8437
gic	-11.8437
▁constructing	-11.8442
▁Manag	-11.8442
▁quintals	-11.8449
hill	-11.8451
IIMR	-11.8451
oxy	-11.8455
▁bull	-11.8461
▁sustaining	-11.8469
▁papers	-11.847
inder	-11.8473
▁Jaya	-11.8482
140	-11.8489
▁Flowers	-11.849
▁Gur	-11.8491
▁saw	-11.8494
▁dna	-11.8498
▁Ganjam	-11.8499
▁colocasia	-11.8499
▁conversion	-11.8499
▁penetration	-11.8499
▁Broad	-11.8499
▁abroad	-11.8499
▁sterile	-11.8499
▁formulated	-11.8501
WD	-11.8501
▁caseworm	-11.8501
▁biology	-11.8503
▁flag	-11.8503
▁Ranja	-11.8505
iieess	-11.8509
▁006	-11.8511
▁fertilized	-11.8515
ccoomm	-11.8518
gone	-11.8518
▁necessitat	-11.852
inch	-11.852
CISH	-11.8523
▁Card	-11.8526
▁131	-11.8529
serve	-11.8533
mount	-11.8534
▁Naga	-11.8535
▁CCoo	-11.8543
▁134	-11.8547
▁examples	-11.855
▁mesh	-11.8553
▁sep	-11.8554
▁Dar	-11.8555
FPC	-11.8556
▁Plains	-11.8557
atti	-11.856
8,000	-11.856
ote	-11.856
▁cleaned	-11.8569
▁cooperatives	-11.8576
omy	-11.8576
pon	-11.8576
▁Accreditation	-11.8582
▁knife	-11.8582
▁mandarin	-11.8582
▁measuring	-11.8582
▁neutral	-11.8582
▁transparent	-11.8582
▁urinary	-11.8582
▁2006-07	-11.8582
▁gandhi	-11.8582
▁Carbon	-11.8582
▁incurred	-11.8582
▁chips	-11.8582
tulsi	-11.8582
▁july	-11.8582
▁smear	-11.8583
▁Internal	-11.8583
▁Cooperative	-11.8583
▁copy	-11.8583
genic	-11.8585
29.0	-11.8587
▁drink	-11.8587
kerala	-11.8587
▁disorder	-11.8592
▁25.00	-11.8596
▁Advances	-11.8596
▁uuss	-11.8599
▁Optim	-11.8604
▁conserved	-11.8605
▁sustained	-11.8607
▁Mohan	-11.8607
▁wwee	-11.8607
▁bait	-11.8611
222	-11.8615
▁substrates	-11.8619
unn	-11.862
▁cloves	-11.8626
cru	-11.8626
▁inhibitor	-11.8635
▁sig	-11.8637
▁biofertilizers	-11.864
▁scum	-11.864
▁Areas	-11.8641
,00,000	-11.8644
▁Flower	-11.8647
▁dated	-11.865
NARS	-11.8655
SM	-11.8658
-52	-11.866
▁CIAE	-11.8662
▁Adopt	-11.8664
▁electro	-11.8665
sagorika	-11.8665
=109.2	-11.8665
NBAIR	-11.8665
▁Future	-11.8665
▁Intellectu	-11.8665
▁carbofuran	-11.8665
▁lettuce	-11.8665
▁Wild	-11.8665
-1.5	-11.8666
▁immuno	-11.8666
▁fumigation	-11.8666
Revised	-11.8666
▁CSR	-11.8666
▁niche	-11.8666
▁recharge	-11.8667
ique	-11.8669
▁selective	-11.867
▁ball	-11.867
46.0	-11.8671
▁7.6	-11.8673
▁147	-11.8675
▁142	-11.8675
▁task	-11.8676
▁visited	-11.8678
▁panel	-11.8681
irir	-11.8681
▁das	-11.8685
160	-11.8686
▁Helicoverpa	-11.8692
▁listed	-11.8693
▁scion	-11.8694
105	-11.8695
▁Phytophthora	-11.8698
▁guwahati	-11.87
forestry	-11.8702
addition	-11.8703
March	-11.8703
▁nine	-11.8704
▁screening	-11.8707
▁predators	-11.8715
▁resolution	-11.8724
0-150	-11.8726
▁nnee	-11.8726
▁began	-11.8737
ML	-11.8738
▁NDRI	-11.8738
▁gases	-11.8744
IGFRI	-11.8749
NAHEP	-11.8749
▁Barrackpore	-11.8749
▁Godavari	-11.8749
▁migration	-11.8749
▁prosperity	-11.8749
▁stabilize	-11.8749
▁susceptibility	-11.8749
▁parasitoid	-11.8749
▁DBW	-11.8749
▁swine	-11.8749
▁Index	-11.8749
▁mahua	-11.875
▁oyster	-11.875
▁dipping	-11.875
▁topography	-11.8751
▁Lemon	-11.8751
▁Cross	-11.8751
etal	-11.8752
▁jyoti	-11.8752
5500	-11.8752
than	-11.8752
▁genetically	-11.8754
AF	-11.876
▁tune	-11.8763
minent	-11.8765
▁basins	-11.8765
▁Roy	-11.8766
▁printed	-11.8766
▁Receipts	-11.877
▁Deen	-11.8774
▁Anantapur	-11.8776
▁226	-11.878
bel	-11.8781
▁Forest	-11.8781
▁petiole	-11.8783
▁reliance	-11.8795
nad	-11.8804
▁Mandi	-11.882
23.0	-11.8824
▁0.04	-11.8824
▁loosen	-11.8826
▁object	-11.8833
▁front	-11.8834
▁Infrastructure	-11.8834
▁destruction	-11.8834
▁wwhhicichh	-11.8834
▁placing	-11.8834
▁Cluster	-11.8834
▁smell	-11.8834
▁Pigeonpea	-11.8834
▁seminar	-11.8835
▁thinning	-11.8836
iirr	-11.8837
▁fleshy	-11.8842
▁pear	-11.8847
▁choos	-11.885
▁Fertilizers	-11.8854
cto	-11.8857
▁awarded	-11.8857
march	-11.8859
▁opened	-11.8862
Ba	-11.8869
oto	-11.887
▁slight	-11.887
▁vide	-11.8871
BI	-11.8873
▁supplements	-11.8874
drawn	-11.8874
HH	-11.8877
▁(01)	-11.8884
otted	-11.8892
tional	-11.8895
▁integra	-11.8903
▁judicious	-11.8912
▁readi	-11.8912
ova	-11.8913
▁Monthly	-11.8919
▁vigor	-11.8919
▁charges	-11.8919
▁1998-99	-11.892
▁Bareilly	-11.892
▁Because	-11.892
▁Brazil	-11.892
▁Pomegranate	-11.892
▁Prospects	-11.892
▁benzoate	-11.892
▁berseem	-11.892
▁definition	-11.892
▁stubble	-11.892
▁2004-05	-11.892
▁Fibre	-11.892
▁Identify	-11.892
▁Observations	-11.892
▁computer	-11.892
▁leaks	-11.892
▁Material	-11.892
▁leverag	-11.892
▁Resilien	-11.892
▁Guava	-11.892
▁topicur	-11.8922
eennttrree	-11.8923
1.50	-11.8923
7.50	-11.8923
▁Oct	-11.8926
▁strictly	-11.8927
▁villagers	-11.8928
▁propagated	-11.8929
ganj	-11.893
▁trenches	-11.8934
▁wherever	-11.894
▁Back	-11.894
flow	-11.8941
▁soak	-11.8946
▁VII	-11.8946
lp	-11.8957
▁germs	-11.8958
furrow	-11.8962
except	-11.8962
climate	-11.8962
Journal	-11.8963
▁faces	-11.8967
▁bath	-11.8968
▁habitats	-11.8968
about	-11.8968
2,500	-11.897
▁parents	-11.897
▁CCS	-11.8977
161	-11.8986
organic	-11.8988
non	-11.8989
▁granted	-11.8994
▁beam	-11.8994
chan	-11.8994
made	-11.8996
sess	-11.8996
shootlet	-11.8996
21.0	-11.8998
▁brief	-11.8998
▁Schemes	-11.8999
▁streams	-11.9001
▁Buffalo	-11.9006
▁dalbergia	-11.9006
▁diabetes	-11.9006
▁principal	-11.9006
▁qualitative	-11.9006
▁replacing	-11.9006
▁accommodat	-11.9006
▁reinforc	-11.9006
▁queries	-11.9006
▁odour	-11.9006
▁gently	-11.9006
▁Continuous	-11.9006
▁agrimycin	-11.9006
▁Weather	-11.9006
▁burden	-11.9006
ophil	-11.9006
▁shedding	-11.9007
▁Weight	-11.9007
▁FLDs	-11.9007
▁merit	-11.9009
▁enclos	-11.9009
▁Advisory	-11.901
▁Weeding	-11.9011
▁Teak	-11.9011
▁plow	-11.9012
▁DAP	-11.9013
▁fermented	-11.9015
▁VV	-11.9016
hybrids	-11.9017
▁Take	-11.9018
▁vermicomposting	-11.9019
▁plain	-11.9019
▁6-8	-11.902
▁permission	-11.9023
3.50	-11.9028
▁Tamarind	-11.9029
▁eventual	-11.9032
tteerrnn	-11.9034
7000	-11.9043
ury	-11.9044
▁cracks	-11.9046
April	-11.9049
teen	-11.9059
▁proposals	-11.9065
▁van	-11.9067
▁oat	-11.907
▁discussions	-11.9072
▁50,000	-11.9075
▁NRRI	-11.9076
▁replace	-11.9076
▁sheets	-11.9076
gel	-11.9084
being	-11.9084
gist	-11.9087
Ind	-11.9088
▁valid	-11.909
shattering	-11.9093
▁Previous	-11.9093
▁Tripathi	-11.9093
▁imbalance	-11.9093
▁satellite	-11.9093
▁steady	-11.9093
▁supplies	-11.9093
▁Cashew	-11.9093
▁JIk	-11.9093
▁Civil	-11.9093
▁organizing	-11.9093
▁whorl	-11.9093
▁Internet	-11.9093
▁centi	-11.9094
tourism	-11.9095
puri	-11.9096
▁popularization	-11.9098
▁arranged	-11.9098
▁acquired	-11.91
▁stations	-11.9102
losing	-11.9107
▁notification	-11.911
aila	-11.9111
oso	-11.9112
1.25	-11.9112
▁10.1	-11.9112
pox	-11.9114
ertain	-11.9117
▁thank	-11.9118
▁pick	-11.912
▁stalks	-11.9124
▁dal	-11.9126
2.60	-11.9128
▁Publications	-11.913
▁spells	-11.9131
rreedd	-11.9134
Pusa	-11.9141
▁nodes	-11.9142
1993	-11.9145
processing	-11.9154
cron	-11.9155
Ext	-11.9155
UC	-11.9159
▁Interventions	-11.9159
▁disinfect	-11.9167
▁prioritiz	-11.9167
fur	-11.9171
▁license	-11.9172
=106.7	-11.9181
=107.1	-11.9181
=113.6	-11.9181
=115.1	-11.9181
RKVY	-11.9181
▁glucose	-11.9181
▁hundred	-11.9181
▁permanganate	-11.9181
▁pharmaceutical	-11.9181
cellulose	-11.9181
▁2001-02	-11.9181
▁ammonia	-11.9181
▁Pandey	-11.9181
▁Temperature	-11.9181
▁entitled	-11.9181
▁frontier	-11.9181
▁ESR	-11.9181
▁Fellowship	-11.9181
▁prophylactic	-11.9181
▁specifications	-11.9181
▁background	-11.9181
▁inspire	-11.9181
▁BRAN	-11.9181
▁felt	-11.9182
▁underutilized	-11.9182
▁trays	-11.9182
▁fatty	-11.9183
▁matrix	-11.9184
LM	-11.9184
▁Wood	-11.9184
110	-11.9188
▁benefitted	-11.919
fit	-11.9191
▁exclusively	-11.9191
▁Mela	-11.9192
▁Issue	-11.9195
▁vehicle	-11.9195
position	-11.9198
▁rid	-11.9206
▁Calotropis	-11.9209
▁plaster	-11.9216
▁observ	-11.9221
▁costly	-11.9226
lop	-11.9233
▁diagnostics	-11.9236
▁optimized	-11.9237
▁branched	-11.9238
oides	-11.9239
cont	-11.9242
▁shaped	-11.9247
cover	-11.9249
▁accordingly	-11.9249
ziz	-11.925
▁supplemented	-11.9253
▁AO	-11.9254
▁bales	-11.9257
kku	-11.9258
▁bush	-11.9267
▁distinguish	-11.9267
▁responses	-11.9268
▁148	-11.9268
tetracyclin	-11.9269
aught	-11.9269
▁Employe	-11.9269
▁pprroodduuctcit	-11.9269
bbaasseedd	-11.9269
iiggiittaal	-11.9269
▁INDIA	-11.9269
▁abundance	-11.9269
▁caterpiller	-11.9269
▁disseminate	-11.9269
▁eligibility	-11.9269
▁invasive	-11.9269
▁irrespective	-11.9269
▁possibility	-11.9269
▁thuringiensis	-11.9269
▁transpiration	-11.9269
▁Sometimes	-11.9269
▁packed	-11.9269
▁Indira	-11.9269
▁milch	-11.9269
▁biopesticides	-11.927
▁graduates	-11.927
▁cutworm	-11.9271
ppt	-11.9272
▁adhere	-11.9272
▁functionality	-11.9272
▁cocoa	-11.9273
▁jamun	-11.9274
▁Compe	-11.9275
0-120	-11.9275
▁Shiv	-11.9277
▁signal	-11.9279
▁173	-11.9281
grain	-11.9284
▁Host	-11.9284
▁orchid	-11.9285
▁constraint	-11.9285
▁initiate	-11.9288
▁warming	-11.9289
▁threaten	-11.929
hydr	-11.9291
taitoion	-11.9291
OL	-11.9293
GE	-11.9296
econdary	-11.9296
▁lives	-11.9297
▁Healthy	-11.9299
▁combinations	-11.9307
▁deposit	-11.9308
elia	-11.9309
▁born	-11.9309
ioonn	-11.931
▁Lam	-11.9313
▁Till	-11.9313
ppaa	-11.9317
106	-11.932
▁aerial	-11.9325
▁eyes	-11.9339
111	-11.9343
▁1,500	-11.9356
▁hhiigghh	-11.9358
=107.0	-11.9358
▁Azamgarh	-11.9358
▁Germplasm	-11.9358
▁Jyoti	-11.9358
▁Maintenance	-11.9358
▁advertisers	-11.9358
▁compilation	-11.9358
▁erratic	-11.9358
▁organisation	-11.9358
▁premium	-11.9358
▁societies	-11.9358
▁Straw	-11.9358
▁writing	-11.9358
▁relay	-11.9358
▁Textbook	-11.9358
▁Plot	-11.9359
▁Machinery	-11.9359
▁Mineral	-11.9359
▁Srinagar	-11.9359
NICRA	-11.936
▁radiation	-11.936
▁MTU	-11.936
▁2050	-11.936
▁phenolic	-11.9361
AWC	-11.9361
▁wetting	-11.9362
▁Mad	-11.9366
▁transformed	-11.9371
ccyy	-11.9373
▁Extract	-11.9373
▁Consider	-11.9377
▁concentrated	-11.9378
45.0	-11.938
▁Rule	-11.9382
▁Age	-11.9386
▁SAC	-11.9387
agu	-11.9399
▁176	-11.9403
153	-11.9403
cropping	-11.9408
13.0	-11.9409
621	-11.941
HRD	-11.941
▁CAU	-11.9413
▁8.5	-11.9414
▁push	-11.9415
▁relie	-11.9415
▁instruments	-11.9415
uron	-11.9416
▁gains	-11.9417
source	-11.9421
extremely	-11.9426
Con	-11.9428
HU	-11.9428
▁CAZRI	-11.9428
uti	-11.9435
▁register	-11.9435
▁Dist	-11.9438
▁wt	-11.9439
opsis	-11.9442
NBFGR	-11.9448
▁Bamboo	-11.9448
▁FOOD	-11.9448
▁Jawahar	-11.9448
▁Mechanization	-11.9448
▁Tropical	-11.9448
▁Wheth	-11.9448
▁organised	-11.9448
▁subscriber	-11.9448
▁thrust	-11.9448
▁tthhiiss	-11.9448
▁vulnerability	-11.9448
▁lifespan	-11.9448
▁Pathak	-11.9448
▁jowar	-11.9448
▁scoring	-11.9448
ernacular	-11.9448
▁genus	-11.9448
▁increment	-11.9449
▁wax	-11.9451
▁wave	-11.9452
▁Approximately	-11.9452
▁183	-11.9455
▁GPS	-11.9456
▁thr	-11.9458
▁gauge	-11.9462
▁seedbed	-11.9464
▁1-1.5	-11.9468
▁Rose	-11.9469
▁negatively	-11.9469
▁substantially	-11.9471
▁february	-11.9473
▁wasp	-11.9475
▁spores	-11.9486
CAR	-11.9493
eersr	-11.9493
▁ducks	-11.9498
2003	-11.9504
▁moths	-11.9505
▁15.0	-11.9508
down	-11.951
trans	-11.9518
▁display	-11.9526
▁136	-11.9536
Institution	-11.9538
▁regulators	-11.9538
▁colony	-11.9539
=107.5	-11.9539
=115.6	-11.9539
▁Factors	-11.9539
▁Srivastava	-11.9539
▁capabilities	-11.9539
▁coarse	-11.9539
▁polyethylene	-11.9539
▁ddeevveelloopp	-11.9539
▁smoke	-11.9539
▁liming	-11.9539
▁proforma	-11.954
Cassia	-11.954
=108.0	-11.9541
▁fluid	-11.9541
▁evolution	-11.9541
▁Effectiveness	-11.9541
▁explore	-11.9542
akesh	-11.9543
▁25-35	-11.9543
▁prolonged	-11.9546
▁Hydro	-11.9547
▁regulatory	-11.9548
▁accepted	-11.9548
▁12-15	-11.955
▁encourages	-11.9553
▁kcc	-11.9553
▁HS	-11.9555
▁ingredient	-11.9557
▁arrangement	-11.9558
▁threats	-11.9559
sagar	-11.9564
▁fourth	-11.9564
oorrmmataitoion	-11.9565
▁Place	-11.9565
▁4-6	-11.9565
680	-11.9565
▁externally	-11.9565
tab	-11.9566
iivv	-11.9568
uucchh	-11.9569
▁fallows	-11.9571
▁0.15	-11.9573
dam	-11.958
then	-11.958
▁sections	-11.9585
▁Ranga	-11.9592
▁random	-11.9593
▁Now	-11.9594
▁span	-11.9597
amycin	-11.9599
450	-11.9602
▁rodents	-11.9602
▁pox	-11.9605
▁ample	-11.9616
metric	-11.9624
▁strict	-11.9624
iiddee	-11.9626
requisite	-11.9631
▁1997-98	-11.9631
▁Purple	-11.9631
▁charcoal	-11.9631
▁correlation	-11.9631
▁expectorant	-11.9631
▁manifest	-11.9631
▁metabolic	-11.9631
▁Stress	-11.9631
▁morphological	-11.9631
testinal	-11.9631
▁equine	-11.9631
▁Unique	-11.9631
▁winged	-11.9631
▁Labour	-11.9632
MAP	-11.9632
▁Ragi	-11.9632
▁window	-11.9633
▁witnessed	-11.9637
▁agreed	-11.9637
▁Herb	-11.9637
▁boil	-11.9637
▁alongside	-11.9637
▁stover	-11.9638
▁Foot	-11.9639
tiioonns	-11.9639
▁Fat	-11.9643
wel	-11.9645
▁happen	-11.965
▁outbreak	-11.9651
1.80	-11.9659
▁beverages	-11.9659
43.0	-11.9661
▁Palm	-11.9663
▁15,000	-11.9667
ambu	-11.967
▁transform	-11.968
liable	-11.9682
oouut	-11.9682
pressure	-11.9687
▁reporting	-11.9693
▁incubators	-11.9698
ogenic	-11.9701
▁pumping	-11.9709
▁VIII	-11.9712
▁examine	-11.9716
▁Madhu	-11.9722
▁tracts	-11.9723
=104.7	-11.9724
▁Purchase	-11.9724
▁WATER	-11.9724
▁feasibility	-11.9724
▁ffaarrmmeresr	-11.9724
▁immemorial	-11.9724
▁purgative	-11.9724
▁false	-11.9724
▁travel	-11.9724
sscc	-11.9724
▁Imphal	-11.9724
▁deodar	-11.9724
▁Biochemistry	-11.9724
▁fitted	-11.9725
▁baby	-11.9725
▁alkali	-11.9725
▁circle	-11.9725
▁Meena	-11.9726
▁Property	-11.9727
▁GDP	-11.973
▁updated	-11.9731
▁experimentation	-11.9734
▁pipeline	-11.9735
dress	-11.9737
▁PCR	-11.974
▁submergence	-11.974
▁Product	-11.9742
▁snow	-11.9747
▁20.0	-11.9749
ather	-11.9751
▁Hal	-11.9753
▁vac	-11.9759
▁antioxidants	-11.9763
▁detected	-11.9769
bro	-11.9776
FYM	-11.978
19.0	-11.9781
▁560	-11.9784
▁pride	-11.9786
280	-11.9796
oining	-11.9797
▁4000	-11.9799
rryy	-11.98
▁IIT	-11.9809
▁bred	-11.981
uducherry	-11.9817
▁RReevvoolulutit	-11.9817
▁attachments	-11.9817
▁curricula	-11.9817
▁frozen	-11.9817
▁inflammation	-11.9817
▁offshoot	-11.9817
▁repository	-11.9817
▁Cultural	-11.9817
▁hatcheries	-11.9817
▁Lanka	-11.9817
Terminal	-11.9817
▁compet	-11.9818
Contd	-11.9818
▁entrepreneurial	-11.9818
▁stay	-11.982
▁ascend	-11.9821
▁antigen	-11.9822
▁setts	-11.9823
Bio	-11.983
wide	-11.9837
▁Currently	-11.9837
anthes	-11.9838
▁indicator	-11.9839
▁CIFT	-11.9842
▁Kota	-11.9845
▁globose	-11.9845
▁90.00	-11.9855
▁3086	-11.9856
vic	-11.9859
▁hhaavv	-11.9864
▁jobs	-11.9867
▁pprree	-11.9878
▁noit	-11.9882
▁ccrroopps	-11.9886
▁pap	-11.9901
▁mention	-11.9902
▁Variet	-11.9904
▁18.5	-11.9908
▁sero	-11.991
435	-11.9911
Brassica	-11.9911
=106.5	-11.9911
=119.1	-11.9911
Ocimum	-11.9911
syngenta	-11.9911
▁Bhasin	-11.9911
▁Floriculture	-11.9911
▁Hqrs	-11.9911
▁RReeppoortr	-11.9911
▁determination	-11.9911
▁encompass	-11.9911
▁occupie	-11.9911
DMAPR	-11.9911
▁Install	-11.9911
▁talent	-11.9912
▁limb	-11.9912
▁Automat	-11.9912
▁varities	-11.9913
▁motor	-11.9913
▁Editorial	-11.9913
▁0.03	-11.9914
rachi	-11.9916
▁alleviate	-11.9922
vad	-11.9926
parasitic	-11.9927
power	-11.9927
▁explored	-11.9928
▁november	-11.993
▁session	-11.9933
icular	-11.994
test	-11.9941
obi	-11.9943
▁BO	-11.9944
▁bundle	-11.9947
Appendix	-11.9947
mini	-11.9948
▁rear	-11.995
▁185	-11.995
▁saved	-11.9952
▁bore	-11.9956
eni	-11.9959
biotic	-11.996
▁sprout	-11.9965
▁mol	-11.9965
▁Lep	-11.9969
odo	-11.9969
lodging	-11.9971
vitamin	-11.9971
Department	-11.9971
Business	-11.9971
▁entrepreneur	-11.9976
▁esa	-11.9988
ophyll	-11.9994
Bli	-11.9995
mentation	-11.9996
▁pickles	-12.0002
ceae	-12.0002
▁fas	-12.0003
▁popul	-12.0004
▁Where	-12.0006
▁Allahabad	-12.0007
▁Availability	-12.0007
▁Azospirillum	-12.0007
▁Corporation	-12.0007
▁respiration	-12.0007
▁scheduling	-12.0007
▁sequencing	-12.0007
▁supervision	-12.0007
▁synthesis	-12.0007
▁Akola	-12.0007
▁Every	-12.0007
▁luffa	-12.0007
▁utilis	-12.0007
▁bollworm	-12.0007
ground	-12.0007
▁mounted	-12.0007
▁Visit	-12.0007
▁yyiieelldd	-12.0007
▁ticks	-12.0007
▁Blue	-12.0007
▁agribusiness	-12.0007
▁priorities	-12.0008
▁things	-12.0008
▁indoor	-12.0009
▁Standards	-12.0009
▁IISS	-12.0011
▁master	-12.0013
GS	-12.0015
▁connected	-12.0019
▁850	-12.0026
sulf	-12.0026
oouur	-12.0027
▁reasonably	-12.0028
▁dynamic	-12.0029
▁piglet	-12.0031
▁Mixed	-12.0032
▁tiller	-12.0034
▁1995	-12.0036
▁Students	-12.0036
▁meta	-12.0038
338	-12.0039
ulated	-12.004
230	-12.0046
▁Centers	-12.0046
graphic	-12.0054
last	-12.0056
▁Dou	-12.0056
uva	-12.0057
▁khol	-12.0066
Director	-12.0067
▁60.00	-12.0068
skill	-12.0069
technologies	-12.0069
2009	-12.0078
book	-12.008
▁25.0	-12.008
▁Entrepreneur	-12.0082
polymer	-12.0087
▁Journals	-12.0087
KA	-12.0088
itude	-12.009
▁construct	-12.0093
urban	-12.0095
▁sprinkle	-12.0098
=101.5	-12.0103
=116.0	-12.0103
=117.0	-12.0103
oollooggyy	-12.0103
▁Cassava	-12.0103
▁Consequently	-12.0103
▁administration	-12.0103
▁algorithm	-12.0103
▁appointed	-12.0103
▁assurance	-12.0103
▁discoloration	-12.0103
▁kamrup	-12.0103
▁succinic	-12.0103
▁Waste	-12.0103
▁sediment	-12.0103
approx	-12.0103
11-25841282	-12.0103
▁fluton	-12.0103
▁capability	-12.0104
▁Trade	-12.0104
2014	-12.0105
▁Room	-12.0105
▁organize	-12.0105
▁restore	-12.0108
▁Him	-12.0114
vvaa	-12.0116
▁estimate	-12.0121
▁spent	-12.0122
31.0	-12.0123
1.03	-12.0125
▁instruction	-12.0126
▁Intervention	-12.0126
▁think	-12.0127
▁drone	-12.0128
005	-12.0129
▁Dark	-12.0129
hom	-12.0129
▁imported	-12.0131
▁ploughed	-12.0134
▁coli	-12.0147
▁alkaloids	-12.0156
▁exhibitions	-12.0157
▁Nav	-12.0158
tail	-12.016
Telugu	-12.0167
▁dye	-12.0169
▁legal	-12.0169
UA	-12.0173
▁nations	-12.0173
anu	-12.0173
issi	-12.0174
disciplinary	-12.0176
▁career	-12.0176
▁item	-12.0177
▁sized	-12.0184
▁17.0	-12.0185
uull	-12.0188
All	-12.0191
vention	-12.0192
NAM	-12.0195
nder	-12.0197
valu	-12.02
▁TTrraannssff	-12.02
▁AIEEA	-12.02
▁Landscap	-12.02
▁borux	-12.02
▁bulletin	-12.02
▁clones	-12.02
▁degraded	-12.02
▁neglect	-12.02
▁preserving	-12.02
▁probably	-12.02
▁showcase	-12.02
▁spoilage	-12.02
▁thread	-12.02
▁volatile	-12.02
▁NASC	-12.02
CCPI	-12.02
▁jackfruit	-12.02
▁KHAR	-12.02
▁Pruning	-12.02
▁magnet	-12.02
▁Agribusiness	-12.0201
corporation	-12.0201
▁IWMI	-12.0201
eennccee	-12.0202
▁flock	-12.0202
▁European	-12.0203
480	-12.0207
▁Incubator	-12.0208
692	-12.0208
▁methodology	-12.0214
oca	-12.0215
2967	-12.0216
▁densely	-12.022
undi	-12.0225
PE	-12.0226
▁0.02	-12.0227
▁locality	-12.0228
▁Kalpa	-12.0229
ordinate	-12.0231
oria	-12.0236
▁Pages	-12.0241
2.20	-12.0242
parental	-12.0248
Fe	-12.0265
Network	-12.0266
known	-12.0266
▁American	-12.0268
▁hormones	-12.0273
▁Chit	-12.0279
▁sticks	-12.0279
zone	-12.028
Ex	-12.0285
mmeentn	-12.0287
▁thorough	-12.029
=102.4	-12.0298
=103.5	-12.0298
=105.9	-12.0298
=106.0	-12.0298
=106.9	-12.0298
=107.7	-12.0298
=110.4	-12.0298
=119.8	-12.0298
=119.9	-12.0298
▁1999-00	-12.0298
▁Category	-12.0298
▁advisable	-12.0298
▁botanical	-12.0298
▁bronchitis	-12.0298
▁qualities	-12.0298
▁suspected	-12.0298
▁Flood	-12.0298
▁Floor	-12.0298
Gujrat	-12.0298
▁Prior	-12.0298
▁thorn	-12.0298
▁ATMA	-12.0298
▁silk	-12.0298
▁Reaction	-12.0299
▁wetlands	-12.0299
lime	-12.03
▁Biology	-12.03
=111.0	-12.0301
▁appreciated	-12.0302
▁35-40	-12.0302
cross	-12.0305
▁Mass	-12.0306
▁reput	-12.0306
11.0	-12.0308
▁NNaa	-12.031
▁rotten	-12.0312
3.33	-12.0312
▁carbohydrate	-12.0323
▁filtered	-12.0324
taf	-12.0326
regulated	-12.0329
157	-12.0359
work	-12.0364
Eastern	-12.0366
Andhra	-12.0366
00.0.0	-12.0369
▁Demonstrations	-12.037
▁Reduce	-12.0374
▁vent	-12.038
scarce	-12.0382
44.0	-12.0384
aakk	-12.0391
verse	-12.0392
▁0.40	-12.0397
ioonniziz	-12.0397
▁Chaudhary	-12.0397
▁Cynodon	-12.0397
▁Excellence	-12.0397
▁Inventory	-12.0397
▁Sanjay	-12.0397
▁Sponsor	-12.0397
▁Study	-12.0397
▁Suitability	-12.0397
▁alkalinity	-12.0397
▁antiseptic	-12.0397
▁chosen	-12.0397
▁concluded	-12.0397
▁flavor	-12.0397
▁gerbera	-12.0397
▁lecture	-12.0397
▁Toxicolog	-12.0397
▁Understanding	-12.0397
cellular	-12.0397
SALT	-12.0397
▁metabolites	-12.0397
▁plug	-12.0398
▁shock	-12.0398
▁urad	-12.0398
▁2500	-12.0404
▁Magazines	-12.0412
▁Choos	-12.0413
50,000	-12.0414
▁streptocycline	-12.0414
▁8000	-12.0415
ucc	-12.0419
bac	-12.0421
▁declined	-12.0427
004	-12.0427
35.0	-12.0433
401	-12.0433
uta	-12.0434
▁renew	-12.044
112	-12.0442
200.00	-12.0442
▁relieve	-12.045
▁100.0	-12.0451
26.0	-12.0452
ography	-12.0453
lata	-12.0455
▁addresses	-12.0458
atio	-12.0459
240	-12.0459
OS	-12.0462
▁Boro	-12.0466
▁Collect	-12.0468
▁corner	-12.0484
▁vers	-12.0485
riinngg	-12.0488
▁steriliz	-12.0495
servation	-12.0496
=109.1	-12.0497
=110.1	-12.0497
=114.2	-12.0497
=116.5	-12.0497
=118.1	-12.0497
▁Ladakh	-12.0497
▁accomplish	-12.0497
▁emptied	-12.0497
▁fibrous	-12.0497
▁looper	-12.0497
▁masonry	-12.0497
▁ssuussttaaiinn	-12.0497
▁2007-08	-12.0497
▁overnight	-12.0497
▁ailments	-12.0497
▁buried	-12.0497
▁aonla	-12.0497
▁apex	-12.0497
▁Transform	-12.0498
▁procure	-12.0498
sphere	-12.0499
▁Biofertilizer	-12.05
▁powerful	-12.0501
▁never	-12.0502
Point	-12.0503
▁behalf	-12.0516
▁1996	-12.0517
▁Turn	-12.052
▁bite	-12.0525
▁log	-12.0526
▁RES	-12.0527
exploited	-12.0529
mara	-12.053
bacterium	-12.0532
▁khanapara	-12.0534
(10)	-12.0535
▁cured	-12.054
▁independence	-12.0543
▁Rich	-12.0546
uscular	-12.0559
6,000	-12.056
▁Vijaya	-12.0561
▁8.3	-12.0562
▁earthworms	-12.0562
▁attracted	-12.0566
summer	-12.057
fixing	-12.057
ease	-12.0572
▁formula	-12.0585
▁Map	-12.0585
nutrients	-12.0596
▁lactat	-12.0597
/12/2011	-12.0598
▁Anthracnose	-12.0598
▁Approach	-12.0598
▁ddeevviiccee	-12.0598
▁emulsion	-12.0598
▁inoculum	-12.0598
▁manganese	-12.0598
▁serving	-12.0598
▁2000-01	-12.0598
▁Custom	-12.0598
▁Lentil	-12.0598
▁sanitiz	-12.0598
▁senior	-12.0598
▁snail	-12.0598
▁Spacing	-12.0598
▁search	-12.0598
▁trainees	-12.0599
▁House	-12.0599
▁leguminous	-12.0599
▁route	-12.06
▁reserve	-12.06
own	-12.06
▁clayey	-12.0601
▁Cowpea	-12.0602
▁horn	-12.0602
▁Agricul	-12.0611
27.0	-12.0618
▁1991	-12.0618
375	-12.062
AK	-12.0621
▁Six	-12.0628
▁Framework	-12.0631
zers	-12.0633
wani	-12.0635
roshan	-12.0636
mL	-12.0639
▁Class	-12.064
▁ranking	-12.064
▁connect	-12.0642
designated	-12.0643
341	-12.065
erial	-12.0655
▁projected	-12.066
▁spawning	-12.0661
▁exploitation	-12.0664
toxic	-12.0668
variety	-12.0672
flox	-12.0681
380	-12.0685
▁divide	-12.0691
▁say	-12.0693
ercospora	-12.0698
▁resist	-12.0699
=103.7	-12.07
=104.9	-12.07
=105.4	-12.07
=109.4	-12.07
=113.1	-12.07
=115.3	-12.07
=117.3	-12.07
=117.6	-12.07
=117.7	-12.07
=119.7	-12.07
▁Sustainability	-12.07
▁defoliation	-12.07
▁deltoides	-12.07
▁influenza	-12.07
▁neighbour	-12.07
▁2008-09	-12.07
▁driving	-12.07
▁mililitre	-12.07
▁MACS	-12.07
▁Published	-12.07
▁commenc	-12.07
▁Zero	-12.07
▁Sensor	-12.07
▁inoculation	-12.0701
▁uusseedd	-12.0702
▁liv	-12.0703
▁Forage	-12.0703
▁stain	-12.0703
▁Draft	-12.0704
May	-12.0707
▁piles	-12.0707
▁Deans	-12.0708
▁7-8	-12.0714
▁.00	-12.0714
▁aadha	-12.0719
utter	-12.072
1.10	-12.0723
▁organism	-12.0729
▁incubator	-12.0733
▁Kiphire	-12.0735
▁tap	-12.0736
▁Deemed	-12.0736
▁finally	-12.074
phan	-12.0741
▁Testing	-12.0745
▁149	-12.0752
▁milling	-12.0761
tier	-12.0775
CIFT	-12.0775
density	-12.0776
idium	-12.0782
▁rats	-12.0784
arable	-12.0785
101	-12.0791
▁naga	-12.0797
▁Function	-12.0798
▁refine	-12.0802
lang	-12.0803
▁Bhanjanagar	-12.0803
▁TTeelleeccoomm	-12.0803
▁gravity	-12.0803
▁loofah	-12.0803
▁HPLC	-12.0803
▁Depend	-12.0803
▁Determin	-12.0803
▁leather	-12.0803
▁textbook	-12.0803
▁enlarge	-12.0803
▁Conclusion	-12.0803
▁quinalphos	-12.0804
▁Frontline	-12.0804
▁Palampur	-12.0804
▁Pink	-12.0804
▁machineries	-12.0804
patti	-12.0804
lap	-12.0805
▁brick	-12.0805
▁compaction	-12.0806
▁Rani	-12.0808
▁dirt	-12.0808
▁grafted	-12.0812
▁wine	-12.0819
▁reactions	-12.0821
▁potion	-12.0824
So	-12.0826
▁pupa	-12.0828
▁chapter	-12.0833
▁Moti	-12.0834
▁transforming	-12.0835
duct	-12.0849
▁fellowships	-12.0851
▁killing	-12.0854
▁cv	-12.0855
278	-12.0857
bacter	-12.0858
▁178	-12.0859
▁Gas	-12.0865
2.30	-12.0866
▁equally	-12.0869
▁1950	-12.0872
jh	-12.0874
468	-12.088
Source	-12.0881
blitox	-12.0881
▁lice	-12.0887
274	-12.0898
tuurree	-12.0899
trategic	-12.0899
▁35.00	-12.0899
rocket	-12.0899
KVKs	-12.09
684	-12.0902
▁Saha	-12.0906
▁client	-12.0907
=100.5	-12.0907
=104.6	-12.0907
=106.2	-12.0907
=106.4	-12.0907
=108.4	-12.0907
=108.6	-12.0907
=109.9	-12.0907
=111.7	-12.0907
=112.4	-12.0907
=114.3	-12.0907
=114.4	-12.0907
=114.8	-12.0907
=114.9	-12.0907
=115.5	-12.0907
=116.2	-12.0907
=116.4	-12.0907
=118.4	-12.0907
=118.6	-12.0907
=118.7	-12.0907
Vanaraja	-12.0907
▁Appropriate	-12.0907
▁Santosh	-12.0907
▁chlorothalonil	-12.0907
▁confidence	-12.0907
▁imperative	-12.0907
▁mukta	-12.0907
▁outreach	-12.0907
▁precipitation	-12.0907
▁quintle	-12.0907
▁safeguard	-12.0907
▁whitish	-12.0907
▁2005-06	-12.0907
▁Sanjeev	-12.0907
▁iinncclluudd	-12.0907
▁imaging	-12.0907
▁chief	-12.0907
▁storm	-12.0907
▁hyper	-12.0907
ampa	-12.0908
▁Insecticide	-12.0908
▁tripura	-12.0908
▁improper	-12.0908
▁Soft	-12.0908
▁Integration	-12.0909
▁original	-12.0911
33.0	-12.0911
reventive	-12.0914
▁chart	-12.0914
aerated	-12.0917
AAS	-12.0917
▁collectively	-12.0918
▁hybridization	-12.0919
114	-12.092
kam	-12.0924
unch	-12.0925
▁failed	-12.0928
▁doubled	-12.0935
▁Plain	-12.0939
▁organizational	-12.094
▁Computer	-12.094
▁Flowering	-12.0943
BR	-12.0945
▁broadly	-12.0948
▁goes	-12.095
▁CARI	-12.0951
orum	-12.0958
▁4.6	-12.096
CAU	-12.0966
▁adequately	-12.0976
Eco	-12.0978
▁reviewed	-12.0982
ccoo	-12.0987
State	-12.0988
▁Ripe	-12.0988
▁sessions	-12.0989
saving	-12.0989
▁confirm	-12.0992
chal	-12.0994
▁pprr	-12.0997
▁request	-12.0999
▁upward	-12.1
▁bill	-12.1001
riv	-12.1003
ualifications	-12.1011
uinciactaitoionn	-12.1012
▁Agrawal	-12.1013
▁Biodiversity	-12.1013
▁Chairperson	-12.1013
▁Essential	-12.1013
▁appetite	-12.1013
▁armigera	-12.1013
▁milestone	-12.1013
▁subsistence	-12.1013
NBAIM	-12.1013
▁damaging	-12.1013
▁orientation	-12.1013
▁CTCRI	-12.1013
▁respondents	-12.1013
▁terrain	-12.1013
▁Ridge	-12.1013
::2200	-12.1013
▁educate	-12.1013
versity	-12.1013
▁sapota	-12.1013
▁Better	-12.1013
▁Gopal	-12.1015
list	-12.1025
Allocation	-12.1027
▁realize	-12.1028
14.0	-12.1028
▁angle	-12.1029
▁cultivator	-12.103
▁Jain	-12.1034
descript	-12.1036
▁Jai	-12.1038
▁llii	-12.104
▁Sona	-12.1043
▁haemo	-12.1045
▁lesion	-12.1045
▁xa	-12.105
▁biofertilizer	-12.1051
▁Mill	-12.1051
▁weaken	-12.1052
mur	-12.1058
itcic	-12.1059
▁electric	-12.106
▁Rate	-12.1062
▁Lu	-12.1063
▁Photo	-12.1067
560	-12.1076
tration	-12.1079
etre	-12.109
2008	-12.1094
Kannada	-12.1095
board	-12.1096
awan	-12.1096
▁breaking	-12.1097
▁End	-12.1098
poor	-12.1098
▁Issues	-12.1101
▁express	-12.1104
▁secur	-12.1108
▁tag	-12.1111
▁EEnnggiinneeer	-12.1119
▁detergent	-12.1119
▁sewage	-12.1119
=101.1	-12.1119
=102.6	-12.1119
=104.8	-12.1119
=105.2	-12.1119
=105.3	-12.1119
=105.5	-12.1119
=105.8	-12.1119
=108.5	-12.1119
=113.5	-12.1119
=114.6	-12.1119
=115.0	-12.1119
=115.2	-12.1119
=117.2	-12.1119
=119.3	-12.1119
zadirachtin	-12.1119
▁Partnership	-12.1119
▁Srinivas	-12.1119
▁climbing	-12.1119
▁crisis	-12.1119
▁dursban	-12.1119
▁globe	-12.1119
▁nervous	-12.1119
▁sucrose	-12.1119
▁thiram	-12.1119
▁perception	-12.1119
▁purified	-12.1119
▁estrus	-12.1119
▁Allied	-12.1119
▁Mahua	-12.1119
▁durum	-12.1119
SEED	-12.112
▁alkaline	-12.112
▁Sonapur	-12.112
omics	-12.1121
▁intercrops	-12.1122
▁flame	-12.1123
▁gul	-12.1123
illi	-12.1123
▁Scale	-12.1125
▁Anjan	-12.1125
▁Heat	-12.1126
▁focuse	-12.113
▁Former	-12.1131
▁ripen	-12.1134
▁15-30	-12.1135
▁accelerat	-12.114
▁expanding	-12.1147
▁SMS	-12.115
kara	-12.115
▁rodent	-12.1153
▁geo	-12.1155
1,000	-12.1157
410	-12.1161
0-300	-12.1163
▁broadcasting	-12.1164
micro	-12.1168
▁pigment	-12.1171
▁readers	-12.1187
▁Mat	-12.1189
clusion	-12.119
660	-12.119
▁Ray	-12.1191
▁figures	-12.1192
▁video	-12.1192
▁lamb	-12.1193
@10	-12.1194
HO	-12.1194
right	-12.1195
FMD	-12.1204
market	-12.1205
▁yak	-12.1206
▁celebrat	-12.1206
(11)	-12.1207
▁DDee	-12.1208
▁mega	-12.1212
▁Male	-12.1214
▁autonomous	-12.1226
▁sterility	-12.1226
▁Choudhary	-12.1226
▁Rhizoctonia	-12.1226
▁camphor	-12.1226
▁themselves	-12.1226
▁Oilseeds	-12.1226
▁intellect	-12.1226
▁mountain	-12.1226
▁fried	-12.1227
▁Female	-12.1227
▁functionaries	-12.1227
▁Agency	-12.1227
▁History	-12.1227
▁Improve	-12.1227
▁earhead	-12.1227
▁River	-12.1228
akhand	-12.1228
682	-12.1229
▁IAs	-12.123
▁slop	-12.1232
▁040	-12.1233
▁IVT	-12.1236
▁TSS	-12.1247
860	-12.125
ZT	-12.1256
▁participat	-12.1258
▁delivered	-12.1261
▁Meta	-12.1261
▁rotary	-12.1262
▁figure	-12.1262
putting	-12.1265
uutt	-12.1266
425	-12.1275
plan	-12.1276
▁grind	-12.1281
nI	-12.1297
▁calculat	-12.1305
IU	-12.1312
november	-12.1313
Malayalam	-12.1314
SAUs	-12.1314
where	-12.1314
▁cope	-12.1314
Oriya	-12.1318
80.0	-12.1321
▁Mini	-12.1323
▁Sch	-12.1326
▁Band	-12.1327
uarter	-12.1333
metr	-12.1333
▁Educational	-12.1335
=109.8	-12.1335
=112.1	-12.1335
=113.7	-12.1335
=113.8	-12.1335
=114.7	-12.1335
=117.5	-12.1335
ecologies	-12.1335
▁Mechanical	-12.1335
▁Spodoptera	-12.1335
▁dactylon	-12.1335
▁perishable	-12.1335
▁succeed	-12.1335
▁Registratio	-12.1335
▁voice	-12.1335
▁physiology	-12.1335
india	-12.1335
▁viridi	-12.1335
▁acceptability	-12.1335
▁Multiple	-12.1335
▁Indofil	-12.1336
▁mutant	-12.1336
▁probiotic	-12.1336
▁Construction	-12.1336
▁hedge	-12.1337
▁Arun	-12.134
▁documentation	-12.1344
▁burnt	-12.1349
▁Gold	-12.1352
▁tax	-12.1365
▁Dhar	-12.1368
▁2026	-12.1373
▁separated	-12.1374
▁graded	-12.1376
high	-12.1382
▁skilled	-12.1394
▁minimized	-12.1395
centric	-12.1397
dap	-12.1401
▁expand	-12.1403
loom	-12.1403
tata	-12.1405
static	-12.1406
umba	-12.142
▁Mantr	-12.1423
▁arrangements	-12.1424
Bengali	-12.1425
▁hhee	-12.1425
thora	-12.1431
▁MMaa	-12.1432
laws	-12.1435
▁Dip	-12.1438
▁sour	-12.1439
VII	-12.1439
CU	-12.144
olli	-12.144
0.35	-12.1441
▁5.8	-12.1443
third	-12.1443
asafoetida	-12.1445
▁Access	-12.1445
▁Exhibition	-12.1445
▁Individual	-12.1445
▁ccuullttiivvaa	-12.1445
▁dyspepsia	-12.1445
▁methodologies	-12.1445
▁premises	-12.1445
▁roasted	-12.1445
▁rupees	-12.1445
▁suspended	-12.1445
▁tthhrroouugghh	-12.1445
▁fragment	-12.1445
continent	-12.1445
▁nodal	-12.1445
ICRAF	-12.1445
▁jammu	-12.1445
▁Dried	-12.1446
▁Credit	-12.1446
▁llooww	-12.1446
▁asthma	-12.1447
Institutes	-12.1449
▁Initially	-12.1452
Sub	-12.1452
▁Abiotic	-12.1454
▁Media	-12.1455
▁GoI	-12.1455
nine	-12.1455
▁confirmed	-12.1459
▁Dept	-12.1464
khol	-12.1468
▁Scheduled	-12.1468
▁accelerated	-12.1472
▁Dig	-12.1475
36.0	-12.1481
▁hoe	-12.1482
▁9.5	-12.1483
▁Island	-12.1484
335	-12.1484
fabricated	-12.1485
oco	-12.1499
325	-12.15
▁kur	-12.1502
850	-12.1506
2024	-12.1512
668	-12.1516
aavv	-12.1518
Chairmanship	-12.1519
half	-12.1522
▁recording	-12.1524
036	-12.1536
Marathi	-12.1537
mouth	-12.1537
local	-12.1537
▁0.01	-12.154
Soil	-12.1541
It	-12.1551
eenndd	-12.1553
Benefit	-12.1555
=101.3	-12.1556
=101.9	-12.1556
=102.5	-12.1556
=103.2	-12.1556
=103.9	-12.1556
=104.5	-12.1556
=112.2	-12.1556
=116.3	-12.1556
=116.8	-12.1556
=117.9	-12.1556
=118.0	-12.1556
=118.9	-12.1556
▁Alternate	-12.1556
▁Efficiency	-12.1556
▁analytics	-12.1556
▁curriculum	-12.1556
▁nnaattuurarla	-12.1556
▁rroollee	-12.1556
▁satisfactory	-12.1556
▁ssiiggnn	-12.1556
▁deemed	-12.1556
▁flakes	-12.1556
▁ovoid	-12.1556
▁wealth	-12.1556
▁Rights	-12.1556
azette	-12.1556
▁berries	-12.1557
▁faec	-12.1557
▁whiteflies	-12.1557
▁tiny	-12.1557
▁textile	-12.1557
▁Joshi	-12.1557
▁CRP	-12.1557
▁slug	-12.1557
▁tilth	-12.1558
=110.0	-12.1558
purpose	-12.156
▁cheaper	-12.156
tec	-12.156
▁executed	-12.156
▁curve	-12.1561
▁Profit	-12.1563
ctively	-12.1564
▁Manish	-12.1566
IlI	-12.1566
▁presently	-12.1568
atitude	-12.157
vathi	-12.1572
MF	-12.1572
8.50	-12.1573
▁lid	-12.1586
vam	-12.1589
4.80	-12.1593
313	-12.1595
▁fingerling	-12.16
escent	-12.1604
▁appeared	-12.1618
612	-12.1622
7,000	-12.1622
▁rule	-12.1623
▁segments	-12.1623
▁streptomycine	-12.1628
▁ttrraa	-12.163
▁1976	-12.1631
allabh	-12.1633
▁Accounting	-12.1635
▁6.3	-12.1635
ITK	-12.1645
pesticides	-12.165
AESR	-12.165
▁834	-12.1651
Animal	-12.1651
assum	-12.1656
▁prove	-12.1657
eeww	-12.1665
atrix	-12.1666
▁Navsari	-12.1669
▁lameness	-12.1669
iabilities	-12.1669
▁Agrinnovate	-12.1669
▁Comparative	-12.1669
▁Criteria	-12.1669
▁sampling	-12.1669
▁sprinkling	-12.1669
▁subscription	-12.1669
Replacement	-12.1669
boundary	-12.1669
▁Facilitat	-12.1669
▁STCR	-12.1669
▁Arvind	-12.1669
▁cataly	-12.1669
reliant	-12.1669
▁Mathura	-12.1669
▁ccoommmunuin	-12.1669
▁medical	-12.1669
▁intercropped	-12.1669
/2016-	-12.1669
▁2,4-	-12.1669
▁CPF	-12.1669
▁Phyto	-12.167
▁Manual	-12.167
▁insulation	-12.1672
3.75	-12.1674
▁deka	-12.1676
0.90	-12.1677
▁Salt	-12.1678
▁1974	-12.1683
PKV	-12.1686
▁156	-12.1688
avan	-12.1694
eries	-12.1705
9.20	-12.1708
▁earthworm	-12.1709
▁parameter	-12.1709
▁served	-12.171
▁Experimental	-12.1716
ogenesis	-12.1716
▁Grapes	-12.1717
▁linking	-12.1721
342	-12.1726
▁stripe	-12.1727
▁hhoo	-12.1729
▁valves	-12.1729
ajra	-12.173
▁WB	-12.1731
▁pav	-12.1735
▁feel	-12.1736
▁seem	-12.1746
HT	-12.175
▁leach	-12.1756
gauge	-12.1765
please	-12.1766
nutrition	-12.1766
▁rounded	-12.1767
▁analyse	-12.1773
▁complement	-12.1781
=100.4	-12.1782
=100.7	-12.1782
=101.8	-12.1782
=104.1	-12.1782
=109.6	-12.1782
=110.5	-12.1782
=111.8	-12.1782
=112.6	-12.1782
=113.4	-12.1782
=115.4	-12.1782
=117.4	-12.1782
=118.8	-12.1782
▁Efforts	-12.1782
▁Household	-12.1782
▁Intensification	-12.1782
▁bordeux	-12.1782
▁delicious	-12.1782
▁headquarters	-12.1782
▁mandatory	-12.1782
▁oryzae	-12.1782
▁purchasing	-12.1782
▁smoking	-12.1782
▁revision	-12.1782
▁Extent	-12.1782
▁prawn	-12.1782
▁Bidhan	-12.1782
▁catfish	-12.1783
▁Experience	-12.1783
▁acceptance	-12.1783
▁priming	-12.1783
▁preced	-12.1783
▁coast	-12.1783
▁Subsequently	-12.1784
▁(2001)	-12.1784
▁Export	-12.1784
▁remarkable	-12.1784
▁Sundar	-12.1785
▁Guest	-12.1785
▁popping	-12.1785
=114.0	-12.1786
=119.0	-12.1786
▁dragon	-12.1786
RFD	-12.1786
▁Icar	-12.1792
region	-12.1792
▁Bhima	-12.1801
▁Press	-12.1803
642	-12.1804
▁Magazine	-12.1823
▁editor	-12.1827
imp	-12.1827
▁passed	-12.183
▁ootthheer	-12.1835
826	-12.1836
Startup	-12.1855
▁0.33	-12.1856
▁shorter	-12.1859
may	-12.186
390	-12.1869
34.0	-12.1878
producing	-12.1882
3.25	-12.1884
▁update	-12.1888
▁Similar	-12.1889
▁00.000	-12.189
343	-12.1891
▁soup	-12.1895
▁Academic	-12.1897
▁Almora	-12.1897
▁Azotobacter	-12.1897
▁Kadaknath	-12.1897
▁Modipuram	-12.1897
▁People	-12.1897
▁Surface	-12.1897
▁accumulate	-12.1897
▁endemic	-12.1897
▁jurisdiction	-12.1897
▁prohibit	-12.1897
▁Govind	-12.1897
▁saponin	-12.1897
▁unidentifi	-12.1897
▁Papaya	-12.1897
NRCPB	-12.1897
lixen	-12.1897
ospora	-12.1897
▁Safety	-12.1898
▁panama	-12.1898
▁Loans	-12.1898
▁belongs	-12.1898
▁solarisation	-12.1898
▁BIo	-12.1898
▁trout	-12.1899
1.60	-12.1899
▁Down	-12.19
▁disinfection	-12.1901
▁Gyan	-12.1907
▁depicted	-12.1908
▁partially	-12.1909
▁Conventional	-12.191
▁Tomar	-12.1915
loss	-12.1917
media	-12.1919
904	-12.1921
▁mulches	-12.1923
▁predicted	-12.1924
aceous	-12.1926
hybrid	-12.1926
▁0.99	-12.1926
chloro	-12.1933
▁instrument	-12.1934
ould	-12.1937
▁hardy	-12.1937
306	-12.1938
kj	-12.1939
▁student	-12.194
▁bullock	-12.194
hou	-12.1944
▁tho	-12.196
iw	-12.1962
ophos	-12.1971
Hub	-12.1984
imal	-12.1986
Scientist	-12.2
unga	-12.2
Integrated	-12.2
47.0	-12.2004
▁recruit	-12.2012
▁pseudo	-12.2013
=100.8	-12.2013
=101.2	-12.2013
=102.2	-12.2013
=102.7	-12.2013
=103.8	-12.2013
=106.3	-12.2013
=110.3	-12.2013
=111.6	-12.2013
=116.9	-12.2013
=118.5	-12.2013
▁TechnologIes	-12.2013
▁Telephone	-12.2013
▁Vishwa	-12.2013
▁broken	-12.2013
▁kashmir	-12.2013
▁ointment	-12.2013
▁proliferation	-12.2013
▁seepage	-12.2013
▁transparency	-12.2013
▁walnut	-12.2013
▁wightii	-12.2013
▁yyPromoti	-12.2013
▁Garden	-12.2013
▁Rogor	-12.2013
chancellor	-12.2013
▁mutual	-12.2013
▁harsh	-12.2013
▁malabar	-12.2014
▁purity	-12.2014
▁occasionally	-12.2015
=5.0	-12.2015
transplant	-12.2015
▁reverse	-12.2015
▁seats	-12.2015
▁sink	-12.2016
▁Hydroponic	-12.2016
1.12	-12.2016
▁dhanti	-12.2016
▁manipulation	-12.2017
▁boxes	-12.2019
37.0	-12.2021
khar	-12.2021
▁analysed	-12.2022
▁Syn	-12.2024
▁disposed	-12.2026
aries	-12.2026
▁Gul	-12.2031
▁qui	-12.2034
fresh	-12.2034
▁topdressing	-12.2035
heri	-12.2036
▁biscuits	-12.204
▁Techniques	-12.2042
WP	-12.2042
▁jointly	-12.2044
2017-	-12.2049
▁Chau	-12.2066
080	-12.2072
▁Tur	-12.2072
recurring	-12.2077
VV	-12.2082
062	-12.2111
through	-12.2119
▁poorly	-12.212
nnoo	-12.2127
▁Hkkjr	-12.2131
rriiggaattiioonn	-12.2131
▁Diagnostic	-12.2131
▁Participants	-12.2131
▁Shisham	-12.2131
▁antibodies	-12.2131
▁bassiana	-12.2131
▁dimecron	-12.2131
▁drooping	-12.2131
▁granules	-12.2131
▁identity	-12.2131
▁movable	-12.2131
▁packet	-12.2131
rhizobium	-12.2131
▁ethylene	-12.2131
▁muscle	-12.2131
▁morphology	-12.2131
▁flexible	-12.2131
▁Panama	-12.2131
▁Chauhan	-12.2131
▁Mandal	-12.2132
▁plateau	-12.2132
▁Honey	-12.2132
▁pathology	-12.2132
▁MAPs	-12.2132
▁Naik	-12.2132
▁ZnSO	-12.2133
▁Reduction	-12.2133
▁conform	-12.2134
▁chaff	-12.2134
▁catla	-12.2134
▁Mono	-12.2135
▁Paper	-12.2138
▁phospho	-12.2138
▁lean	-12.2139
▁conception	-12.214
▁Blackgram	-12.214
▁Ants	-12.2142
Plan	-12.2143
▁Rust	-12.2144
print	-12.2144
▁button	-12.2145
▁axil	-12.2148
1.70	-12.2151
▁latex	-12.2153
▁Round	-12.2154
mantri	-12.2154
▁aqua	-12.2161
kari	-12.2166
▁1998	-12.2167
ifera	-12.217
▁3657	-12.217
▁Aphids	-12.2173
▁dependenc	-12.2179
▁Nature	-12.2186
Chi	-12.2189
▁cup	-12.2195
▁Appli	-12.2206
▁thermo	-12.2211
2.40	-12.2225
fall	-12.223
large	-12.2231
2002)	-12.2233
▁propagat	-12.2234
ofthe	-12.2235
▁MON	-12.2237
TEC	-12.2238
multiplex	-12.2239
white	-12.2239
rogor	-12.2239
▁iimmpp	-12.2249
▁megha	-12.225
▁Pigeon	-12.225
▁Nematode	-12.225
=101.4	-12.225
=102.3	-12.225
=102.8	-12.225
=107.6	-12.225
=109.7	-12.225
=110.7	-12.225
=119.6	-12.225
ROSS	-12.225
carotene	-12.225
excluding	-12.225
▁Resistance	-12.225
▁aerobic	-12.225
▁configuration	-12.225
▁intermediate	-12.225
▁pearlmillet	-12.225
▁peninsula	-12.225
▁saturated	-12.225
▁sunshine	-12.225
▁syndrome	-12.225
▁whatsoever	-12.225
▁Bulb	-12.225
▁Herbicide	-12.225
▁comfort	-12.225
▁Barley	-12.225
word	-12.2251
▁cypermethrin	-12.2251
▁Observ	-12.2251
▁budding	-12.2251
▁hamper	-12.2252
atic	-12.2252
▁Microbe	-12.2252
Madhya	-12.2253
▁algal	-12.2254
itoion	-12.2254
▁dominated	-12.2255
▁Mangal	-12.2256
▁rarely	-12.2257
▁pollinators	-12.2266
▁Prune	-12.2269
334	-12.227
▁Banda	-12.2272
articipatory	-12.2278
▁Plastic	-12.2278
▁mice	-12.2279
▁absorbed	-12.228
▁30-45	-12.2289
▁Accordingly	-12.2292
▁exceeding	-12.23
▁partner	-12.2303
▁matured	-12.231
115	-12.2315
▁medi	-12.2321
▁complicat	-12.2325
PDA	-12.2326
▁dew	-12.2329
(3)	-12.2331
▁Bean	-12.2333
▁1992	-12.2335
duly	-12.2344
▁tried	-12.2349
▁katha	-12.2351
6.20	-12.2354
ethi	-12.2356
sensitive	-12.2361
Medium	-12.2361
yellow	-12.2361
potato	-12.2361
▁prompt	-12.2363
hna	-12.2369
▁Aspergillus	-12.2371
▁Residue	-12.2371
▁Vidyalaya	-12.2371
▁avocado	-12.2371
▁buttermilk	-12.2371
▁curcumin	-12.2371
▁demulcent	-12.2371
▁nymph	-12.2371
▁Linseed	-12.2371
▁Spread	-12.2371
▁advent	-12.2371
▁Carrot	-12.2371
▁Viswa	-12.2371
▁logistic	-12.2371
▁Golden	-12.2372
▁Sugar	-12.2372
▁Text	-12.2373
▁lactation	-12.2373
▁advocated	-12.2374
▁thereafter	-12.2374
▁basil	-12.2375
rainy	-12.2376
▁suppression	-12.2376
▁45-60	-12.2376
Seed	-12.2378
▁judiciously	-12.2382
▁Produce	-12.2382
akar	-12.2384
▁sprouted	-12.2388
▁18-20	-12.2391
▁Anil	-12.2395
▁0.16	-12.2396
580	-12.2399
▁stimulat	-12.24
bacteria	-12.2405
▁genera	-12.2409
▁isolate	-12.241
▁coated	-12.2412
ARD	-12.2413
▁neuro	-12.2415
▁contributor	-12.2415
▁occupation	-12.2418
▁Detail	-12.2419
▁scrap	-12.2421
usual	-12.2421
atipa	-12.2425
▁correction	-12.2426
▁pressing	-12.2427
▁rind	-12.2433
65.00	-12.2441
▁1987	-12.2444
▁Chak	-12.2472
malai	-12.2478
priya	-12.2479
agged	-12.2481
▁dryer	-12.2483
utta	-12.2484
CRIDA	-12.2484
Principal	-12.2485
▁compete	-12.2488
▁conjuncti	-12.2488
▁Author	-12.2491
▁Niger	-12.2492
▁carotenoid	-12.2492
=103.1	-12.2492
=107.4	-12.2492
=108.2	-12.2492
=110.6	-12.2492
=110.8	-12.2492
=112.7	-12.2492
=119.4	-12.2492
responsibilities	-12.2492
▁Efficacy	-12.2492
▁Pumpkin	-12.2492
▁Ranikhet	-12.2492
▁Register	-12.2492
▁aggregation	-12.2492
▁chrysanthemum	-12.2492
▁consortium	-12.2492
▁crossandra	-12.2492
▁endeavour	-12.2492
▁mahafal	-12.2492
▁possibly	-12.2492
▁resembl	-12.2492
▁rreessiidduuee	-12.2492
▁scattered	-12.2492
▁showcasing	-12.2492
▁subsidiar	-12.2492
▁synchroniz	-12.2493
▁kiwifruit	-12.2493
▁polish	-12.2493
▁uupp	-12.2493
▁Karonda	-12.2493
▁Rainfall	-12.2493
▁sustainably	-12.2493
▁Front	-12.2493
▁antibacterial	-12.2493
▁Notification	-12.2493
▁sunny	-12.2493
▁bottlegourd	-12.2493
▁subsurface	-12.2493
▁Successful	-12.2494
▁SNP	-12.2494
▁Kangra	-12.2494
▁shop	-12.2496
bhog	-12.2496
978	-12.2499
▁IItt	-12.2502
▁renovat	-12.2502
3,000	-12.2505
did	-12.2507
▁Carp	-12.2509
▁preserved	-12.2509
103	-12.2509
▁208	-12.251
▁emphasiz	-12.2511
▁0.32	-12.2512
yster	-12.2512
▁sense	-12.2514
▁9.8	-12.2518
▁differential	-12.2524
▁1975	-12.2528
fortification	-12.253
▁Item	-12.2534
▁incubatee	-12.2539
▁cucurbit	-12.2542
▁segment	-12.2542
▁predator	-12.2544
695	-12.2545
vir	-12.2547
▁safely	-12.2548
▁monitored	-12.255
ancy	-12.2553
@4	-12.2555
tteenn	-12.2573
mination	-12.2575
fff	-12.2583
2.10	-12.2589
rati	-12.2589
▁publish	-12.2591
637	-12.2596
ipping	-12.2597
angu	-12.26
666	-12.2602
▁Present	-12.2608
dwarf	-12.261
▁Country	-12.2616
▁Gaurav	-12.2616
▁JNKVV	-12.2616
▁Konkan	-12.2616
▁Mukherjee	-12.2616
▁Orchid	-12.2616
▁chopped	-12.2616
▁chromosome	-12.2616
▁crossbred	-12.2616
▁dolichos	-12.2616
▁earliest	-12.2616
▁execution	-12.2616
▁interview	-12.2616
▁maturation	-12.2616
▁membrane	-12.2616
▁oovveer	-12.2616
▁pprroocceesss	-12.2616
▁tryptophan	-12.2616
▁wwoommene	-12.2616
▁Kathua	-12.2616
▁durable	-12.2616
▁uncertain	-12.2616
jpg	-12.2616
▁verification	-12.2616
▁humus	-12.2616
▁(2020)	-12.2616
▁queen	-12.2616
▁Hindu	-12.2616
▁consultancy	-12.2616
Pacific	-12.2616
▁Old	-12.2618
▁mentor	-12.2621
▁constitut	-12.2624
▁Ear	-12.2626
▁Reduced	-12.264
▁bole	-12.2643
isi	-12.2644
▁Sheet	-12.2648
eresr	-12.2656
▁Ratio	-12.2661
▁dys	-12.2662
uneve	-12.2672
▁strongly	-12.2674
-130	-12.2674
ortable	-12.2695
llium	-12.2701
roma	-12.2711
onsidering	-12.2713
circulat	-12.2725
department	-12.2736
private	-12.2736
=104.2	-12.2741
=107.9	-12.2741
=108.3	-12.2741
=109.5	-12.2741
=112.3	-12.2741
=113.3	-12.2741
=115.8	-12.2741
=116.6	-12.2741
destructive	-12.2741
determinate	-12.2741
▁Advertisement	-12.2741
▁Collaboration	-12.2741
▁Genome	-12.2741
▁Salinity	-12.2741
▁cifax	-12.2741
▁custard	-12.2741
▁declared	-12.2741
▁guiding	-12.2741
▁longitudinal	-12.2741
▁nuvacron	-12.2741
▁rigid	-12.2741
▁switch	-12.2741
▁kochila	-12.2741
▁periodically	-12.2741
▁solitary	-12.2741
Imperial	-12.2741
▁command	-12.2741
▁manipur	-12.2741
▁snack	-12.2741
▁Gautam	-12.2741
▁indices	-12.2741
▁Normal	-12.2741
▁mandal	-12.2741
▁stomata	-12.2741
▁Classification	-12.2741
▁Generation	-12.2741
▁ridgegourd	-12.2742
▁grew	-12.2742
▁bittergourd	-12.2742
5.50	-12.2742
▁Vaccination	-12.2742
CIAH	-12.2742
▁compiled	-12.2742
▁Jeeva	-12.2743
▁Copy	-12.2744
▁talk	-12.2745
plly	-12.2746
▁deput	-12.2748
▁backward	-12.2748
▁Step	-12.2748
▁Heav	-12.2751
▁hostel	-12.2753
▁Urd	-12.2753
▁examined	-12.2753
▁thereof	-12.2755
▁picked	-12.276
▁pace	-12.2761
▁warmer	-12.277
104	-12.2773
Zn	-12.2777
379	-12.2778
▁Hard	-12.2803
▁Breed	-12.2805
▁title	-12.2807
500.00	-12.2811
▁scraper	-12.2816
Desi	-12.2826
killer	-12.2831
570	-12.2832
▁Rest	-12.2833
▁tape	-12.284
60.0	-12.2841
UG	-12.2863
soluble	-12.2864
Bihar	-12.2864
Agriculture	-12.2865
▁govern	-12.2866
▁Adjust	-12.2868
▁Opportunities	-12.2868
▁Philippines	-12.2868
▁Species	-12.2868
▁capacities	-12.2868
▁confined	-12.2868
▁conspicuous	-12.2868
▁explosion	-12.2868
▁hospital	-12.2868
▁tafgor	-12.2868
bendazole	-12.2868
▁shrink	-12.2868
▁undertaking	-12.2868
▁Package	-12.2868
▁Ghats	-12.2868
▁Reader	-12.2868
▁binding	-12.2868
▁SCSP	-12.2868
▁Deccan	-12.2868
▁Diversity	-12.2869
Ficus	-12.2869
▁arize	-12.2869
▁distribute	-12.2869
▁instant	-12.2869
hydroxy	-12.287
▁exact	-12.2872
vitro	-12.2873
▁Soak	-12.2874
kai	-12.2875
iaceae	-12.2875
ette	-12.2882
▁twin	-12.2882
▁Narain	-12.2884
7.20	-12.2893
9.50	-12.2893
pass	-12.2896
862	-12.2918
▁chick	-12.2923
awn	-12.2926
▁undergo	-12.2931
▁Encourage	-12.294
441	-12.2943
GAP	-12.2956
1.75	-12.2962
Mon	-12.2972
▁CChh	-12.2974
▁Rajesh	-12.2975
▁Mag	-12.2975
card	-12.298
▁ferment	-12.298
ocyte	-12.2981
▁059	-12.2984
▁Initial	-12.2988
▁Addition	-12.2991
surface	-12.2994
CAFT	-12.2994
September	-12.2994
▁978-81-7164-1	-12.2996
▁Shakti	-12.2996
=100.1	-12.2996
=100.9	-12.2996
=102.0	-12.2996
=102.1	-12.2996
=104.3	-12.2996
=106.8	-12.2996
=107.8	-12.2996
=109.3	-12.2996
=111.3	-12.2996
=112.9	-12.2996
=115.9	-12.2996
=117.8	-12.2996
tltuurarla	-12.2996
▁Fundamental	-12.2996
▁Gwalior	-12.2996
▁Mexico	-12.2996
▁appointment	-12.2996
▁eradication	-12.2996
▁ownership	-12.2996
▁phenotyping	-12.2996
▁ppllaannt	-12.2996
▁sunken	-12.2996
▁eexxpp	-12.2996
▁fishermen	-12.2996
▁rreedduucc	-12.2996
▁Sesame	-12.2996
▁equity	-12.2996
▁sensitivity	-12.2996
informatics	-12.2996
▁Captan	-12.2996
▁drippers	-12.2996
▁medication	-12.2996
▁bloat	-12.2996
▁drier	-12.2996
Agro	-12.2997
▁Score	-12.2997
▁footprint	-12.2997
▁Commercialized	-12.2997
=104.0	-12.2997
▁rohu	-12.2998
▁solvent	-12.2998
Agri	-12.2998
animal	-12.3
FFP	-12.3
what	-12.3003
▁Blast	-12.3003
▁carrier	-12.3006
▁planet	-12.3007
mmenetnst	-12.3007
▁Youth	-12.3011
iittyy	-12.3013
▁Commissioner	-12.3013
▁iimmpprroovv	-12.3013
chrom	-12.3016
▁disruption	-12.3025
▁1966	-12.3032
rrvv	-12.3033
2005	-12.3036
SRI	-12.3039
ICT	-12.3045
731	-12.3046
▁tnem	-12.306
aatteedd	-12.3063
▁peer	-12.3069
▁Deb	-12.3071
2001	-12.3077
2255	-12.3085
▁rof	-12.3087
262	-12.3093
▁Big	-12.3097
▁correspond	-12.3097
▁Rajan	-12.3098
8.20	-12.3104
7.60	-12.3114
▁Guru	-12.3117
▁nose	-12.3118
▁nationalise	-12.3121
▁Utiliz	-12.3123
roviding	-12.3124
48.0	-12.3125
phosphate	-12.3126
NBPGR	-12.3126
▁qualifi	-12.3126
▁molases	-12.3126
diabetic	-12.3126
▁Venkatesh	-12.3126
▁External	-12.3126
▁Kinnaur	-12.3126
▁Ministries	-12.3126
▁Printers	-12.3126
▁Representative	-12.3126
▁authentic	-12.3126
▁castration	-12.3126
▁glyphosate	-12.3126
▁iimmaaggee	-12.3126
▁juvenile	-12.3126
▁liquor	-12.3126
▁reclamation	-12.3126
▁somnifera	-12.3126
▁summarize	-12.3126
▁woman	-12.3126
▁Genomic	-12.3126
▁lysine	-12.3126
▁ffiieelldd	-12.3126
▁fruitfly	-12.3126
▁mesta	-12.3126
▁Dhule	-12.3126
▁draught	-12.3126
-110001	-12.3126
▁Khasi	-12.3126
FL	-12.3126
▁Great	-12.3126
▁karada	-12.3127
▁compensation	-12.3127
duration	-12.3127
queous	-12.3127
▁Socio	-12.3128
▁aarreeaa	-12.3129
effectiveness	-12.3129
▁boom	-12.313
▁brownish	-12.3135
lint	-12.3136
▁cities	-12.3142
▁neo	-12.3144
49.0	-12.3146
▁calculation	-12.3146
owned	-12.3149
▁lleeaarrnniinng	-12.3153
umar	-12.316
▁favor	-12.316
intact	-12.3163
anara	-12.3169
▁Giri	-12.3171
▁Size	-12.3175
▁Liv	-12.3175
semi	-12.318
▁stir	-12.3181
▁journal	-12.3183
620	-12.3184
biodiversity	-12.3184
787	-12.3185
▁Sew	-12.3186
137	-12.319
▁wear	-12.3193
palm	-12.3203
0.27	-12.3221
quatic	-12.323
milil	-12.323
▁Surya	-12.3231
class	-12.3238
▁Standardiz	-12.3239
▁Prevent	-12.3245
▁Experi	-12.3247
▁Fertilize	-12.3252
ollar	-12.3253
▁mmaacchhinine	-12.3257
=100.3	-12.3257
=100.6	-12.3257
=101.6	-12.3257
=101.7	-12.3257
=103.6	-12.3257
=104.4	-12.3257
=105.1	-12.3257
=108.8	-12.3257
=110.2	-12.3257
=111.1	-12.3257
=118.2	-12.3257
=118.3	-12.3257
monetary	-12.3257
remediation	-12.3257
▁Acharya	-12.3257
▁Beauveria	-12.3257
▁Berseem	-12.3257
▁Perspective	-12.3257
▁Tractor	-12.3257
▁admitted	-12.3257
▁allopathic	-12.3257
▁centuries	-12.3257
▁compressed	-12.3257
▁fluorescens	-12.3257
▁napier	-12.3257
▁progeny	-12.3257
▁recommand	-12.3257
▁rhinocerous	-12.3257
▁versatility	-12.3257
▁fittings	-12.3257
▁Printed	-12.3257
▁steam	-12.3257
▁bagging	-12.3257
Graduate	-12.3257
▁drastically	-12.3257
▁Patent	-12.3258
▁invited	-12.3258
▁discard	-12.3258
scaling	-12.3259
▁Generate	-12.3259
Annexure	-12.3259
infested	-12.3259
0.85	-12.3259
=101.0	-12.326
employment	-12.326
Linn	-12.3261
▁hardness	-12.3262
▁walk	-12.3262
▁Bajra	-12.3263
▁GPU	-12.3264
▁70-75	-12.3264
▁Stand	-12.3264
▁sickle	-12.3265
▁owners	-12.3271
▁gardeners	-12.3273
▁WE	-12.3274
▁disinfectant	-12.3281
2500	-12.3284
5.20	-12.3286
▁1985	-12.3291
▁Breeder	-12.3293
25.00	-12.3293
▁appli	-12.3294
0.77	-12.3297
▁JK	-12.3304
▁Auditor	-12.3305
▁Amit	-12.3308
▁alkaloid	-12.3317
▁Sea	-12.3317
▁exhibition	-12.3322
▁Month	-12.3323
self	-12.3329
▁30,000	-12.3329
170	-12.3339
0.07	-12.334
▁supplemental	-12.3347
378	-12.3355
▁Participat	-12.3358
▁needle	-12.3363
folia	-12.3367
▁accept	-12.3375
▁launch	-12.3378
trained	-12.3383
▁Popular	-12.339
▁attenuat	-12.3391
Telefax	-12.3391
▁Chaudhari	-12.3391
▁Congress	-12.3391
▁Degree	-12.3391
▁Editing	-12.3391
▁Electric	-12.3391
▁Jaggery	-12.3391
▁cumulative	-12.3391
▁delegate	-12.3391
▁encounter	-12.3391
▁enormous	-12.3391
▁exudation	-12.3391
▁mainstream	-12.3391
▁occupy	-12.3391
▁parallel	-12.3391
▁pioneer	-12.3391
▁pollutant	-12.3391
▁statistical	-12.3391
▁racemes	-12.3391
▁Foreign	-12.3391
▁PPrroo	-12.3391
Botany	-12.3391
▁Regard	-12.3391
▁child	-12.3391
▁promise	-12.3391
IIWM	-12.3391
▁pork	-12.3391
▁yoke	-12.3391
▁sorting	-12.3391
▁ultra	-12.3391
▁molecules	-12.3391
▁cheese	-12.3391
▁iittss	-12.3391
▁Prabha	-12.3393
▁spoon	-12.3393
▁Young	-12.3393
▁authorities	-12.3394
agents	-12.3395
▁sought	-12.3399
tleast	-12.34
▁chair	-12.34
▁bridge	-12.3402
▁maan	-12.3406
iigghht	-12.3406
hexa	-12.3407
foresee	-12.3409
▁110-11	-12.3412
▁1983	-12.3418
▁rotating	-12.342
▁Lime	-12.3422
473	-12.3431
▁correctly	-12.3431
▁consistently	-12.3439
▁city	-12.3442
eerrss	-12.3458
▁ccoommpp	-12.3459
(2)	-12.3464
9000	-12.3472
▁kala	-12.3476
mechan	-12.3491
789	-12.3496
▁iir	-12.3496
SPV	-12.3496
0.09	-12.3504
▁repel	-12.3505
▁discover	-12.3506
▁WWi	-12.351
▁crush	-12.3514
▁engage	-12.3514
▁Safed	-12.3515
▁define	-12.3519
▁anthocyanin	-12.3526
▁qDTY	-12.3526
=103.3	-12.3526
=103.4	-12.3526
=111.4	-12.3526
=113.2	-12.3526
=114.1	-12.3526
=116.7	-12.3526
=117.1	-12.3526
solubiliz	-12.3526
▁Certificate	-12.3526
▁Kasaragod	-12.3526
▁Proceedings	-12.3526
▁Thrips	-12.3526
▁blossom	-12.3526
▁modify	-12.3526
▁multifunctional	-12.3526
▁regulating	-12.3526
▁segregat	-12.3526
▁sericulture	-12.3526
▁takeaway	-12.3526
▁tropics	-12.3526
▁wonder	-12.3526
▁Eggplant	-12.3526
▁vocation	-12.3526
▁fyM	-12.3526
▁Sandal	-12.3526
▁connectivity	-12.3526
▁avian	-12.3526
prasad	-12.3526
▁Drones	-12.3526
▁Combin	-12.3526
▁Assess	-12.3526
▁ibd	-12.3526
▁Nadia	-12.3527
▁PSB	-12.3527
▁greyish	-12.3527
▁vety	-12.3528
▁wings	-12.3529
▁biochar	-12.353
▁stout	-12.353
CIAE	-12.3531
▁Lake	-12.3533
▁optimization	-12.3534
▁allowance	-12.3535
▁Novel	-12.3536
41.0	-12.3537
bacterial	-12.3538
Action	-12.3539
▁Chander	-12.3541
▁dispos	-12.3544
▁40-45	-12.3548
▁connection	-12.3549
ecial	-12.3554
▁Amr	-12.3557
mixed	-12.3557
632	-12.3571
▁throw	-12.3581
uinoa	-12.3586
▁precaution	-12.3589
1199	-12.3589
▁mmaann	-12.3589
667	-12.3593
▁Geo	-12.3597
▁methi	-12.3598
raya	-12.3604
posi	-12.3605
textured	-12.3606
TNA	-12.3611
0.45	-12.3611
ility	-12.3613
arka	-12.3618
meet	-12.3618
KK	-12.362
closer	-12.3635
4.20	-12.365
▁arrange	-12.3653
training	-12.3654
name	-12.3656
amrit	-12.3659
▁decide	-12.3659
▁accredit	-12.366
5.25	-12.3661
▁aapppliliccaat	-12.3663
▁Accelerat	-12.3663
▁Innovative	-12.3663
▁Official	-12.3663
▁Physiological	-12.3663
▁Symposium	-12.3663
▁amistar	-12.3663
▁apricot	-12.3663
▁bevistin	-12.3663
▁blotch	-12.3663
▁constipation	-12.3663
▁december	-12.3663
▁ggrraasss	-12.3663
▁gummosis	-12.3663
▁heritage	-12.3663
▁lleevveel	-12.3663
▁stagnant	-12.3663
▁statistics	-12.3663
▁tridemorph	-12.3663
▁Demand	-12.3663
etalaxyl	-12.3663
▁warning	-12.3663
▁Narayan	-12.3663
▁cadre	-12.3663
▁accru	-12.3663
▁JG	-12.3663
▁MPMH	-12.3663
▁PBW	-12.3663
▁PART	-12.3663
▁unripe	-12.3663
▁PAO	-12.3664
▁Things	-12.3664
▁Affect	-12.3664
▁mycorrhiza	-12.3665
▁difficulties	-12.3666
▁nagaon	-12.3667
▁AAnn	-12.3668
▁modernization	-12.3668
▁oval	-12.3669
▁popularized	-12.3669
▁disturbed	-12.367
Haryana	-12.367
dried	-12.3671
▁Reduc	-12.3672
CRRI	-12.3673
883	-12.3677
▁bima	-12.3677
▁indent	-12.3682
▁SSoo	-12.3683
▁deposited	-12.3684
▁forums	-12.3686
▁fractured	-12.3688
itinngg	-12.3691
▁AAl	-12.3697
produce	-12.3698
▁Ramesh	-12.3702
▁coco	-12.3703
application	-12.3713
▁lose	-12.3714
toria	-12.3718
487	-12.372
▁consolidat	-12.3727
▁substance	-12.3728
▁valve	-12.3728
▁adjustment	-12.3733
▁electrical	-12.3737
347	-12.3739
674	-12.3739
▁nnoot	-12.3742
▁reap	-12.3743
▁Hir	-12.3753
chand	-12.3763
▁node	-12.3768
imply	-12.3773
391	-12.3773
ansh	-12.3775
▁feb	-12.3781
tara	-12.3782
▁CIB	-12.3783
ologists	-12.3786
▁Operat	-12.3791
ostal	-12.3794
▁Advisor	-12.3794
rinkle	-12.3795
0.50	-12.3796
cidence	-12.3799
=105.0	-12.3802
=105.6	-12.3802
=111.5	-12.3802
=114.5	-12.3802
=119.5	-12.3802
▁Brief	-12.3802
▁Mechanism	-12.3802
▁Medziphema	-12.3802
▁acquisition	-12.3802
▁aluminium	-12.3802
▁conflict	-12.3802
▁efficiencies	-12.3802
▁fragrant	-12.3802
▁geometry	-12.3802
▁necessity	-12.3802
▁rhinoceros	-12.3802
▁terracing	-12.3802
▁traffic	-12.3802
▁versatile	-12.3802
▁equitable	-12.3802
▁inventory	-12.3802
▁cloned	-12.3802
▁fowl	-12.3802
▁patient	-12.3802
▁outdoor	-12.3802
▁Covid	-12.3802
▁Minor	-12.3802
▁mmoorer	-12.3802
Com	-12.3802
▁TRP	-12.3802
▁flubendiamide	-12.3802
▁Indus	-12.3802
▁monoculture	-12.3803
▁Orange	-12.3804
▁MPKV	-12.3806
55.0	-12.3807
▁unlike	-12.3807
▁PhD	-12.381
Monthly	-12.3811
▁sperm	-12.3811
fodder	-12.3811
disease	-12.3811
▁showers	-12.3812
▁undergraduate	-12.3812
production	-12.3813
▁nitrogenous	-12.3816
▁heap	-12.3817
[...]
