<pad>	0
<s>	0
</s>	0
<unk>	0
▁**	-3.30974
,	-3.34539
.	-3.47895
▁(	-3.5472
**	-3.68271
max	-3.71328
▁the	-3.84971
:	-3.85924
▁###	-3.93761
▁is	-3.98682
▁and	-3.99918
▁crop	-4.03939
s	-4.14765
▁in	-4.31143
▁*	-4.40604
:**	-4.45022
▁Response	-4.63707
▁of	-4.64533
▁Thi	-4.74596
▁soil	-4.75823
▁P	-4.77767
C	-4.7777
0),	-4.79829
▁K	-4.80748
▁pH	-4.8101
▁readings	-4.81234
°	-4.84374
▁Inst	-4.85371
ruction	-4.85394
▁water	-4.91614
),	-4.93759
▁for	-4.95486
ing	-4.95721
▁	-4.99899
d	-5.00332
ly	-5.04147
▁a	-5.06182
▁to	-5.09816
?	-5.15994
▁recommended	-5.2569
▁on	-5.29268
)	-5.33326
y	-5.34885
▁season	-5.37518
al	-5.4078
r	-5.43137
▁best	-5.43927
▁which	-5.44342
▁your	-5.45272
▁A	-5.4593
▁Soil	-5.46426
▁has	-5.46461
▁this	-5.47815
▁through	-5.47912
%	-5.48146
▁well	-5.48171
▁temperature	-5.48855
N	-5.4888
▁explain	-5.49101
Wh	-5.49682
▁You	-5.49757
▁humidity	-5.49792
▁grown	-5.49968
▁usual	-5.50092
▁sources	-5.50148
▁thrive	-5.50223
Crop	-5.50258
▁match	-5.50305
Farm	-5.50352
▁N	-5.50412
▁Recommend	-5.50466
▁sensor	-5.50477
▁supported	-5.50478
▁briefly	-5.50493
wareness	-5.50529
▁Temp	-5.50529
▁Conditions	-5.50529
Ide	-5.50544
▁Type	-5.50545
▁Base	-5.50594
▁2	-5.82051
▁about	-5.96234
▁asking	-5.96833
▁40)	-6.03094
▁@	-6.03502
▁t	-6.06207
amy	-6.06721
▁6	-6.08243
irrigated	-6.09066
ypically	-6.12247
▁10	-6.16438
▁In	-6.19974
/	-6.22384
-	-6.23601
▁typical	-6.26589
struction	-6.26975
▁control	-6.28315
rainfed	-6.30676
▁spray	-6.32099
).	-6.33792
▁60	-6.35778
vegetables	-6.39347
Zai	-6.4003
▁Lo	-6.43909
▁30)	-6.49166
▁per	-6.52253
▁with	-6.5755
kharif	-6.60972
▁8	-6.61394
▁100	-6.63007
▁apply	-6.68938
sandy	-6.75748
▁kg	-6.7683
▁at	-6.79152
▁gourd	-6.81847
▁can	-6.82796
rabi	-6.83547
▁him	-6.85952
▁days	-6.86742
▁85	-6.88225
▁be	-6.90053
▁plant	-6.99423
▁7.5)	-7.00703
▁suggested	-7.01219
▁ml	-7.03888
▁are	-7.07153
120),	-7.11277
▁7.	-7.13081
▁3	-7.1365
▁5	-7.159
▁1	-7.16401
▁or	-7.16951
▁What	-7.16994
▁The	-7.18313
▁15	-7.20429
Lo	-7.22983
▁urea	-7.24988
▁from	-7.25796
▁fertilizer	-7.26613
7).	-7.27345
▁should	-7.31071
▁plants	-7.31349
=6.6	-7.31643
▁dur	-7.32026
▁litre	-7.32094
▁rice	-7.33148
ï	-7.35411
▁interval	-7.35599
millets	-7.36958
▁growth	-7.40121
▁by	-7.40122
ml	-7.40528
=6.7	-7.41061
▁measure	-7.43891
▁disease	-7.46469
▁35	-7.46866
▁9	-7.48925
▁advised	-7.49835
¿1⁄2	-7.50147
▁as	-7.50209
▁50	-7.51571
▁regarding	-7.52285
▁gram	-7.53503
▁it	-7.53728
▁what	-7.53939
▁seeds	-7.5545
▁irrigation	-7.56241
▁does	-7.56963
▁that	-7.58253
▁gm	-7.58629
=6.5	-7.58961
pulses	-7.59967
▁25	-7.60286
=6.8	-7.63065
▁query	-7.63899
▁/	-7.64566
▁How	-7.65093
▁dose	-7.65599
▁time	-7.65742
=6.9	-7.65808
=6.3	-7.67345
=6.1	-7.67619
e	-7.68226
well	-7.68578
▁yield	-7.69218
=6.4	-7.7021
▁year	-7.70513
drained	-7.71255
gm	-7.71312
▁80	-7.71524
=6.2	-7.71531
&	-7.7299
▁20	-7.73476
Root	-7.73724
tuber	-7.74556
▁7.0	-7.74804
▁management	-7.75065
▁use	-7.75379
▁7	-7.76274
▁planting	-7.77937
▁ec	-7.78408
▁bigha	-7.78509
▁fruit	-7.7977
▁production	-7.82674
▁potato	-7.83628
▁leaf	-7.85171
▁you	-7.86077
▁area	-7.87257
▁know	-7.87508
=7.0	-7.88129
ed	-7.88201
▁mop	-7.8866
▁12	-7.88976
▁how	-7.89201
lit	-7.89712
kg	-7.89856
▁4	-7.90191
▁base	-7.91861
▁bean	-7.92343
▁seed	-7.92617
▁malathion	-7.94067
▁application	-7.94071
▁liter	-7.94717
▁6.5	-7.96286
▁ssp	-7.97892
▁farmers	-7.99476
bigha	-8.01172
=6.0	-8.03231
▁after	-8.05253
▁rot	-8.06206
▁D	-8.06346
▁8.	-8.07681
▁land	-8.07745
▁like	-8.0801
▁measures	-8.08064
▁cultivation	-8.09912
▁bed	-8.10014
oil	-8.10231
'	-8.11101
▁-	-8.11695
▁an	-8.11889
l	-8.12519
▁prevent	-8.12958
▁effectively	-8.13783
▁6.7	-8.14178
▁times	-8.16299
▁field	-8.16537
▁where	-8.16981
▁6.8	-8.17832
▁ensure	-8.18151
▁biogas	-8.18186
ite	-8.18993
▁g	-8.2067
▁problem	-8.21664
▁cultivate	-8.21779
▁h	-8.22335
▁root	-8.22853
▁told	-8.23183
▁hectare	-8.237
▁nutrient	-8.24503
Later	-8.24516
ain	-8.25205
5),	-8.25232
▁system	-8.25253
▁was	-8.26294
▁tomato	-8.2633
=7.2	-8.26965
▁cowpea	-8.27086
escribe	-8.27368
=7.3	-8.29139
▁Expl	-8.29178
▁onion	-8.2934
litre	-8.29632
▁30	-8.2984
▁cultivated	-8.29852
▁diseases	-8.3043
=7.4	-8.31015
▁paddy	-8.31363
▁45	-8.31479
=5.9	-8.31533
▁recommendation	-8.32049
▁data	-8.32402
▁I	-8.33096
=7.1	-8.33279
▁tree	-8.33865
=5.8	-8.33986
▁pest	-8.34118
istorical	-8.35705
liter	-8.36356
▁tonnes	-8.37472
▁method	-8.37785
=5.7	-8.39267
▁reduce	-8.39599
g	-8.40395
▁coconut	-8.40608
▁brinjal	-8.41468
▁treatment	-8.42841
▁variety	-8.43387
▁borer	-8.45379
▁crops	-8.46528
Sandy	-8.46948
▁fungal	-8.4806
▁loamy	-8.48546
▁m	-8.49232
▁20)	-8.49838
▁raised	-8.51403
▁leaves	-8.51514
▁against	-8.52335
▁agricultural	-8.52388
▁healthy	-8.52606
=5.6	-8.53082
▁gas	-8.53521
▁practices	-8.5355
▁also	-8.54644
en	-8.54818
=20.0	-8.55033
▁varieties	-8.55366
▁wilt	-8.55429
▁chilli	-8.56778
▁sowing	-8.58333
▁solution	-8.59575
▁pests	-8.5958
▁It	-8.5988
▁maize	-8.60482
▁trees	-8.6332
▁27	-8.63339
▁pumpkin	-8.63771
▁one	-8.64294
▁more	-8.65791
▁bottle	-8.66805
▁spacing	-8.66889
▁cm	-8.67039
ch	-8.67039
▁grams	-8.67278
▁these	-8.6769
▁blight	-8.67697
▁fish	-8.67736
▁8.0	-8.68102
▁contact	-8.68747
▁conditions	-8.69016
▁using	-8.7029
▁used	-8.70944
▁150	-8.71427
plant	-8.71639
▁90	-8.71643
▁stem	-8.7178
▁quality	-8.72907
▁have	-8.73236
▁maintain	-8.73315
clay	-8.73459
▁protect	-8.73572
=7.5	-8.73627
m	-8.73846
▁seedlings	-8.7434
▁su	-8.74972
▁health	-8.75281
▁provide	-8.75412
▁following	-8.75473
▁applied	-8.75766
▁lit	-8.76062
▁lemon	-8.76164
tinda	-8.76864
▁rogor	-8.77835
▁18	-8.78331
bengalgram	-8.78679
▁do	-8.78831
▁spread	-8.79209
▁p	-8.79272
▁26	-8.79641
▁40	-8.79655
▁sugarcane	-8.79921
▁banana	-8.80164
▁some	-8.80165
▁75	-8.80434
▁rain	-8.80643
▁foot	-8.80736
samai	-8.80872
▁take	-8.81871
▁borax	-8.8231
▁millet	-8.82386
tapoica	-8.82587
▁1.5	-8.82715
▁high	-8.82764
gingely	-8.82876
▁advice	-8.82943
▁92	-8.8333
horsegram	-8.83461
▁before	-8.83603
▁efficiency	-8.83606
fibre	-8.83747
▁infestation	-8.83815
cole	-8.8387
▁lead	-8.84033
▁methods	-8.84327
▁affect	-8.84429
▁cucumber	-8.84461
▁bacterial	-8.84506
▁wheat	-8.8471
ir	-8.84808
▁moringa	-8.84921
crops	-8.84943
cereals	-8.85081
▁cotton	-8.85425
t	-8.85896
▁&	-8.86035
earl	-8.86532
▁bitter	-8.87083
▁other	-8.87602
(	-8.88544
29).	-8.88556
redgram	-8.88821
▁not	-8.89109
sugar	-8.89336
thinai	-8.89452
▁yam	-8.89759
sugarbeet	-8.89759
▁late	-8.89847
hant	-8.90089
▁cauliflower	-8.90296
▁development	-8.90381
elep	-8.90698
panivaragu	-8.91013
▁insect	-8.91173
▁suitable	-8.91341
▁beds	-8.91621
kudiraivali	-8.91952
▁help	-8.92295
▁mixture	-8.92747
▁when	-8.92908
▁farm	-8.93733
▁nutrients	-8.93768
A	-8.94416
varagu	-8.94512
▁top	-8.94736
▁8.5	-8.958
▁small	-8.96369
▁daily	-8.96664
▁systems	-8.97523
▁fields	-8.97647
▁etc	-8.97724
▁why	-8.98329
▁cause	-8.98632
▁avoid	-8.9879
▁whole	-8.99174
▁better	-8.99347
▁two	-8.99354
▁its	-8.99884
▁then	-9.00252
▁want	-9.01541
▁By	-9.0166
▁improve	-9.01829
2	-9.025
▁rabi	-9.02617
▁ridge	-9.03001
▁kharif	-9.03028
▁bavistin	-9.03564
ssp	-9.0378
se	-9.03809
▁into	-9.04121
▁good	-9.04422
▁if	-9.04459
▁twice	-9.04598
▁rate	-9.05021
▁doses	-9.0564
=25.1	-9.05861
lluvi	-9.06225
▁red	-9.06372
lay	-9.06406
▁include	-9.06501
▁cabbage	-9.06596
▁agriculture	-9.06967
▁saaf	-9.07154
▁Regular	-9.07517
▁stage	-9.07635
▁organic	-9.07707
Red	-9.08
=26.9	-9.08069
=25.8	-9.08442
▁kilogram	-9.08783
▁preparation	-9.09006
▁Use	-9.09155
▁sprinkler	-9.09341
▁been	-9.09365
radesh	-9.09523
▁nursery	-9.09581
▁18)	-9.09927
=25.6	-9.09947
=26.5	-9.10327
=25.3	-9.10708
=60.0	-9.10899
▁around	-9.10915
▁appropriate	-9.11088
=25.2	-9.11091
▁promote	-9.11193
▁fixed	-9.11285
▁95	-9.11461
▁attack	-9.1147
=26.3	-9.11475
▁up	-9.12306
▁l	-9.12947
▁may	-9.1295
▁powder	-9.13143
=26.0	-9.13419
=26.2	-9.14207
▁regularly	-9.14241
▁proper	-9.14339
▁impact	-9.14429
▁24	-9.14517
▁chillies	-9.14592
▁drip	-9.14602
▁jute	-9.14876
=26.4	-9.15001
=26.7	-9.15001
▁amount	-9.15243
▁vegetable	-9.1531
▁enhance	-9.15351
=25.4	-9.15401
=24.9	-9.15802
▁tracel	-9.15837
▁due	-9.16004
mop	-9.16134
f	-9.16725
▁fertilizers	-9.16846
▁infected	-9.16882
▁tricel	-9.1724
cotton	-9.17544
=26.6	-9.18244
i	-9.18297
▁To	-9.18569
▁super	-9.18867
▁increase	-9.18927
=25.9	-9.19071
=24.0	-9.19487
▁fertilization	-9.19719
=5.5	-9.19905
=26.8	-9.20325
n	-9.20493
▁sprays	-9.2072
▁spraying	-9.2079
▁seedling	-9.21089
=21.5	-9.2117
=25.0	-9.2117
▁'	-9.21363
▁over	-9.214
in	-9.21513
=21.1	-9.21595
=22.2	-9.21595
=65.0	-9.21595
▁200	-9.21657
▁goat	-9.21755
=24.4	-9.22022
=24.6	-9.22022
▁damage	-9.22218
▁mustard	-9.22333
▁adviced	-9.22355
▁For	-9.22453
▁helps	-9.22847
▁ensur	-9.23266
=25.5	-9.23314
▁row	-9.23512
▁productivity	-9.2353
▁transplanting	-9.23653
=24.2	-9.23748
=7.6	-9.23748
=24.1	-9.23748
=25.7	-9.23748
▁moisture	-9.23967
▁6.	-9.24097
=24.5	-9.24184
▁pond	-9.24392
▁infection	-9.24598
▁farming	-9.247
▁feed	-9.24808
=24.7	-9.25504
▁S	-9.25587
P	-9.25752
▁under	-9.26119
▁benefits	-9.26348
=23.3	-9.26394
▁1.	-9.2672
=23.8	-9.26842
=24.8	-9.26842
▁potash	-9.27315
▁lime	-9.27323
▁groundnut	-9.27401
▁effective	-9.27703
=26.1	-9.27744
▁month	-9.27777
▁suggest	-9.27919
▁evening	-9.28464
▁french	-9.28515
▁any	-9.28587
=28.2	-9.28654
▁needs	-9.28696
▁early	-9.28699
a	-9.29004
▁along	-9.29385
▁watermelon	-9.29446
▁radish	-9.29615
▁common	-9.29809
▁2.5	-9.29896
=27.0	-9.30035
▁Black	-9.3011
▁timely	-9.30237
▁local	-9.30395
=23.5	-9.30499
=90.0	-9.30499
▁litres	-9.30547
▁them	-9.30579
red	-9.30826
▁ash	-9.30946
=22.8	-9.30966
▁main	-9.31105
▁will	-9.312
ec	-9.31248
▁drop	-9.31296
=23.2	-9.31435
▁weed	-9.31499
▁x	-9.32146
▁22	-9.32357
▁affected	-9.32528
=21.9	-9.32855
=22.7	-9.32855
¿	-9.32855
▁process	-9.33768
=7.9	-9.33813
▁crucial	-9.33814
=22.3	-9.34296
▁mildew	-9.34297
▁tea	-9.34409
rice	-9.34671
=23.4	-9.34781
▁21	-9.35078
▁blitox	-9.35097
▁clay	-9.35111
▁sweet	-9.35633
=7.8	-9.35758
=24.3	-9.35758
▁dry	-9.35926
▁carrot	-9.36284
▁asked	-9.36511
▁weeds	-9.36664
▁farmer	-9.3668
▁district	-9.37002
=22.5	-9.3749
=29.6	-9.3774
▁summer	-9.37759
▁harvest	-9.37759
▁ring	-9.37955
=21.3	-9.38242
=21.6	-9.38242
=23.7	-9.38242
=28.1	-9.38242
▁betwe	-9.38242
▁SRI	-9.38261
▁pusa	-9.3847
▁@2	-9.3852
=23.1	-9.38746
▁reduc	-9.38842
▁need	-9.38902
▁ant	-9.39111
=27.4	-9.39254
▁capsicum	-9.39321
▁growing	-9.3967
▁peas	-9.40041
▁sunflower	-9.4041
▁planofix	-9.40542
▁surface	-9.40598
=21.7	-9.4079
=21.8	-9.4079
=22.9	-9.4079
=27.1	-9.4079
▁overall	-9.41049
=21.2	-9.41307
=23.6	-9.41308
=7.7	-9.41308
pumpkin	-9.41388
=29.3	-9.41828
▁information	-9.41841
taking	-9.42011
▁efficient	-9.4205
▁specific	-9.42121
=22.4	-9.42351
▁mix	-9.42687
▁sorghum	-9.42725
▁assam	-9.42907
=20.6	-9.43405
able	-9.43449
wheat	-9.43503
▁fly	-9.43679
▁all	-9.43843
ash	-9.43879
=20.3	-9.43936
=23.0	-9.43936
=28.8	-9.43936
=28.9	-9.43936
▁cluster	-9.44074
▁38	-9.44111
▁31	-9.44142
▁cowdung	-9.44211
▁flower	-9.44357
▁type	-9.44538
▁pressure	-9.44879
=20.8	-9.45007
=27.2	-9.45007
▁treat	-9.45267
▁k	-9.45307
=28.5	-9.45547
ic	-9.45787
▁laser	-9.45818
▁half	-9.45878
cm	-9.45929
▁98	-9.46493
=22.0	-9.46635
heav	-9.46751
▁steps	-9.46807
▁grow	-9.47033
▁papaya	-9.47187
sunflower	-9.4759
▁long	-9.47688
=20.7	-9.47735
=22.1	-9.47735
=28.4	-9.47736
▁areas	-9.47758
▁spot	-9.47832
▁i	-9.47846
cluster	-9.47869
bitter	-9.48429
▁levelling	-9.48569
▁nitrogen	-9.48578
▁32	-9.48757
=20.9	-9.48848
▁green	-9.48881
▁no	-9.48884
▁number	-9.48968
sweet	-9.49002
▁out	-9.49147
▁keep	-9.49153
▁annual	-9.49225
▁yields	-9.49252
▁agent	-9.49272
groundnut	-9.49274
4	-9.49298
making	-9.49377
=22.6	-9.49409
▁chemical	-9.49538
ribbed	-9.4984
=27.5	-9.49973
=29.8	-9.49973
▁copper	-9.49992
light	-9.50105
▁ribbed	-9.50106
cauliflower	-9.50126
▁42	-9.50276
bottle	-9.50412
=28.6	-9.50541
=28.7	-9.50541
=23.9	-9.50541
rich	-9.50562
carrot	-9.50697
maize	-9.50699
vegetable	-9.5086
chillies	-9.50985
=27.6	-9.51111
=29.7	-9.51111
=20.1	-9.51111
watermelon	-9.51273
cowpea	-9.51274
▁enhanc	-9.51334
ritic	-9.51407
▁allow	-9.51502
▁120	-9.51526
sorghum	-9.51562
▁distribution	-9.51685
▁clean	-9.51794
▁compost	-9.5195
▁indofil	-9.52043
friable	-9.52409
beetroot	-9.52434
▁manage	-9.52558
=29.5	-9.52843
▁environment	-9.52875
▁optimal	-9.52911
french	-9.5302
▁beetroot	-9.53253
chowchow	-9.53314
small	-9.53315
tomato	-9.53316
=29.2	-9.53427
▁distance	-9.53427
▁boro	-9.53434
▁ants	-9.53484
▁snake	-9.53521
▁cost	-9.53639
▁potential	-9.5372
▁castor	-9.53813
jute	-9.53905
▁black	-9.53912
▁T	-9.53951
=13.	-9.54017
▁soyabean	-9.54103
cucumber	-9.54201
▁chowchow	-9.54423
onion	-9.54503
bulb	-9.54741
▁required	-9.54981
annual	-9.55097
muskmelon	-9.55097
loamy	-9.55117
=21.0	-9.552
▁technology	-9.55221
▁age	-9.55327
▁office	-9.55364
▁size	-9.55484
▁moist	-9.55497
=20.5	-9.55797
=28.3	-9.55797
=28.0	-9.55797
▁muskmelon	-9.559
snake	-9.56001
u	-9.56131
▁Cabbage	-9.56192
▁require	-9.56238
Cabbage	-9.56304
castor	-9.56304
▁vitamin	-9.56354
=21.4	-9.56399
=29.4	-9.56399
=29.0	-9.56399
er	-9.56684
soyabean	-9.56913
▁pepper	-9.56955
=20.2	-9.57004
▁81	-9.57423
brinjal	-9.57526
▁aphids	-9.57787
peas	-9.5785
▁give	-9.57961
▁bhendi	-9.57985
▁blackgram	-9.57986
=27.3	-9.58225
▁make	-9.58228
capsicum	-9.58451
sugarcane	-9.58452
because	-9.58694
▁manure	-9.58822
=27.9	-9.58842
▁ragi	-9.58896
=27.8	-9.59462
▁according	-9.59705
▁storage	-9.59775
▁essential	-9.60086
=20.4	-9.60086
▁important	-9.60086
▁operation	-9.60099
▁while	-9.60102
▁8.2	-9.60148
radish	-9.60332
bhendi	-9.60645
▁his	-9.61256
blackgram	-9.61285
=12.	-9.61347
=14.	-9.61348
▁--	-9.61512
▁7.8	-9.61553
▁gun	-9.61805
greengram	-9.61923
▁near	-9.61983
▁neem	-9.6201
▁greengram	-9.62048
▁check	-9.62294
▁curl	-9.62559
ragi	-9.62561
▁drainage	-9.62622
▁details	-9.62661
▁special	-9.63309
▁different	-9.63454
▁symptoms	-9.63549
=29.9	-9.63914
▁cultural	-9.64246
▁teak	-9.64299
▁benefit	-9.64307
▁cow	-9.65222
=27.7	-9.65224
=29.1	-9.65224
▁citrus	-9.65224
▁poultry	-9.6523
▁role	-9.65307
out	-9.65424
▁potassium	-9.65935
▁beans	-9.66074
▁flowering	-9.66105
▁off	-9.66187
▁every	-9.66224
lease	-9.66862
▁each	-9.66885
urea	-9.67203
▁fruits	-9.67603
▁pathogens	-9.67938
▁environmental	-9.68078
▁basal	-9.68916
▁old	-9.69049
▁same	-9.69258
▁oil	-9.6931
▁bamboo	-9.69603
▁nut	-9.69606
▁kisan	-9.69615
▁Wh	-9.6969
▁insects	-9.69934
▁three	-9.69952
▁given	-9.6996
@	-9.69995
▁higher	-9.70309
▁trunk	-9.70468
ous	-9.70565
further	-9.70992
▁including	-9.71361
▁requirement	-9.72607
▁once	-9.7285
▁sali	-9.73099
▁deep	-9.73291
dome	-9.73573
▁litr	-9.73774
▁bank	-9.73821
▁betel	-9.73822
▁9.0	-9.74011
▁digester	-9.74053
▁B	-9.74231
▁c	-9.74492
▁but	-9.7454
-45	-9.74689
▁sri	-9.75299
▁day	-9.76042
▁absence	-9.76365
▁visit	-9.76372
▁floating	-9.7639
▁split	-9.7666
▁significant	-9.76894
8	-9.77231
▁condition	-9.77381
▁necessary	-9.77483
▁dosage	-9.77776
▁name	-9.78158
▁mixed	-9.78323
▁natural	-9.78395
▁3.	-9.78405
o	-9.78542
▁thereby	-9.786
▁vine	-9.78942
▁improved	-9.78944
▁mango	-9.7897
▁done	-9.79003
▁orally	-9.79013
c	-9.79261
=31.8	-9.79356
▁occurrence	-9.79356
▁remove	-9.79484
▁r	-9.79625
▁design	-9.79684
=11.	-9.79694
▁dust	-9.79737
▁fym	-9.80319
▁problems	-9.80443
▁away	-9.80513
▁e	-9.80554
▁pit	-9.80578
▁scheme	-9.8087
▁phosphate	-9.80894
▁structure	-9.80972
=30.0	-9.8166
▁uttar	-9.8243
▁winter	-9.82439
p	-9.82454
▁cut	-9.82488
▁found	-9.82512
▁roots	-9.82671
=54.5	-9.82831
▁leveling	-9.82912
▁years	-9.83187
=41.0	-9.83225
▁cassava	-9.8323
=52.0	-9.83621
▁period	-9.83755
=41.6	-9.84017
▁so	-9.84051
▁traditional	-9.84077
▁contribute	-9.84177
▁improv	-9.8431
▁compare	-9.8434
black	-9.84513
▁materials	-9.84606
0°	-9.84732
▁slurry	-9.84842
▁wilting	-9.84975
▁than	-9.85176
=34.6	-9.8562
▁feeding	-9.85711
=58.4	-9.86025
▁5%	-9.86337
=31.0	-9.86432
▁bihar	-9.86436
▁white	-9.86467
▁shoot	-9.86495
▁micronutrient	-9.86505
▁arecanut	-9.86849
▁streptomycin	-9.86879
▁layer	-9.87011
=54.4	-9.8725
=56.6	-9.8725
▁attention	-9.8725
▁fungicide	-9.87327
▁pea	-9.87345
▁factors	-9.87391
▁controlling	-9.87431
▁terms	-9.87853
=30.2	-9.88075
=31.3	-9.88075
=47.9	-9.88075
alty	-9.88315
ion	-9.8871
silt	-9.88962
▁content	-9.89009
▁13	-9.89244
▁maintenance	-9.89332
or	-9.89768
▁manag	-9.8988
▁depth	-9.90172
▁npk	-9.90174
▁less	-9.90272
=53.1	-9.9059
▁get	-9.90597
▁large	-9.90627
▁dressing	-9.90714
▁source	-9.90726
▁severe	-9.91016
▁captan	-9.91038
▁R	-9.91126
▁drench	-9.91168
▁powdery	-9.91204
▁borers	-9.91306
=40.9	-9.91443
=50.4	-9.91443
=33.1	-9.91443
▁administer	-9.91452
▁vari	-9.91471
es	-9.91639
▁sustainable	-9.91874
▁first	-9.91892
▁parts	-9.92085
▁dome	-9.92285
=44.2	-9.92304
=45.1	-9.92304
=31.7	-9.92304
=8.0	-9.92304
▁wide	-9.92333
▁micro	-9.92583
▁M	-9.92737
▁equal	-9.92741
▁availability	-9.92749
/5	-9.93004
=52.5	-9.93171
▁okra	-9.93207
▁weeding	-9.93602
=57.3	-9.93608
▁aphid	-9.93796
gram	-9.93806
▁hybrid	-9.93826
on	-9.94015
=32.5	-9.94047
=43.2	-9.94047
=44.8	-9.94047
=45.8	-9.94047
=55.2	-9.94047
ment	-9.94053
▁go	-9.94493
▁drum	-9.94592
=32.6	-9.9493
=40.6	-9.9493
=41.8	-9.9493
=45.5	-9.9493
▁resistance	-9.9493
▁discuss	-9.9493
▁needed	-9.95017
▁there	-9.95026
=50.7	-9.95374
▁pm	-9.95446
▁2-3	-9.95562
00.0	-9.95691
▁uniform	-9.95716
=53.7	-9.9582
=58.1	-9.9582
=56.2	-9.96269
▁breeding	-9.9628
uch	-9.96418
lt	-9.96478
▁material	-9.96504
=33.4	-9.96719
=40.1	-9.96719
=44.4	-9.96719
=53.3	-9.96719
▁rust	-9.96914
▁liters	-9.97159
=55.9	-9.97172
▁cover	-9.97588
=42.8	-9.97626
=45.6	-9.97626
=46.4	-9.97626
=49.7	-9.97626
=50.8	-9.97626
=57.5	-9.97626
=57.8	-9.97626
=43.0	-9.97627
=10.	-9.97631
▁yellow	-9.97835
b	-9.97931
=53.6	-9.98083
=55.0	-9.98083
▁sulphate	-9.98088
▁he	-9.98257
=34.9	-9.98542
=30.5	-9.98542
=30.8	-9.98542
=31.1	-9.98542
=54.2	-9.98542
=58.0	-9.98542
▁both	-9.98543
=18.2	-9.98684
▁result	-9.98819
=55.5	-9.99003
▁research	-9.99465
=30.9	-9.99465
=34.8	-9.99465
=50.9	-9.99465
▁dung	-9.99466
▁peppers	-9.99542
▁test	-9.99853
▁milli	-9.99902
=51.3	-9.99931
=51.8	-9.99931
=52.7	-9.99931
▁reduced	-10.0003
▁support	-10.0018
▁practice	-10.0025
=30.3	-10.004
=34.7	-10.004
=42.3	-10.004
=43.8	-10.004
=43.9	-10.004
=48.9	-10.004
=56.8	-10.004
▁training	-10.004
▁activity	-10.004
▁Input	-10.0043
=51.1	-10.0087
▁ridomil	-10.0088
▁please	-10.0095
▁requirements	-10.0106
=30.4	-10.0134
=40.5	-10.0134
=41.9	-10.0134
=42.9	-10.0134
=48.1	-10.0134
=52.2	-10.0134
=57.7	-10.0134
▁remedy	-10.0134
ive	-10.0148
▁prevention	-10.0185
▁gold	-10.0188
▁zone	-10.0216
=33.2	-10.0229
=47.1	-10.0229
=49.6	-10.0229
▁germination	-10.0229
=50.0	-10.0229
▁low	-10.0278
▁bordeaux	-10.0278
▁march	-10.0293
▁canker	-10.0312
=42.2	-10.0325
=42.4	-10.0325
=43.4	-10.0325
=44.5	-10.0325
=45.2	-10.0325
=55.1	-10.0325
=32.4	-10.0325
=34.1	-10.0325
=34.0	-10.0325
▁tell	-10.0329
▁loss	-10.0333
▁eggplant	-10.0362
ha	-10.0371
=51.4	-10.0373
=52.3	-10.0373
▁hours	-10.042
=30.7	-10.0422
=31.5	-10.0422
=33.5	-10.0422
=40.2	-10.0422
=43.6	-10.0422
=51.9	-10.0422
=19.8	-10.0423
▁controlled	-10.0438
▁advantages	-10.0446
1	-10.0464
=50.5	-10.047
=55.7	-10.047
▁mixing	-10.0504
=34.3	-10.0519
=41.2	-10.0519
=44.1	-10.0519
=46.1	-10.0519
=52.6	-10.0519
▁Choos	-10.0519
▁garlic	-10.052
▁supply	-10.052
▁multiplex	-10.0534
▁types	-10.0561
=59.4	-10.0569
=59.6	-10.0569
▁kvk	-10.0574
▁potatoes	-10.0576
▁4.	-10.0602
th	-10.0605
▁regular	-10.061
▁virus	-10.0618
=30.6	-10.0618
=31.6	-10.0618
=33.8	-10.0618
=33.9	-10.0618
=45.3	-10.0618
=46.5	-10.0618
=47.3	-10.0618
=48.6	-10.0618
▁followed	-10.0623
▁signs	-10.063
▁(2	-10.0642
=18.5	-10.0654
▁meter	-10.0669
▁related	-10.0677
▁remaining	-10.0683
▁select	-10.0717
=43.1	-10.0718
=46.3	-10.0718
=48.5	-10.0718
=48.7	-10.0718
=47.0	-10.0718
=18.8	-10.0719
=19.1	-10.0739
▁involves	-10.0756
▁harvesting	-10.076
▁detail	-10.0763
=54.7	-10.0768
▁melon	-10.0815
=32.1	-10.0819
=34.5	-10.0819
=38.6	-10.0819
=40.4	-10.0819
=40.7	-10.0819
=41.3	-10.0819
=47.8	-10.0819
=51.5	-10.0819
=53.8	-10.0819
=32.7	-10.0819
=45.7	-10.0819
▁play	-10.0824
▁sow	-10.0854
=58.9	-10.087
▁drenching	-10.0903
▁Raise	-10.0913
=33.3	-10.0921
=34.2	-10.0921
=41.5	-10.0921
=48.8	-10.0921
=58.7	-10.0921
▁mahaphal	-10.0921
▁taken	-10.0926
=52.1	-10.0972
▁above	-10.0972
▁fertility	-10.0972
▁primar	-10.0973
▁describe	-10.1011
=43.7	-10.1023
=46.7	-10.1023
=49.4	-10.1023
=32.3	-10.1023
=54.0	-10.1023
=59.0	-10.1023
=18.4	-10.1025
=50.6	-10.1075
=51.6	-10.1075
=53.5	-10.1075
=77.4	-10.1075
=78.7	-10.1075
▁performance	-10.1075
=56.0	-10.1075
=19.2	-10.1087
▁50%	-10.1102
▁o	-10.1118
▁months	-10.1122
=32.8	-10.1127
=33.7	-10.1127
=41.4	-10.1127
=49.9	-10.1127
=52.4	-10.1127
=59.8	-10.1127
=33.0	-10.1127
▁protection	-10.1129
-2	-10.1132
▁19	-10.1136
▁me	-10.1178
▁approach	-10.1179
▁kilo	-10.1179
=51.7	-10.118
=57.9	-10.118
▁blast	-10.118
▁climate	-10.1182
ard	-10.1192
▁economic	-10.1194
us	-10.1199
,2	-10.12
est	-10.1205
Black	-10.1215
1°	-10.1221
=30.1	-10.1232
=32.2	-10.1232
=33.6	-10.1232
=42.1	-10.1232
=54.6	-10.1232
=55.3	-10.1232
▁Keep	-10.1232
▁autumn	-10.1232
ight	-10.1263
=53.4	-10.1285
=56.4	-10.1285
=58.3	-10.1285
=79.2	-10.1285
▁booster	-10.1286
▁available	-10.1287
▁issues	-10.1302
▁construction	-10.1312
▁levels	-10.1322
=31.2	-10.1338
=37.5	-10.1338
=42.6	-10.1338
=47.2	-10.1338
=47.7	-10.1338
=48.3	-10.1338
=51.2	-10.1338
=56.1	-10.1338
=57.4	-10.1338
=58.6	-10.1338
=58.8	-10.1338
▁matter	-10.1338
▁labor	-10.1338
=32.0	-10.1338
=40.0	-10.1338
=53.0	-10.1338
▁provid	-10.1371
=84.2	-10.1392
6°	-10.1398
▁vi	-10.1412
=41.7	-10.1446
=47.4	-10.1446
=49.2	-10.1446
=58.5	-10.1446
=59.9	-10.1446
=49.0	-10.1446
=19.5	-10.145
▁rates	-10.1482
=53.9	-10.15
=54.1	-10.15
▁establishment	-10.15
▁lower	-10.1504
▁caus	-10.151
ya	-10.1515
▁space	-10.1547
▁re	-10.1548
=31.9	-10.1554
=36.9	-10.1554
=44.9	-10.1554
=56.5	-10.1554
=77.7	-10.1554
=84.4	-10.1554
=36.3	-10.1554
=50.2	-10.1554
=42.0	-10.1554
=19.4	-10.1556
▁increased	-10.1566
▁depend	-10.1566
=58.2	-10.1609
▁down	-10.161
▁tank	-10.1615
▁results	-10.1631
=43.5	-10.1664
=45.4	-10.1664
=46.8	-10.1664
=57.1	-10.1664
=59.3	-10.1664
=59.7	-10.1664
=44.0	-10.1664
=46.0	-10.1664
=79.0	-10.1719
▁pesticides	-10.1724
▁tab	-10.1725
▁infections	-10.1726
▁eating	-10.1738
▁17	-10.177
=35.4	-10.1774
=54.9	-10.1774
=59.1	-10.1774
▁captaf	-10.1786
▁garden	-10.1827
=53.2	-10.183
=54.8	-10.183
▁oxychloride	-10.1834
▁damping	-10.1835
▁model	-10.1841
=31.4	-10.1886
=35.3	-10.1886
=44.7	-10.1886
=48.2	-10.1886
=49.1	-10.1886
=50.1	-10.1886
=56.7	-10.1886
=56.9	-10.1886
=39.0	-10.1886
=45.0	-10.1886
▁bhindi	-10.1887
▁chloride	-10.1888
▁querr	-10.1888
▁card	-10.189
▁key	-10.189
=19.9	-10.1901
nce	-10.1902
▁55	-10.1913
▁promot	-10.1921
▁man	-10.193
drum	-10.1937
=54.3	-10.1943
=55.4	-10.1943
=83.9	-10.1943
▁3-4	-10.1947
▁evenly	-10.1998
=34.4	-10.2
=38.7	-10.2
=40.8	-10.2
=45.9	-10.2
=46.2	-10.2
=49.5	-10.2
=49.8	-10.2
=55.6	-10.2
=79.3	-10.2
=82.9	-10.2
=51.0	-10.2
▁dress	-10.2039
▁500	-10.2043
3°	-10.205
=78.6	-10.2057
▁fertiliser	-10.2057
medium	-10.2101
=35.5	-10.2114
=36.8	-10.2114
=38.5	-10.2114
=42.7	-10.2114
=55.8	-10.2114
=76.3	-10.2114
=76.5	-10.2114
=84.5	-10.2114
▁aeration	-10.2114
▁market	-10.2117
▁mr	-10.2129
=18.7	-10.2136
▁spots	-10.2152
▁fungi	-10.2172
=57.0	-10.2172
=78.2	-10.2172
=80.1	-10.2172
=84.1	-10.2172
▁directed	-10.2175
=19.3	-10.2197
▁b	-10.2209
▁recommend	-10.222
▁soi	-10.2229
=39.2	-10.223
=59.5	-10.223
▁level	-10.2233
▁F	-10.2234
▁adequate	-10.2236
▁full	-10.2244
=76.1	-10.2289
▁resources	-10.2313
▁f	-10.2325
deep	-10.2337
=37.2	-10.2348
=38.1	-10.2348
=46.9	-10.2348
=47.6	-10.2348
=48.4	-10.2348
=49.3	-10.2348
=57.6	-10.2348
=80.0	-10.2348
▁metre	-10.2348
▁improves	-10.2404
=78.1	-10.2407
▁costs	-10.2426
▁food	-10.2428
▁Us	-10.2431
heck	-10.2466
=32.9	-10.2466
=35.7	-10.2466
=40.3	-10.2466
=43.3	-10.2466
=67.9	-10.2466
=75.4	-10.2466
=77.3	-10.2466
=77.8	-10.2466
=79.5	-10.2466
=83.2	-10.2466
=77.0	-10.2466
=35.0	-10.2466
▁considered	-10.2469
▁new	-10.2472
▁procedure	-10.2489
▁EC	-10.2524
=80.7	-10.2526
▁create	-10.2528
5°	-10.2542
▁substrate	-10.2549
▁caterpillar	-10.255
=19.7	-10.2553
▁air	-10.2555
▁significantly	-10.256
▁even	-10.2564
=18.1	-10.2576
=36.6	-10.2586
=36.7	-10.2586
=37.9	-10.2586
=38.2	-10.2586
=41.1	-10.2586
=42.5	-10.2586
=44.3	-10.2586
=46.6	-10.2586
=79.1	-10.2586
▁sufficient	-10.2588
▁add	-10.2591
▁dropping	-10.2611
▁brown	-10.2612
▁october	-10.2625
=77.1	-10.2647
ary	-10.2651
▁Rain	-10.2651
▁requir	-10.2662
▁flood	-10.2693
▁effect	-10.2693
=35.9	-10.2708
=36.5	-10.2708
=38.3	-10.2708
=47.5	-10.2708
=50.3	-10.2708
=57.2	-10.2708
=81.2	-10.2708
▁assistance	-10.2708
=82.0	-10.2708
▁causes	-10.2711
▁risk	-10.2734
=56.3	-10.2769
=79.7	-10.2769
=79.8	-10.2769
▁Reasonabl	-10.2769
▁zinc	-10.2777
▁nutritional	-10.279
▁acre	-10.281
=36.1	-10.2831
=37.8	-10.2831
=36.0	-10.2831
▁rainfall	-10.2831
▁750	-10.2838
=	-10.2887
=52.9	-10.2893
=79.4	-10.2893
=79.6	-10.2893
=83.3	-10.2893
▁much	-10.2897
often	-10.2904
=18.3	-10.2905
▁respectively	-10.2912
▁plantation	-10.2933
=35.8	-10.2956
=75.8	-10.2956
=77.5	-10.2956
=8.7	-10.2956
=80.8	-10.2956
=81.1	-10.2956
=83.1	-10.2956
=83.8	-10.2956
=81.0	-10.2956
▁addition	-10.2974
row	-10.2978
▁challenges	-10.2983
▁concentration	-10.2987
▁part	-10.2988
▁influence	-10.3015
▁must	-10.3018
=82.6	-10.3019
ation	-10.3024
=18.0	-10.3041
=18.9	-10.3067
=35.6	-10.3082
=44.6	-10.3082
=8.9	-10.3082
=80.3	-10.3082
=80.9	-10.3082
=81.5	-10.3082
=82.8	-10.3082
grained	-10.3082
▁dried	-10.3088
▁september	-10.3088
▁They	-10.3121
=75.5	-10.3146
=83.4	-10.3146
=84.8	-10.3146
=85.6	-10.3146
▁70	-10.317
=38.9	-10.321
=39.4	-10.321
=39.8	-10.321
=39.9	-10.321
=52.8	-10.321
=59.2	-10.321
=76.2	-10.321
=76.4	-10.321
=76.9	-10.321
=82.2	-10.321
=82.4	-10.321
=85.0	-10.321
▁safety	-10.321
▁Apply	-10.3211
=19.0	-10.3218
▁pay	-10.3225
▁bug	-10.3246
=19.6	-10.3261
▁Water	-10.3269
/10	-10.3269
borax	-10.3269
=78.3	-10.3274
=80.6	-10.3274
=83.6	-10.3274
=84.9	-10.3274
▁replied	-10.3274
▁resource	-10.3312
7°	-10.3325
▁madh	-10.3339
=36.2	-10.3339
=78.5	-10.3339
=83.7	-10.3339
=84.6	-10.3339
▁initial	-10.3346
um	-10.3362
h	-10.3383
=81.4	-10.3405
▁inject	-10.3405
▁light	-10.3436
▁operations	-10.347
=61.8	-10.347
=8.6	-10.347
=80.5	-10.347
=98.7	-10.347
=48.0	-10.347
=38.0	-10.347
le	-10.3484
soil	-10.3517
=69.5	-10.3537
=77.6	-10.3537
=78.9	-10.3537
▁consistent	-10.3543
=18.6	-10.3557
gyan	-10.3558
▁worm	-10.3589
@2	-10.359
▁stress	-10.3603
=37.7	-10.3603
=76.7	-10.3603
▁precision	-10.3604
▁west	-10.3609
un	-10.364
▁impacts	-10.3662
▁ratio	-10.3669
=76.0	-10.367
▁liquid	-10.3671
▁vaccine	-10.3672
april	-10.3736
=38.8	-10.3738
=39.3	-10.3738
=39.6	-10.3738
=83.5	-10.3738
▁debris	-10.3738
▁april	-10.374
to	-10.3741
▁particularly	-10.3742
▁un	-10.3787
▁address	-10.38
▁11	-10.3803
=82.7	-10.3806
=99.5	-10.3806
=78.0	-10.3806
▁ginger	-10.3806
x	-10.3807
-20	-10.3822
▁pipes	-10.3837
▁breed	-10.3854
=37.6	-10.3874
=39.7	-10.3874
=75.9	-10.3874
=78.8	-10.3874
=8.8	-10.3874
=84.3	-10.3874
=85.4	-10.3874
▁second	-10.3874
▁end	-10.3876
▁krish	-10.3877
▁250	-10.3891
=17.9	-10.3897
▁effects	-10.3914
▁properly	-10.3939
=60.4	-10.3943
=62.4	-10.3943
=77.9	-10.3943
=80.4	-10.3943
=81.6	-10.3943
=81.9	-10.3943
=84.7	-10.3943
▁sure	-10.3945
▁balance	-10.3945
▁0.5	-10.3953
=35.2	-10.4013
=97.4	-10.4013
=37.0	-10.4013
▁trench	-10.4013
9°	-10.4046
▁acid	-10.4082
=98.5	-10.4083
=99.7	-10.4083
▁increasing	-10.4083
▁body	-10.4084
▁yellowing	-10.4121
thus	-10.4152
▁Spray	-10.4153
=63.8	-10.4153
=75.3	-10.4153
=77.2	-10.4153
=82.1	-10.4153
=94.3	-10.4153
▁strategies	-10.4153
=83.0	-10.4153
▁minimize	-10.417
▁deal	-10.4179
3	-10.4202
=17.5	-10.4204
=17.3	-10.4209
▁uneven	-10.4224
=66.6	-10.4224
=71.2	-10.4224
=71.5	-10.4224
=76.6	-10.4224
=98.3	-10.4224
▁kendra	-10.4224
▁officer	-10.4258
=17.2	-10.4266
=37.4	-10.4296
=60.9	-10.4296
=68.6	-10.4296
=69.7	-10.4296
=71.4	-10.4296
=73.6	-10.4296
=73.9	-10.4296
=75.1	-10.4296
=88.9	-10.4296
▁nurseries	-10.4296
=84.0	-10.4296
=87.0	-10.4296
▁place	-10.4296
▁mancozeb	-10.4298
▁contain	-10.4299
▁vegetables	-10.4302
▁planted	-10.4313
▁grain	-10.4358
▁collect	-10.4361
=65.6	-10.4367
=67.1	-10.4367
=73.5	-10.4367
=82.5	-10.4367
=75.0	-10.4367
=89.0	-10.4367
▁sub	-10.4371
▁flow	-10.4372
▁14	-10.4399
▁directly	-10.4411
▁loan	-10.4427
▁th	-10.4434
=35.1	-10.444
=65.4	-10.444
=99.3	-10.444
resistant	-10.4443
▁region	-10.4457
▁di	-10.449
▁duck	-10.4503
▁drying	-10.4509
ature	-10.451
▁Proper	-10.4513
=60.2	-10.4513
=76.8	-10.4513
=81.3	-10.4513
=81.7	-10.4513
=87.4	-10.4513
▁death	-10.4513
▁dap	-10.4527
▁lits	-10.4563
▁pathogen	-10.4576
▁termite	-10.4579
=61.9	-10.4586
=67.4	-10.4586
=79.9	-10.4586
=80.2	-10.4586
=81.8	-10.4586
=85.7	-10.4586
=90.2	-10.4586
▁width	-10.4586
=17.7	-10.4588
profex	-10.4588
▁classic	-10.4593
▁pig	-10.466
▁consult	-10.466
=67.6	-10.4661
=74.2	-10.4661
=86.9	-10.4661
=87.1	-10.4661
=95.1	-10.4661
=95.7	-10.4661
=97.9	-10.4661
▁fertigation	-10.4661
▁meet	-10.4661
▁last	-10.4662
▁pesticide	-10.473
=36.4	-10.4735
=37.1	-10.4735
=66.9	-10.4735
=72.6	-10.4735
=73.7	-10.4735
=67.0	-10.4735
=69.0	-10.4735
▁mosaic	-10.4735
▁single	-10.4738
▁effectiveness	-10.4748
▁Th	-10.4784
=91.8	-10.481
=99.1	-10.481
=99.4	-10.481
▁significance	-10.481
▁healthier	-10.481
ertain	-10.4811
▁waste	-10.4814
fertilizer	-10.4816
=17.0	-10.4841
▁bucket	-10.4879
▁portion	-10.488
▁oxygen	-10.4886
=39.1	-10.4886
=70.8	-10.4886
=78.4	-10.4886
=87.6	-10.4886
=88.2	-10.4886
=89.8	-10.4886
=93.6	-10.4886
=99.6	-10.4886
▁broiler	-10.4886
▁properties	-10.4886
▁financial	-10.4886
▁chicken	-10.4961
=67.2	-10.4962
=68.5	-10.4962
=86.3	-10.4962
=96.4	-10.4962
=99.8	-10.4962
▁morning	-10.4963
▁excessive	-10.498
▁imm	-10.5025
5	-10.5031
▁insecticide	-10.5038
=96.3	-10.5039
▁anthracnose	-10.5039
▁wood	-10.5047
pusa	-10.5047
▁poor	-10.5058
▁receive	-10.5076
=60.6	-10.5117
=63.9	-10.5117
=90.1	-10.5117
=96.9	-10.5117
=73.0	-10.5117
▁drought	-10.5117
▁furadon	-10.5117
st	-10.5165
▁7.5	-10.517
▁form	-10.5175
order	-10.5194
=5.3	-10.5195
=68.7	-10.5195
=71.6	-10.5195
=75.6	-10.5195
=96.1	-10.5195
arnataka	-10.5195
▁sludge	-10.5195
▁species	-10.5195
▁cattle	-10.5196
▁India	-10.5196
▁young	-10.5199
▁preventive	-10.5201
-50	-10.5207
▁curling	-10.521
=66.2	-10.5274
=68.4	-10.5274
=70.1	-10.5274
=75.2	-10.5274
=75.7	-10.5274
=87.7	-10.5274
▁status	-10.5274
=62.0	-10.5274
▁ooze	-10.5274
▁right	-10.5275
▁promptly	-10.5281
cross	-10.5281
▁achieve	-10.5288
=15.2	-10.5296
▁planter	-10.5297
k	-10.53
=17.1	-10.5349
=38.4	-10.5353
=5.1	-10.5353
▁Maintain	-10.5353
▁physical	-10.5353
▁mortality	-10.5353
▁flies	-10.5354
▁head	-10.5354
▁paste	-10.5355
▁Bordeaux	-10.5355
=17.4	-10.5355
▁quintal	-10.536
▁again	-10.536
=64.2	-10.5433
=67.8	-10.5433
=68.3	-10.5433
=71.3	-10.5433
=87.2	-10.5433
=87.5	-10.5433
=94.9	-10.5433
=96.5	-10.5433
=97.3	-10.5433
▁package	-10.5433
▁carbendazim	-10.544
▁follow	-10.5442
▁rows	-10.5449
▁prepare	-10.545
an	-10.5485
disha	-10.549
▁showing	-10.5501
=37.3	-10.5514
=62.7	-10.5514
=64.4	-10.5514
=68.9	-10.5514
=69.9	-10.5514
=70.4	-10.5514
=74.4	-10.5514
=82.3	-10.5514
=87.9	-10.5514
=88.5	-10.5514
=89.6	-10.5514
=95.8	-10.5514
=97.7	-10.5514
=66.0	-10.5514
▁manner	-10.5514
=71.0	-10.5514
▁equipment	-10.5514
▁beneficial	-10.5515
=74.9	-10.5595
▁branches	-10.5595
▁contaf	-10.5596
▁trace	-10.5596
apply	-10.5607
▁eliminate	-10.5611
▁advise	-10.5612
▁elements	-10.5644
▁bacteria	-10.5675
=61.4	-10.5677
=66.4	-10.5677
=72.3	-10.5677
=88.4	-10.5677
=88.7	-10.5677
=95.6	-10.5677
=99.2	-10.5677
=72.0	-10.5677
▁tomatoes	-10.5685
ate	-10.5699
▁sp	-10.5699
=17.6	-10.5715
▁pre	-10.5748
=70.9	-10.576
=86.6	-10.576
=86.7	-10.576
=95.3	-10.576
=98.6	-10.576
=98.9	-10.576
▁biological	-10.576
▁fresh	-10.576
▁Additional	-10.5761
▁capacity	-10.5763
▁height	-10.5769
▁regions	-10.5773
▁week	-10.5794
ar	-10.581
▁too	-10.5824
▁access	-10.5824
▁maj	-10.5826
▁Clean	-10.5843
=67.7	-10.5843
=73.1	-10.5843
=74.3	-10.5843
=74.7	-10.5843
=88.1	-10.5843
=92.5	-10.5843
=92.7	-10.5843
=99.9	-10.5843
▁ventilation	-10.5843
▁importance	-10.5843
=98.0	-10.5843
▁density	-10.5849
▁case	-10.5854
malathion	-10.5857
▁names	-10.5858
very	-10.5881
=60.7	-10.5927
=72.8	-10.5927
=85.3	-10.5927
=85.5	-10.5927
=89.1	-10.5927
=90.9	-10.5927
=98.2	-10.5927
=99.0	-10.5927
=92.0	-10.5927
▁usage	-10.5927
▁show	-10.5945
spray	-10.5953
bar	-10.5967
amil	-10.6009
▁n	-10.6012
=62.9	-10.6012
=63.6	-10.6012
=66.1	-10.6012
=73.8	-10.6012
=86.2	-10.6012
=96.6	-10.6012
▁department	-10.6012
▁losses	-10.6013
▁another	-10.6015
▁cycle	-10.6023
▁way	-10.6032
=16.2	-10.6038
khand	-10.6066
▁india	-10.6088
▁thin	-10.6091
=72.7	-10.6097
=74.6	-10.6097
=85.2	-10.6097
=93.3	-10.6097
=95.9	-10.6097
▁would	-10.6097
▁feet	-10.6098
=17.8	-10.6099
▁phosphorus	-10.6101
▁stand	-10.6112
▁tractor	-10.6113
▁rs	-10.614
▁reasonabl	-10.6151
▁nad	-10.6163
=39.5	-10.6183
=69.4	-10.6183
=73.2	-10.6183
=86.1	-10.6183
=89.3	-10.6183
=91.3	-10.6183
=93.8	-10.6183
=97.2	-10.6183
▁deficiency	-10.6184
▁registration	-10.6184
term	-10.6194
▁produce	-10.6203
▁manual	-10.6212
ant	-10.6237
=62.5	-10.627
=62.6	-10.627
=65.2	-10.627
=65.7	-10.627
=66.7	-10.627
=70.3	-10.627
=86.5	-10.627
=88.3	-10.627
=88.8	-10.627
=98.4	-10.627
▁energy	-10.627
▁erosion	-10.627
▁continuous	-10.6302
▁supports	-10.6302
▁most	-10.6305
=68.2	-10.6358
=88.6	-10.6358
=96.7	-10.6358
▁critical	-10.6358
=61.0	-10.6358
=68.0	-10.6358
TI	-10.636
▁cropping	-10.6361
▁minutes	-10.638
▁sprayed	-10.6394
▁diseased	-10.6409
▁Dur	-10.6411
=61.2	-10.6447
=64.3	-10.6447
=64.9	-10.6447
=65.1	-10.6447
=65.3	-10.6447
=66.8	-10.6447
=68.1	-10.6447
=70.2	-10.6447
=73.3	-10.6447
=74.8	-10.6447
=89.9	-10.6447
▁weight	-10.6447
▁dairy	-10.6448
=16.4	-10.6448
▁2019	-10.6448
=16.5	-10.6449
▁beetle	-10.6468
=15.7	-10.6472
=63.2	-10.6536
=71.1	-10.6536
=71.7	-10.6536
=85.8	-10.6536
=91.4	-10.6536
=97.8	-10.6536
▁straw	-10.6536
▁volume	-10.6536
▁drinking	-10.6539
special	-10.6556
=63.7	-10.6626
=66.5	-10.6626
=69.3	-10.6626
=69.6	-10.6626
=90.7	-10.6626
=91.2	-10.6626
=92.8	-10.6626
▁Dissolv	-10.6626
▁retention	-10.6626
=86.0	-10.6626
▁conservation	-10.6626
=16.8	-10.6627
▁become	-10.6631
▁rotation	-10.6637
▁question	-10.665
▁final	-10.6659
▁stages	-10.6665
ammonium	-10.6666
=16.7	-10.6673
=15.3	-10.6694
as	-10.6695
=60.8	-10.6717
=64.6	-10.6717
=66.3	-10.6717
=8.5	-10.6717
=93.2	-10.6717
=98.1	-10.6717
=97.0	-10.6717
▁choose	-10.6718
▁plus	-10.6724
▁characteristics	-10.6745
▁monitoring	-10.6749
▁frequent	-10.675
▁Planting	-10.6764
▁@1	-10.6769
▁caterpillars	-10.6772
▁offer	-10.6775
▁structur	-10.6798
=60.5	-10.6809
=61.6	-10.6809
=65.9	-10.6809
=91.1	-10.6809
▁provided	-10.6809
▁foliar	-10.6814
▁tillage	-10.6819
▁meters	-10.6822
=16.9	-10.6832
▁carp	-10.6834
▁hole	-10.6839
▁salt	-10.6864
=60.3	-10.6901
=62.3	-10.6901
=64.7	-10.6901
=67.3	-10.6901
=85.1	-10.6901
=94.8	-10.6901
=95.5	-10.6901
▁thrips	-10.6901
=94.0	-10.6901
▁digestion	-10.6901
▁sunlight	-10.6902
▁stems	-10.6902
▁products	-10.6911
▁hand	-10.6919
-0	-10.6927
▁sprinklers	-10.6927
▁300	-10.6962
=62.1	-10.6995
=62.2	-10.6995
=63.5	-10.6995
=65.5	-10.6995
=74.1	-10.6995
▁Irrigation	-10.6995
▁entire	-10.6995
=63.0	-10.6995
▁credit	-10.6995
=16.	-10.7015
▁solve	-10.7019
▁range	-10.7023
▁purpose	-10.7024
ccording	-10.7025
▁correct	-10.7032
▁facilitate	-10.7037
6	-10.7037
▁documents	-10.7047
▁Add	-10.7077
=64.8	-10.7089
=69.8	-10.7089
=8.1	-10.7089
=89.5	-10.7089
=89.7	-10.7089
=97.5	-10.7089
=98.8	-10.7089
▁Acacia	-10.7089
▁Answer	-10.7089
▁applying	-10.7105
▁lesions	-10.7106
M	-10.7123
L	-10.7125
▁16	-10.7133
▁bengal	-10.7151
=62.8	-10.7184
=63.4	-10.7184
=69.2	-10.7184
=94.4	-10.7184
=96.2	-10.7184
▁raising	-10.7184
▁selection	-10.7185
▁maturity	-10.7187
and	-10.7206
▁milk	-10.7208
▁kill	-10.7213
ve	-10.7222
▁direct	-10.7222
▁non	-10.7235
▁my	-10.7247
=15.5	-10.7259
=61.5	-10.728
=61.7	-10.728
=72.2	-10.728
=90.4	-10.728
=94.5	-10.728
▁initiation	-10.728
=96.0	-10.728
=70.0	-10.728
=15.8	-10.7282
▁dressed	-10.7289
U	-10.7308
▁inhibit	-10.7377
=74.5	-10.7378
=91.6	-10.7378
=97.1	-10.7378
▁litchi	-10.7378
▁maharashtra	-10.7378
hi	-10.7381
▁turmeric	-10.7382
=15.9	-10.74
▁manager	-10.743
▁1.0	-10.7443
=5.4	-10.7476
=63.3	-10.7476
=64.5	-10.7476
=70.6	-10.7476
=72.4	-10.7476
=90.5	-10.7476
=91.9	-10.7476
=93.7	-10.7476
=97.6	-10.7476
=91.0	-10.7476
▁culture	-10.7477
▁semi	-10.7477
▁33	-10.7481
▁mid	-10.7522
▁adjust	-10.7569
=65.8	-10.7575
=90.3	-10.7575
=93.1	-10.7575
=94.6	-10.7575
▁Avoid	-10.7577
▁formation	-10.7578
▁permanent	-10.7581
▁come	-10.7584
▁10-15	-10.7586
▁Remov	-10.7594
green	-10.7605
▁increases	-10.7627
▁199	-10.7627
0	-10.7639
▁mg	-10.7644
▁offers	-10.7646
=87.8	-10.7675
ujarat	-10.7675
▁carrie	-10.7676
/4.5	-10.7676
▁4-5	-10.7679
▁covered	-10.7686
▁bio	-10.7691
▁techniques	-10.7709
▁birds	-10.7751
▁block	-10.7771
=69.1	-10.7776
=73.4	-10.7776
=89.2	-10.7776
=93.4	-10.7776
▁dimensions	-10.7776
▁robust	-10.7776
▁could	-10.7776
▁pointed	-10.778
=15.1	-10.7803
▁consider	-10.7853
S	-10.7853
=5.2	-10.7878
=68.8	-10.7878
=72.9	-10.7878
=86.8	-10.7878
=94.2	-10.7878
=95.2	-10.7878
=74.0	-10.7878
▁below	-10.7878
▁decis	-10.7879
-20,	-10.789
▁value	-10.7896
▁treated	-10.7901
litres	-10.7911
▁cleaning	-10.7924
▁bud	-10.7946
▁6.0	-10.7981
=71.8	-10.7981
=87.3	-10.7981
=92.3	-10.7981
=88.0	-10.7981
▁centimeter	-10.7981
▁five	-10.7982
▁components	-10.8001
▁vary	-10.8002
K	-10.8022
▁determine	-10.8022
▁orange	-10.8026
▁miner	-10.8036
=16.3	-10.8042
▁set	-10.8049
▁4.5	-10.8073
=71.9	-10.8085
=86.4	-10.8085
=90.8	-10.8085
=92.9	-10.8085
ajasthan	-10.8085
▁govt	-10.8085
▁However	-10.8086
▁rotting	-10.8086
=15.4	-10.8087
▁1250	-10.8087
▁fertilizing	-10.8089
▁boron	-10.809
▁post	-10.8096
▁work	-10.81
▁kufri	-10.8101
▁free	-10.8103
▁ability	-10.8106
▁arka	-10.811
▁advantage	-10.8138
▁includes	-10.8139
▁falling	-10.815
▁creat	-10.8167
▁furrow	-10.8183
=16.1	-10.8185
▁avail	-10.8186
▁resistant	-10.8186
▁only	-10.819
=63.1	-10.819
▁bolus	-10.819
▁spine	-10.819
▁infiltration	-10.8194
▁tetracycline	-10.8195
▁manures	-10.8197
▁portable	-10.8197
10	-10.8211
▁skin	-10.8233
▁testing	-10.8245
=61.1	-10.8297
=89.4	-10.8297
=95.4	-10.8297
▁competition	-10.8297
▁several	-10.8297
▁sissoo	-10.8297
▁cake	-10.8297
-12	-10.8301
▁areca	-10.8302
▁power	-10.8305
▁suffering	-10.8305
ma	-10.8306
▁implications	-10.8308
▁made	-10.8309
▁pipe	-10.8318
=15.6	-10.8341
=60.1	-10.8404
=70.7	-10.8404
=91.5	-10.8404
=96.8	-10.8404
▁drilling	-10.8404
▁sponge	-10.8404
=64.0	-10.8404
▁steel	-10.8404
▁clogging	-10.8407
ng	-10.8431
brown	-10.8443
october	-10.8443
▁chemicals	-10.8464
▁aid	-10.8474
=93.9	-10.8513
▁poplar	-10.8513
▁appearance	-10.8513
▁sustainability	-10.8513
▁guava	-10.8513
▁save	-10.8513
▁mature	-10.8516
▁bananas	-10.8517
▁efficiently	-10.8537
-1	-10.8564
▁ma	-10.8565
▁animal	-10.8575
▁wounds	-10.8621
=70.5	-10.8623
=85.9	-10.8623
=91.7	-10.8623
▁round	-10.8623
▁grass	-10.8624
▁dip	-10.8637
▁de	-10.8655
▁1.25	-10.8667
▁furrows	-10.8677
▁loam	-10.8686
=94.7	-10.8734
▁stability	-10.8734
▁coverage	-10.8734
ither	-10.8734
▁bark	-10.8736
▁integrated	-10.8746
▁waterlogging	-10.8746
▁analyze	-10.8751
▁vitamins	-10.8755
▁hid	-10.8762
▁removal	-10.8773
▁accurate	-10.8789
▁ask	-10.8797
▁herbicide	-10.8802
▁ground	-10.8811
is	-10.8821
19,	-10.8842
▁co	-10.8845
ES	-10.8845
▁Laser	-10.8846
=72.5	-10.8846
▁life	-10.8846
▁response	-10.8846
▁easy	-10.8846
▁fertilize	-10.8848
▁fall	-10.8848
▁places	-10.8867
▁indicate	-10.887
nt	-10.8877
▁dr	-10.8894
▁change	-10.8916
▁service	-10.8918
▁additional	-10.8927
▁jhar	-10.8959
=72.1	-10.896
=92.6	-10.896
=93.5	-10.896
▁yojana	-10.896
▁reproduction	-10.896
▁wait	-10.896
▁technologies	-10.8961
▁calcium	-10.8966
▁ph	-10.8968
▁At	-10.8968
▁irrigate	-10.9004
month	-10.9005
▁population	-10.9032
▁36	-10.9066
▁success	-10.9073
▁chloropyriphos	-10.9075
▁spp	-10.9076
▁wind	-10.9078
▁5-6	-10.9082
▁2018-	-10.9084
▁Fusarium	-10.9085
=16.6	-10.9088
▁chlorpyriphos	-10.9089
▁kilograms	-10.9112
▁fed	-10.9115
tight	-10.912
▁precise	-10.9131
▁text	-10.9191
=67.5	-10.9191
▁cristocycline	-10.9192
▁store	-10.9196
▁infest	-10.9213
▁enhanced	-10.9245
▁fruiting	-10.9259
ne	-10.9271
▁flowers	-10.929
▁establish	-10.9305
▁pow	-10.9307
▁stock	-10.9308
=92.4	-10.9309
▁identify	-10.9309
▁instructions	-10.9321
▁sun	-10.9333
▁eggplants	-10.9337
▁filling	-10.9348
▁start	-10.935
▁stored	-10.9376
▁shape	-10.9377
▁20-25	-10.939
▁issue	-10.939
▁corn	-10.9427
=92.1	-10.9428
▁acacia	-10.9428
=95.0	-10.9428
▁activities	-10.9428
rough	-10.944
▁cultivars	-10.9448
▁careful	-10.9489
▁wash	-10.9494
▁cutting	-10.9523
▁prepared	-10.9539
=94.1	-10.9548
▁radius	-10.9548
▁consistency	-10.9548
re	-10.9549
▁quickly	-10.9585
▁involved	-10.9588
▁warm	-10.9597
8,	-10.9646
▁transport	-10.9664
▁900	-10.9664
ies	-10.9667
=61.3	-10.967
▁enough	-10.967
▁back	-10.9704
compost	-10.9724
▁slope	-10.9759
▁function	-10.9764
▁repellent	-10.9767
▁king	-10.9775
▁pomegranate	-10.9794
▁climat	-10.9801
▁few	-10.981
▁sand	-10.9824
like	-10.9849
▁risks	-10.9863
▁eye	-10.9878
▁minimiz	-10.9889
▁removed	-10.9891
▁optimiz	-10.9893
▁pruning	-10.9919
=100.0	-10.9919
▁betelvine	-10.9919
▁fungus	-10.9922
ana	-10.9938
▁who	-10.9939
▁(1	-10.9948
▁dissolved	-10.9957
▁supplement	-10.9962
▁successful	-10.9987
ese	-11
▁investment	-11.0011
▁carbon	-11.0044
▁favor	-11.0045
▁ideal	-11.0045
▁WP	-11.0045
▁Ensur	-11.0046
▁digested	-11.0046
▁easier	-11.0047
microbial	-11.0054
▁L	-11.0057
▁mm	-11.0087
@50	-11.0102
▁amounts	-11.0148
▁smooth	-11.0163
▁tuber	-11.0163
▁chilly	-11.0173
▁attract	-11.0173
▁panicle	-11.0174
▁shade	-11.0174
▁veterinary	-11.0176
tic	-11.0181
9	-11.0211
▁mitigate	-11.0236
▁normal	-11.0242
▁operat	-11.025
at	-11.0262
▁expert	-11.0275
▁fully	-11.028
▁dark	-11.03
=92.2	-11.0303
▁company	-11.0303
▁evaluate	-11.0306
ity	-11.0316
▁june	-11.0317
T	-11.0323
▁generally	-11.0357
▁vermicompost	-11.0362
▁rich	-11.0366
▁remov	-11.0377
▁contribut	-11.0381
▁die	-11.0397
▁leveller	-11.0407
▁fire	-11.0408
▁vir	-11.0414
45	-11.0414
▁excess	-11.0433
▁purple	-11.0435
▁position	-11.0435
▁timing	-11.0435
▁adoption	-11.0435
having	-11.0437
▁Malathion	-11.0443
▁boost	-11.045
▁adding	-11.0459
▁try	-11.0477
free	-11.0498
fym	-11.0498
▁diarrhoea	-11.0568
▁adaptability	-11.0568
▁fertile	-11.0569
▁recomended	-11.057
▁multi	-11.0571
▁ecological	-11.0572
▁punjab	-11.0578
▁inspect	-11.0586
▁tools	-11.0589
ized	-11.0613
ay	-11.0615
▁wanted	-11.0616
quality	-11.0633
▁nutrition	-11.066
▁mushroom	-11.0676
▁H	-11.0688
=15.	-11.0699
▁facilities	-11.0703
=93.0	-11.0703
▁mz	-11.0705
▁injection	-11.0708
▁strong	-11.0708
▁protein	-11.0711
▁2.0	-11.0742
▁Plant	-11.0751
fter	-11.0765
▁transplant	-11.0775
▁destroy	-11.0835
▁influen	-11.084
▁run	-11.084
=64.1	-11.084
▁pumkin	-11.084
▁understand	-11.084
▁comprehensive	-11.084
▁medicine	-11.0842
▁hold	-11.0855
▁ahu	-11.0859
▁mulch	-11.0906
@2.5	-11.0907
▁residues	-11.0908
▁optimize	-11.0934
▁gap	-11.0953
tis	-11.0961
▁Ric	-11.0961
30	-11.0963
=90.6	-11.0979
▁Eucalyptus	-11.0979
▁subsidy	-11.0985
▁safe	-11.1019
ily	-11.1053
mg	-11.1102
▁demand	-11.1104
▁product	-11.1107
▁adapt	-11.1119
▁national	-11.112
▁maximum	-11.112
▁squash	-11.112
▁uniformity	-11.112
▁Here	-11.1123
ex	-11.1125
▁tata	-11.1127
▁line	-11.1132
15-16	-11.1135
days	-11.1156
▁protected	-11.1174
▁heav	-11.1177
▁presence	-11.1263
▁Management	-11.1263
▁shisham	-11.1263
▁next	-11.1263
▁simple	-11.1264
▁Sprinkler	-11.1268
▁limited	-11.1271
▁dilute	-11.1276
▁total	-11.1276
▁Bacteria	-11.1276
for	-11.1285
▁plantations	-11.1337
▁dense	-11.1348
▁retain	-11.1377
▁72	-11.139
▁weeks	-11.1391
▁points	-11.1396
▁inspection	-11.1396
▁state	-11.1397
▁answer	-11.1403
▁present	-11.1403
▁government	-11.1409
▁1-1.75	-11.1409
▁weather	-11.141
▁Farmers	-11.1418
▁duration	-11.1426
7	-11.146
▁wet	-11.1466
Yes	-11.1473
▁29	-11.1478
▁open	-11.148
@1.5	-11.1483
▁general	-11.1496
=8.3	-11.1555
▁methane	-11.1555
▁megha	-11.1555
aryana	-11.1555
▁mechanical	-11.1556
▁short	-11.1556
▁length	-11.1557
▁sown	-11.1558
▁fertlizer	-11.156
▁Mak	-11.1562
▁schemes	-11.1565
▁cuttings	-11.16
▁inj	-11.1609
ora	-11.1619
borne	-11.1633
▁1.3	-11.1687
▁hormone	-11.1695
▁machine	-11.1696
▁Biogas	-11.1704
▁hispa	-11.1704
▁insightful	-11.1704
▁knowledge	-11.1704
▁utilization	-11.1704
▁knol	-11.1704
▁runoff	-11.1704
▁mint	-11.1705
▁dithane	-11.1718
▁ppm	-11.1719
▁logging	-11.172
▁clear	-11.1721
▁tillering	-11.1731
20	-11.1741
bic	-11.1746
soake	-11.1758
10-12	-11.1758
▁forest	-11.1765
▁composting	-11.1772
jacket	-11.1784
ent	-11.1809
Y	-11.1812
▁concern	-11.1844
▁unit	-11.185
▁adopt	-11.185
▁stable	-11.1857
▁plastic	-11.186
▁Mala	-11.1868
▁fert	-11.1869
▁site	-11.187
▁tall	-11.1874
▁emergence	-11.1875
hra	-11.1889
▁ready	-11.1893
▁immediately	-11.1894
▁holder	-11.1899
▁populations	-11.1912
▁act	-11.1918
ural	-11.1925
erala	-11.1926
▁stocking	-11.1951
ther	-11.1966
▁fungicides	-11.1981
▁hopper	-11.2006
0.0	-11.2008
▁fisheries	-11.2009
▁urine	-11.2009
dexona	-11.2009
▁patches	-11.2009
▁spary	-11.201
▁advantageous	-11.201
▁station	-11.2012
▁upon	-11.2014
▁now	-11.202
▁vital	-11.2022
▁ways	-11.2023
▁wp	-11.2031
it	-11.2044
▁tra	-11.2071
▁focus	-11.2072
▁container	-11.2076
▁develop	-11.2082
▁pump	-11.2093
▁Monitor	-11.2095
▁orchards	-11.2095
▁Pest	-11.2097
mustard	-11.2098
gricultural	-11.2101
▁texture	-11.2117
▁stands	-11.2139
▁600	-11.2151
garh	-11.2166
=8.2	-11.2166
▁relevan	-11.2166
▁chhat	-11.2166
▁moth	-11.2166
▁1%	-11.2169
▁transplantation	-11.2172
▁january	-11.2173
▁insurance	-11.2177
▁her	-11.2178
▁laying	-11.218
▁const	-11.2219
15	-11.222
▁wound	-11.2254
▁close	-11.2262
ur	-11.2273
also	-11.2273
recision	-11.2323
▁responsible	-11.2324
▁schedule	-11.2324
▁ultimately	-11.2324
▁With	-11.2324
▁multiple	-11.2325
▁little	-11.2325
▁System	-11.2325
▁2017	-11.2327
▁7-10	-11.2328
▁suggestion	-11.233
▁fine	-11.2331
▁appliances	-11.2338
▁E	-11.2344
▁channels	-11.2359
▁ha	-11.2393
▁solutions	-11.2395
▁influences	-11.2402
▁branch	-11.2412
▁bran	-11.2417
▁move	-11.2434
▁follows	-11.2479
=100.5	-11.2486
=8.4	-11.2486
▁agroforestry	-11.2486
▁consumption	-11.2486
▁enemies	-11.2486
▁concrete	-11.2486
▁crown	-11.2486
▁kranti	-11.2486
▁apple	-11.2488
▁project	-11.2488
co	-11.2491
=9.0	-11.2491
▁care	-11.2492
▁ranjit	-11.2495
▁hour	-11.2496
▁price	-11.2499
▁inter	-11.2503
▁guide	-11.2527
▁uniformly	-11.2535
I	-11.2551
▁operate	-11.2551
▁1.8	-11.2555
▁1:1	-11.2569
furrow	-11.2579
▁color	-11.2586
▁bags	-11.2597
▁we	-11.261
▁micronutrients	-11.2624
▁fusariu	-11.265
▁monsoon	-11.265
▁400	-11.2651
▁entry	-11.2652
▁devices	-11.2654
▁useful	-11.2654
▁example	-11.2654
▁tablet	-11.2657
▁transplanted	-11.2657
▁dwarf	-11.2658
▁15-20	-11.2673
▁applications	-11.2688
▁uprooting	-11.2689
▁efforts	-11.2696
holders	-11.2708
▁controll	-11.2712
ide	-11.2748
▁rapid	-11.2757
▁guns	-11.2805
▁detect	-11.2811
▁streptocyclin	-11.2815
▁Dri	-11.2816
=101.1	-11.2816
=101.6	-11.2816
▁samman	-11.2816
▁rapeseed	-11.2816
▁serious	-11.2816
▁iron	-11.2817
▁frequency	-11.2817
▁together	-11.2818
▁Common	-11.2818
▁handling	-11.2818
▁5-7	-11.282
▁High	-11.282
▁leaching	-11.2825
▁occur	-11.2826
▁approximately	-11.2835
▁rose	-11.2861
2,	-11.289
0%	-11.2899
ical	-11.2922
▁remains	-11.2924
▁global	-11.2925
aking	-11.2928
ter	-11.2967
9,	-11.2969
ia	-11.2972
old	-11.2976
▁diameter	-11.2986
▁evaporation	-11.2986
▁wastage	-11.2986
▁sandalwood	-11.2986
▁commercial	-11.2986
▁nidhi	-11.2988
▁vaccination	-11.2988
▁point	-11.2994
gun	-11.2997
▁cracking	-11.3
▁release	-11.3008
▁till	-11.3018
NS	-11.3034
▁plan	-11.3042
▁muri	-11.3055
scale	-11.3085
▁Harvest	-11.3086
▁beetles	-11.3118
w	-11.3123
60	-11.3129
▁east	-11.3146
-18,	-11.3155
▁earth	-11.3156
=109.2	-11.3158
=113.1	-11.3158
▁stomach	-11.3158
▁income	-11.3158
▁lack	-11.3159
▁breadth	-11.316
▁liv	-11.3161
ness	-11.3163
▁percent	-11.3164
▁setup	-11.3172
▁Sowing	-11.3174
▁Do	-11.3175
▁recovery	-11.3176
efore	-11.3194
▁leaks	-11.3198
el	-11.3201
▁herbicides	-11.3228
▁mala	-11.3232
▁locate	-11.3233
▁managed	-11.3233
ful	-11.3241
▁covering	-11.3255
▁receiver	-11.3258
@1.75	-11.3258
▁800	-11.3282
8-9	-11.3299
▁savings	-11.3308
▁drag	-11.3333
▁Fertilization	-11.3334
▁easily	-11.3334
▁happen	-11.3334
▁spike	-11.3334
▁valuable	-11.3334
▁amister	-11.3334
▁mohaphol	-11.3334
▁germs	-11.3334
▁movement	-11.3334
▁formalin	-11.3335
▁2006	-11.3337
▁Spraying	-11.3338
▁palm	-11.3354
▁house	-11.3358
▁aspects	-11.3386
▁fo	-11.3402
▁developing	-11.3414
5,	-11.3425
rovide	-11.3437
▁heat	-11.3449
▁chili	-11.3507
▁obtain	-11.3507
=105.9	-11.3512
=107.1	-11.3512
▁flexibility	-11.3512
▁extension	-11.3512
▁guidelines	-11.3512
▁enrocin	-11.3514
▁1.75	-11.3515
▁larger	-11.3519
▁decompose	-11.3519
▁continue	-11.352
▁highlight	-11.3522
▁thoroughly	-11.3532
▁Disease	-11.3533
▁symptom	-11.3537
-4	-11.3539
▁marketing	-11.3568
use	-11.3585
▁great	-11.3593
▁mineral	-11.3613
shallow	-11.3622
▁turn	-11.3623
the	-11.3654
effective	-11.3658
▁3.5	-11.3662
▁suggestions	-11.3691
ymptoms	-11.3693
▁19:19:19	-11.3694
▁Which	-11.3694
▁halves	-11.3694
▁minimal	-11.3694
▁policy	-11.3694
▁dead	-11.3694
▁kind	-11.3694
▁pink	-11.3694
▁rhizome	-11.3694
▁harm	-11.3695
▁fishery	-11.3695
▁vimeral	-11.3697
▁fluctuations	-11.3699
▁associat	-11.3699
6.	-11.3703
▁saving	-11.3735
▁Fertilizer	-11.3736
land	-11.3738
ish	-11.3744
▁promoter	-11.3767
et	-11.3775
,3	-11.3825
year	-11.3853
▁Select	-11.3879
=113.6	-11.3879
=117.7	-11.3879
=119.8	-11.3879
▁consecutive	-11.3879
▁lavender	-11.3879
▁hygiene	-11.3879
▁kept	-11.3879
▁synthetic	-11.3879
▁uptake	-11.3879
▁recent	-11.3879
▁topicure	-11.388
▁repeat	-11.3881
▁plantomycin	-11.3888
▁whe	-11.3891
▁demands	-11.39
▁just	-11.3901
▁added	-11.3901
▁dist	-11.391
▁harvested	-11.3917
▁november	-11.3925
3.	-11.3965
▁features	-11.3971
spread	-11.3998
z	-11.4004
ative	-11.4008
▁respective	-11.4013
▁facilitat	-11.4033
▁processing	-11.4059
▁collar	-11.4067
▁caterpiller	-11.4068
▁integrity	-11.4068
▁timber	-11.4068
▁luffa	-11.4068
▁mycelium	-11.4068
▁underground	-11.4068
▁upper	-11.4069
▁spring	-11.4069
▁quantity	-11.407
-10	-11.4073
▁night	-11.4075
▁sa	-11.4083
▁load	-11.4083
▁hot	-11.4086
▁dhan	-11.4086
▁lines	-11.4089
▁mud	-11.4104
▁setting	-11.4104
nd	-11.4113
v	-11.4126
▁conduc	-11.413
hose	-11.416
▁regional	-11.4186
▁laterals	-11.4189
hectare	-11.419
▁handle	-11.4193
▁perform	-11.4194
▁quick	-11.4207
EC	-11.4214
ver	-11.4223
▁burn	-11.4229
▁cases	-11.4237
▁extend	-11.4252
=116.4	-11.426
=117.4	-11.426
▁sesamum	-11.426
▁extensive	-11.426
▁sanitation	-11.426
▁varities	-11.426
▁characterize	-11.4261
▁Un	-11.4262
▁advance	-11.4268
▁cement	-11.4271
▁installment	-11.4286
▁bearing	-11.4305
holder	-11.4306
▁refer	-11.4316
▁bl	-11.432
▁Re	-11.433
▁mt	-11.4335
eak	-11.4338
ted	-11.4338
)@	-11.4339
▁st	-11.4365
50	-11.4382
tightness	-11.4385
▁holes	-11.4398
no	-11.4414
li	-11.4415
▁shoots	-11.4426
▁achieved	-11.4429
▁modern	-11.4437
▁Fung	-11.4455
▁broad	-11.4456
▁depletion	-11.4456
▁empty	-11.4456
▁eucalyptus	-11.4456
▁difference	-11.4456
▁transmitter	-11.4456
▁preferred	-11.4457
▁bitterness	-11.4458
▁agrimycin	-11.4461
▁processes	-11.4463
▁gape	-11.4463
▁monocrotophos	-11.4464
▁1/2	-11.4471
▁drain	-11.4479
▁termites	-11.4485
▁professional	-11.4489
▁relationship	-11.4492
anoderma	-11.4509
▁tillers	-11.4513
▁avoided	-11.4516
▁animals	-11.4543
▁@10	-11.4544
,30	-11.4551
▁monitor	-11.458
▁break	-11.4584
▁uses	-11.4593
▁z	-11.4595
▁Bas	-11.4602
ile	-11.4603
▁optim	-11.4611
albergia	-11.4656
=101.9	-11.4656
=111.3	-11.4656
=114.2	-11.4656
▁passbook	-11.4656
▁veterinarian	-11.4656
▁choice	-11.4656
▁overflow	-11.4656
▁lodging	-11.4657
▁collection	-11.4658
3-14	-11.4658
*	-11.4658
2011-12	-11.4658
▁pure	-11.4658
▁university	-11.4658
▁kcc	-11.4661
▁3-5	-11.4667
▁explained	-11.4676
ndhu	-11.4681
▁stick	-11.4693
▁implement	-11.4694
▁batch	-11.4698
▁1-2	-11.4699
▁goats	-11.4716
▁worms	-11.4729
-40	-11.4733
▁programs	-11.4772
unny	-11.4777
▁conventional	-11.4796
▁0	-11.48
▁@5	-11.4822
▁3.0	-11.4831
enba	-11.4846
▁correspond	-11.486
▁square	-11.486
▁201	-11.4862
▁mentioned	-11.4864
▁mililitre	-11.4867
▁ventilated	-11.4872
off	-11.4873
▁dursban	-11.4873
▁filled	-11.4873
▁pro	-11.4877
▁Indian	-11.4878
▁pigeon	-11.4898
were	-11.4902
▁1.2	-11.4904
▁weevil	-11.4908
▁regulator	-11.4909
▁improvement	-11.4915
▁bird	-11.4918
F	-11.4977
▁achiev	-11.5057
▁involve	-11.5058
▁limit	-11.5063
ul	-11.5066
=108.6	-11.5069
=115.6	-11.5069
=119.4	-11.5069
▁context	-11.5069
▁guidance	-11.5069
▁longevity	-11.5069
▁appear	-11.5069
▁foster	-11.5069
▁employment	-11.5069
▁climates	-11.5069
▁nearby	-11.5069
▁susceptib	-11.507
12-13	-11.5071
▁frame	-11.5071
▁constructed	-11.5074
▁ease	-11.5075
▁output	-11.5079
▁trichoderma	-11.5079
=9.	-11.5079
▁longer	-11.5081
12	-11.5093
▁inorganic	-11.5096
▁maximize	-11.51
▁report	-11.5116
▁aim	-11.5117
▁precautions	-11.5135
▁divers	-11.514
▁intervals	-11.5143
▁burning	-11.5146
▁changes	-11.515
▁side	-11.5161
▁2007	-11.5166
▁carefully	-11.5172
▁infestations	-11.5189
intensive	-11.5211
▁conduct	-11.5211
march	-11.5212
▁41	-11.5212
day	-11.5228
▁naga	-11.5242
up	-11.5247
raditional	-11.5252
▁separate	-11.5275
▁construct	-11.5276
▁align	-11.5281
▁incidence	-11.5281
▁sulfate	-11.5282
▁Africa	-11.5282
▁paid	-11.5282
▁possible	-11.5283
▁fluton	-11.5284
▁nationalise	-11.5284
▁durability	-11.5284
▁complex	-11.5285
▁security	-11.5287
▁technical	-11.5289
▁adjusted	-11.5292
ria	-11.5293
▁dual	-11.5294
▁soft	-11.5297
▁chicks	-11.5314
▁conserve	-11.532
▁Seed	-11.5336
▁pose	-11.5352
5.	-11.5365
▁reasonably	-11.5403
▁0.2	-11.5415
pressure	-11.5429
▁roles	-11.5443
▁46	-11.5454
▁23	-11.547
-15	-11.5474
surface	-11.5481
25	-11.5484
mong	-11.5486
▁scientific	-11.5499
=100.1	-11.5499
=101.4	-11.5499
=101.5	-11.5499
=102.6	-11.5499
=104.1	-11.5499
=104.3	-11.5499
=105.3	-11.5499
=106.0	-11.5499
=106.4	-11.5499
=106.5	-11.5499
=107.0	-11.5499
=108.0	-11.5499
=108.2	-11.5499
=108.5	-11.5499
=110.6	-11.5499
=114.6	-11.5499
=115.9	-11.5499
=117.5	-11.5499
▁loofah	-11.5499
▁necrosis	-11.5499
=117.0	-11.5499
▁countries	-11.5499
01-0	-11.55
▁stunted	-11.55
▁Leaf	-11.5501
▁foliage	-11.5501
▁6-7	-11.5504
▁intercropping	-11.5506
▁chickens	-11.5511
▁encourage	-11.5512
▁surfaces	-11.5513
▁suck	-11.5523
▁damaged	-11.5526
-3	-11.5528
▁De	-11.5547
▁ploughing	-11.5555
▁mite	-11.5583
▁Micro	-11.5595
▁experience	-11.5596
controlled	-11.5598
ome	-11.5598
▁diarrhea	-11.5604
▁greens	-11.5627
-6	-11.5635
▁inputs	-11.5639
▁treatments	-11.5644
▁sprayer	-11.5651
▁subsequent	-11.5658
▁dissolve	-11.5664
In	-11.5683
▁fill	-11.5703
▁determin	-11.5706
ectin	-11.5713
▁65	-11.5713
▁2005-06	-11.5721
▁emptied	-11.5721
▁facility	-11.5721
▁stop	-11.5721
▁bottom	-11.5721
▁exposure	-11.5721
▁hinder	-11.5721
▁moving	-11.5722
▁arise	-11.5723
▁pumps	-11.5723
▁2016	-11.5724
▁gently	-11.5729
▁soak	-11.5731
▁february	-11.5733
ol	-11.5743
7-9	-11.5746
00,	-11.5749
▁@3	-11.5769
-17,	-11.5784
▁combination	-11.5784
▁failure	-11.5787
▁An	-11.582
ra	-11.5857
▁mono	-11.5868
▁put	-11.5871
aero	-11.5878
Thi	-11.5879
▁sig	-11.5901
▁anti	-11.591
▁ft	-11.5925
▁Control	-11.5943
=103.5	-11.5948
=104.5	-11.5948
=105.5	-11.5948
=105.8	-11.5948
=107.5	-11.5948
=107.6	-11.5948
=110.0	-11.5948
=111.7	-11.5948
=115.0	-11.5948
=115.1	-11.5948
=115.5	-11.5948
=116.5	-11.5948
=116.8	-11.5948
=117.3	-11.5948
=118.9	-11.5948
=119.7	-11.5948
▁account	-11.5948
▁accumulation	-11.5948
▁coffee	-11.5948
▁degree	-11.5948
▁lifespan	-11.5948
▁studies	-11.5948
▁coriander	-11.5948
▁sheath	-11.5948
=116.0	-11.5948
=111.0	-11.5948
▁resilience	-11.5948
▁attain	-11.5948
▁average	-11.5948
=5.0	-11.5949
▁splitting	-11.5949
▁desired	-11.595
▁programme	-11.5951
▁north	-11.5951
▁1999	-11.5952
▁beneficiary	-11.5954
▁user	-11.596
▁divide	-11.5972
▁cereals	-11.5973
▁alkali	-11.5976
▁blue	-11.5977
▁khol	-11.5985
▁grains	-11.5991
▁1500	-11.5997
▁egg	-11.6019
▁bag	-11.6023
▁plot	-11.6024
▁outlet	-11.6025
water	-11.6063
▁agro	-11.6074
▁br	-11.6084
7,	-11.6107
proof	-11.611
blitox	-11.6111
▁Weed	-11.6112
▁mites	-11.6115
▁immediate	-11.6122
age	-11.615
▁U	-11.6154
▁dalbergia	-11.6177
ertigation	-11.6181
▁piping	-11.6181
▁puddling	-11.6181
▁livestock	-11.6181
▁getting	-11.6181
▁contribution	-11.6182
▁reduction	-11.6182
▁circular	-11.6182
▁scum	-11.6182
▁mahafal	-11.6184
▁vigorous	-11.6184
▁medicinal	-11.6188
▁mouth	-11.619
▁spreading	-11.6199
▁dispos	-11.6205
▁dig	-11.6219
▁dosages	-11.6227
▁splits	-11.6238
▁july	-11.624
09,	-11.6252
▁sc	-11.6255
▁adjustments	-11.6255
▁tissue	-11.6256
biovita	-11.6347
multiplex	-11.6349
-5	-11.6364
▁offering	-11.6365
-100	-11.6365
ce	-11.637
H	-11.6378
▁hard	-11.6384
lix	-11.6389
ure	-11.6409
▁loose	-11.6418
elangana	-11.6418
=100.8	-11.6419
=102.7	-11.6419
=102.8	-11.6419
=105.1	-11.6419
=105.2	-11.6419
=106.8	-11.6419
=109.6	-11.6419
=112.4	-11.6419
=112.8	-11.6419
=117.6	-11.6419
=118.8	-11.6419
runachal	-11.6419
▁contrast	-11.6419
▁industry	-11.6419
▁solani	-11.6419
▁imidacloprid	-11.6419
▁carry	-11.6419
▁broccoli	-11.6419
▁fail	-11.6419
▁moong	-11.6419
▁masonry	-11.6419
▁permanganate	-11.642
▁gandhi	-11.642
iscuss	-11.642
▁sheet	-11.642
▁Early	-11.6422
▁sap	-11.6422
▁jyoti	-11.6423
▁Research	-11.6423
▁20-30	-11.6426
oshan	-11.6428
▁khanapara	-11.643
▁intake	-11.6435
▁collected	-11.6436
▁liver	-11.6439
▁inspections	-11.6439
▁checked	-11.6457
-8	-11.6458
▁gardening	-11.6484
▁gund	-11.6487
pl	-11.6491
utrient	-11.6495
8-	-11.6497
▁marigold	-11.6498
▁toria	-11.6498
▁reach	-11.65
▁soaking	-11.6513
▁vegetati	-11.6516
▁pumping	-11.6529
3,	-11.6535
▁sept	-11.6537
▁pan	-11.6542
not	-11.6547
tion	-11.6554
▁0.3	-11.6564
2-3	-11.6624
▁occurs	-11.6648
▁meal	-11.6651
B	-11.6655
id	-11.6661
rganic	-11.6662
▁bunch	-11.6662
▁absorption	-11.6663
▁film	-11.6663
▁consequence	-11.6663
▁greenhouse	-11.6663
om	-11.6663
▁amista	-11.6664
eliable	-11.6665
▁diet	-11.6666
il	-11.6668
▁Tracel	-11.6669
▁streptocycline	-11.6672
▁thiram	-11.6673
▁insecticides	-11.6673
▁insufficient	-11.6675
▁structures	-11.6681
▁guwahati	-11.6685
▁jorhat	-11.6687
▁arize	-11.669
▁streptomycine	-11.6691
▁designs	-11.6692
▁returns	-11.6701
▁350	-11.6701
▁remain	-11.6704
▁pulses	-11.6718
▁130	-11.674
▁date	-11.6746
▁piece	-11.6751
▁mechanism	-11.6752
▁center	-11.6752
▁step	-11.6761
▁tonne	-11.6763
▁cucumbers	-11.6784
▁lateral	-11.6793
▁monthly	-11.6802
01,	-11.6803
▁input	-11.6814
▁ca	-11.6821
▁plots	-11.6833
▁prune	-11.6842
▁premature	-11.6847
▁external	-11.6847
▁questions	-11.6847
▁regulators	-11.6853
▁ammonium	-11.6866
▁settings	-11.6869
▁agri	-11.6881
-30	-11.6889
▁incorporat	-11.6894
▁Effective	-11.6906
na	-11.6906
▁disrupt	-11.6909
=102.2	-11.6913
=102.5	-11.6913
=103.9	-11.6913
=104.6	-11.6913
=104.9	-11.6913
=106.2	-11.6913
=106.7	-11.6913
=107.7	-11.6913
=108.7	-11.6913
=110.3	-11.6913
=112.1	-11.6913
=114.9	-11.6913
=116.2	-11.6913
=116.9	-11.6913
=117.2	-11.6913
=118.1	-11.6913
=118.4	-11.6913
=118.6	-11.6913
=118.7	-11.6913
dimecron	-11.6913
▁purchase	-11.6913
▁Urea	-11.6913
▁bordeux	-11.6913
▁chlorothalonil	-11.6913
▁machinery	-11.6913
▁lost	-11.6913
▁Apple	-11.6914
▁photosynthesis	-11.6915
▁discovered	-11.6916
potting	-11.6917
▁weak	-11.6919
▁methyl	-11.6919
▁suitability	-11.6919
▁phone	-11.6919
@10	-11.6924
▁pra	-11.6927
▁ripe	-11.6939
200	-11.6957
▁heavi	-11.6959
▁hexaconazole	-11.6964
▁oct	-11.6976
▁lt	-11.6982
▁considerations	-11.7001
▁situation	-11.7007
▁solids	-11.703
▁numbers	-11.7059
back	-11.7103
▁improvements	-11.7108
▁produced	-11.7109
▁Integrate	-11.713
ut	-11.7135
@1	-11.7145
▁becom	-11.716
seed	-11.7163
enerally	-11.7167
▁colour	-11.7169
▁biomass	-11.7169
▁bodies	-11.7169
▁percentage	-11.7169
▁polythene	-11.717
of	-11.7172
▁horticultur	-11.7172
2-0	-11.7174
ory	-11.7178
▁pits	-11.7191
▁ton	-11.7192
=19.	-11.7204
▁flooding	-11.7213
04-0	-11.722
▁hills	-11.7243
▁Bed	-11.7253
7.	-11.7263
▁Ant	-11.7267
▁routine	-11.7267
▁services	-11.7271
▁weedicide	-11.7271
▁operator	-11.7273
▁1000	-11.7276
▁element	-11.7277
▁pod	-11.7318
▁functioning	-11.7319
if	-11.7347
▁bees	-11.7367
▁moderate	-11.7371
sowing	-11.7379
▁fruitfl	-11.738
▁100.0	-11.7386
less	-11.739
▁1-	-11.7409
▁jack	-11.7432
=100.4	-11.7432
=101.3	-11.7432
=103.6	-11.7432
=103.8	-11.7432
=104.4	-11.7432
=104.7	-11.7432
=109.4	-11.7432
=110.4	-11.7432
=110.9	-11.7432
=111.6	-11.7432
=111.8	-11.7432
=112.7	-11.7432
=114.1	-11.7432
=114.3	-11.7432
=114.7	-11.7432
=117.9	-11.7432
=118.5	-11.7432
=119.0	-11.7432
▁discoloration	-11.7432
▁tripura	-11.7432
▁opportunities	-11.7432
▁centre	-11.7433
▁functionality	-11.7433
▁flat	-11.7433
▁diversity	-11.7433
▁bottlegourd	-11.7433
▁august	-11.7437
▁eligible	-11.7437
▁surrounding	-11.7437
▁four	-11.7438
▁2009	-11.7441
▁least	-11.7447
laya	-11.7447
▁There	-11.7452
=18.	-11.7459
mid	-11.7461
▁prepar	-11.7465
▁u	-11.7478
▁2.8	-11.7482
▁nagar	-11.7488
▁observed	-11.7498
▁reason	-11.7503
our	-11.7513
▁bo	-11.7531
▁direction	-11.7533
▁tubers	-11.7533
▁moved	-11.7543
▁compound	-11.7545
▁grapes	-11.7551
▁concentrations	-11.7568
▁installations	-11.7577
▁greate	-11.7582
▁procedures	-11.7603
▁frequently	-11.7605
ram	-11.7627
▁sugar	-11.7634
▁enabl	-11.7651
-10,	-11.7657
pit	-11.7658
▁vet	-11.7679
▁125	-11.7692
▁install	-11.7697
▁consist	-11.7703
▁female	-11.7703
domil	-11.7703
▁differ	-11.7703
▁gypsum	-11.7703
j	-11.7704
▁college	-11.7706
▁actual	-11.7707
▁community	-11.7708
10-11	-11.7708
▁sinc	-11.7713
▁cold	-11.7714
▁machines	-11.7717
▁glass	-11.7719
-78	-11.772
min	-11.7743
▁poly	-11.7746
▁nozzle	-11.775
ble	-11.775
▁medium	-11.7767
▁forte	-11.7776
▁described	-11.7783
la	-11.7804
▁seedbed	-11.7816
▁trap	-11.782
▁program	-11.7822
▁0.	-11.7838
▁enriche	-11.7861
▁Can	-11.7862
21	-11.7886
▁systemic	-11.7893
guide	-11.791
▁plough	-11.7911
4.	-11.7914
▁observe	-11.7918
sible	-11.7924
▁coconuts	-11.7936
one	-11.795
▁tetracyclin	-11.7979
▁Increase	-11.798
▁pseudostem	-11.798
=100.2	-11.7981
=100.3	-11.7981
=100.6	-11.7981
=101.2	-11.7981
=103.4	-11.7981
=104.0	-11.7981
=105.6	-11.7981
=107.2	-11.7981
=107.8	-11.7981
=107.9	-11.7981
=108.4	-11.7981
=109.3	-11.7981
=109.9	-11.7981
=110.5	-11.7981
=112.2	-11.7981
=114.4	-11.7981
=116.3	-11.7981
=117.1	-11.7981
=119.2	-11.7981
=119.3	-11.7981
=119.6	-11.7981
ashmir	-11.7981
▁honey	-11.7981
▁profitability	-11.7981
▁nuvacron	-11.7981
▁difficult	-11.7981
▁labour	-11.7981
=113.0	-11.7981
▁circulation	-11.7981
▁sulphur	-11.7981
▁groundwater	-11.7981
▁shedding	-11.7981
▁pull	-11.7981
▁relative	-11.7982
▁canopy	-11.7982
▁tailored	-11.7983
▁pathogenic	-11.7983
▁bush	-11.7987
▁artificial	-11.7987
▁syngenta	-11.7992
▁2000-	-11.7993
▁Rogor	-11.7995
▁hydrogen	-11.7996
40	-11.8003
▁8-10	-11.8003
▁das	-11.8006
2003	-11.8008
▁selected	-11.8009
te	-11.801
▁building	-11.8013
▁q	-11.8013
ri	-11.8014
▁vines	-11.8023
revention	-11.8026
▁var	-11.8026
-25	-11.8027
▁dipping	-11.8029
▁completely	-11.803
▁cracks	-11.8033
▁mealy	-11.8037
▁dimethoate	-11.804
▁soake	-11.8041
ncil	-11.8049
▁designed	-11.8049
▁cankers	-11.8056
▁0.6	-11.8058
▁chickpea	-11.8095
▁hi	-11.8099
▁floor	-11.8103
▁suckers	-11.8103
ways	-11.8107
▁orchard	-11.8107
▁document	-11.8107
▁successfully	-11.8112
▁700	-11.8172
cum	-11.8174
▁bloom	-11.8191
november	-11.8196
indofil	-11.8196
rogor	-11.8198
▁don	-11.8199
▁decrease	-11.8202
▁raise	-11.8206
▁alternative	-11.8207
▁periods	-11.8259
▁biodiversity	-11.8266
▁deficiencies	-11.8266
▁invasion	-11.8266
▁mukta	-11.8266
▁trouble	-11.8266
▁jamm	-11.8267
▁bevistin	-11.8267
▁respirat	-11.8267
▁horticulture	-11.8271
▁appropriately	-11.8272
▁intra	-11.8274
▁1/3	-11.8275
14-15	-11.8277
▁ponds	-11.8286
▁0.4	-11.8293
▁scar	-11.8293
▁ra	-11.8308
war	-11.831
▁six	-11.8365
▁bor	-11.8385
▁bar	-11.8385
▁vector	-11.8395
▁installation	-11.8401
▁agents	-11.8428
ara	-11.8444
35	-11.849
bavistin	-11.849
▁uproot	-11.8491
▁id	-11.8491
-72	-11.8515
ta	-11.8516
owdery	-11.8522
▁1200	-11.8539
▁eliminat	-11.8542
planting	-11.8542
ffic	-11.8547
base	-11.8556
▁choos	-11.8556
▁interest	-11.8556
17	-11.8559
▁vigor	-11.856
▁humid	-11.856
=102.0	-11.856
=102.1	-11.856
=102.3	-11.856
=102.9	-11.856
=103.1	-11.856
=103.2	-11.856
=105.0	-11.856
=105.4	-11.856
=106.6	-11.856
=106.9	-11.856
=109.7	-11.856
=110.1	-11.856
=111.1	-11.856
=113.4	-11.856
=114.0	-11.856
=115.8	-11.856
=118.2	-11.856
=118.3	-11.856
▁deltoides	-11.856
▁tridemorph	-11.856
▁basis	-11.856
▁liming	-11.856
▁planning	-11.856
▁salinity	-11.856
▁whiteflies	-11.856
▁Prune	-11.856
▁Stem	-11.856
▁Mix	-11.856
▁deka	-11.8561
▁udder	-11.8561
▁cows	-11.8562
▁farmland	-11.8562
▁survival	-11.8563
▁million	-11.8564
▁rubber	-11.8564
▁expected	-11.8565
▁preferably	-11.8566
▁nagaon	-11.8566
▁attacks	-11.857
▁attachments	-11.8582
-52	-11.8582
▁forests	-11.8583
▁tropical	-11.8589
▁slowly	-11.8609
▁0.2%	-11.8616
▁enquire	-11.8628
▁ro	-11.8629
▁saplings	-11.865
8.	-11.8655
ers	-11.8675
▁maintained	-11.8677
▁disadvantages	-11.8689
ting	-11.8689
▁target	-11.8692
▁option	-11.8702
▁leakage	-11.8703
▁hectares	-11.8712
ey	-11.8712
▁soybean	-11.8719
▁reasons	-11.8733
26	-11.8755
▁manually	-11.8764
oct	-11.8784
even	-11.8794
▁j	-11.8795
▁face	-11.8796
after	-11.8797
per	-11.88
hrough	-11.88
▁pressures	-11.8803
▁negative	-11.8808
▁conserv	-11.8808
▁eat	-11.8809
▁pour	-11.8812
▁tractors	-11.8814
▁initially	-11.8832
▁boo	-11.8842
▁20%	-11.8846
▁atmospher	-11.8852
▁measur	-11.8854
▁compact	-11.8857
▁restrict	-11.8863
▁Agriculture	-11.8863
▁solarisation	-11.8863
▁unique	-11.8863
▁visual	-11.8863
▁Saaf	-11.8863
▁harmful	-11.8864
▁integration	-11.8864
▁centi	-11.8864
▁decline	-11.8864
▁ridgegourd	-11.8864
▁assist	-11.8864
▁decreasing	-11.8865
▁saline	-11.8866
▁hairy	-11.8867
▁ganoderma	-11.8868
▁quintle	-11.8869
▁suited	-11.8874
▁slight	-11.8876
▁particles	-11.8877
▁rounded	-11.8877
▁find	-11.8879
▁feb	-11.888
TE	-11.8882
▁tasks	-11.8886
ium	-11.8886
▁pe	-11.8888
▁leveled	-11.89
▁delivery	-11.8905
▁gur	-11.8905
▁producing	-11.8914
▁loans	-11.8918
op	-11.893
▁valves	-11.8936
shaped	-11.8955
▁inside	-11.8977
▁induce	-11.901
▁fingerling	-11.9012
▁location	-11.9012
▁v	-11.9024
ty	-11.9029
▁acres	-11.9035
▁treating	-11.9061
set	-11.9067
▁@50	-11.9067
▁continuously	-11.9072
▁drops	-11.9079
half	-11.9106
tree	-11.9109
▁gardens	-11.9116
▁necessitat	-11.9136
33	-11.9148
▁fac	-11.915
▁castrat	-11.9171
▁list	-11.9171
▁firm	-11.9175
=108.8	-11.9176
=109.5	-11.9176
=110.8	-11.9176
=112.6	-11.9176
=114.8	-11.9176
=115.2	-11.9176
=115.3	-11.9176
=115.4	-11.9176
=116.7	-11.9176
=117.8	-11.9176
=119.1	-11.9176
=119.5	-11.9176
=119.9	-11.9176
▁combat	-11.9176
▁ni	-11.9176
▁penetration	-11.9176
▁Eggplant	-11.9176
▁blood	-11.9176
▁substantial	-11.9176
▁composition	-11.9176
▁faster	-11.9176
▁gummosis	-11.9176
▁potion	-11.9176
▁bittergourd	-11.9177
▁yellowish	-11.9177
▁Feed	-11.9177
▁molases	-11.9177
▁seen	-11.9178
▁colocasia	-11.9179
▁cloth	-11.9181
▁tafgor	-11.9181
23	-11.9182
▁industries	-11.9182
▁uttara	-11.9184
▁implemented	-11.9184
▁survive	-11.9184
▁self	-11.9184
▁shoulders	-11.9184
▁december	-11.9186
▁automation	-11.9187
▁apart	-11.9189
▁developed	-11.919
▁smaller	-11.919
lary	-11.9192
▁recommendations	-11.9195
▁units	-11.9201
▁butt	-11.9204
▁thir	-11.9205
▁amendments	-11.9209
▁pigs	-11.9214
cel	-11.9215
▁adversely	-11.923
▁inlet	-11.924
▁experts	-11.9244
▁cum	-11.9245
▁w	-11.9255
▁procure	-11.927
▁skills	-11.9271
▁digesters	-11.9289
▁tightness	-11.9291
▁bu	-11.9305
nutrient	-11.9325
▁human	-11.9327
▁spider	-11.9329
▁feature	-11.9341
▁residue	-11.9344
▁Alterna	-11.9361
▁containers	-11.9363
▁nos	-11.9373
▁substrates	-11.9374
44	-11.9375
▁correctly	-11.9376
▁mains	-11.9385
ll	-11.9393
king	-11.9395
▁compromise	-11.9401
▁desi	-11.9418
affected	-11.9429
line	-11.9448
▁oxy	-11.9487
usa	-11.9492
▁learn	-11.9493
hisham	-11.9497
D	-11.9498
▁Fruit	-11.9498
▁benzoate	-11.9498
▁spawn	-11.9498
▁suppliment	-11.9498
▁taste	-11.9498
▁flavor	-11.9498
▁cifax	-11.9499
▁diagnosis	-11.9499
▁similar	-11.9499
▁anamika	-11.95
▁recommanded	-11.95
▁weaken	-11.9501
▁serve	-11.9502
▁bulk	-11.9502
▁corrosion	-11.9502
▁viable	-11.9503
▁quinalphos	-11.9504
▁male	-11.9506
▁30-40	-11.9509
▁destroyed	-11.9511
▁established	-11.9513
▁FIRB	-11.9518
▁fishes	-11.9519
▁others	-11.9525
▁0.1%	-11.9529
▁saturate	-11.9534
AS	-11.9538
7.0	-11.9538
▁distributed	-11.9541
▁inefficient	-11.9547
▁sustain	-11.9551
▁current	-11.9565
▁Weeding	-11.9599
ari	-11.9604
▁heating	-11.9631
▁safely	-11.9637
lo	-11.965
▁intensive	-11.9651
▁friable	-11.9662
▁prefer	-11.9666
▁group	-11.967
▁traps	-11.9688
▁complete	-11.9702
▁eggs	-11.9726
▁mi	-11.9732
▁hydra	-11.9736
dimethoate	-11.9761
batch	-11.9761
captaf	-11.9762
acre	-11.9762
streptomycin	-11.9762
-22	-11.9766
-1,	-11.9768
drive	-11.9784
▁electric	-11.9784
90	-11.9811
▁fas	-11.9816
▁specifi	-11.983
ultural	-11.9831
▁thick	-11.9831
=100.9	-11.9832
=103.3	-11.9832
=104.2	-11.9832
=105.7	-11.9832
=108.9	-11.9832
=109.0	-11.9832
=109.1	-11.9832
=110.2	-11.9832
=111.4	-11.9832
=111.9	-11.9832
=112.3	-11.9832
=113.5	-11.9832
▁science	-11.9832
▁andaman	-11.9832
▁nagamruta	-11.9832
▁prior	-11.9832
▁homogeneous	-11.9832
▁viridi	-11.9832
▁fever	-11.9832
▁suction	-11.9833
▁tiny	-11.9834
▁mobile	-11.9836
▁magnesium	-11.9838
▁Remember	-11.9838
▁kahikuchi	-11.984
▁litter	-11.9843
▁performed	-11.9844
▁bipul	-11.9848
▁rocket	-11.9848
▁fittings	-11.9851
▁involv	-11.9861
▁growers	-11.9863
bima	-11.9871
18	-11.9872
▁ducks	-11.9886
▁utilized	-11.9886
▁identified	-11.9899
▁means	-11.9899
▁850	-11.9905
▁la	-11.9908
▁shed	-11.9913
▁breeds	-11.9934
75	-11.9934
04	-11.997
▁submit	-11.9983
▁37	-11.9987
▁borne	-11.9995
urad	-12.0003
▁later	-12.0007
▁maggot	-12.0007
▁mulching	-12.0011
▁solid	-12.0017
▁min	-12.0022
▁nov	-12.0036
▁operators	-12.0039
-14	-12.0054
reen	-12.0105
27	-12.0105
friendly	-12.0105
hexaconazole	-12.0106
▁dependenc	-12.0111
▁adverse	-12.0118
9.	-12.0126
9.0	-12.0127
▁term	-12.0143
late	-12.0156
▁tablets	-12.0163
▁assess	-12.017
▁residu	-12.0171
▁W	-12.0172
▁absorb	-12.0173
▁Tomato	-12.0176
▁Chin	-12.0176
▁popular	-12.0177
▁Evaluat	-12.0177
▁communities	-12.0177
▁convenient	-12.0177
▁intercropped	-12.0177
▁minimum	-12.0177
▁molasses	-12.0177
▁ustad	-12.0177
▁degradation	-12.0177
▁sawani	-12.0177
▁instance	-12.0177
▁alter	-12.0177
▁topography	-12.0179
▁placement	-12.0179
flox	-12.0179
80	-12.018
▁hemispheric	-12.018
▁Potassium	-12.018
▁syrup	-12.018
▁borux	-12.018
▁kamrup	-12.0182
▁central	-12.0183
▁automated	-12.0183
▁Environmental	-12.0184
▁mold	-12.0188
▁trifos	-12.0191
24	-12.0195
▁drippers	-12.0197
known	-12.0209
▁melons	-12.0212
reventive	-12.0217
SE	-12.0218
▁necessitate	-12.0221
▁mo	-12.0222
▁sulfur	-12.0231
ft	-12.0233
biotic	-12.0241
▁introduced	-12.0241
▁enable	-12.0244
▁rodents	-12.0259
▁metals	-12.0259
he	-12.0266
▁standards	-12.0277
▁jan	-12.0304
▁0.8	-12.0309
▁bugs	-12.0334
▁pana	-12.0338
▁jacket	-12.0343
▁suppress	-12.0344
-9	-12.0362
▁leakages	-12.0363
▁@2.5	-12.0367
▁mar	-12.0368
▁katha	-12.0371
▁sequence	-12.0371
▁filter	-12.0372
▁ecosystem	-12.0373
▁pattern	-12.0373
▁grape	-12.0375
▁farms	-12.0375
▁challenge	-12.0376
sucking	-12.0378
ended	-12.0381
▁hybrids	-12.0384
▁sep	-12.0388
▁determined	-12.0413
TR	-12.0414
=17.	-12.0427
▁CA	-12.0429
arka	-12.0437
▁broadcast	-12.046
#	-12.046
▁resolve	-12.0461
ESP	-12.0462
identified	-12.0463
▁Timel	-12.0465
▁slow	-12.0475
-18	-12.0481
▁deliver	-12.0485
▁extra	-12.0494
▁cross	-12.05
▁chillie	-12.0526
▁manipu	-12.053
▁Develop	-12.0533
ifferent	-12.0533
▁cool	-12.0533
▁resist	-12.0533
=100.7	-12.0534
=101.8	-12.0534
=106.3	-12.0534
=109.8	-12.0534
=110.7	-12.0534
=111.2	-12.0534
=112.5	-12.0534
=113.2	-12.0534
=113.7	-12.0534
=116.1	-12.0534
=121.8	-12.0534
=127.6	-12.0534
▁escape	-12.0534
▁fodder	-12.0534
▁fumigation	-12.0534
▁ladybugs	-12.0534
▁mascularly	-12.0534
▁sesame	-12.0534
▁enrox	-12.0534
▁positive	-12.0534
▁vessel	-12.0534
▁middle	-12.0534
▁numerous	-12.0534
achal	-12.0534
▁chin	-12.0534
▁tilth	-12.0534
▁preservation	-12.0534
▁master	-12.0534
▁dolichos	-12.0534
▁viability	-12.0534
▁calf	-12.0535
▁locality	-12.0536
▁nuvan	-12.0538
▁lakhimpur	-12.0539
▁dibrugarh	-12.054
▁microorganisms	-12.0543
▁extended	-12.0543
▁flora	-12.0551
▁spores	-12.056
▁portions	-12.0563
32	-12.0577
▁Improve	-12.0583
▁vety	-12.0598
irrigating	-12.0608
▁substances	-12.0614
70	-12.0615
▁capital	-12.0634
▁proof	-12.0645
▁67	-12.066
fuse	-12.0693
37	-12.07
uri	-12.072
▁disadvantage	-12.0744
▁sucker	-12.0745
▁tip	-12.0751
harvest	-12.0756
ltr	-12.0767
The	-12.0781
eka	-12.0798
▁dec	-12.0802
▁180	-12.0806
▁Y	-12.081
treatment	-12.0834
▁pa	-12.0837
july	-12.0838
UC	-12.0859
▁5.0	-12.0866
▁incorporate	-12.0878
▁rational	-12.0882
inch	-12.0886
▁giv	-12.0898
ctober	-12.0903
▁exhibit	-12.0904
▁distinct	-12.0904
▁displace	-12.0904
▁intensity	-12.0904
▁oxysporum	-12.0904
▁south	-12.0904
▁spinach	-12.0904
▁stumps	-12.0904
▁women	-12.0904
▁Implement	-12.0904
▁classification	-12.0904
▁ranchi	-12.0904
▁future	-12.0904
▁susceptibility	-12.0904
▁carbofuran	-12.0904
▁rotating	-12.0904
▁solar	-12.0904
▁cercospora	-12.0904
▁storing	-12.0904
▁knife	-12.0904
▁horizontal	-12.0904
▁insulation	-12.0904
▁30-35	-12.0904
▁displacement	-12.0905
ternal	-12.0905
▁stimulate	-12.0905
▁meat	-12.0905
▁nature	-12.0906
▁Poor	-12.0906
E	-12.0906
▁intercultur	-12.0909
▁sulcoprim	-12.0911
▁vipul	-12.0911
▁cylindrical	-12.0911
▁lady	-12.0911
▁25-30	-12.0912
ather	-12.0912
▁saw	-12.0912
▁hoppers	-12.0914
▁cypermethrin	-12.0916
▁grading	-12.0917
tur	-12.093
▁sell	-12.0935
▁extract	-12.0942
1.	-12.0944
▁pride	-12.0945
@4	-12.0947
▁picking	-12.096
16	-12.0961
▁buy	-12.0962
▁compensat	-12.0968
▁topdressing	-12.0974
▁Time	-12.0976
▁47	-12.0976
▁negatively	-12.0977
▁incorporated	-12.0979
▁fires	-12.0981
▁home	-12.099
▁spaced	-12.099
▁weeder	-12.0992
dian	-12.0995
▁jo	-12.0999
ood	-12.1
dap	-12.1017
▁carrots	-12.1023
▁culms	-12.103
▁mu	-12.103
dium	-12.1034
▁yrs	-12.1045
ated	-12.1047
▁enrich	-12.1066
▁Be	-12.108
▁po	-12.1092
side	-12.1093
anta	-12.1106
▁antibiotic	-12.1128
/4	-12.1147
mona	-12.1168
▁rains	-12.117
-1.5	-12.1173
ery	-12.1175
36	-12.1194
▁70%	-12.1198
FYM	-12.1217
▁topdress	-12.1217
value	-12.1219
▁layers	-12.1222
ied	-12.1226
▁introduce	-12.123
▁maximiz	-12.123
▁alternate	-12.1232
▁seal	-12.1242
▁palms	-12.1248
▁bi	-12.1257
▁cultivat	-12.128
▁Bavistin	-12.1284
▁via	-12.1285
▁manifest	-12.1288
=103.7	-12.1289
=106.1	-12.1289
=108.3	-12.1289
=112.0	-12.1289
=112.9	-12.1289
=113.8	-12.1289
=114.5	-12.1289
=120.3	-12.1289
=121.2	-12.1289
=124.7	-12.1289
=128.9	-12.1289
=133.9	-12.1289
▁Planofix	-12.1289
▁coordinator	-12.1289
▁provision	-12.1289
▁sector	-12.1289
▁neck	-12.1289
▁pollution	-12.1289
▁lychee	-12.1289
▁Tricel	-12.1289
▁niger	-12.1289
=120.0	-12.1289
▁specifications	-12.1289
▁steady	-12.1289
▁propagation	-12.1289
▁vein	-12.1289
▁define	-12.1289
mm	-12.1291
▁rainwater	-12.1291
▁helpful	-12.1292
▁vascular	-12.1293
▁stresses	-12.1293
▁Sandal	-12.1295
▁toxic	-12.1296
▁beam	-12.1296
▁ibd	-12.1296
▁Indofil	-12.1296
▁1-1.5	-12.1297
▁nath	-12.1298
▁2.75	-12.1298
▁Pruning	-12.1299
▁enhancement	-12.1299
▁fermentation	-12.1303
▁aqua	-12.1304
▁poisoning	-12.1304
▁agrimin	-12.1305
adine	-12.1305
▁tower	-12.1305
▁started	-12.1306
▁practical	-12.1313
▁48	-12.1323
▁formed	-12.1336
▁sizes	-12.1374
▁parasites	-12.1375
▁bring	-12.1408
▁10.0	-12.1416
▁2000	-12.1436
air	-12.1436
▁con	-12.144
em	-12.1459
▁ferro	-12.1465
▁rat	-12.1471
oom	-12.15
▁section	-12.1526
▁75%	-12.1536
iological	-12.1536
ification	-12.1548
▁action	-12.1557
▁considering	-12.1566
▁reache	-12.1568
▁weekly	-12.1569
70.0	-12.1573
▁Prevent	-12.1586
▁poorly	-12.1592
▁irrigat	-12.1593
▁weevils	-12.1595
aerated	-12.1607
▁3000	-12.1611
bred	-12.1614
(2	-12.1614
more	-12.162
ready	-12.1625
▁com	-12.1629
ducing	-12.1634
▁Fertilize	-12.1644
▁did	-12.1653
amycin	-12.1657
,000	-12.1669
5.0	-12.1669
19	-12.1671
4,	-12.1683
▁dept	-12.1687
movable	-12.1689
▁pregnan	-12.1689
▁reinforc	-12.1689
▁institute	-12.1689
▁masoor	-12.1689
▁severity	-12.1689
▁versatility	-12.1689
▁withstand	-12.1689
▁strategic	-12.1689
▁crystal	-12.1689
▁exist	-12.1689
▁lucidum	-12.1689
▁analysis	-12.1689
▁injuries	-12.1689
▁expansion	-12.1689
antho	-12.1689
▁arhar	-12.1689
▁pkt	-12.1689
pproval	-12.1689
▁compaction	-12.1689
▁statement	-12.169
▁phytophth	-12.169
▁First	-12.169
▁Pepper	-12.169
▁Rose	-12.1691
ntri	-12.1692
▁Whe	-12.1693
▁moths	-12.1693
▁emulsion	-12.1693
▁taro	-12.1694
▁ions	-12.1699
▁elevated	-12.1703
▁rupees	-12.1703
▁ambiplex	-12.1705
▁suspect	-12.1708
80.0	-12.1711
ors	-12.1714
▁inform	-12.1714
▁ostocalcium	-12.1714
▁instead	-12.1715
infest	-12.172
▁bear	-12.1727
▁emitt	-12.1729
draw	-12.173
▁shifting	-12.1744
ization	-12.1747
▁infect	-12.1753
▁Crops	-12.1753
▁succin	-12.1755
▁hazards	-12.1759
▁wetting	-12.1762
▁cal	-12.1765
minor	-12.1776
aid	-12.1781
1.0	-12.1796
▁compromis	-12.1811
▁demonstrate	-12.1814
ac	-12.1816
▁rapidly	-12.1834
Re	-12.1835
▁sandal	-12.1839
▁Con	-12.1859
▁antibiotics	-12.186
hoot	-12.189
▁wett	-12.1892
▁rd	-12.1894
inal	-12.192
▁influenc	-12.1927
▁fertilized	-12.1934
▁lentil	-12.1935
▁proportion	-12.194
ational	-12.194
▁intervention	-12.1943
▁roller	-12.1943
▁gall	-12.1952
▁centers	-12.1953
▁No	-12.1969
▁prevented	-12.1991
▁facilitated	-12.1994
hind	-12.2033
effectiveness	-12.2036
sagorika	-12.2037
pped	-12.2039
▁succini	-12.2041
nalyze	-12.2042
68	-12.2048
▁genetic	-12.2057
750	-12.2058
so	-12.2064
▁dispose	-12.2066
-150	-12.2067
ior	-12.2073
▁forming	-12.2082
ox	-12.2099
▁550	-12.2102
hytophth	-12.2104
▁Depend	-12.2104
▁Fixed	-12.2105
=102.4	-12.2105
=104.8	-12.2105
=107.3	-12.2105
=107.4	-12.2105
=108.1	-12.2105
=122.9	-12.2105
=133.6	-12.2105
=133.8	-12.2105
=135.1	-12.2105
=142.1	-12.2105
=143.1	-12.2105
=143.4	-12.2105
=147.7	-12.2105
=149.6	-12.2105
▁Furrow	-12.2105
▁challenging	-12.2105
▁phytoplasma	-12.2105
▁strip	-12.2105
▁family	-12.2105
▁NPK	-12.2105
▁flame	-12.2105
▁stubble	-12.2105
▁caterpilar	-12.2105
▁deterioration	-12.2105
▁jackfruit	-12.2105
▁dew	-12.2105
▁dioxide	-12.2105
▁frost	-12.2106
▁cream	-12.2106
▁lettuce	-12.2106
▁defoliation	-12.2106
▁gasket	-12.2106
▁midge	-12.2106
▁droop	-12.2107
▁dk	-12.2108
▁seek	-12.2109
▁pile	-12.2109
▁speed	-12.2109
▁sugget	-12.2109
parasitic	-12.211
▁gravity	-12.2111
▁fallen	-12.2113
▁enquiry	-12.2113
▁installed	-12.2115
▁japanese	-12.2116
▁carboxin	-12.2119
▁avil	-12.212
mizo	-12.2121
▁fix	-12.2123
▁275	-12.2123
1.5	-12.2128
▁Carr	-12.2128
▁active	-12.2133
▁dipp	-12.2133
▁(10%	-12.2134
▁band	-12.2135
▁though	-12.2142
▁toward	-12.2146
anate	-12.215
▁fe	-12.2195
R	-12.2196
ro	-12.2197
▁friendly	-12.2197
▁cutworms	-12.2227
▁barriers	-12.2241
ak	-12.2258
▁blades	-12.2262
▁galls	-12.2269
liance	-12.2273
ustification	-12.2279
io	-12.2285
▁34	-12.2286
▁yr	-12.2294
▁advis	-12.2299
velling	-12.2303
▁tre	-12.232
▁person	-12.2329
▁buds	-12.2339
▁naturally	-12.2345
producing	-12.2346
▁nozzles	-12.2355
meter	-12.2363
size	-12.2364
▁adaptation	-12.2366
▁piglet	-12.2371
▁scraper	-12.2372
▁He	-12.2373
▁phase	-12.2374
875	-12.2375
▁habitat	-12.2378
▁blade	-12.2379
▁mechanisms	-12.2382
▁net	-12.2395
time	-12.2406
▁sides	-12.2431
khol	-12.2447
▁ulcer	-12.2452
with	-12.247
▁preserve	-12.2472
sh	-12.2479
▁utilize	-12.2482
ap	-12.2485
3.0	-12.2492
da	-12.2494
500	-12.2519
-2.5	-12.2529
▁discover	-12.2535
assava	-12.2539
▁Spread	-12.254
▁algae	-12.254
▁appetite	-12.254
▁transpiration	-12.254
▁vapor	-12.254
▁corm	-12.254
▁scab	-12.254
▁chandramukhi	-12.254
▁education	-12.254
▁shelter	-12.254
▁miligram	-12.254
▁diversification	-12.254
▁chance	-12.254
▁infrastructure	-12.2541
▁implementation	-12.2541
▁gardeners	-12.2541
▁room	-12.2541
▁anistamin	-12.2541
▁findings	-12.2542
▁seven	-12.2542
▁Identify	-12.2542
▁adequately	-12.2544
ond	-12.2545
▁viruses	-12.2547
▁urban	-12.2548
▁looper	-12.2548
▁trade	-12.255
▁call	-12.2551
cent	-12.2553
▁riser	-12.2564
▁discharge	-12.2571
▁outbreaks	-12.2573
▁twigs	-12.2575
▁entering	-12.2587
▁blockages	-12.2587
▁4.0	-12.2597
▁Ex	-12.2613
▁sealing	-12.2622
▁scales	-12.2638
uli	-12.2641
▁beet	-12.2644
ded	-12.2646
▁note	-12.2659
▁bee	-12.2666
mart	-12.2666
ake	-12.2688
▁cons	-12.2691
▁until	-12.2694
▁see	-12.2698
▁environments	-12.2699
▁drive	-12.2699
tv	-12.2716
▁densely	-12.2723
mu	-12.2737
▁patterns	-12.2741
@12	-12.2763
-60	-12.2796
mi	-12.28
bout	-12.2808
▁focuse	-12.2809
▁Scheme	-12.282
▁elevation	-12.282
▁finger	-12.2821
▁starting	-12.2821
▁village	-12.2822
▁nematode	-12.2833
▁technique	-12.2836
▁consideration	-12.2837
▁factor	-12.2839
▁28	-12.2854
53	-12.2896
▁implements	-12.2896
erefore	-12.2898
q	-12.2901
▁agril	-12.2904
▁driv	-12.2923
sulfur	-12.2924
kufri	-12.2925
economic	-12.2925
potassium	-12.2925
variety	-12.2925
3000	-12.2945
▁nuts	-12.2949
▁ch	-12.2955
▁pr	-12.2958
-70	-12.296
ious	-12.2961
▁sl	-12.2962
▁ration	-12.2964
pic	-12.2968
▁introduc	-12.298
ried	-12.2987
repare	-12.2993
ilute	-12.2994
▁irregular	-12.2995
▁khaki	-12.2995
=101.0	-12.2995
=111.5	-12.2995
=121.4	-12.2995
=121.6	-12.2995
=121.9	-12.2995
=122.2	-12.2995
=129.9	-12.2995
=132.9	-12.2995
=138.0	-12.2995
=138.7	-12.2995
=140.5	-12.2995
=142.5	-12.2995
=143.0	-12.2995
=145.8	-12.2995
=147.2	-12.2995
▁Appropriate	-12.2995
▁accuracy	-12.2995
▁decomposition	-12.2995
▁fountain	-12.2995
▁individual	-12.2995
▁microbes	-12.2995
▁mistakes	-12.2995
▁nicobar	-12.2995
▁pineapple	-12.2995
▁socio	-12.2995
▁spoon	-12.2995
▁basic	-12.2995
▁spices	-12.2995
=126.0	-12.2995
▁strawberry	-12.2995
▁whitefly	-12.2995
=118.0	-12.2995
▁tolerance	-12.2995
▁render	-12.2995
▁chlorosis	-12.2995
▁forestry	-12.2995
▁Sever	-12.2995
▁transfer	-12.2996
▁colder	-12.2996
MAR	-12.2996
▁heart	-12.2996
▁criteria	-12.2997
▁eligibility	-12.2997
▁succession	-12.2997
▁look	-12.2997
▁pox	-12.2997
▁tempor	-12.2999
▁employed	-12.2999
▁phorate	-12.3
▁housing	-12.3
▁Soak	-12.3001
▁varies	-12.3003
▁overwatering	-12.3004
▁targeted	-12.3006
▁press	-12.3009
▁setts	-12.3014
▁stagna	-12.3019
▁Populus	-12.3021
14	-12.3024
▁own	-12.3027
▁40-50%	-12.3027
▁inadequate	-12.3031
mix	-12.3036
▁topical	-12.304
47	-12.3049
una	-12.3052
▁rationally	-12.3069
▁Plants	-12.3072
▁inch	-12.3074
▁organisms	-12.3074
▁cart	-12.3077
▁estimate	-12.3077
▁cleaned	-12.3078
▁nodes	-12.3078
▁board	-12.3086
▁limitations	-12.3097
▁210	-12.3115
▁tri	-12.3124
▁legumes	-12.3128
86	-12.3134
-48	-12.3144
2.	-12.3151
oph	-12.3164
cal	-12.3165
▁dis	-12.317
72	-12.3172
22	-12.3173
▁ecosystems	-12.3205
▁wounding	-12.3207
rained	-12.3221
▁phosph	-12.3222
25.0	-12.3224
38	-12.3226
▁2.1	-12.3242
▁cap	-12.3254
▁2.4	-12.3279
▁weedicides	-12.3282
▁streak	-12.3296
ontinuous	-12.3307
▁culm	-12.331
▁Ea	-12.3318
adhar	-12.3334
▁biovita	-12.3338
74	-12.3351
▁ba	-12.3357
@25	-12.337
ability	-12.3389
▁ge	-12.3389
worm	-12.3393
▁pick	-12.3399
irrigation	-12.3401
along	-12.3409
▁economical	-12.3409
60.0	-12.3412
▁recover	-12.3423
▁heights	-12.3427
▁ga	-12.3429
/200	-12.3432
20.0	-12.3434
ine	-12.3442
50.0	-12.3458
hizoctonia	-12.347
▁delay	-12.3471
▁balancing	-12.3471
▁colony	-12.3471
▁exchange	-12.3471
▁germinate	-12.3471
▁intensification	-12.3471
▁people	-12.3471
▁quantities	-12.3471
▁uneconomical	-12.3471
▁Central	-12.3471
▁link	-12.3471
▁sprinkling	-12.3471
▁continous	-12.3471
▁shock	-12.3471
▁country	-12.3471
▁neglect	-12.3471
▁algal	-12.3471
▁rigid	-12.3471
▁restor	-12.3471
▁raw	-12.3471
▁Adjust	-12.3471
▁concentrate	-12.3471
▁rotten	-12.3471
▁lab	-12.3471
▁systematic	-12.3472
▁cater	-12.3472
▁feeds	-12.3472
▁September	-12.3472
▁inches	-12.3472
▁association	-12.3472
▁deptt	-12.3473
▁resilien	-12.3473
▁aluminium	-12.3473
▁bahadur	-12.3476
▁firb	-12.3476
▁ruby	-12.3482
duaprim	-12.3483
▁deworming	-12.3483
▁mission	-12.3483
▁sird	-12.3483
6.4	-12.3487
▁web	-12.3488
▁damaging	-12.349
▁ganga	-12.3491
ological	-12.3496
ba	-12.3496
▁smallholder	-12.3497
-24	-12.3502
▁abha	-12.3503
▁1750	-12.3504
▁productive	-12.3506
▁wheels	-12.3515
▁termina	-12.3529
▁hoeing	-12.3529
▁ir	-12.3554
▁Bo	-12.3557
400	-12.3573
▁processed	-12.3578
▁custom	-12.3586
▁decreased	-12.3586
▁faced	-12.3587
ride	-12.3591
▁supplements	-12.3598
.55	-12.3605
▁led	-12.3607
mala	-12.3629
▁boards	-12.3633
▁0.7	-12.3638
me	-12.3645
▁So	-12.3657
rient	-12.3673
▁panacur	-12.3682
▁filters	-12.3692
▁regard	-12.3719
▁aroma	-12.3736
plain	-12.375
▁rid	-12.3764
35.0	-12.3791
▁leg	-12.3806
▁barrier	-12.381
▁precaution	-12.3812
▁characteristic	-12.3813
▁adjustment	-12.3814
▁hu	-12.3829
▁ws	-12.3841
1,	-12.3842
66	-12.3858
▁Introduc	-12.3868
till	-12.387
▁Specific	-12.3878
▁models	-12.3878
▁Sali	-12.3878
wp	-12.3891
▁gumm	-12.3892
kilogram	-12.3901
tracel	-12.3902
@5	-12.3905
told	-12.3906
▁aadha	-12.3926
▁emphasiz	-12.3936
▁integrat	-12.3941
lime	-12.3945
table	-12.3947
▁(20	-12.3954
▁employ	-12.3965
▁leav	-12.3966
gp	-12.3969
▁Potato	-12.397
▁undulat	-12.397
=113.9	-12.3971
=116.6	-12.3971
=122.5	-12.3971
=127.7	-12.3971
=127.9	-12.3971
=129.8	-12.3971
=133.4	-12.3971
=134.3	-12.3971
=135.8	-12.3971
=137.4	-12.3971
=137.5	-12.3971
=137.8	-12.3971
=138.3	-12.3971
=138.4	-12.3971
=138.8	-12.3971
=138.9	-12.3971
=139.8	-12.3971
=141.6	-12.3971
=143.3	-12.3971
=144.5	-12.3971
=145.6	-12.3971
=145.9	-12.3971
=146.9	-12.3971
=147.0	-12.3971
=149.4	-12.3971
▁affordable	-12.3971
▁folder	-12.3971
▁penicle	-12.3971
▁photosynthetic	-12.3971
▁plague	-12.3971
▁policies	-12.3971
▁reliability	-12.3971
▁Bamboo	-12.3971
▁delicious	-12.3971
▁vertical	-12.3971
▁invest	-12.3971
▁abnormalities	-12.3971
▁blossom	-12.3971
▁washington	-12.3971
=134.0	-12.3971
▁false	-12.3971
▁quail	-12.3971
▁agromycin	-12.3971
▁Wood	-12.3971
▁chamber	-12.3971
▁sunken	-12.3971
▁counter	-12.3971
▁cultiv	-12.3971
▁rhizoctonia	-12.3972
▁researchers	-12.3972
▁blb	-12.3972
▁examine	-12.3972
▁classified	-12.3973
▁antracol	-12.3973
▁ekka	-12.3973
▁accelerate	-12.3973
▁Treat	-12.3974
▁mother	-12.3974
▁mastitis	-12.3975
▁prohibit	-12.3977
▁Chemical	-12.3977
▁catch	-12.3977
▁rang	-12.3978
▁islands	-12.3979
▁things	-12.398
▁ekalux	-12.398
▁7-8	-12.3981
▁soon	-12.3981
▁rest	-12.3982
eath	-12.3982
▁1.5-2	-12.3986
▁coorg	-12.3988
▁gum	-12.3993
fabricat	-12.3997
▁Classic	-12.3999
▁automatic	-12.4003
▁pgr	-12.4006
▁onions	-12.4016
▁forms	-12.4016
▁granules	-12.4017
No	-12.4026
▁ex	-12.4026
▁constraints	-12.4042
▁paints	-12.4043
▁pin	-12.4048
-27	-12.4053
▁@15	-12.406
▁sales	-12.4068
07	-12.4071
59	-12.4093
cular	-12.4099
3%	-12.4138
▁force	-12.4146
▁nematodes	-12.4152
dry	-12.4167
▁110	-12.4174
▁shallow	-12.4175
▁rats	-12.4179
▁far	-12.4196
▁closed	-12.4199
com	-12.4199
les	-12.4205
▁optimized	-12.4243
▁@1.5	-12.4255
▁toleran	-12.4277
33.0	-12.4292
,50	-12.4324
▁ensured	-12.4324
▁thread	-12.433
▁sapling	-12.4337
▁skill	-12.4337
▁repair	-12.4339
▁failures	-12.4341
▁cell	-12.4347
fected	-12.436
▁replac	-12.4363
6.0	-12.4364
can	-12.4367
ph	-12.4369
▁aspect	-12.4374
▁im	-12.4381
W	-12.4405
88	-12.4405
40.0	-12.4413
▁shift	-12.442
functional	-12.4425
repellent	-12.4427
related	-12.4427
zinc	-12.4427
measure	-12.4428
spacing	-12.4428
@20	-12.4429
▁checks	-12.443
▁160	-12.4431
zoxystrobin	-12.4431
▁loosen	-12.4434
please	-12.4436
85	-12.4437
▁distribute	-12.4438
▁Diseases	-12.4438
▁thorough	-12.4439
opper	-12.4441
▁promoters	-12.4447
▁us	-12.4451
oo	-12.4476
▁dissolv	-12.4485
▁dima	-12.4491
8.0	-12.4493
▁mosquito	-12.4496
▁5.2	-12.4497
▁South	-12.4497
expensive	-12.4497
▁Bitter	-12.4497
▁State	-12.4497
▁budget	-12.4497
▁carbaryl	-12.4497
▁cashew	-12.4497
▁chronic	-12.4497
▁crystocyclin	-12.4497
▁ectoparasite	-12.4497
▁floriculture	-12.4497
▁industrial	-12.4497
▁neuro	-12.4497
▁outcomes	-12.4497
▁Under	-12.4497
▁linseed	-12.4497
▁Coconut	-12.4497
▁Special	-12.4497
▁cowdang	-12.4497
▁jackpot	-12.4497
▁breakdown	-12.4497
▁Melia	-12.4497
▁aloe	-12.4497
▁chandan	-12.4497
▁fibro	-12.4497
▁snowball	-12.4497
▁bales	-12.4497
▁introduction	-12.4497
▁aggregation	-12.4497
▁formulation	-12.4497
▁immunity	-12.4497
▁reddish	-12.4497
▁desp	-12.4497
▁subsidiz	-12.4497
▁besides	-12.4498
EM	-12.4498
▁layout	-12.4498
▁deepali	-12.4498
▁butox	-12.4498
▁sapota	-12.4498
▁detection	-12.4499
▁cage	-12.4499
▁abnormal	-12.4499
▁broader	-12.4499
▁Blitox	-12.4499
▁flubendiamide	-12.4499
INM	-12.4499
▁Insect	-12.45
TAT	-12.45
▁casing	-12.45
▁capture	-12.45
▁healing	-12.4501
suitable	-12.4503
▁cuts	-12.4504
▁varity	-12.4505
▁peak	-12.4505
/100	-12.4507
▁March	-12.4507
▁fipronil	-12.4507
▁smoking	-12.4507
▁collectively	-12.4509
▁sensitiv	-12.451
▁glyphosate	-12.4511
▁obtained	-12.4513
tive	-12.4513
▁waterlogged	-12.4513
▁adopted	-12.4515
▁alternat	-12.4519
▁replanting	-12.4523
▁pass	-12.4527
▁Controll	-12.4529
▁iff	-12.453
▁advancements	-12.453
▁traits	-12.4537
▁4-	-12.4542
▁institutions	-12.4546
▁combined	-12.4549
tre	-12.4549
ice	-12.4557
irus	-12.4559
24.0	-12.4559
▁loosening	-12.457
ton	-12.458
▁workers	-12.4582
▁streamline	-12.4587
▁calculate	-12.459
rum	-12.4597
▁FYM	-12.4597
ean	-12.4605
▁levellers	-12.4611
▁aadhar	-12.4622
watering	-12.4624
▁replace	-12.4633
▁decisions	-12.4644
▁threats	-12.4644
▁Enhance	-12.465
@18	-12.466
,1	-12.4661
▁suc	-12.4673
15.0	-12.4675
/30	-12.468
,1.	-12.4681
▁hose	-12.4684
am	-12.4689
-16	-12.4699
sety	-12.4707
▁140	-12.4709
▁aero	-12.4712
▁bhu	-12.4728
ge	-12.4734
ig	-12.4743
28.0	-12.4751
fi	-12.4801
lic	-12.4804
▁pron	-12.4824
egarding	-12.4833
▁tiller	-12.4842
▁pieces	-12.4851
put	-12.4862
▁standard	-12.4876
▁purposes	-12.4878
▁sixt	-12.488
90.0	-12.488
▁fuel	-12.4881
▁image	-12.4885
▁seeding	-12.4887
▁pipeline	-12.4889
▁earthworm	-12.489
▁configuration	-12.489
▁cutworm	-12.4892
▁legume	-12.4894
▁effort	-12.4894
▁hill	-12.4901
ope	-12.491
28	-12.492
xin	-12.4934
ow	-12.4955
top	-12.4965
▁works	-12.4971
blue	-12.4982
emergence	-12.4982
ground	-12.4982
chlorpyriphos	-12.4983
large	-12.4983
application	-12.4983
▁she	-12.4988
▁sprinkle	-12.5009
51.0	-12.5014
▁bot	-12.5016
ti	-12.5024
rot	-12.5032
pus	-12.5032
enerate	-12.5044
▁garo	-12.505
▁tilt	-12.5052
=103.0	-12.5053
=113.3	-12.5053
=120.7	-12.5053
=122.1	-12.5053
=122.4	-12.5053
=125.1	-12.5053
=125.5	-12.5053
=125.7	-12.5053
=126.2	-12.5053
=126.6	-12.5053
=130.5	-12.5053
=131.1	-12.5053
=131.2	-12.5053
=135.6	-12.5053
=136.1	-12.5053
=136.2	-12.5053
=136.3	-12.5053
=138.2	-12.5053
=140.6	-12.5053
=142.9	-12.5053
=144.6	-12.5053
=146.1	-12.5053
=146.7	-12.5053
=149.8	-12.5053
▁Australia	-12.5053
▁accidents	-12.5053
▁dakshin	-12.5053
▁dormant	-12.5053
▁flexib	-12.5053
▁punching	-12.5053
▁replenish	-12.5053
▁seventies	-12.5053
▁velvet	-12.5053
▁leftover	-12.5053
▁permeability	-12.5053
▁swarna	-12.5053
=125.0	-12.5053
=133.0	-12.5053
=141.0	-12.5053
▁vigour	-12.5053
▁illustrate	-12.5053
▁necrotic	-12.5053
=124.0	-12.5053
▁cough	-12.5053
▁tines	-12.5054
▁transmission	-12.5054
▁ornamental	-12.5054
▁cumin	-12.5055
▁dichlorvo	-12.5055
▁sheep	-12.5055
▁cipro	-12.5055
▁susp	-12.5055
▁withered	-12.5056
▁tridermorph	-12.5057
▁stabilize	-12.506
▁2,4-	-12.5061
▁Aspergillus	-12.5062
uous	-12.5064
▁craft	-12.5065
▁topsoil	-12.5066
▁live	-12.5066
▁vit	-12.5067
▁road	-12.5067
48	-12.5068
sed	-12.507
▁trim	-12.5071
▁April	-12.5071
▁5-10	-12.5081
▁Irrigate	-12.5081
▁contract	-12.5083
▁Pests	-12.5084
▁emissions	-12.5086
▁ne	-12.5089
gold	-12.5092
▁consumed	-12.5098
▁flooded	-12.5101
▁tsf	-12.5101
▁hrs	-12.5102
▁maturing	-12.5104
32.0	-12.5107
▁Transplanting	-12.5107
▁shell	-12.5129
▁clones	-12.5142
▁2-4	-12.5148
▁sagorika	-12.515
▁pot	-12.5156
▁Tea	-12.5157
▁errors	-12.5161
56	-12.5178
▁initiatives	-12.5182
▁gain	-12.5184
native	-12.5188
52	-12.5195
100	-12.5201
-50)	-12.5221
▁steriliz	-12.5268
▁cu	-12.5281
30.0	-12.531
333333333333333	-12.5316
▁ali	-12.5318
▁had	-12.5319
▁trunks	-12.5341
▁options	-12.5361
▁washing	-12.5402
ot	-12.5404
▁ben	-12.5421
pt	-12.5423
▁tons	-12.5436
▁warming	-12.545
▁Top	-12.5472
▁scientist	-12.5475
▁threat	-12.5477
▁decision	-12.5482
▁leave	-12.5489
78	-12.55
/1	-12.55
▁mon	-12.5502
▁Di	-12.5513
▁bur	-12.5514
▁wasp	-12.5518
46	-12.5522
ke	-12.5548
700	-12.5565
boost	-12.557
farm	-12.5571
wood	-12.5571
ern	-12.5571
made	-12.5571
kvk	-12.5571
tle	-12.5571
▁share	-12.5571
assam	-12.5571
▁designing	-12.5572
▁dog	-12.5576
▁hoe	-12.5576
ava	-12.5583
▁Dry	-12.5585
▁setups	-12.5593
by	-12.5597
itation	-12.5597
▁fluctuat	-12.5607
PE	-12.5608
richoderma	-12.5611
▁mitigat	-12.5625
▁emam	-12.5628
▁prices	-12.5632
▁costly	-12.5632
echanical	-12.5639
seudomon	-12.564
ecial	-12.5641
bhani	-12.5641
osphaer	-12.5641
▁Celsius	-12.5641
▁Factors	-12.5641
▁MKP	-12.5641
▁adult	-12.5641
▁children	-12.5641
▁excavation	-12.5641
▁hospital	-12.5641
▁jalakia	-12.5641
▁kingdom	-12.5641
▁lameness	-12.5641
▁preperation	-12.5641
▁raddish	-12.5641
▁simplifie	-12.5641
▁chosen	-12.5641
▁corporation	-12.5641
▁mohafol	-12.5641
▁sequester	-12.5641
▁smell	-12.5641
▁fluid	-12.5641
▁malathian	-12.5641
ethylene	-12.5641
▁Brazil	-12.5641
▁Manure	-12.5641
▁Spot	-12.5641
▁strict	-12.5641
▁Stor	-12.5641
▁HD	-12.5641
▁fixation	-12.5642
▁variability	-12.5642
▁strengthen	-12.5642
▁East	-12.5642
os	-12.5642
ime	-12.5643
▁Field	-12.5643
▁Liquid	-12.5643
▁kotha	-12.5643
▁sindhuri	-12.5643
tious	-12.5644
▁warmer	-12.5645
explo	-12.5645
▁vers	-12.5645
oiller	-12.5647
▁participat	-12.5647
▁suryamukhi	-12.5648
▁reply	-12.5648
▁fmd	-12.5648
▁rear	-12.5648
▁graz	-12.5649
ever	-12.5649
▁Asha	-12.565
iplex	-12.565
▁Compost	-12.565
▁conidia	-12.5652
▁golaghat	-12.5652
addy	-12.5652
▁Blight	-12.5655
▁makers	-12.5655
▁aau	-12.5656
▁readi	-12.5661
▁25-35	-12.5663
▁0.25%	-12.5665
▁mass	-12.5665
▁Anthracnose	-12.5665
@6	-12.5668
▁ostovet	-12.567
▁sites	-12.5671
▁initiate	-12.5672
▁240	-12.5673
▁compete	-12.5676
▁complicate	-12.5677
ance	-12.5678
▁Economic	-12.5678
▁arrange	-12.5684
▁plaster	-12.5686
▁bury	-12.5688
▁injected	-12.5694
▁thought	-12.5698
▁intend	-12.5699
▁expenses	-12.5706
EN	-12.5707
▁spreader	-12.5709
▁hens	-12.5716
▁km	-12.573
6%	-12.5738
▁Long	-12.5741
▁slugs	-12.5746
warming	-12.5746
▁met	-12.5765
▁retains	-12.5769
▁pac	-12.5775
2.0	-12.5785
ward	-12.5787
▁25%	-12.5798
▁pumpkins	-12.58
31	-12.5804
▁bulbs	-12.5807
▁separately	-12.581
stry	-12.5814
og	-12.5819
▁immun	-12.5828
600	-12.5844
eaking	-12.5851
42	-12.5851
▁handled	-12.5856
phos	-12.5858
29.0	-12.5858
▁1.4	-12.5866
▁habitats	-12.5867
▁bro	-12.5891
▁tips	-12.5907
▁Are	-12.5917
57	-12.593
-36,	-12.5934
▁groups	-12.5938
may	-12.5941
74.0	-12.5944
▁functional	-12.5951
▁par	-12.5962
▁suppresse	-12.5976
98	-12.5978
rowth	-12.5983
▁char	-12.5997
▁Limit	-12.5998
▁compounds	-12.6009
▁Rot	-12.601
sted	-12.6014
▁pods	-12.6019
ell	-12.6024
nol	-12.6027
▁sprout	-12.6027
▁coat	-12.6028
▁san	-12.6029
▁56	-12.6049
▁disc	-12.6052
har	-12.6054
95	-12.6062
ame	-12.6085
▁lakh	-12.6091
▁aesthetic	-12.6094
▁paper	-12.6099
▁drug	-12.61
▁markets	-12.6103
▁ap	-12.6105
97.0	-12.6109
▁minute	-12.6111
▁customiz	-12.6113
efficiencies	-12.6124
▁indicat	-12.6129
▁2.7	-12.6136
42.0	-12.6158
nov	-12.6159
▁cat	-12.6175
gourd	-12.6191
▁steril	-12.6192
▁plow	-12.6194
designed	-12.6195
tillage	-12.6196
fertilization	-12.6196
asking	-12.6197
▁notice	-12.62
agricultural	-12.62
▁sign	-12.6201
dip	-12.6204
▁prompt	-12.6208
▁disinfect	-12.6215
que	-12.6215
▁tend	-12.6219
▁Set	-12.623
eating	-12.6231
▁examples	-12.6247
▁observ	-12.625
▁digest	-12.6261
sp	-12.6261
▁mode	-12.6263
▁Compos	-12.6263
igatoka	-12.6265
▁Botry	-12.6265
▁defoliat	-12.6266
▁azadirac	-12.6266
=101.7	-12.6266
=121.3	-12.6266
=122.6	-12.6266
=123.3	-12.6266
=123.8	-12.6266
=123.9	-12.6266
=124.6	-12.6266
=126.4	-12.6266
=126.9	-12.6266
=127.5	-12.6266
=128.3	-12.6266
=129.3	-12.6266
=129.6	-12.6266
=130.3	-12.6266
=131.5	-12.6266
=131.9	-12.6266
=133.1	-12.6266
=133.7	-12.6266
=137.2	-12.6266
=139.0	-12.6266
=139.9	-12.6266
=140.3	-12.6266
=141.7	-12.6266
=141.9	-12.6266
=142.4	-12.6266
=144.3	-12.6266
=144.7	-12.6266
=148.5	-12.6266
=149.7	-12.6266
▁Center	-12.6266
▁Energy	-12.6266
▁Flood	-12.6266
▁Streptomycin	-12.6266
▁afanil	-12.6266
▁amaranth	-12.6266
▁chlorophyll	-12.6266
▁cricket	-12.6266
▁efficacy	-12.6266
▁exact	-12.6266
▁excreta	-12.6266
▁extreme	-12.6266
▁grandis	-12.6266
▁humus	-12.6266
▁hygienic	-12.6266
▁inaccurate	-12.6266
▁infringement	-12.6266
▁inoculum	-12.6266
▁insecticidal	-12.6266
▁malformation	-12.6266
▁spoilage	-12.6266
▁strategy	-12.6266
▁study	-12.6266
▁utility	-12.6266
▁Clear	-12.6266
▁Determin	-12.6266
▁eventual	-12.6266
▁katki	-12.6266
▁universal	-12.6266
=132.0	-12.6266
=145.0	-12.6266
▁accommodat	-12.6266
IPM	-12.6266
▁chlorpyrifos	-12.6266
▁kunwari	-12.6266
▁jolokia	-12.6266
▁liq	-12.6266
▁capillarity	-12.6266
=146.0	-12.6266
▁website	-12.6266
▁ferment	-12.6266
▁pradhan	-12.6266
consuming	-12.6266
=122.0	-12.6266
▁dynamics	-12.6266
▁thickness	-12.6266
▁abundant	-12.6266
▁decay	-12.6266
▁halflong	-12.6266
▁applicable	-12.6266
▁disinfection	-12.6267
▁Well	-12.6267
▁improper	-12.6267
▁viz	-12.6267
thora	-12.6268
▁MI	-12.6268
▁contamination	-12.6269
▁partial	-12.6269
▁payment	-12.6271
▁transition	-12.6271
▁Food	-12.6274
▁coupler	-12.6276
▁Healthy	-12.6277
▁lesser	-12.6277
▁mangoes	-12.628
▁himani	-12.6281
htin	-12.6282
▁wooden	-12.6283
fed	-12.6284
▁ripening	-12.6288
▁presented	-12.6289
▁mililiter	-12.6292
)@200	-12.6294
▁climbing	-12.6294
▁indicators	-12.6296
rmal	-12.6297
▁May	-12.6303
sia	-12.6307
45.0	-12.6315
▁tonic	-12.6319
patial	-12.6329
ban	-12.6329
ill	-12.6335
▁16.0	-12.6338
▁plowing	-12.6339
▁sprouting	-12.634
▁rearing	-12.6344
▁sh	-12.6349
▁households	-12.6356
▁windbreaks	-12.6356
ace	-12.6363
di	-12.6364
-19	-12.6367
▁spe	-12.6367
▁qu	-12.6369
▁.5	-12.6373
raft	-12.6376
gar	-12.6389
▁cane	-12.6393
300	-12.64
89.0	-12.6403
▁compet	-12.6408
▁alternatively	-12.6413
68.0	-12.6413
irect	-12.6418
rootex	-12.6421
▁sulf	-12.6428
rov	-12.6428
neem	-12.6429
▁record	-12.643
▁durable	-12.643
78.0	-12.6432
ali	-12.6437
▁bulb	-12.6442
▁configurations	-12.6453
▁functions	-12.6456
cron	-12.6473
58	-12.65
cation	-12.6513
65	-12.6516
▁20.0	-12.6527
▁turning	-12.6531
▁0.1	-12.6539
cherry	-12.6551
▁6444	-12.6556
▁78	-12.656
▁sequences	-12.6564
▁Monitoring	-12.6582
▁cop	-12.659
▁app	-12.6597
pe	-12.6616
-200	-12.6623
▁big	-12.6643
19.0	-12.6649
96.0	-12.6655
71	-12.6668
▁situations	-12.6681
54	-12.669
dam	-12.6705
▁kills	-12.6706
41.0	-12.6728
ture	-12.6728
fen	-12.6756
▁fu	-12.6762
▁medication	-12.6764
▁separat	-12.6764
▁joint	-12.6766
▁explosion	-12.6768
va	-12.6769
urface	-12.6771
▁rodent	-12.6772
▁valve	-12.6773
▁amend	-12.6777
▁wall	-12.6778
going	-12.6781
logging	-12.6787
ence	-12.6788
▁enter	-12.6789
▁metal	-12.6826
▁users	-12.6828
early	-12.6843
▁cycles	-12.6847
▁prolif	-12.6853
▁minerals	-12.6859
killer	-12.686
june	-12.6862
climat	-12.6863
tricel	-12.6863
cultivation	-12.6863
potash	-12.6863
zim	-12.6863
pride	-12.6867
▁build	-12.6882
▁2.5-3	-12.6884
▁technolog	-12.6885
rize	-12.6887
osis	-12.6887
▁din	-12.6889
give	-12.6896
-13	-12.6897
ithane	-12.6898
▁emphasize	-12.69
▁integrate	-12.6903
▁plans	-12.6907
▁whit	-12.691
yielding	-12.6912
▁utiliz	-12.6913
▁leak	-12.6914
▁slop	-12.6918
▁read	-12.6925
▁prolong	-12.6928
oth	-12.6928
▁teaspoon	-12.693
▁renovat	-12.6932
▁beginn	-12.6933
▁Canker	-12.6933
▁Conduct	-12.6933
▁Mission	-12.6933
▁Moder	-12.6933
▁bajra	-12.6933
▁barpeta	-12.6933
▁bleeding	-12.6933
▁darrang	-12.6933
▁gradually	-12.6933
▁ketki	-12.6933
▁sustainably	-12.6933
▁yojna	-12.6933
▁jaggery	-12.6933
▁wild	-12.6933
▁Assam	-12.6933
▁nitrate	-12.6933
▁feroliv	-12.6933
▁proliferation	-12.6933
▁prevail	-12.6933
bserve	-12.6933
▁sapwood	-12.6933
▁syp	-12.6933
▁hamper	-12.6933
▁interaction	-12.6933
▁thinning	-12.6933
▁silk	-12.6933
▁percolation	-12.6933
▁calculation	-12.6933
▁dipali	-12.6933
▁vaccinate	-12.6933
▁digging	-12.6933
▁airflow	-12.6933
▁dispersion	-12.6933
▁profile	-12.6933
▁burners	-12.6933
▁chow	-12.6933
▁frenchbean	-12.6933
▁caseworm	-12.6933
▁openers	-12.6933
▁insights	-12.6933
▁Rogol	-12.6933
athi	-12.6933
▁undulation	-12.6933
▁vitality	-12.6933
▁soap	-12.6934
▁Potatoes	-12.6934
▁minister	-12.6934
▁trials	-12.6934
▁bath	-12.6934
▁hiring	-12.6934
▁disturbed	-12.6935
▁laboratory	-12.6935
▁Natural	-12.6936
▁fertilzer	-12.6936
▁sonitpur	-12.6936
▁stuck	-12.6936
▁tobacco	-12.6936
▁Cultivation	-12.6936
▁Compare	-12.6936
▁sunny	-12.6937
▁mice	-12.6938
▁endo	-12.6939
PS	-12.6939
▁allocation	-12.694
▁askin	-12.694
▁Eur	-12.694
▁grafting	-12.694
▁bullet	-12.6941
▁stain	-12.6942
▁genome	-12.6945
▁NMMI	-12.6945
▁simultaneously	-12.6947
▁50-60	-12.6948
SSP	-12.6949
ometr	-12.6954
▁nmmi	-12.6955
▁here	-12.6957
▁pulp	-12.6958
▁ingredients	-12.6961
▁dictate	-12.6963
▁Nitrogen	-12.6965
▁binding	-12.6965
98.0	-12.6966
-750	-12.6966
▁grade	-12.6968
▁mild	-12.6973
▁ducklings	-12.6984
▁parameters	-12.6995
▁intact	-12.6996
▁path	-12.7
▁buckets	-12.7
facet	-12.7001
▁regulate	-12.7001
38.0	-12.7009
east	-12.7019
▁alternately	-12.7039
99	-12.7046
umar	-12.7059
.0	-12.7061
@3	-12.707
▁Introduce	-12.7072
-11	-12.7086
yan	-12.7095
▁walls	-12.7098
ray	-12.7101
▁sens	-12.7104
ama	-12.7106
▁1.7	-12.7111
sel	-12.7112
▁ltd	-12.7119
ki	-12.7125
▁hop	-12.7147
▁zones	-12.7148
.5	-12.7161
▁Man	-12.7162
rea	-12.7171
29	-12.7175
mt	-12.7178
▁cub	-12.7183
▁breaking	-12.7185
▁bad	-12.7192
61.0	-12.7211
▁sections	-12.7214
▁interventions	-12.7217
▁Harvesting	-12.724
▁kathas	-12.7252
93.0	-12.7257
34.0	-12.7275
-6444	-12.7277
lint	-12.728
44.0	-12.7285
po	-12.7305
37.0	-12.7312
46.0	-12.7315
uke	-12.7315
tr	-12.7319
▁vermicomposting	-12.7321
kar	-12.7321
inj	-12.7325
43.0	-12.7347
stone	-12.7349
▁0.5%	-12.7351
ca	-12.7359
ley	-12.7388
ili	-12.7388
▁And	-12.741
71.0	-12.7411
36.0	-12.7412
▁tissues	-12.7413
▁66	-12.7432
▁going	-12.7457
▁si	-12.7459
▁real	-12.7461
,500	-12.7462
10.0	-12.747
▁Rhizo	-12.7471
▁kid	-12.7476
apr	-12.7476
▁pole	-12.7481
▁burden	-12.7483
▁limitation	-12.7487
▁channel	-12.7489
▁substance	-12.7489
56.0	-12.7496
▁parasite	-12.75
▁et	-12.7505
77.0	-12.7509
dhan	-12.7517
▁plac	-12.7522
81	-12.7531
12.0	-12.7533
▁raingun	-12.7535
▁Cercospor	-12.7551
@9	-12.7574
new	-12.7574
▁practic	-12.7575
jorhat	-12.7576
ppm	-12.7577
september	-12.7577
cutting	-12.7577
type	-12.7577
leaf	-12.7577
loss	-12.7582
pproximately	-12.7582
suggested	-12.7595
ement	-12.7597
▁(3	-12.7601
ina	-12.7602
▁combine	-12.7608
▁seeded	-12.761
▁bacteri	-12.7614
▁sea	-12.7618
do	-12.7625
mut	-12.763
▁fri	-12.7637
▁plug	-12.7644
ikki	-12.7645
▁subsidi	-12.7646
hamp	-12.7646
mproper	-12.7646
▁Pick	-12.7646
ophil	-12.7647
niform	-12.7647
anuary	-12.7647
ajpur	-12.7647
▁neomec	-12.7647
▁nutrei	-12.7647
=115.7	-12.7647
=120.4	-12.7647
=121.1	-12.7647
=122.3	-12.7647
=123.5	-12.7647
=124.2	-12.7647
=124.5	-12.7647
=125.6	-12.7647
=125.8	-12.7647
=126.8	-12.7647
=127.2	-12.7647
=129.1	-12.7647
=129.5	-12.7647
=129.7	-12.7647
=130.6	-12.7647
=131.0	-12.7647
=132.1	-12.7647
=132.2	-12.7647
=132.4	-12.7647
=132.5	-12.7647
=134.5	-12.7647
=134.8	-12.7647
=135.7	-12.7647
=135.9	-12.7647
=137.3	-12.7647
=137.6	-12.7647
=137.7	-12.7647
=141.1	-12.7647
=143.2	-12.7647
=143.7	-12.7647
=144.9	-12.7647
=145.4	-12.7647
=146.8	-12.7647
=147.5	-12.7647
=148.4	-12.7647
=149.1	-12.7647
▁Initial	-12.7647
▁Intensification	-12.7647
▁Large	-12.7647
▁Lemon	-12.7647
▁Phytoplasma	-12.7647
▁Propiconazole	-12.7647
▁alcohol	-12.7647
▁fowl	-12.7647
▁marigaon	-12.7647
▁reflect	-12.7647
▁scheduling	-12.7647
▁solanacearum	-12.7647
▁stolonifera	-12.7647
▁turbine	-12.7647
▁versatile	-12.7647
▁detach	-12.7647
=128.0	-12.7647
=144.0	-12.7647
=148.0	-12.7647
▁categories	-12.7647
▁expand	-12.7647
▁yojona	-12.7647
▁steptomycin	-12.7647
▁sivasagar	-12.7647
,1250	-12.7647
▁insemination	-12.7647
▁upright	-12.7647
=135.0	-12.7647
ounti	-12.7647
▁ttb	-12.7647
▁identification	-12.7647
▁rhizobium	-12.7647
=137.0	-12.7647
oragen	-12.7647
▁wire	-12.7647
▁capabilities	-12.7647
▁slaking	-12.7647
▁husbandry	-12.7647
▁straight	-12.7647
▁observation	-12.7647
▁reward	-12.7647
▁Strategies	-12.7648
▁sugested	-12.7648
ivate	-12.7648
▁Row	-12.7648
agati	-12.7648
rena	-12.7648
▁media	-12.7648
▁author	-12.7648
▁suppression	-12.7648
▁ridf	-12.7649
▁neutralize	-12.7649
ellent	-12.7649
▁threaten	-12.7649
▁weigh	-12.765
▁exc	-12.765
dithane	-12.765
▁Yellow	-12.765
▁chewing	-12.765
▁ethrel	-12.765
▁feasible	-12.765
▁deppt	-12.765
▁adaptable	-12.7651
itrus	-12.7652
▁crd	-12.7653
▁physi	-12.7654
▁bloat	-12.7654
▁Policy	-12.7655
▁Breeding	-12.7655
▁addresses	-12.7656
▁pivotal	-12.7656
▁pseudomon	-12.7658
▁Mini	-12.7659
▁Bavistine	-12.7659
▁streptcycline	-12.7661
▁malbhog	-12.7661
▁sagarika	-12.7661
▁saturation	-12.7661
▁knolkhol	-12.7661
▁1/4	-12.7663
▁grey	-12.7663
▁ball	-12.7663
▁baksa	-12.7666
▁flash	-12.7672
▁stopp	-12.7677
▁cucurbits	-12.7679
▁suit	-12.7679
rendra	-12.768
apota	-12.7682
▁Efficien	-12.7685
▁planters	-12.7685
▁valid	-12.7688
▁mounted	-12.7691
▁ghy	-12.7692
-36	-12.7693
▁signal	-12.77
▁fences	-12.7702
▁feeder	-12.7706
▁scaling	-12.7709
▁drawbacks	-12.7714
gaon	-12.7719
▁goals	-12.7729
▁eus	-12.773
▁killer	-12.7731
thion	-12.7732
ible	-12.7733
▁swin	-12.7735
▁azoxystrobin	-12.7738
mar	-12.7746
tab	-12.778
21.0	-12.7787
ibility	-12.7788
27.0	-12.7789
▁scale	-12.7803
▁accessib	-12.7815
4.0	-12.7821
▁hydr	-12.7836
▁@20	-12.7852
▁wasps	-12.7853
▁expose	-12.7867
▁repairs	-12.7874
sri	-12.788
ho	-12.7891
all	-12.7894
16.0	-12.7903
bi	-12.7939
▁propagate	-12.7954
96	-12.7955
53.0	-12.796
▁falls	-12.7964
5%	-12.7975
34	-12.7993
▁clearing	-12.8011
host	-12.8016
Land	-12.8018
handi	-12.8019
▁precisely	-12.8035
av	-12.8048
prid	-12.805
season	-12.8051
▁promoted	-12.8063
mycin	-12.8085
ose	-12.8095
ga	-12.812
eri	-12.8127
mo	-12.8131
▁abo	-12.8148
ix	-12.8169
men	-12.817
▁bet	-12.8182
▁saff	-12.8182
ities	-12.8202
▁bao	-12.8218
▁(10	-12.8227
ew	-12.8231
103	-12.8239
▁complet	-12.8241
▁packet	-12.8242
▁coc	-12.8242
oat	-12.8245
mod	-12.8245
▁experiment	-12.8247
▁habit	-12.8252
ax	-12.8252
▁preference	-12.8252
▁initiative	-12.8254
▁component	-12.8258
ark	-12.8289
▁str	-12.8291
▁pos	-12.8294
ct	-12.83
▁fer	-12.8327
nion	-12.8333
propell	-12.8335
ea	-12.8336
▁emit	-12.8338
▁coating	-12.8338
@13	-12.834
▁Sub	-12.8341
though	-12.8344
▁Transplant	-12.8344
maturing	-12.8344
nodes	-12.8345
tropical	-12.8345
keep	-12.8346
thought	-12.8346
guwahati	-12.8346
Fusarium	-12.8346
again	-12.8346
specific	-12.8346
coconut	-12.8346
control	-12.8346
management	-12.8346
classic	-12.8347
▁Sow	-12.8347
bacterial	-12.8347
▁previous	-12.8354
▁2.6	-12.8358
95.0	-12.8358
▁Tra	-12.8364
▁Super	-12.8372
69	-12.8373
ken	-12.8385
olo	-12.8388
be	-12.8393
▁40-50	-12.8397
▁SA	-12.8398
▁wart	-12.84
sept	-12.841
▁expect	-12.8411
▁possibl	-12.8412
obile	-12.8412
▁succe	-12.8414
oisture	-12.8414
ufri	-12.8415
▁attach	-12.8416
▁Protect	-12.8416
▁toxim	-12.8416
▁oint	-12.8416
▁sarma	-12.8416
▁equi	-12.8416
▁enem	-12.8416
▁Floating	-12.8416
▁Application	-12.8416
▁District	-12.8416
▁Institute	-12.8416
▁Moringa	-12.8416
▁Science	-12.8416
▁approved	-12.8416
▁butachlor	-12.8416
▁circumstances	-12.8416
▁colonies	-12.8416
▁fiber	-12.8416
▁funag	-12.8416
▁impregnation	-12.8416
▁nabard	-12.8416
▁sunshine	-12.8416
▁MZ	-12.8416
▁bunds	-12.8416
▁ferilizer	-12.8416
▁patta	-12.8416
▁shaping	-12.8416
▁beekeeping	-12.8416
▁disturbance	-12.8416
▁kalita	-12.8416
▁extent	-12.8416
▁prevalent	-12.8416
▁transformation	-12.8416
▁organization	-12.8416
▁Mango	-12.8416
▁export	-12.8416
▁sulfex	-12.8416
tonia	-12.8417
▁automatically	-12.8417
▁bait	-12.8417
▁recommne	-12.8417
ensis	-12.8417
▁subsidies	-12.8417
▁vill	-12.8417
▁khas	-12.8417
▁shel	-12.8418
▁Fish	-12.8418
▁polish	-12.8418
▁outside	-12.8418
▁refixed	-12.8418
▁wear	-12.8418
▁mould	-12.8418
▁underside	-12.8418
▁China	-12.8419
enni	-12.8419
▁stream	-12.8419
▁hyaline	-12.8419
▁Maize	-12.8419
▁ointment	-12.842
▁showcas	-12.8421
anical	-12.8423
▁viride	-12.8424
,100	-12.8425
▁picked	-12.8425
▁series	-12.8425
▁tinsukia	-12.8425
▁karbi	-12.8425
▁engineering	-12.8425
▁basil	-12.8425
▁necessity	-12.8426
▁phytop	-12.8428
▁approaches	-12.8428
▁vera	-12.8429
agor	-12.8429
▁acet	-12.843
▁fund	-12.8431
▁ustaad	-12.8431
▁chief	-12.8431
▁dibble	-12.8431
▁capabilit	-12.8432
▁bora	-12.8432
▁noon	-12.8432
▁left	-12.8437
▁hydration	-12.8437
75.0	-12.844
US	-12.8441
▁pathology	-12.8444
ould	-12.8446
▁450	-12.8447
▁triazophos	-12.8448
▁genu	-12.845
▁burnihat	-12.8454
▁exacerbate	-12.8455
▁mean	-12.8457
pro	-12.8459
▁Cucumbers	-12.8463
resh	-12.8463
▁Practices	-12.8463
▁lot	-12.8466
enturi	-12.8473
▁220	-12.8477
▁refill	-12.8477
▁boil	-12.8484
▁Methods	-12.8489
gur	-12.8495
▁states	-12.8502
▁jobs	-12.8503
▁vo	-12.8506
gery	-12.8507
▁sms	-12.8518
▁eco	-12.8518
▁aminos	-12.8524
▁fitt	-12.8528
▁ear	-12.8534
▁begins	-12.8543
most	-12.8544
73	-12.8549
55	-12.8549
91	-12.8553
trol	-12.8569
▁tyres	-12.8569
▁completi	-12.8586
▁burdens	-12.8596
▁am	-12.8611
ock	-12.8634
▁pipelines	-12.865
▁slopes	-12.8661
▁cells	-12.8664
ids	-12.8681
▁hay	-12.8705
▁Small	-12.8708
▁ltr	-12.8718
rowing	-12.8719
▁performing	-12.8724
225	-12.8738
94.0	-12.8748
cy	-12.875
ps	-12.8764
▁se	-12.8766
inner	-12.8776
▁5.5	-12.8781
sulf	-12.8809
▁Rotat	-12.8814
▁locally	-12.882
cl	-12.8825
▁Incorporat	-12.8828
-6444,	-12.8832
▁locations	-12.8841
saj	-12.885
▁accurately	-12.8852
salt	-12.8861
▁du	-12.8865
▁Hand	-12.8875
150	-12.8881
allowing	-12.8902
jan	-12.8912
▁330	-12.8939
▁specialize	-12.8942
▁dug	-12.8962
west	-12.8968
▁mostly	-12.8978
za	-12.8991
crop	-12.8996
ole	-12.9002
▁pant	-12.9005
nic	-12.9006
89	-12.9006
▁crack	-12.9011
▁persist	-12.9012
▁rock	-12.9027
▁rise	-12.9039
▁Ripe	-12.9051
ffected	-12.9054
▁excessively	-12.9058
87.0	-12.9059
▁adv	-12.9066
▁Mos	-12.9066
overnment	-12.9067
alv	-12.9072
eart	-12.9078
▁Banana	-12.9083
▁bedrock	-12.9084
▁cereal	-12.9085
atch	-12.9085
▁tyre	-12.9088
▁sale	-12.9088
▁lesion	-12.9091
▁error	-12.9093
▁emerg	-12.9096
genous	-12.9099
▁eu	-12.91
ustainable	-12.9103
▁Captaf	-12.911
pan	-12.9113
lin	-12.9121
▁-1	-12.9123
han	-12.9131
▁consume	-12.9135
▁Fertilizers	-12.9146
▁lid	-12.9152
▁555	-12.9152
infected	-12.9156
▁tanks	-12.9159
▁consistently	-12.916
▁(5	-12.9161
▁register	-12.9164
mulate	-12.9171
▁plugg	-12.9172
▁houses	-12.9175
rming	-12.9175
soluble	-12.9176
soybean	-12.9179
▁suffer	-12.9179
load	-12.9179
fall	-12.9179
▁invade	-12.9179
hybrid	-12.9179
okra	-12.918
carbendazim	-12.918
saving	-12.918
stage	-12.9181
about	-12.9182
wash	-12.9188
marketing	-12.9189
prepared	-12.9195
▁stag	-12.9198
▁origin	-12.9199
84	-12.9201
09	-12.9204
61	-12.9205
▁damp	-12.9207
ack	-12.9209
▁receiv	-12.9209
▁horse	-12.9215
▁formula	-12.9228
▁plane	-12.9228
▁distribut	-12.9232
ception	-12.9239
vic	-12.9243
▁ooz	-12.9244
▁discard	-12.9244
▁230	-12.9244
▁mention	-12.9245
▁cristocyclin	-12.9245
▁tailor	-12.9245
arlic	-12.9247
jyot	-12.9248
hilis	-12.9249
onventional	-12.9249
▁emulsi	-12.9249
▁obstruct	-12.9249
aroda	-12.9249
arieties	-12.9249
▁Consider	-12.925
▁represent	-12.925
=120.1	-12.925
=121.7	-12.925
=122.7	-12.925
=123.4	-12.925
=123.7	-12.925
=125.2	-12.925
=125.3	-12.925
=125.4	-12.925
=125.9	-12.925
=126.1	-12.925
=128.4	-12.925
=128.5	-12.925
=128.6	-12.925
=128.7	-12.925
=129.4	-12.925
=130.2	-12.925
=130.7	-12.925
=130.9	-12.925
=133.2	-12.925
=134.7	-12.925
=135.3	-12.925
=135.4	-12.925
=136.6	-12.925
=138.6	-12.925
=139.2	-12.925
=139.5	-12.925
=139.7	-12.925
=141.2	-12.925
=141.4	-12.925
=144.4	-12.925
=144.8	-12.925
=145.7	-12.925
=146.2	-12.925
=146.4	-12.925
=146.6	-12.925
=147.6	-12.925
=148.1	-12.925
=148.9	-12.925
=149.5	-12.925
=149.9	-12.925
activator	-12.925
onsequently	-12.925
sevin	-12.925
▁##	-12.925
▁Captan	-12.925
▁Semi	-12.925
▁brijal	-12.925
▁chiili	-12.925
▁discipline	-12.925
▁dumka	-12.925
▁explanation	-12.925
▁helopeltis	-12.925
▁inimox	-12.925
▁larvae	-12.925
▁maturation	-12.925
▁meausre	-12.925
▁nalbari	-12.925
▁prioritize	-12.925
▁puddle	-12.925
▁pudu	-12.925
▁sweep	-12.925
▁termeric	-12.925
▁tripod	-12.925
▁udalguri	-12.925
▁valley	-12.925
▁world	-12.925
=120.5	-12.925
▁evidence	-12.925
▁zucchini	-12.925
=129.0	-12.925
=142.0	-12.925
▁conveyance	-12.925
▁worldwide	-12.925
▁pistil	-12.925
▁Also	-12.925
▁Careful	-12.925
▁figure	-12.925
▁domestic	-12.925
=149.0	-12.925
▁heartwood	-12.925
▁juice	-12.925
▁guarantee	-12.925
▁lawn	-12.925
▁relieve	-12.925
▁Fire	-12.925
▁pencil	-12.925
▁supervision	-12.925
▁firewood	-12.925
▁17.8	-12.925
▁manganese	-12.925
▁crusting	-12.925
midon	-12.925
▁summarize	-12.925
walled	-12.925
▁ev	-12.925
▁book	-12.925
▁vle	-12.925
▁replacement	-12.925
▁pail	-12.925
▁minimized	-12.9251
▁tectonae	-12.9251
▁true	-12.9251
-1250	-12.9251
ostatic	-12.9251
▁stones	-12.9251
▁micronuit	-12.9251
▁charge	-12.9251
▁incorporation	-12.9251
▁cooler	-12.9251
▁assembly	-12.9252
▁Liv	-12.9252
▁belts	-12.9253
▁quicker	-12.9253
▁Fig	-12.9253
▁appetide	-12.9253
▁jwala	-12.9253
▁Challenges	-12.9253
▁harzianum	-12.9253
▁request	-12.9253
▁girdling	-12.9253
▁Design	-12.9253
▁levelled	-12.9253
▁moveable	-12.9254
▁stronger	-12.9254
▁registered	-12.9255
▁therefore	-12.9255
igest	-12.9255
orant	-12.9256
▁prolonged	-12.9257
▁da	-12.9257
▁tender	-12.9257
▁push	-12.9259
▁Ridomil	-12.9259
▁catla	-12.9259
▁harrowing	-12.926
▁healthily	-12.926
▁needle	-12.9261
▁bone	-12.9261
hiran	-12.9262
▁absorbed	-12.9262
▁Reduce	-12.9265
▁zineb	-12.9266
▁ploughed	-12.9266
▁cash	-12.927
▁detergents	-12.9272
▁protocols	-12.9272
▁cooking	-12.9272
▁Krish	-12.9276
▁submerged	-12.9277
▁Forest	-12.9277
oving	-12.9277
▁route	-12.9278
▁TS	-12.9279
▁converg	-12.9279
▁Benefits	-12.928
▁portal	-12.928
▁Climate	-12.9282
uestions	-12.9286
▁livelihoods	-12.9286
▁technicians	-12.9286
▁dries	-12.9287
▁cutter	-12.9288
▁dirty	-12.9291
▁krh	-12.9291
▁carbonate	-12.9291
▁Zn	-12.9292
▁alone	-12.9293
drying	-12.9296
enka	-12.9297
▁droping	-12.9297
▁planer	-12.9299
▁markers	-12.93
▁painting	-12.9305
▁wel	-12.9305
▁basins	-12.9315
rid	-12.932
▁11.0	-12.9324
▁phos	-12.9329
▁Ch	-12.9331
anti	-12.9337
▁noticed	-12.9344
ee	-12.9345
▁scal	-12.935
▁table	-12.9354
▁stalks	-12.9358
▁Watering	-12.9359
▁tied	-12.9368
▁upwards	-12.9373
▁medic	-12.9376
▁ado	-12.9379
▁tight	-12.9388
▁gaps	-12.9389
,15	-12.9397
-34	-12.9398
▁cent	-12.9399
▁reactions	-12.9402
duced	-12.941
jor	-12.9419
▁Hav	-12.942
▁30.0	-12.9422
▁purb	-12.9431
▁preferences	-12.9431
▁habits	-12.9431
▁ho	-12.9434
▁233	-12.9435
13	-12.9447
92	-12.9456
▁abou	-12.9457
tu	-12.946
▁explosions	-12.9461
▁desir	-12.9461
00	-12.9482
▁investments	-12.9489
azine	-12.9495
▁pots	-12.9498
▁grama	-12.95
▁spa	-12.9513
mper	-12.9527
▁para	-12.9536
oj	-12.9538
▁brand	-12.9546
kha	-12.9562
▁globally	-12.9563
▁Non	-12.9563
▁My	-12.9593
▁,2	-12.9625
▁grounds	-12.9637
▁rec	-12.9651
oid	-12.9697
▁prop	-12.9697
▁op	-12.9702
▁198	-12.9714
ella	-12.9727
2500	-12.9729
69.0	-12.9735
▁We	-12.974
ction	-12.9748
ised	-12.9748
im	-12.9753
etail	-12.9788
▁phospho	-12.9793
▁droppings	-12.9811
81.0	-12.9817
▁composit	-12.9823
vit	-12.9827
are	-12.9828
▁41,	-12.985
▁14,	-12.985
▁foods	-12.9852
▁@25	-12.9866
▁ju	-12.9867
79	-12.9871
▁ranges	-12.9887
▁Cor	-12.9911
▁chillis	-12.9911
▁contents	-12.9928
ah	-12.9932
92.0	-12.9933
93	-12.9939
tech	-12.9943
efficient	-12.995
▁mast	-12.9977
▁network	-12.9979
▁attribute	-12.9984
then	-12.9985
▁sample	-12.9993
▁reaction	-12.9994
▁slug	-12.9996
▁hazard	-12.9998
▁cultivar	-13.0001
▁microf	-13.0001
▁fit	-13.0005
transplant	-13.0006
76.0	-13.0007
feed	-13.0011
yield	-13.0016
▁structured	-13.0017
hut	-13.0043
▁rea	-13.0055
treat	-13.0083
raingun	-13.0086
effect	-13.0088
punjab	-13.0088
total	-13.0088
super	-13.0089
quintal	-13.0089
density	-13.0089
disease	-13.0089
summer	-13.0089
SRI	-13.0089
uniform	-13.009
ran	-13.009
plus	-13.009
mixed	-13.0099
▁encourag	-13.0103
4)	-13.0104
▁52	-13.0105
ase	-13.0123
af	-13.0131
▁preserv	-13.0142
growing	-13.0145
▁wt	-13.0147
▁imp	-13.0148
▁pressur	-13.0154
acc	-13.0157
▁diagnos	-13.0158
▁Adopt	-13.0158
enomyl	-13.0158
▁confirm	-13.0158
requent	-13.0158
lihood	-13.0158
andhi	-13.0158
▁vermi	-13.0158
itamin	-13.0158
▁public	-13.0159
▁tufgor	-13.0159
ermplasm	-13.0159
▁9435564391	-13.0159
▁Arunachalam	-13.0159
▁Plantae	-13.0159
▁Preparation	-13.0159
▁Raja	-13.0159
▁ahmed	-13.0159
▁aluminum	-13.0159
▁belief	-13.0159
▁bundle	-13.0159
▁catterpillar	-13.0159
▁catterpiller	-13.0159
▁certificate	-13.0159
▁charmil	-13.0159
▁chrysanthemum	-13.0159
▁collapse	-13.0159
▁complement	-13.0159
▁demethon	-13.0159
▁deplete	-13.0159
▁exercise	-13.0159
▁finances	-13.0159
▁homogeniz	-13.0159
▁illustrating	-13.0159
▁iverm	-13.0159
▁maceration	-13.0159
▁message	-13.0159
▁nasdar	-13.0159
▁provok	-13.0159
▁quinolphos	-13.0159
▁seepage	-13.0159
▁sequestration	-13.0159
▁supplied	-13.0159
▁supplies	-13.0159
▁vicinity	-13.0159
▁Training	-13.0159
▁adhere	-13.0159
▁leverag	-13.0159
▁rhino	-13.0159
▁behavior	-13.0159
▁gilvus	-13.0159
▁cachar	-13.0159
▁dissemination	-13.0159
▁angle	-13.0159
▁instrumentation	-13.0159
▁pigeonpea	-13.0159
▁business	-13.0159
▁mechanization	-13.0159
▁cheap	-13.0159
▁confidence	-13.0159
▁hoof	-13.0159
▁tolerate	-13.0159
mmam	-13.0159
▁fytolan	-13.0159
▁meghabor	-13.0159
▁buildup	-13.0159
▁grapevines	-13.0159
kuchi	-13.0159
▁nutritious	-13.0159
▁Implications	-13.0159
▁Cover	-13.0159
▁fertilier	-13.0159
-2.1	-13.0159
▁complexity	-13.0159
▁arrangement	-13.0159
aceous	-13.016
▁pullet	-13.016
▁mung	-13.016
▁Handa	-13.016
▁laborious	-13.016
▁scientifically	-13.016
tesh	-13.016
▁involvement	-13.0161
▁attractive	-13.0162
▁strain	-13.0162
▁Nursery	-13.0163
-45@2.5	-13.0163
▁oxygenation	-13.0163
▁@4	-13.0163
▁correction	-13.0164
▁Development	-13.0164
▁0.75	-13.0164
▁relie	-13.0164
▁IR	-13.0164
▁Armillaria	-13.0165
▁stir	-13.0166
▁gather	-13.0166
rajan	-13.0168
▁delayed	-13.0169
▁Spacing	-13.0169
▁parbhani	-13.0169
▁Storage	-13.0169
▁csc	-13.017
▁brace	-13.017
rocin	-13.0172
cide	-13.0173
▁listed	-13.0174
mx	-13.0176
▁ICRISAT	-13.0176
▁moss	-13.0178
▁castrated	-13.0178
▁older	-13.0179
▁instruments	-13.0183
▁agrochemicals	-13.0183
▁anglong	-13.0183
▁highest	-13.0186
86.0	-13.0188
AF	-13.0188
▁detected	-13.0188
▁guard	-13.0189
▁answered	-13.0193
▁Local	-13.0196
▁Resources	-13.0199
▁engines	-13.0199
▁mealybugs	-13.0199
ug	-13.0202
▁premises	-13.0203
▁18.0	-13.0204
▁consumer	-13.021
fer	-13.0214
omycin	-13.022
oria	-13.0221
,13	-13.0225
dried	-13.0227
▁hormones	-13.0236
▁bordo	-13.0248
▁Sp	-13.0252
▁quar	-13.0254
▁personal	-13.0262
▁bricks	-13.0262
anesh	-13.0265
▁aug	-13.0267
▁650	-13.027
▁bay	-13.0271
▁@40	-13.0273
76	-13.0275
▁officials	-13.0278
▁Ho	-13.0287
39.0	-13.0288
▁nutri	-13.0293
ger	-13.0305
▁populi	-13.0306
▁regulations	-13.031
59.0	-13.0311
spect	-13.0316
ranja	-13.0319
hu	-13.0323
wo	-13.0333
▁li	-13.0343
▁rocks	-13.0344
▁recognize	-13.0352
▁#	-13.0353
▁@18	-13.036
ian	-13.036
▁inefficiencies	-13.0371
hold	-13.0373
gh	-13.038
▁225	-13.0387
▁nozzled	-13.04
pyrit	-13.0404
▁coats	-13.0409
garding	-13.0424
0,000	-13.0427
▁@12	-13.0432
cmx	-13.0433
hy	-13.045
▁offed	-13.0469
02	-13.0473
▁49	-13.048
.@	-13.0483
▁20-25%	-13.05
000	-13.05
erox	-13.0502
▁ulcers	-13.0517
-7	-13.0522
64	-13.0534
▁Provid	-13.0555
▁cont	-13.0559
▁3-	-13.0577
.1	-13.058
/20	-13.0581
▁Ma	-13.0585
01.0	-13.0585
ja	-13.0604
84.	-13.0622
lam	-13.0636
▁Pradesh	-13.0636
pend	-13.0647
▁na	-13.0652
▁noted	-13.0658
-2,	-13.0664
▁holders	-13.0664
ist	-13.0669
,17	-13.068
79.0	-13.0683
▁-2	-13.0725
48.0	-13.0727
arp	-13.0753
▁touch	-13.0766
▁2,2	-13.0787
130.0	-13.0794
otic	-13.0801
66.	-13.0815
tilizer	-13.0827
▁Sa	-13.0828
350	-13.0828
▁periodic	-13.0837
▁empower	-13.0849
gent	-13.0852
▁combinations	-13.087
17.0	-13.0878
▁decid	-13.0885
tia	-13.0888
▁applicat	-13.089
▁meri	-13.0901
▁roll	-13.0911
outlet	-13.0921
▁layering	-13.0928
2.5	-13.0939
▁dhi	-13.0948
organic	-13.0954
---	-13.0958
88.	-13.0962
▁relationships	-13.0972
▁deposit	-13.0979
▁course	-13.0993
▁predator	-13.0993
▁begin	-13.0994
▁regulation	-13.0994
▁chick	-13.0997
▁organism	-13.0997
▁0.0	-13.0998
▁return	-13.0999
▁ban	-13.0999
67.	-13.1003
▁worker	-13.1004
▁border	-13.1005
▁clone	-13.1008
▁danger	-13.101
▁133	-13.1016
/2	-13.1018
tensive	-13.1021
flow	-13.1037
▁0.9	-13.1038
22.0	-13.1039
▁magur	-13.1067
selective	-13.1081
horsepower	-13.1081
(4	-13.1084
@250	-13.1085
discharge	-13.1087
pgr	-13.1087
You	-13.1088
oxychloride	-13.1089
slurry	-13.1089
nursery	-13.1089
power	-13.1089
contact	-13.1089
permanent	-13.1089
portable	-13.1089
wide	-13.1089
copper	-13.109
weeder	-13.1091
wanted	-13.1092
utomatic	-13.1094
dequate	-13.1094
▁float	-13.1097
▁particular	-13.11
once	-13.1103
▁dirt	-13.1109
-38	-13.111
▁brief	-13.1112
▁generate	-13.1113
▁elevat	-13.1117
productive	-13.1119
▁Fi	-13.1121
▁emerge	-13.1124
hap	-13.1134
140	-13.1135
▁genom	-13.1142
▁aks	-13.1147
▁groov	-13.115
urrent	-13.1152
eek	-13.1155
▁bact	-13.1158
▁Assess	-13.1158
▁Inject	-13.1158
igorous	-13.1158
egetable	-13.1158
▁profit	-13.1158
▁submer	-13.1159
=120.6	-13.1159
=124.4	-13.1159
=124.8	-13.1159
=126.5	-13.1159
=127.8	-13.1159
=128.2	-13.1159
=129.2	-13.1159
=130.4	-13.1159
=131.3	-13.1159
=132.6	-13.1159
=132.8	-13.1159
=133.5	-13.1159
=134.2	-13.1159
=135.2	-13.1159
=136.7	-13.1159
=137.1	-13.1159
=139.3	-13.1159
=139.4	-13.1159
=140.7	-13.1159
=140.9	-13.1159
=142.2	-13.1159
=142.3	-13.1159
=142.6	-13.1159
=142.7	-13.1159
=142.8	-13.1159
=143.5	-13.1159
=143.6	-13.1159
=143.8	-13.1159
=144.1	-13.1159
=145.5	-13.1159
=146.3	-13.1159
=147.1	-13.1159
=147.9	-13.1159
=148.8	-13.1159
=149.2	-13.1159
=152.8	-13.1159
=155.4	-13.1159
=158.5	-13.1159
apotranspiration	-13.1159
▁Agroforestry	-13.1159
▁English	-13.1159
▁Purple	-13.1159
▁arrival	-13.1159
▁balangir	-13.1159
▁chatra	-13.1159
▁chetki	-13.1159
▁cooperative	-13.1159
▁dhanbad	-13.1159
▁dormancy	-13.1159
▁drudgery	-13.1159
▁enjoy	-13.1159
▁gogoi	-13.1159
▁hamirpur	-13.1159
▁homogenous	-13.1159
▁kissan	-13.1159
▁lamp	-13.1159
▁maneuver	-13.1159
▁miracl	-13.1159
▁narrow	-13.1159
▁practise	-13.1159
▁prophylactic	-13.1159
▁qualities	-13.1159
▁rajma	-13.1159
▁ranikhet	-13.1159
▁repayment	-13.1159
▁saharsa	-13.1159
▁salmonicolor	-13.1159
▁simplicity	-13.1159
▁smoke	-13.1159
▁spouse	-13.1159
▁swiftly	-13.1159
▁syndrom	-13.1159
▁verification	-13.1159
▁vulnerability	-13.1159
▁written	-13.1159
=120.2	-13.1159
=120.8	-13.1159
=120.9	-13.1159
▁Bihar	-13.1159
▁Establish	-13.1159
▁Scab	-13.1159
▁depict	-13.1159
▁flock	-13.1159
▁mahafol	-13.1159
=123.0	-13.1159
▁Contact	-13.1159
▁beaut	-13.1159
▁trauma	-13.1159
▁monoculture	-13.1159
▁orifice	-13.1159
▁Space	-13.1159
▁cashewnut	-13.1159
▁depression	-13.1159
▁deshi	-13.1159
▁digital	-13.1159
▁friction	-13.1159
▁mesure	-13.1159
▁solvents	-13.1159
▁rhinocero	-13.1159
=121.0	-13.1159
▁impair	-13.1159
▁lift	-13.1159
▁queries	-13.1159
▁purchasing	-13.1159
▁cardamom	-13.1159
▁conflict	-13.1159
▁Mahafur	-13.1159
▁earlier	-13.1159
▁breast	-13.1159
▁List	-13.1159
=136.0	-13.1159
▁gumla	-13.1159
hellin	-13.1159
▁miraculan	-13.1159
▁Move	-13.1159
▁subven	-13.1159
▁otherwise	-13.1159
▁glands	-13.1159
▁overfilling	-13.1159
▁army	-13.1159
=130.0	-13.1159
@33	-13.1159
▁benomyl	-13.1159
▁Creat	-13.1159
▁splash	-13.1159
▁kannada	-13.1159
▁wish	-13.1159
▁transmitted	-13.1159
▁Wheat	-13.1159
▁mastile	-13.1159
ldin	-13.1159
▁cip	-13.1159
▁munger	-13.1159
▁tidy	-13.116
1/2	-13.116
▁kale	-13.116
▁wk	-13.116
▁bordeu	-13.116
▁box	-13.116
▁sathi	-13.116
▁principle	-13.116
▁trimming	-13.1161
000/	-13.1161
▁itself	-13.1161
anized	-13.1161
▁garm	-13.1161
▁prize	-13.1161
▁preferable	-13.1161
▁churn	-13.1161
▁slower	-13.1162
▁pop	-13.1162
▁distorted	-13.1162
▁eel	-13.1162
▁bleach	-13.1163
▁batches	-13.1163
▁napier	-13.1163
▁9435044574	-13.1163
▁Market	-13.1163
▁deficient	-13.1163
▁packaging	-13.1163
ops	-13.1163
▁rubi	-13.1164
▁star	-13.1164
▁insert	-13.1164
running	-13.1164
▁Region	-13.1165
▁mount	-13.1166
▁vikas	-13.1166
▁planthoppers	-13.1169
▁shifted	-13.1169
1.8	-13.1169
▁Strategi	-13.117
▁agitated	-13.117
▁tridomorph	-13.117
▁bongaigaon	-13.117
era	-13.1171
val	-13.1172
▁jc	-13.1173
▁hing	-13.1173
▁blite	-13.1174
ample	-13.1178
▁septate	-13.1179
▁renewa	-13.118
▁injury	-13.1182
▁Kenya	-13.1183
▁cleaner	-13.1186
At	-13.1187
ene	-13.1188
inous	-13.119
▁modifie	-13.119
▁possess	-13.1192
▁oxytetracyclin	-13.1193
uk	-13.1195
▁tar	-13.1198
▁fry	-13.1198
▁convert	-13.12
▁shrubs	-13.1203
▁formers	-13.1204
▁develops	-13.1204
metalaxyl	-13.1205
ort	-13.1206
stem	-13.1207
▁cloves	-13.1208
▁Post	-13.1208
▁Car	-13.1211
deaux	-13.1218
▁biting	-13.1219
@17	-13.1224
ze	-13.1228
▁generated	-13.123
▁gro	-13.1238
▁rootstocks	-13.1238
▁clogs	-13.1238
▁soluble	-13.1248
▁downwards	-13.1256
▁equitabl	-13.1264
▁isolate	-13.1267
▁platforms	-13.1274
270	-13.1284
▁wastes	-13.1288
annum	-13.1304
▁variations	-13.131
erization	-13.1316
HM	-13.1316
ticul	-13.1317
@11	-13.132
▁nom	-13.1326
▁Dinana	-13.1333
sulfa	-13.1334
▁tool	-13.1342
▁gp	-13.1344
▁NH	-13.1345
▁ja	-13.1352
lade	-13.1355
▁compar	-13.1359
▁created	-13.1361
▁bedrocks	-13.1363
▁rises	-13.1364
▁persists	-13.1364
ai	-13.1376
▁broadcasting	-13.1376
43	-13.1386
▁browning	-13.1387
lower	-13.1392
bor	-13.1395
▁cy	-13.1396
ust	-13.1407
ahu	-13.1412
▁sen	-13.1416
RI	-13.1417
▁adha	-13.1418
▁drugs	-13.1435
▁slen	-13.1436
ata	-13.1437
▁va	-13.1442
▁dogs	-13.1453
▁scientists	-13.1453
hot	-13.1461
▁1.1	-13.1464
39	-13.1482
▁Examin	-13.1485
fit	-13.1487
▁legs	-13.1505
▁reshape	-13.1507
▁safer	-13.1508
thrin	-13.153
▁persons	-13.1564
113	-13.1573
▁proportions	-13.158
▁rollers	-13.158
11.4	-13.1585
▁actions	-13.1596
99.0	-13.1599
formed	-13.1616
,2500	-13.1633
pical	-13.1646
▁branching	-13.1653
now	-13.1668
▁0.25	-13.1675
▁justif	-13.1676
▁pv	-13.1676
own	-13.1678
move	-13.1678
▁ko	-13.168
04.0	-13.1682
▁considerabl	-13.1686
7%	-13.1691
▁Kerala	-13.1744
800	-13.1747
nel	-13.1756
▁vectors	-13.1765
▁sets	-13.1766
91.0	-13.1769
67	-13.1774
▁1.6	-13.1784
67.0	-13.1786
iphos	-13.1792
ign	-13.1797
▁seedbeds	-13.1802
*60	-13.1808
▁wa	-13.1812
▁died	-13.1813
idge	-13.1813
666666666666666	-13.1815
01	-13.1816
ika	-13.1821
▁routines	-13.1839
85.0	-13.186
net	-13.1865
▁Eas	-13.1876
73.0	-13.1877
▁wither	-13.1882
▁Increas	-13.1884
▁Not	-13.1886
ast	-13.1905
online	-13.1906
▁demonstrat	-13.1916
▁206	-13.1939
@15	-13.194
direct	-13.1942
ua	-13.1943
▁capita	-13.1952
jg	-13.1952
▁hands	-13.1953
▁(1.5	-13.1954
52.	-13.196
eaux	-13.1961
bility	-13.1964
FA	-13.1968
ication	-13.197
▁carps	-13.1978
▁9435	-13.198
▁43	-13.1988
▁carbend	-13.1989
▁Seeds	-13.199
▁histor	-13.1997
▁herb	-13.2
970	-13.2001
ib	-13.2007
rani	-13.201
hang	-13.2032
met	-13.2044
active	-13.2056
ang	-13.2057
dia	-13.206
▁90%	-13.2063
33333333333333	-13.2065
ci	-13.2069
we	-13.2076
▁paint	-13.2088
▁strength	-13.2093
▁synerg	-13.2094
▁objective	-13.2098
▁terrain	-13.21
▁amino	-13.2105
uitable	-13.2106
▁windbreak	-13.2107
▁upward	-13.2107
▁household	-13.2107
▁constraint	-13.2109
▁variation	-13.2113
ollow	-13.2114
▁Impact	-13.212
lot	-13.2123
volv	-13.2133
▁hac	-13.2134
▁Co	-13.2134
sheds	-13.2135
@200	-13.2148
opulus	-13.2151
faci	-13.2152
▁almo	-13.2155
dressing	-13.2158
▁halo	-13.2166
ficial	-13.2167
cnose	-13.2168
cil	-13.218
▁concept	-13.2182
colored	-13.2189
▁equip	-13.2192
▁flush	-13.2194
pollination	-13.2195
othe	-13.2197
Economic	-13.2198
ostocalcium	-13.2198
FIRB	-13.2199
glass	-13.2199
boro	-13.2199
dursban	-13.2199
tsf	-13.2199
ranjit	-13.2199
protein	-13.2199
Malathion	-13.2199
saaf	-13.22
nut	-13.2205
▁40%	-13.2205
full	-13.2213
▁lay	-13.2214
▁wette	-13.2218
▁continu	-13.2221
▁capacit	-13.2222
11.0	-13.2226
ceae	-13.2229
earing	-13.223
ectona	-13.2234
83.0	-13.2235
lum	-13.2237
▁tie	-13.2239
lium	-13.2242
ustard	-13.2255
▁gran	-13.2261
468	-13.2266
ypsum	-13.2267
-250	-13.2268
ponsor	-13.2269
anpur	-13.2269
▁ammoni	-13.2269
▁wok	-13.227
▁import	-13.227
▁Deep	-13.227
▁Machine	-13.227
▁Strengthen	-13.227
▁encounter	-13.227
▁evolution	-13.227
▁nanha	-13.227
lachlor	-13.227
▁Amister	-13.227
▁Potential	-13.227
▁Tip	-13.227
▁accumulate	-13.227
▁agronomic	-13.227
▁alleviate	-13.227
▁butterfly	-13.227
▁celphos	-13.227
▁compatibility	-13.227
▁conjunctivitis	-13.227
▁display	-13.227
▁ditch	-13.227
▁doctor	-13.227
▁economy	-13.227
▁feasibility	-13.227
▁gauge	-13.227
▁gravel	-13.227
▁incubate	-13.227
▁polyester	-13.227
▁potao	-13.227
▁pustules	-13.227
▁scorching	-13.227
▁tympanitis	-13.227
▁underscore	-13.227
▁utensil	-13.227
▁vienna	-13.227
▁wildlife	-13.227
▁Mancozeb	-13.227
▁More	-13.227
▁birth	-13.227
▁borrer	-13.227
▁diversify	-13.227
▁estrus	-13.227
▁exceed	-13.227
▁filed	-13.227
▁inspire	-13.227
▁predicted	-13.227
ariety	-13.227
▁Aphid	-13.227
▁sick	-13.227
azacel	-13.227
▁Drainage	-13.227
▁Mono	-13.227
▁North	-13.227
▁campbell	-13.227
▁reagr	-13.227
▁accessories	-13.227
▁edible	-13.227
▁dinanath	-13.227
▁bilahi	-13.227
▁turbidity	-13.227
▁shillongani	-13.227
▁Soft	-13.227
ship	-13.227
▁bolster	-13.227
▁bull	-13.227
▁resum	-13.227
▁possibilit	-13.227
▁crush	-13.227
▁hyphae	-13.227
▁strawberries	-13.227
▁dilution	-13.227
▁sharing	-13.227
▁debility	-13.227
▁radic	-13.227
▁emitters	-13.227
▁varuna	-13.227
▁alok	-13.227
▁Cifax	-13.227
▁label	-13.227
▁coarse	-13.227
▁code	-13.227
▁photo	-13.227
▁ivy	-13.227
▁unproductive	-13.227
▁sound	-13.227
▁disinfectant	-13.227
▁sikkim	-13.227
allel	-13.227
▁Follow	-13.227
▁motion	-13.227
▁Line	-13.227
▁ifsc	-13.227
▁spell	-13.227
▁recomemnd	-13.227
▁held	-13.2271
▁dieback	-13.2271
▁premiu	-13.2271
▁Disinfect	-13.2271
▁vinegar	-13.2271
▁Final	-13.2271
mosa	-13.2271
▁stressors	-13.2271
-72@2	-13.2271
▁incite	-13.2271
▁krishna	-13.2271
▁sink	-13.2271
▁sudden	-13.2271
▁bikas	-13.2272
inimiz	-13.2272
▁indication	-13.2272
cute	-13.2272
TL	-13.2272
▁def	-13.2272
▁bayer	-13.2272
Profex	-13.2272
ttar	-13.2272
▁oval	-13.2272
▁offset	-13.2272
▁feel	-13.2272
▁mesh	-13.2273
amping	-13.2273
▁aquaculture	-13.2275
▁hinosan	-13.2275
▁honeydew	-13.2275
▁kitchen	-13.2275
▁saikia	-13.2275
▁circle	-13.2275
▁dhubri	-13.2275
▁furadan	-13.2275
▁mahyco	-13.2275
▁pactus	-13.2275
▁opportunit	-13.2275
▁fast	-13.2275
▁Alternative	-13.2275
▁creation	-13.2275
lox	-13.2275
▁projects	-13.2276
sured	-13.2277
▁9435521447	-13.2277
▁however	-13.2277
▁Selection	-13.2278
▁Communit	-13.2279
▁stay	-13.2279
leanliness	-13.228
spindle	-13.2281
▁apples	-13.2282
arbendazim	-13.2283
▁kanaklata	-13.2283
▁division	-13.2283
▁starch	-13.2285
▁inhal	-13.2285
▁Technology	-13.2286
-900	-13.2288
▁12.5	-13.2288
▁darken	-13.2289
▁director	-13.229
▁interested	-13.2291
▁filtration	-13.2292
▁drenches	-13.2292
▁dalbergiae	-13.2294
hase	-13.2296
▁3/4	-13.2297
▁agitation	-13.2297
pankaj	-13.2298
▁settle	-13.2298
pension	-13.2299
otrich	-13.2303
maneb	-13.2304
▁marginal	-13.2306
▁opt	-13.2308
▁branched	-13.2308
▁fallow	-13.2309
▁manuring	-13.231
▁sugges	-13.231
▁amb	-13.2311
iri	-13.2311
▁1.50	-13.2315
▁Kendra	-13.2315
gromin	-13.2318
▁chloropyriphose	-13.2319
1%	-13.232
▁staking	-13.2322
▁phyto	-13.2326
onidiophores	-13.2329
▁incorrect	-13.233
dging	-13.2336
▁undern	-13.2336
▁faces	-13.2336
▁suppliers	-13.2339
▁20-50	-13.234
▁13.0	-13.2343
▁40-45	-13.2343
▁Asia	-13.2344
▁inefficiency	-13.2345
▁2.2	-13.2346
▁che	-13.2346
dot	-13.2346
▁ecto	-13.2347
▁secure	-13.2355
▁host	-13.2356
▁applic	-13.2375
▁US	-13.2379
outlets	-13.2384
ize	-13.2393
▁indoors	-13.2399
olus	-13.2401
ori	-13.2404
▁shared	-13.2407
▁12.0	-13.2413
23.0	-13.2417
▁trays	-13.2419
▁disorders	-13.2419
▁Drying	-13.2421
▁2-5	-13.2422
▁screens	-13.2424
▁19.0	-13.2428
63	-13.243
▁Manu	-13.2437
-500	-13.2437
rima	-13.2437
▁26.0	-13.2444
▁inactive	-13.2445
▁39	-13.2447
sow	-13.245
▁Du	-13.2458
▁singh	-13.2466
34.	-13.2479
▁samples	-13.248
ythi	-13.2489
▁4.8	-13.2491
▁Bananas	-13.25
tara	-13.2508
7.5	-13.2512
reening	-13.2514
▁mushrooms	-13.2517
▁prof	-13.252
▁fus	-13.2532
110	-13.2543
▁moderately	-13.2545
eb	-13.2546
▁wi	-13.2558
▁pouring	-13.256
▁joints	-13.2561
76.	-13.2567
▁ab	-13.2572
oty	-13.2573
▁sprouts	-13.2583
-50/	-13.2587
▁bore	-13.2599
▁(100	-13.2604
▁supervise	-13.2621
4.5	-13.2625
AR	-13.265
▁mil	-13.2654
▁63	-13.2657
47.0	-13.266
ridge	-13.2674
▁bitt	-13.2678
▁Pre	-13.2681
ota	-13.269
degrad	-13.2691
man	-13.2693
found	-13.2699
96.	-13.2715
aff	-13.2722
▁phases	-13.2724
iv	-13.2726
wa	-13.2726
▁440	-13.2727
▁stores	-13.2742
▁clearly	-13.2757
-50,	-13.276
▁ke	-13.2774
aph	-13.2784
66.0	-13.2792
130	-13.2797
92.	-13.281
▁volatiliz	-13.2817
....5	-13.2839
▁boarde	-13.2844
-1.75	-13.2851
▁36%	-13.2853
rose	-13.2861
▁mins	-13.2862
▁opening	-13.2883
etter	-13.2888
▁car	-13.2892
▁cit	-13.29
ket	-13.2907
▁mitigated	-13.2931
▁targets	-13.2933
▁fin	-13.2935
▁6444,	-13.2947
0-100%	-13.2975
49.0	-13.2995
gas	-13.2995
▁//	-13.3006
▁floors	-13.3017
tox	-13.3022
1960	-13.3055
▁bit	-13.3057
▁fro	-13.3064
82.0	-13.3064
▁exudat	-13.3064
▁nor	-13.3068
▁Tre	-13.3071
bl	-13.3079
rous	-13.308
rusting	-13.3088
▁marigolds	-13.3102
livia	-13.3135
ko	-13.317
▁solved	-13.3176
nions	-13.3179
pest	-13.3179
borer	-13.3184
▁salts	-13.3186
▁recomme	-13.3187
rown	-13.3196
▁thr	-13.3197
▁ste	-13.3224
,18	-13.3227
-17	-13.3236
▁mah	-13.3239
41	-13.3252
oma	-13.326
-120	-13.3266
▁sticks	-13.3294
rative	-13.3316
esh	-13.3318
tone	-13.3323
▁grub	-13.334
▁eliminated	-13.3343
▁gerbera	-13.3348
▁armyworm	-13.335
▁silt	-13.335
▁Cost	-13.3351
▁screen	-13.3353
▁disorder	-13.3354
▁rega	-13.3357
▁stalk	-13.3361
its	-13.3363
▁basket	-13.3367
fa	-13.337
ternational	-13.3374
▁popul	-13.3376
▁gi	-13.3388
dec	-13.3411
(20	-13.3416
▁gene	-13.3417
grow	-13.3425
root	-13.3439
@1250	-13.3442
@19	-13.3442
sulphide	-13.3443
▁automat	-13.3444
judicious	-13.3444
contain	-13.3445
trace	-13.3447
Classic	-13.3448
micro	-13.3448
mounted	-13.3448
house	-13.3449
hydrogen	-13.3449
february	-13.3449
ventilated	-13.3449
▁leach	-13.3449
dwarf	-13.3449
captan	-13.345
fruit	-13.345
while	-13.345
bearing	-13.345
local	-13.345
feb	-13.345
white	-13.345
fix	-13.345
vine	-13.3451
calcium	-13.3451
from	-13.3451
▁easter	-13.3452
▁Conidi	-13.3453
grown	-13.3453
cement	-13.3453
▁cure	-13.3454
▁map	-13.3455
least	-13.3456
▁update	-13.3463
dostem	-13.347
▁official	-13.347
▁1800	-13.3472
▁remedi	-13.3472
▁wo	-13.3472
nding	-13.3472
It	-13.3473
locat	-13.3477
,25	-13.3478
▁sm	-13.3478
▁applie	-13.3479
▁roses	-13.3481
▁Sprinkle	-13.3482
▁mukh	-13.3482
▁gentl	-13.3483
iz	-13.3487
echnical	-13.3488
Soil	-13.3491
▁imidachlo	-13.3494
tillering	-13.3495
ined	-13.3496
win	-13.3498
▁medi	-13.3509
▁schem	-13.3514
magne	-13.3515
▁legum	-13.3515
▁pl	-13.3516
ermanent	-13.3518
▁progress	-13.3518
athogens	-13.3518
▁minist	-13.3519
▁micr	-13.3519
▁tract	-13.3519
eterinary	-13.352
▁weakness	-13.352
ployment	-13.352
▁temperat	-13.352
▁nemato	-13.352
Advantages	-13.352
▁Mineral	-13.352
▁SALT	-13.352
▁flour	-13.352
▁radioactiv	-13.352
▁recycl	-13.352
=123.2	-13.352
=123.6	-13.352
=124.9	-13.352
=126.3	-13.352
=127.1	-13.352
=127.3	-13.352
=128.1	-13.352
=128.8	-13.352
=131.6	-13.352
=131.7	-13.352
=131.8	-13.352
=132.3	-13.352
=132.7	-13.352
=134.1	-13.352
=134.9	-13.352
=136.5	-13.352
=137.9	-13.352
=138.1	-13.352
=138.5	-13.352
=139.1	-13.352
=140.2	-13.352
=140.4	-13.352
=141.3	-13.352
=141.8	-13.352
=144.2	-13.352
=145.1	-13.352
=145.2	-13.352
=145.3	-13.352
=146.5	-13.352
=147.3	-13.352
=148.3	-13.352
=149.3	-13.352
=151.8	-13.352
=152.6	-13.352
=153.2	-13.352
=158.6	-13.352
=159.9	-13.352
=169.5	-13.352
=177.2	-13.352
ICFRE	-13.352
lxbxh	-13.352
xocortis	-13.352
▁Bengal	-13.352
▁CBSD	-13.352
▁Dehradun	-13.352
▁Fluctuati	-13.352
▁Inspections	-13.352
▁Study	-13.352
▁Uganda	-13.352
▁anthalmintic	-13.352
▁archetype	-13.352
▁arwal	-13.352
▁asafoetida	-13.352
▁aurangabad	-13.352
▁bardhaman	-13.352
▁beehive	-13.352
▁budaun	-13.352
▁buxar	-13.352
▁canopies	-13.352
▁category	-13.352
▁champaran	-13.352
▁chikkaballapura	-13.352
▁coalesce	-13.352
▁coimbatore	-13.352
▁communicat	-13.352
▁detrimental	-13.352
▁flammable	-13.352
▁geographic	-13.352
▁godrej	-13.352
▁guord	-13.352
▁hazaribagh	-13.352
▁hibiscus	-13.352
▁hypocotyls	-13.352
▁insulate	-13.352
▁iodine	-13.352
▁kanchipuram	-13.352
▁kandhamal	-13.352
▁kanker	-13.352
▁kantha	-13.352
▁karimganj	-13.352
▁katihar	-13.352
▁kerosene	-13.352
▁kolar	-13.352
▁koraput	-13.352
▁lenght	-13.352
▁lifecycle	-13.352
▁misconception	-13.352
▁nizamabad	-13.352
▁pleasing	-13.352
▁porbandar	-13.352
▁prasad	-13.352
▁proceed	-13.352
▁sevak	-13.352
▁suffocation	-13.352
▁tirunelveli	-13.352
▁transaction	-13.352
▁unakoti	-13.352
▁vulnerab	-13.352
▁wireworms	-13.352
=160.4	-13.352
=160.5	-13.352
▁9435066297	-13.352
▁Utiliz	-13.352
▁changing	-13.352
▁gutter	-13.352
▁oppos	-13.352
=127.0	-13.352
▁Acre	-13.352
▁Wound	-13.352
▁chandra	-13.352
▁collaborati	-13.352
▁metabolism	-13.352
▁title	-13.352
embel	-13.352
▁enlarge	-13.352
▁examination	-13.352
▁flea	-13.352
▁meghdoot	-13.352
▁araria	-13.352
▁cloud	-13.352
▁except	-13.352
▁silver	-13.352
▁Neem	-13.352
▁accompan	-13.352
▁bracket	-13.352
▁Nigeria	-13.352
▁Borax	-13.352
▁Drink	-13.352
▁Mahaphal	-13.352
▁Myrta	-13.352
▁electro	-13.352
▁enrofloxacin	-13.352
▁Employ	-13.352
▁baby	-13.352
▁luit	-13.352
▁immovable	-13.352
▁inflammation	-13.352
plication	-13.352
▁vlew	-13.352
kela	-13.352
▁tires	-13.352
▁generation	-13.352
▁scarcity	-13.352
▁planket	-13.352
imetho	-13.352
▁fungicidal	-13.352
▁tabaci	-13.352
▁suhara	-13.352
▁Excessive	-13.352
▁interior	-13.352
euti	-13.352
▁Folia	-13.352
▁publication	-13.352
▁prominent	-13.352
▁Bird	-13.352
▁innovation	-13.352
▁Amend	-13.352
▁demonstration	-13.352
▁progression	-13.352
▁search	-13.352
▁Wilt	-13.352
▁ripeness	-13.352
▁overnight	-13.352
▁dangerous	-13.3521
▁borah	-13.3521
▁restoration	-13.3521
▁governance	-13.3521
▁scatter	-13.3521
▁profitable	-13.3521
▁venture	-13.3521
▁req	-13.3521
▁Treatment	-13.3521
▁comparable	-13.3521
▁passes	-13.3522
▁West	-13.3522
▁freshness	-13.3522
▁owner	-13.3522
▁garhwal	-13.3522
▁swelling	-13.3522
▁thioph	-13.3522
▁Cut	-13.3523
▁Tomatoes	-13.3523
▁outline	-13.3523
▁boran	-13.3523
quin	-13.3523
▁3-3.5	-13.3523
▁goatery	-13.3524
▁biofertilizer	-13.3524
▁bettle	-13.3524
▁dryers	-13.3525
▁2.3	-13.3525
▁anthurium	-13.3525
▁Phyllostict	-13.3525
▁Support	-13.3525
▁dhemaji	-13.3525
▁mashuri	-13.3525
▁Multiplex	-13.3525
▁Participat	-13.3526
▁Promote	-13.3527
▁beetel	-13.3527
▁Start	-13.3527
▁ulceration	-13.3527
▁nest	-13.3527
▁pathway	-13.3528
▁rinse	-13.3528
▁vegetation	-13.3528
▁np	-13.3528
▁boiled	-13.3529
▁sticker	-13.3529
▁chain	-13.3529
bloatosil	-13.353
▁dadr	-13.353
▁chl	-13.3531
▁Indonesia	-13.3532
▁haveli	-13.3532
▁jain	-13.3532
sawdust	-13.3532
libor	-13.3533
▁trapping	-13.3534
▁Process	-13.3535
▁Phosphorus	-13.3535
▁piller	-13.3535
▁trenches	-13.3535
▁wise	-13.3536
▁toximer	-13.3536
▁44	-13.3538
▁Pump	-13.3538
▁subject	-13.3538
lep	-13.3539
▁organically	-13.354
rhiz	-13.354
▁November	-13.3545
▁suk	-13.3546
▁disseminate	-13.3547
▁goa	-13.3547
714285714285714	-13.3548
▁0.02	-13.355
▁Examples	-13.3554
▁ruminants	-13.3554
▁dispers	-13.3554
▁port	-13.3554
▁event	-13.3555
▁pack	-13.3555
emisi	-13.3555
▁sometimes	-13.3556
▁propiconazole	-13.3556
transplanting	-13.3556
▁wor	-13.3557
▁soften	-13.3557
▁repeated	-13.3558
thio	-13.3559
▁raha	-13.3559
▁watre	-13.356
▁foll	-13.3563
▁80-100	-13.3564
/3	-13.3564
▁30-50	-13.3566
▁radishes	-13.3568
▁remedie	-13.3568
▁attc	-13.3569
minerax	-13.3572
▁2,4	-13.3573
▁rotate	-13.3574
62.0	-13.3577
▁ram	-13.3578
▁qt	-13.3579
▁organize	-13.3581
oli	-13.3582
▁rogu	-13.3584
▁stunting	-13.3585
▁availed	-13.3587
▁fa	-13.3594
▁foil	-13.3597
▁hen	-13.3601
emember	-13.3601
▁50/	-13.3602
oestrous	-13.3603
▁pollination	-13.3605
▁flushing	-13.3606
▁rani	-13.3607
▁Phom	-13.3613
▁thistle	-13.3614
-29	-13.3615
vast	-13.3616
▁bite	-13.3616
ab	-13.3618
cyclin	-13.362
▁nose	-13.362
▁blacken	-13.3622
acy	-13.3623
▁concerns	-13.3623
▁gases	-13.3625
▁invaded	-13.3629
▁Consisten	-13.3634
▁57%	-13.3645
▁loses	-13.3645
▁kar	-13.3647
135	-13.3651
▁KCl	-13.3657
ula	-13.3658
-75	-13.3664
▁impli	-13.3667
▁Manage	-13.3677
▁let	-13.3678
▁pho	-13.3683
butt	-13.369
▁baskets	-13.3691
65.0	-13.3693
qua	-13.3703
-46,	-13.3703
1000	-13.3711
▁longe	-13.3712
▁242	-13.3719
▁synergist	-13.3722
By	-13.3723
▁dangers	-13.3737
ntrol	-13.375
▁hind	-13.3758
elling	-13.3774
ested	-13.3796
▁ESP	-13.3799
▁ava	-13.3811
▁malthi	-13.3819
rust	-13.3823
▁poles	-13.3829
▁50.0	-13.3829
900	-13.3829
vir	-13.3846
▁3.1	-13.3846
▁tray	-13.3852
▁pheno	-13.3858
ati	-13.3861
live	-13.3869
▁blooming	-13.3871
▁sw	-13.3871
▁/10	-13.3876
rka	-13.389
ual	-13.3894
▁Integrat	-13.3904
▁dev	-13.3908
▁fent	-13.3911
51	-13.3919
▁images	-13.3922
250	-13.3925
mor	-13.3931
14,000	-13.3931
▁threads	-13.3945
▁pep	-13.3953
inject	-13.3969
▁boot	-13.3972
▁mahi	-13.3979
25.	-13.4009
▁-3	-13.4014
still	-13.4014
ple	-13.4016
▁,3	-13.4026
▁Ro	-13.4034
vi	-13.4045
▁stocks	-13.4046
ima	-13.4049
84.0	-13.4061
(1	-13.4062
▁ka	-13.4069
▁1.9	-13.4069
▁reccom	-13.4071
5)	-13.4087
▁lu	-13.4095
▁@6	-13.41
port	-13.4104
nc	-13.4115
▁@1.75	-13.4115
arm	-13.413
▁transmit	-13.4141
iram	-13.4143
omatic	-13.4159
utting	-13.416
prim	-13.4161
▁covers	-13.4162
▁normally	-13.4169
▁smoothly	-13.4181
120	-13.4184
▁mat	-13.4195
▁User	-13.4199
▁ri	-13.4199
66666666666666	-13.4202
6-4	-13.4204
(6	-13.4212
275	-13.4232
▁0.91	-13.4246
angular	-13.4274
▁ce	-13.4289
▁propagat	-13.434
ven	-13.4346
ino	-13.4354
,11	-13.4359
offs	-13.4362
ete	-13.4364
iling	-13.4385
sid	-13.4433
▁cou	-13.4444
pra	-13.4455
:12	-13.4469
▁sant	-13.4469
▁rag	-13.447
ect	-13.4471
ok	-13.4471
olu	-13.4472
tching	-13.4476
05	-13.4478
ada	-13.448
▁overly	-13.4496
▁cho	-13.4503
lon	-13.4504
amine	-13.4507
990	-13.4512
ngo	-13.4512
cium	-13.4512
▁sk	-13.4513
56.	-13.4522
adi	-13.4526
1200	-13.4554
▁chole	-13.4556
rive	-13.4558
nia	-13.4564
ams	-13.4582
rit	-13.4592
oa	-13.46
long	-13.4617
▁milking	-13.4619
▁995	-13.4643
▁recogniz	-13.4644
▁epil	-13.4648
...10	-13.4656
ini	-13.4662
istic	-13.4662
▁manipulat	-13.468
udi	-13.4686
▁---	-13.4686
▁(201	-13.4694
ource	-13.4696
oin	-13.4697
▁professionals	-13.4698
weed	-13.47
▁tube	-13.4723
phal	-13.4724
hr	-13.4748
▁potas	-13.4757
730	-13.4757
▁3.7	-13.4766
▁shop	-13.4774
▁Manag	-13.4776
▁snail	-13.4777
▁framework	-13.4777
▁bactericide	-13.4779
▁Bean	-13.4782
▁indoor	-13.4782
▁platform	-13.4783
▁releas	-13.4783
hree	-13.4783
▁leafhopper	-13.4783
▁corner	-13.4783
▁brick	-13.4783
▁accordingly	-13.4784
▁expense	-13.4786
▁fen	-13.4786
▁job	-13.4787
▁blockage	-13.4789
▁amendment	-13.4789
▁implication	-13.479
ardening	-13.4795
ni	-13.4796
wel	-13.4797
▁135	-13.4798
▁pur	-13.4799
cer	-13.4803
emp	-13.481
etc	-13.4816
,33	-13.4818
ff	-13.4819
pping	-13.4823
▁defici	-13.4825
round	-13.4829
part	-13.4833
tte	-13.484
/50	-13.4863
▁Then	-13.4865
tall	-13.4867
sion	-13.4867
▁stunt	-13.4868
(100	-13.4868
vised	-13.4868
...1	-13.4869
@850	-13.4873
*45	-13.4873
grain	-13.4875
krh	-13.4875
Zn	-13.4876
burnihat	-13.4876
cover	-13.4876
Nitrogen	-13.4876
ostovet	-13.4876
intact	-13.4877
pass	-13.4877
suspect	-13.4877
experience	-13.4877
rocket	-13.4877
bipul	-13.4878
khanapara	-13.4878
recommended	-13.4878
january	-13.4878
turmeric	-13.4878
first	-13.4878
agriculture	-13.4878
foot	-13.4878
potato	-13.4879
including	-13.4879
high	-13.488
output	-13.488
pig	-13.4882
food	-13.4883
▁relate	-13.4884
▁1320	-13.4888
▁Bur	-13.4889
▁medicin	-13.4898
▁margin	-13.4901
@30	-13.4902
▁folia	-13.4904
▁altitud	-13.4911
▁combin	-13.4918
rude	-13.4919
ette	-13.4921
thir	-13.4925
dig	-13.4926
arden	-13.4926
pm	-13.4933
▁sq	-13.4934
▁Program	-13.4936
72.0	-13.4937
ils	-13.4938
▁mimic	-13.4941
▁distort	-13.4943
▁featur	-13.4943
ndofil	-13.4945
▁watr	-13.4945
1750	-13.4945
omite	-13.4945
▁princip	-13.4946
▁tannin	-13.4946
▁recei	-13.4946
rolonged	-13.4947
ummarize	-13.4947
ontaf	-13.4947
▁Excess	-13.4948
inancial	-13.4948
▁byrnih	-13.4948
▁colocas	-13.4948
aishali	-13.4948
milil	-13.4948
▁buck	-13.4948
▁suugest	-13.4948
▁trolley	-13.4948
▁Multi	-13.4948
▁taxonom	-13.4948
/2021/02	-13.4948
769230769230769	-13.4948
aldehyde	-13.4948
azotobacter	-13.4948
dhanucop	-13.4948
erucosis	-13.4948
rrhoea	-13.4948
▁Access	-13.4948
▁Calcium	-13.4948
▁Close	-13.4948
▁Further	-13.4948
▁Hexaconazole	-13.4948
▁Precautions	-13.4948
▁Project	-13.4948
▁Slurry	-13.4948
▁Studies	-13.4948
▁abscission	-13.4948
▁anorexia	-13.4948
▁bhattacharya	-13.4948
▁biswanath	-13.4948
▁blister	-13.4948
▁chhuhara	-13.4948
▁chirang	-13.4948
▁chocking	-13.4948
▁dermatitis	-13.4948
▁dicofol	-13.4948
▁drumstick	-13.4948
▁favour	-13.4948
▁fluorescens	-13.4948
▁glucose	-13.4948
▁hdfc	-13.4948
▁inherent	-13.4948
▁juggery	-13.4948
▁jyotiprasad	-13.4948
▁kavach	-13.4948
▁kuwari	-13.4948
▁language	-13.4948
▁limb	-13.4948
▁mercur	-13.4948
▁methodologies	-13.4948
▁participants	-13.4948
▁patna	-13.4948
▁phenotypi	-13.4948
▁rahman	-13.4948
▁social	-13.4948
▁staple	-13.4948
▁synthesis	-13.4948
▁vigilant	-13.4948
▁vitaplex	-13.4948
▁vulgaris	-13.4948
▁wonder	-13.4948
▁wrong	-13.4948
▁Production	-13.4948
▁Ustad	-13.4948
▁album	-13.4948
▁certification	-13.4948
▁chocolate	-13.4948
▁compliance	-13.4948
▁husk	-13.4948
▁Scleroti	-13.4948
▁encompass	-13.4948
▁iii	-13.4948
▁oryzae	-13.4948
▁verify	-13.4948
▁Hydr	-13.4948
▁expire	-13.4948
▁plaque	-13.4948
▁bacill	-13.4948
▁palak	-13.4948
▁tendency	-13.4948
▁deforestation	-13.4948
▁multiply	-13.4948
▁sonalika	-13.4948
▁respond	-13.4948
▁dang	-13.4948
▁nurocombi	-13.4948
▁sporangia	-13.4948
CBS	-13.4948
▁pregnancy	-13.4948
▁Dairy	-13.4948
▁ethanol	-13.4948
▁fertizer	-13.4948
▁interpla	-13.4948
▁stool	-13.4948
▁Head	-13.4948
▁certified	-13.4948
▁biopesticide	-13.4948
▁finish	-13.4948
▁Pink	-13.4949
▁goalpara	-13.4949
▁exclusion	-13.4949
▁sarai	-13.4949
▁Melam	-13.4949
▁sclerotia	-13.4949
champa	-13.4949
▁bioactive	-13.4949
▁money	-13.4949
▁campus	-13.4949
▁stagnation	-13.4949
▁CMD	-13.4949
▁buyers	-13.4949
▁quarry	-13.4949
▁clods	-13.4949
▁worth	-13.4949
▁korea	-13.4949
▁companies	-13.4949
olokia	-13.4949
▁explore	-13.4949
▁baroda	-13.4949
▁slant	-13.4949
▁masur	-13.4949
▁resp	-13.4949
▁Zin	-13.4949
▁gender	-13.4949
▁fear	-13.495
blon	-13.495
▁psu	-13.495
CSA	-13.495
▁SAF	-13.495
▁hypochlor	-13.495
▁sponsor	-13.495
▁lamd	-13.495
▁deter	-13.495
▁infestata	-13.495
▁colouration	-13.495
▁patch	-13.495
▁Improvement	-13.495
▁rope	-13.495
▁Drench	-13.4951
▁Sigatoka	-13.4951
▁woodland	-13.4951
HRT	-13.4951
DAP	-13.4951
▁mob	-13.4951
▁dat	-13.4951
▁exclude	-13.4951
▁alternata	-13.4951
▁lomo	-13.4952
▁fura	-13.4952
laborat	-13.4952
▁fair	-13.4952
▁rake	-13.4952
▁overcom	-13.4952
▁qtl	-13.4952
▁slime	-13.4952
▁acidity	-13.4952
▁byrnihat	-13.4952
▁reuse	-13.4952
▁degrade	-13.4953
▁supplementation	-13.4953
▁china	-13.4953
▁500-600	-13.4953
▁0361-	-13.4953
▁aggressi	-13.4953
ffice	-13.4954
▁horn	-13.4955
onil	-13.4955
▁Coffee	-13.4955
▁Protein	-13.4955
▁Second	-13.4955
▁demeton	-13.4955
▁hampshire	-13.4955
▁teat	-13.4956
▁cup	-13.4956
ouble	-13.4957
▁customer	-13.4957
▁clos	-13.4959
▁belong	-13.496
▁hormon	-13.4961
▁producers	-13.4962
▁validate	-13.4962
bhog	-13.4962
▁lice	-13.4963
▁incentives	-13.4963
▁parasitoids	-13.4963
▁sessions	-13.4963
-125	-13.4963
view	-13.4963
▁ve	-13.4965
▁ether	-13.4965
▁Amaranth	-13.4966
▁Understand	-13.4966
▁swimming	-13.4966
▁bheti	-13.4966
▁acidic	-13.4966
▁surveying	-13.4966
▁fame	-13.4967
culinary	-13.4967
gue	-13.4968
▁sally	-13.4971
▁judicious	-13.4971
tan	-13.4971
uery	-13.4972
urf	-13.4972
▁berry	-13.4976
ecognition	-13.4976
▁572	-13.4977
▁romai	-13.4978
▁convenience	-13.4978
▁Carbon	-13.4978
▁marking	-13.4978
▁fee	-13.4979
▁moc	-13.498
▁Combine	-13.4982
▁incubating	-13.4983
ommended	-13.4983
▁miss	-13.4984
lize	-13.4988
-2000	-13.4989
▁monitored	-13.499
▁aski	-13.4991
▁authority	-13.4993
-1.2	-13.4994
▁mor	-13.4995
▁5.6	-13.4998
minamil	-13.4999
▁temp	-13.4999
versely	-13.4999
▁paan	-13.5
form	-13.5
▁reference	-13.5001
▁atmosphere	-13.5007
▁Tri	-13.5009
ado	-13.5009
▁bind	-13.5017
▁Powder	-13.5023
▁(1%)	-13.5023
▁tax	-13.5026
cept	-13.5029
▁52.0	-13.5032
▁fluctuate	-13.5034
var	-13.5036
addle	-13.5037
▁originat	-13.5038
▁Myr	-13.504
▁worsens	-13.5041
▁pk	-13.5049
▁milliliter	-13.5049
oti	-13.505
▁withering	-13.5057
Lph	-13.5058
▁White	-13.5064
▁ticks	-13.5068
▁previously	-13.507
▁contaminate	-13.507
lace	-13.5071
▁chilies	-13.5074
▁@100	-13.5075
erry	-13.5077
hlorosis	-13.5079
idum	-13.508
utritional	-13.5081
pre	-13.5083
▁280	-13.5087
▁sel	-13.5087
▁prescrib	-13.5088
They	-13.509
▁beginners	-13.5094
zin	-13.5097
aug	-13.5101
easonal	-13.5118
▁zim	-13.5118
▁Beans	-13.5121
▁genetical	-13.5125
▁engage	-13.5131
▁disinfecting	-13.5131
▁replant	-13.5139
▁Costs	-13.5147
alone	-13.5156
class	-13.5167
rat	-13.5168
14.0	-13.5171
4,000	-13.5172
▁terrains	-13.5174
hor	-13.5182
▁,50	-13.5188
▁predators	-13.5201
▁courses	-13.5201
▁rolls	-13.5203
ricyclazole	-13.5219
rtilizer	-13.5228
▁composted	-13.5248
77	-13.5248
▁Des	-13.5253
▁sto	-13.5258
▁emergen	-13.5261
▁muc	-13.5266
▁ears	-13.5276
▁experiments	-13.5282
▁coatings	-13.5282
▁miter	-13.5282
▁1050	-13.5287
▁tables	-13.5293
5-8	-13.5294
950	-13.5306
,40	-13.5315
▁rem	-13.5317
▁89	-13.5319
uring	-13.5334
▁625	-13.5342
planted	-13.5344
▁advi	-13.5362
RE	-13.5371
54.0	-13.5384
ecause	-13.5387
▁pruned	-13.539
▁fr	-13.5397
tro	-13.5409
hini	-13.5414
▁earthworms	-13.5419
▁har	-13.543
oral	-13.5436
▁patholog	-13.5441
textured	-13.5442
▁innovati	-13.5467
▁-5	-13.5471
times	-13.5478
rom	-13.5482
▁3,00,00	-13.5509
haphol	-13.5514
aj	-13.5514
▁Thiram	-13.5516
bo	-13.5527
▁dim	-13.553
oxide	-13.5531
,2.5	-13.5541
urni	-13.5542
▁Less	-13.5544
▁antha	-13.5546
▁piglets	-13.5557
vil	-13.5562
▁propert	-13.5569
vid	-13.5595
▁Safe	-13.56
97	-13.5605
▁Alternat	-13.563
962	-13.5633
@45	-13.5638
SS	-13.5651
819	-13.5659
0.5	-13.566
▁contr	-13.5678
▁coal	-13.5701
▁ova	-13.5702
▁ago	-13.5714
▁maggots	-13.5725
bha	-13.5744
ung	-13.5745
ita	-13.5747
saic	-13.5761
13.	-13.5772
▁gra	-13.5777
▁spiders	-13.5782
190.0	-13.5798
281	-13.5801
vitamin	-13.5801
naa	-13.5806
▁fingerlings	-13.5811
pk	-13.5813
▁appl	-13.5815
izer	-13.5824
206	-13.5825
▁soybeans	-13.5838
rine	-13.5849
ubic	-13.585
▁oranges	-13.5878
▁sol	-13.5885
ef	-13.5896
731	-13.5901
afety	-13.5901
▁(25	-13.591
▁fat	-13.5949
ave	-13.5956
▁correlati	-13.5962
▁advocat	-13.5968
▁gour	-13.5975
▁bol	-13.5985
88.0	-13.5986
▁wat	-13.6001
▁dates	-13.6039
▁finally	-13.6047
▁84	-13.607
58.0	-13.6072
▁landholder	-13.6099
fos	-13.6102
referred	-13.6105
-90	-13.6124
aci	-13.6133
wer	-13.6134
▁pou	-13.6138
lai	-13.6147
ving	-13.6158
▁qw	-13.6159
▁sterilize	-13.616
▁fills	-13.6164
mmonium	-13.6168
▁expos	-13.6168
ost	-13.617
tent	-13.6172
▁scrap	-13.6182
tension	-13.6185
▁meant	-13.6197
26.0	-13.6204
ira	-13.6207
13.0	-13.621
▁reports	-13.6216
inter	-13.6221
zo	-13.6223
49	-13.6226
▁durg	-13.6234
pi	-13.6236
▁seeder	-13.6251
▁col	-13.6259
▁dep	-13.6276
myc	-13.6283
infa	-13.6294
but	-13.6306
▁engag	-13.6309
▁calculat	-13.631
119	-13.6312
eclips	-13.6333
05.0	-13.6338
rance	-13.6339
reca	-13.6345
arid	-13.6351
▁sanj	-13.6353
▁Ha	-13.6357
head	-13.6367
77.	-13.6384
▁sanitiz	-13.6389
▁institution	-13.6402
ncy	-13.6405
▁wit	-13.6406
▁pla	-13.6406
adequate	-13.6407
filled	-13.642
▁4.3	-13.6429
▁pulse	-13.6433
▁meta	-13.6435
▁Ca	-13.6438
▁squirrel	-13.644
ka	-13.6441
▁assessment	-13.6443
▁connection	-13.6443
▁ferti	-13.6446
▁beginner	-13.6447
lla	-13.6448
▁downward	-13.645
▁isolat	-13.6452
▁drawback	-13.6452
▁parameter	-13.6452
fish	-13.6452
gene	-13.6453
▁granule	-13.6455
▁wheel	-13.6455
▁lose	-13.6457
▁los	-13.6459
▁Nutrition	-13.646
▁bw	-13.6463
▁Yield	-13.6464
▁hatch	-13.6466
CS	-13.6467
▁Method	-13.6471
740	-13.6472
goat	-13.6477
surance	-13.648
▁conver	-13.6485
vo	-13.6492
▁Z	-13.6497
▁grower	-13.6505
wed	-13.6518
▁fig	-13.652
▁repel	-13.6524
▁exacerbat	-13.6528
-300	-13.6534
micron	-13.6534
▁3.2	-13.6535
▁Fill	-13.6536
▁goal	-13.6536
233	-13.6537
mrigal	-13.6539
cutter	-13.6542
carbonate	-13.6542
kisan	-13.6542
triazophos	-13.6542
bw	-13.6542
mililiter	-13.6543
Anthracnose	-13.6543
▁poison	-13.6543
compete	-13.6543
damaging	-13.6544
▁saf	-13.6544
ambiplex	-13.6544
agrimin	-13.6544
Rogor	-13.6544
mouth	-13.6544
monocrotophos	-13.6545
decompose	-13.6545
repeat	-13.6545
damaged	-13.6545
▁secret	-13.6545
grade	-13.6545
units	-13.6545
phosphorus	-13.6545
thiram	-13.6545
chicken	-13.6545
followed	-13.6545
Plant	-13.6545
planofix	-13.6545
Water	-13.6545
clean	-13.6545
district	-13.6545
transplantation	-13.6545
banana	-13.6546
ganga	-13.6546
160	-13.6546
bird	-13.6546
bean	-13.6546
@40	-13.6547
daily	-13.6547
qt	-13.6547
plantomycin	-13.6548
▁fortnight	-13.6551
Increase	-13.6551
utomation	-13.6551
▁node	-13.6552
fertilizing	-13.6553
treated	-13.6555
▁Mahaf	-13.6561
▁neg	-13.6562
syngenta	-13.6562
cane	-13.6562
subsidy	-13.6562
▁pul	-13.6564
nipur	-13.6565
28.	-13.6575
▁evaluat	-13.658
▁Fre	-13.6582
▁113	-13.6584
▁mange	-13.6587
▁cob	-13.6591
pillar	-13.66
▁parag	-13.6601
1.25	-13.6602
spaces	-13.6602
▁Climat	-13.6606
▁Up	-13.6606
cidal	-13.6608
▁Construct	-13.6609
▁herbicid	-13.661
▁topicur	-13.6611
tinction	-13.6611
ixin	-13.6611
▁garhwa	-13.6612
ractor	-13.6612
▁annua	-13.6612
Step	-13.6614
▁Infectio	-13.6614
uffa	-13.6614
▁kannad	-13.6614
▁micronu	-13.6614
▁count	-13.6614
▁trellis	-13.6614
▁chur	-13.6614
▁complain	-13.6614
▁compani	-13.6614
▁Trace	-13.6614
hlorothalonil	-13.6614
onservation	-13.6614
onsult	-13.6614
▁situat	-13.6615
roccoli	-13.6615
▁incubati	-13.6615
▁Colle	-13.6615
roundnut	-13.6615
entilation	-13.6615
▁convey	-13.6615
▁myceli	-13.6615
▁relation	-13.6615
▁Women	-13.6615
▁acephate	-13.6615
=121.5	-13.6615
=122.8	-13.6615
=123.1	-13.6615
=126.7	-13.6615
=127.4	-13.6615
=130.1	-13.6615
=133.3	-13.6615
=134.4	-13.6615
=134.6	-13.6615
=135.5	-13.6615
=136.9	-13.6615
=140.1	-13.6615
=143.9	-13.6615
=147.8	-13.6615
=148.2	-13.6615
=148.6	-13.6615
=148.7	-13.6615
=151.5	-13.6615
=153.8	-13.6615
=154.2	-13.6615
=154.5	-13.6615
=156.8	-13.6615
=157.1	-13.6615
=157.3	-13.6615
=158.1	-13.6615
=158.8	-13.6615
=161.6	-13.6615
=162.5	-13.6615
=164.4	-13.6615
=165.1	-13.6615
=165.8	-13.6615
=167.3	-13.6615
=168.7	-13.6615
=171.8	-13.6615
=172.3	-13.6615
=175.1	-13.6615
=178.2	-13.6615
=179.5	-13.6615
=179.7	-13.6615
=185.5	-13.6615
=186.4	-13.6615
=193.9	-13.6615
BBF	-13.6615
electral	-13.6615
thiamethoxam	-13.6615
▁54,112	-13.6615
▁August	-13.6615
▁Aurepalle	-13.6615
▁Phaeo	-13.6615
▁Ranjit	-13.6615
▁Smok	-13.6615
▁Structure	-13.6615
▁Tanzania	-13.6615
▁Tropic	-13.6615
▁adilabad	-13.6615
▁agencies	-13.6615
▁alappuzha	-13.6615
▁anthracknose	-13.6615
▁azospirillum	-13.6615
▁barabanki	-13.6615
▁bastar	-13.6615
▁belagavi	-13.6615
▁bhiwani	-13.6615
▁bilaspur	-13.6615
▁bishnupur	-13.6615
▁calamities	-13.6615
▁chamoli	-13.6615
▁cholesterol	-13.6615
▁competitiveness	-13.6615
▁concise	-13.6615
▁conjuncti	-13.6615
▁corriander	-13.6615
▁crumbl	-13.6615
▁cuddalore	-13.6615
▁cumbersome	-13.6615
▁damoh	-13.6615
▁dedicate	-13.6615
▁defense	-13.6615
▁dehradun	-13.6615
▁demarcat	-13.6615
▁deogarh	-13.6615
▁dharmapuri	-13.6615
▁dholpur	-13.6615
▁dhule	-13.6615
▁diamond	-13.6615
▁drastic	-13.6615
▁electrolyte	-13.6615
▁ernakulam	-13.6615
▁expertise	-13.6615
▁explosive	-13.6615
▁fetus	-13.6615
▁flubensik	-13.6615
▁gadag	-13.6615
▁gadchiroli	-13.6615
▁giridih	-13.6615
▁gopalganj	-13.6615
▁gorakhpur	-13.6615
▁haridwar	-13.6615
▁hoshiarpur	-13.6615
▁hypertrophy	-13.6615
▁idukki	-13.6615
▁indicus	-13.6615
▁infiltrate	-13.6615
▁inoculate	-13.6615
▁instalment	-13.6615
▁jagatsinghapur	-13.6615
▁jajapur	-13.6615
▁jalpaiguri	-13.6615
▁jamtara	-13.6615
▁jamui	-13.6615
▁jashpur	-13.6615
▁jehanabad	-13.6615
▁jhalawar	-13.6615
▁kadapa	-13.6615
▁kalimpong	-13.6615
▁karaikal	-13.6615
▁khagaria	-13.6615
▁khammam	-13.6615
▁kharsawan	-13.6615
▁kozhikode	-13.6615
▁kullu	-13.6615
▁lignosus	-13.6615
▁lohardaga	-13.6615
▁madhubani	-13.6615
▁maharajganj	-13.6615
▁mahoba	-13.6615
▁malappuram	-13.6615
▁malkangiri	-13.6615
▁malnutrition	-13.6615
▁manohar	-13.6615
▁muscle	-13.6615
▁nabarangpur	-13.6615
▁narayanpur	-13.6615
▁nawada	-13.6615
▁nectar	-13.6615
▁neemacin	-13.6615
▁nuapada	-13.6615
▁occations	-13.6615
▁palakkad	-13.6615
▁pallidoroseum	-13.6615
▁parsley	-13.6615
▁partnership	-13.6615
▁pentachlor	-13.6615
▁pursu	-13.6615
▁rajnandgaon	-13.6615
▁rayagada	-13.6615
▁recommened	-13.6615
▁reservoir	-13.6615
▁sangli	-13.6615
▁segments	-13.6615
▁serchhip	-13.6615
▁shedule	-13.6615
▁sheohar	-13.6615
▁singhbhum	-13.6615
▁singhbum	-13.6615
▁sitamarhi	-13.6615
▁sleeve	-13.6615
▁sonbhadra	-13.6615
▁sundargarh	-13.6615
▁tapioca	-13.6615
▁thoubal	-13.6615
▁thuringiensis	-13.6615
▁tocklai	-13.6615
▁vinayak	-13.6615
=160.1	-13.6615
=160.3	-13.6615
BSF	-13.6615
Correct	-13.6615
▁Socio	-13.6615
▁feces	-13.6615
▁logistic	-13.6615
▁macro	-13.6615
▁nashik	-13.6615
▁perceive	-13.6615
▁roshon	-13.6615
▁sericulture	-13.6615
▁solapur	-13.6615
▁troubleshoot	-13.6615
=154.0	-13.6615
mmediate	-13.6615
▁Auger	-13.6615
▁acow	-13.6615
▁godda	-13.6615
▁invading	-13.6615
▁kalahandi	-13.6615
▁mistaken	-13.6615
▁sealants	-13.6615
▁warning	-13.6615
Stage	-13.6615
ndulat	-13.6615
▁Chryso	-13.6615
▁harbor	-13.6615
▁purnia	-13.6615
53080	-13.6615
=171.4	-13.6615
acaricid	-13.6615
▁Foot	-13.6615
▁Pipe	-13.6615
▁albendazole	-13.6615
▁discolouration	-13.6615
▁luphos	-13.6615
▁quintol	-13.6615
▁tenure	-13.6615
lobia	-13.6615
▁darsba	-13.6615
▁Fund	-13.6615
▁applicability	-13.6615
▁trigger	-13.6615
▁sparay	-13.6615
=160.0	-13.6615
otrim	-13.6615
▁justified	-13.6615
▁resident	-13.6615
jassid	-13.6615
▁raigarh	-13.6615
▁unnecessary	-13.6615
ediment	-13.6615
▁rhizop	-13.6615
▁stagger	-13.6615
▁gumosis	-13.6615
▁irregularities	-13.6615
▁safeguard	-13.6615
▁citri	-13.6615
monium	-13.6615
▁Bangla	-13.6615
▁brahma	-13.6615
▁paddocks	-13.6615
=140.0	-13.6615
tutia	-13.6615
uality	-13.6615
▁Measures	-13.6615
▁anthrax	-13.6615
rowers	-13.6615
▁hasao	-13.6615
▁luck	-13.6615
▁internet	-13.6615
▁hailstorm	-13.6615
▁hazari	-13.6615
▁musk	-13.6615
▁additive	-13.6615
▁coast	-13.6615
▁dyas	-13.6615
▁usability	-13.6615
▁ballia	-13.6615
=1	-13.6615
▁Plantomycin	-13.6615
▁breath	-13.6615
▁odor	-13.6615
▁brood	-13.6615
▁fci	-13.6615
▁roof	-13.6616
▁families	-13.6616
▁Labor	-13.6616
▁catfish	-13.6616
rocla	-13.6616
▁revolv	-13.6616
▁Late	-13.6616
▁edges	-13.6616
▁pollen	-13.6616
▁toxicity	-13.6616
▁superphosphate	-13.6616
▁overfeeding	-13.6616
▁Adoption	-13.6616
▁Rust	-13.6616
▁Plus	-13.6616
▁wage	-13.6616
▁softness	-13.6616
▁weaknesses	-13.6616
▁pool	-13.6616
▁1551(	-13.6616
▁baan	-13.6616
illus	-13.6616
nofix	-13.6616
▁botle	-13.6616
▁Stripe	-13.6616
▁kota	-13.6616
▁hapur	-13.6617
▁aauc	-13.6617
▁unaffected	-13.6617
emic	-13.6617
thimet	-13.6617
roiler	-13.6617
▁alwar	-13.6617
▁problematic	-13.6617
▁humic	-13.6618
▁sbi	-13.6618
▁identi	-13.6618
▁mosquitoes	-13.6618
▁prunning	-13.6618
▁jasmine	-13.6618
▁0.60	-13.6618
▁assistant	-13.6618
▁raya	-13.6618
ordinar	-13.6618
▁regardin	-13.6619
▁scion	-13.6619
▁banda	-13.662
▁abis	-13.662
▁dots	-13.662
chim	-13.662
▁usable	-13.6621
rumi	-13.6621
▁Santa	-13.6621
gmail	-13.6622
▁wrap	-13.6622
▁sedd	-13.6623
▁February	-13.6623
▁Infrastructure	-13.6623
▁Punjab	-13.6623
▁apeda	-13.6623
▁gelapukhuri	-13.6623
▁hailakandi	-13.6623
▁khumtai	-13.6623
▁nfsm	-13.6623
▁planned	-13.6623
▁drrh	-13.6623
▁shriveling	-13.6623
▁comfort	-13.6623
▁anything	-13.6623
teaspoonful	-13.6623
▁jhargram	-13.6623
▁fabric	-13.6624
flowering	-13.6624
▁mimick	-13.6624
▁overcrowd	-13.6624
teel	-13.6625
▁30:1	-13.6625
▁coccidi	-13.6625
▁paraquat	-13.6625
▁reko	-13.6626
▁zai	-13.6628
▁aminose	-13.6628
raja	-13.6628
▁kushal	-13.6628
▁eradicate	-13.6629
▁seperate	-13.6629
ospora	-13.6629
scarce	-13.6629
▁inflorescence	-13.663
▁disturb	-13.6631
.7500	-13.6632
▁carriages	-13.6633
▁riverbanks	-13.6633
▁Delay	-13.6634
▁jahaji	-13.6636
▁tatamono	-13.6636
▁Sanitation	-13.6636
▁phosphamidon	-13.6636
▁silos	-13.6636
▁fis	-13.6638
▁groove	-13.6638
▁fooder	-13.6639
▁pine	-13.6639
▁coper	-13.664
▁extracted	-13.6641
tial	-13.6641
▁timeline	-13.6641
▁7500	-13.6643
▁2.50	-13.6644
▁End	-13.6648
microcontrollers	-13.6649
▁obstruction	-13.6649
▁Scientific	-13.665
▁90-1	-13.665
▁hactare	-13.665
▁rohu	-13.665
▁peeling	-13.665
▁Education	-13.665
zoli	-13.6651
▁shading	-13.6651
▁measuer	-13.6651
ptomycin	-13.6651
ghy	-13.6651
▁contol	-13.6654
▁disrupted	-13.6654
▁1400	-13.6654
strong	-13.6655
▁wate	-13.6657
▁Building	-13.6658
▁precipitates	-13.666
igging	-13.6661
▁thank	-13.6663
▁ailments	-13.6663
▁petioles	-13.6663
▁stoves	-13.6663
▁acar	-13.6664
▁sanitary	-13.6664
▁heads	-13.6664
▁3.3	-13.6665
▁banka	-13.6668
▁priya	-13.6678
▁lakhmi	-13.6678
▁metaboli	-13.6679
▁2/3	-13.6681
▁Divers	-13.6681
amic	-13.6686
lex	-13.6688
▁mrigal	-13.6692
▁Chickens	-13.6694
▁imbalances	-13.6694
▁orchids	-13.6694
▁Mr	-13.6697
▁Note	-13.6699
arbo	-13.6699
xb	-13.67
bio	-13.6705
▁intercrops	-13.6712
▁updated	-13.6714
▁tail	-13.6715
▁sulphide	-13.672
nother	-13.6723
▁masons	-13.6726
▁forecasts	-13.6726
▁58.0	-13.6727
▁3000/	-13.6728
▁@850	-13.673
▁alum	-13.6732
reversi	-13.6739
▁2-2.5	-13.6746
▁international	-13.6748
▁rolling	-13.6751
▁tightly	-13.6757
▁Seedlings	-13.6758
▁storms	-13.6758
▁dealers	-13.676
humi	-13.6765
880	-13.677
mpro	-13.6777
mary	-13.6778
▁men	-13.6781
▁@250	-13.6787
zole	-13.6789
▁Yields	-13.679
melin	-13.679
mail	-13.6793
▁harvester	-13.6793
▁Boil	-13.6799
▁calvi	-13.6801
▁78131	-13.6802
▁dre	-13.6802
arathane	-13.6805
445	-13.6806
ilage	-13.6807
itte	-13.6808
eight	-13.6813
NR	-13.6816
▁frameworks	-13.6822
▁snails	-13.6822
▁leafhoppers	-13.6822
▁bactericides	-13.6822
▁tubes	-13.6823
▁Ful	-13.6827
dose	-13.6834
bu	-13.6836
fold	-13.6837
▁encr	-13.6839
ency	-13.684
orium	-13.6844
▁potassi	-13.6846
8333333333333	-13.6847
97.	-13.685
15-20	-13.6853
▁gerberas	-13.6854
▁genes	-13.6854
1.3	-13.6858
▁-12	-13.6861
▁45.0	-13.6864
609	-13.6869
▁avia	-13.687
aint	-13.6874
▁ob	-13.688
▁electrical	-13.688
mite	-13.6884
▁objectives	-13.6886
▁herbs	-13.6891
▁Rais	-13.6896
▁nil	-13.6901
▁bin	-13.6902
llowing	-13.6903
▁dehydrat	-13.691
▁eclip	-13.6914
ico	-13.6915
▁distinguishe	-13.6915
▁(0.5	-13.6917
▁borders	-13.6918
▁evolve	-13.6921
▁@200	-13.6922
oni	-13.6923
ji	-13.6932
▁formulate	-13.6934
829	-13.6934
ought	-13.6938
▁/200	-13.6943
▁bid	-13.6953
▁palat	-13.696
▁dai	-13.6965
52.0	-13.6967
084	-13.6972
▁indi	-13.6973
▁lip	-13.6973
▁nas	-13.6979
non	-13.6982
▁260	-13.6984
▁Change	-13.7001
talk	-13.7003
▁15-45	-13.7005
▁57	-13.7009
▁pu	-13.701
SM	-13.7013
▁yo	-13.7015
▁mega	-13.7022
atory	-13.7025
bed	-13.7037
done	-13.7045
▁gir	-13.7051
,20	-13.7053
,250	-13.7061
24.	-13.7064
▁por	-13.7072
phag	-13.7073
coal	-13.7074
▁medications	-13.7081
▁gasholder	-13.7106
▁gh	-13.711
▁aesthetics	-13.7114
rti	-13.7118
▁stra	-13.7135
▁subsequently	-13.7139
flower	-13.7139
cts	-13.7143
-26	-13.7148
▁sup	-13.7151
850	-13.7152
rey	-13.716
▁fuels	-13.718
adu	-13.7182
-1200	-13.7183
▁@30	-13.7183
▁mag	-13.7189
verse	-13.719
55.0	-13.7197
▁(2.5	-13.7205
▁@9	-13.7213
▁eyes	-13.722
induce	-13.7222
▁asp	-13.7224
▁ure	-13.724
200-300	-13.7247
gor	-13.7248
▁repellents	-13.7257
5-35	-13.7267
▁Chil	-13.7271
bound	-13.7275
toxin	-13.7289
▁53	-13.7297
nly	-13.7304
kur	-13.7307
▁compos	-13.7312
▁cur	-13.7313
▁villages	-13.7314
,200	-13.733
▁Fo	-13.7338
▁scrapers	-13.7348
▁Ba	-13.7368
▁span	-13.7373
▁lentils	-13.7381
rogen	-13.7382
1-2	-13.7384
62.	-13.7388
1600	-13.739
rial	-13.741
umber	-13.7414
-600	-13.7421
02.0	-13.7424
▁Pea	-13.7429
fermentation	-13.7433
ica	-13.7439
corporate	-13.7443
▁Hal	-13.745
337	-13.7454
835	-13.7465
287	-13.7474
idate	-13.7476
▁ghos	-13.7476
ndi	-13.7482
916	-13.7485
▁flu	-13.7496
iced	-13.7502
ept	-13.7507
462	-13.7517
▁una	-13.7531
▁-4	-13.7541
hould	-13.7549
ckle	-13.7561
▁50-100	-13.7566
hac	-13.7571
,1.75	-13.7574
2%	-13.7576
▁karat	-13.7617
▁humans	-13.7618
▁83	-13.762
ooper	-13.7628
▁Demonstrat	-13.7631
cul	-13.7632
449	-13.7632
nda	-13.764
▁travel	-13.7648
ht	-13.7653
stead	-13.7655
ber	-13.7661
▁recomm	-13.7663
ail	-13.7678
bia	-13.7678
▁submitt	-13.7682
agasi	-13.7723
enome	-13.7736
06.0	-13.7754
-45/	-13.7759
ibang	-13.776
▁chickpeas	-13.7761
▁smoothe	-13.7767
grading	-13.779
olone	-13.7798
mun	-13.7805
night	-13.7806
ove	-13.7817
▁formal	-13.7824
▁directions	-13.783
▁spher	-13.7845
▁molecul	-13.7856
▁mus	-13.7887
▁cla	-13.7905
▁deeply	-13.7916
▁Fe	-13.7922
3.6	-13.7933
▁0.64	-13.7936
...2	-13.7958
▁oxid	-13.7971
▁meals	-13.7978
▁El	-13.7979
113.0	-13.7979
▁procur	-13.7985
take	-13.7999
▁tone	-13.8009
▁chlorot	-13.8015
rry	-13.8018
804	-13.8025
▁Enhanc	-13.8032
anga	-13.8045
▁gu	-13.8049
▁exudati	-13.8064
kb	-13.8073
▁compensati	-13.8078
inda	-13.8092
▁experiences	-13.8093
low	-13.8109
▁supervis	-13.8112
▁Custom	-13.8115
caus	-13.8121
32.	-13.8125
▁masta	-13.8137
you	-13.8148
pea	-13.8149
tin	-13.815
over	-13.816
644	-13.8161
▁swi	-13.818
▁outlets	-13.8184
▁fl	-13.8187
desh	-13.819
aca	-13.82
▁ineffective	-13.8217
▁pigeons	-13.8224
▁hact	-13.8234
tem	-13.8234
▁innova	-13.8239
▁ulcerat	-13.8239
gov	-13.8247
thane	-13.8251
orus	-13.8257
▁distinguish	-13.826
jus	-13.8265
rog	-13.8279
inta	-13.8282
tter	-13.8283
▁experienc	-13.8288
▁sho	-13.8288
rium	-13.8299
▁1100	-13.8304
@16	-13.8312
▁ripen	-13.8314
▁installments	-13.8332
how	-13.8343
1875	-13.8351
bandh	-13.8356
▁bli	-13.8372
itive	-13.8375
zing	-13.8377
▁Who	-13.8377
▁ek	-13.8381
364	-13.8386
ection	-13.8386
▁(75	-13.8387
pray	-13.8388
▁Straw	-13.8394
▁regulat	-13.8395
172	-13.8404
64.0	-13.8405
care	-13.8407
▁fertil	-13.8413
▁epi	-13.8418
▁93	-13.842
way	-13.842
abi	-13.8421
cterial	-13.8432
▁kernel	-13.8435
▁evaluation	-13.8436
▁storm	-13.8443
▁Seedling	-13.8444
puri	-13.8445
lera	-13.8446
▁tick	-13.8446
▁eater	-13.8446
▁clog	-13.8448
▁basin	-13.8451
▁rootstock	-13.8452
▁duckling	-13.8453
▁twig	-13.8454
▁outbreak	-13.8454
▁spore	-13.8455
▁task	-13.8455
▁trait	-13.8456
▁appliance	-13.8457
▁fence	-13.8458
▁dealer	-13.8467
75.	-13.8469
▁pani	-13.8469
394	-13.8469
tiller	-13.8472
hing	-13.8472
▁Farmer	-13.8479
tory	-13.848
lem	-13.8482
122.0	-13.8484
▁complicat	-13.8486
▁cycl	-13.8493
bank	-13.8495
▁alterna	-13.8503
▁chilie	-13.8507
rench	-13.8514
wak	-13.8517
▁ku	-13.852
5-6	-13.852
ano	-13.8521
glu	-13.8525
58.	-13.8525
▁ci	-13.8532
▁25:1	-13.8534
multineem	-13.8535
enta	-13.8536
▁Da	-13.8536
▁palnt	-13.8537
add	-13.8537
▁mtr	-13.8539
reference	-13.8539
lakhmi	-13.8539
level	-13.8539
668	-13.854
equi	-13.8541
manuring	-13.8541
floors	-13.8541
Climate	-13.8542
flash	-13.8543
nmmi	-13.8543
structured	-13.8543
April	-13.8543
coorg	-13.8543
carboxin	-13.8544
cypermethrin	-13.8544
december	-13.8544
force	-13.8545
quick	-13.8545
mililitre	-13.8545
associat	-13.8545
limited	-13.8545
fertlizer	-13.8545
plastic	-13.8545
chloropyriphos	-13.8545
kill	-13.8545
insecticide	-13.8545
tonne	-13.8545
web	-13.8545
bordeaux	-13.8545
cowdung	-13.8545
nitrogen	-13.8545
mancozeb	-13.8545
pesticide	-13.8545
branch	-13.8545
drop	-13.8546
▁submerge	-13.8546
weak	-13.8546
▁guar	-13.8546
zone	-13.8546
taken	-13.8547
paddy	-13.8547
priya	-13.8548
pipe	-13.8549
leveled	-13.855
▁buil	-13.855
added	-13.855
cost	-13.855
route	-13.8553
state	-13.8553
conazole	-13.8555
have	-13.8557
teroc	-13.8557
37.	-13.8558
wit	-13.8558
good	-13.856
pac	-13.856
▁rub	-13.8562
▁deen	-13.8569
perational	-13.857
(10	-13.8575
▁cri	-13.8576
▁Dig	-13.8578
single	-13.8587
ress	-13.8589
atio	-13.8589
▁Prioritiz	-13.8589
▁injur	-13.8589
orous	-13.8593
▁mos	-13.8595
gional	-13.8602
oultry	-13.8608
▁chisel	-13.8609
ligible	-13.8609
▁chopp	-13.8609
▁fulfill	-13.861
▁Perform	-13.861
▁neutral	-13.861
▁refix	-13.8611
▁bacter	-13.8613
asonry	-13.8613
▁stake	-13.8614
ulphur	-13.8614
ynthetic	-13.8614
abbit	-13.8614
imple	-13.8614
ifax	-13.8614
acket	-13.8614
midachlo	-13.8614
ommercial	-13.8614
oncrete	-13.8614
fforts	-13.8614
▁circulat	-13.8614
▁aggregat	-13.8615
▁interact	-13.8615
▁trans	-13.8615
averi	-13.8615
▁object	-13.8615
ebris	-13.8615
perators	-13.8615
ouple	-13.8615
eglect	-13.8615
nagement	-13.8615
uinoa	-13.8615
▁phythop	-13.8615
▁viscin	-13.8615
▁Ruby	-13.8615
▁reqiu	-13.8615
dawarf	-13.8615
kelthane	-13.8615
▁01123382401	-13.8615
▁9613856696	-13.8615
▁December	-13.8615
▁Encourage	-13.8615
▁FMNR	-13.8615
▁Herbicide	-13.8615
▁Insecticide	-13.8615
▁Maharashtra	-13.8615
▁Morning	-13.8615
▁Partial	-13.8615
▁Prompt	-13.8615
▁Recogniz	-13.8615
▁Service	-13.8615
▁Soybean	-13.8615
▁Strategy	-13.8615
▁Weevil	-13.8615
▁afternoon	-13.8615
▁arthritis	-13.8615
▁baruah	-13.8615
▁beneficiaries	-13.8615
▁bishnuprasad	-13.8615
▁buffalo	-13.8615
▁butterflies	-13.8615
▁capsici	-13.8615
▁cardboard	-13.8615
▁chauhan	-13.8615
▁chiilli	-13.8615
▁clamps	-13.8615
▁clippings	-13.8615
▁cocconut	-13.8615
▁commence	-13.8615
▁comparison	-13.8615
▁description	-13.8615
▁deterrent	-13.8615
▁diatom	-13.8615
▁dothidea	-13.8615
▁expenditure	-13.8615
▁fussariu	-13.8615
▁grannery	-13.8615
▁haflong	-13.8615
▁hepatitis	-13.8615
▁hierarchy	-13.8615
▁impurities	-13.8615
▁inconsistenc	-13.8615
▁inconsistent	-13.8615
▁inetrval	-13.8615
▁inoculant	-13.8615
▁intervel	-13.8615
▁joymoti	-13.8615
▁kordoibam	-13.8615
▁leafcurl	-13.8615
▁locust	-13.8615
▁malfunctions	-13.8615
▁masturd	-13.8615
▁metrics	-13.8615
▁migration	-13.8615
▁modify	-13.8615
▁molybdenum	-13.8615
▁mulberry	-13.8615
▁notified	-13.8615
▁pharmaceutical	-13.8615
▁pmfby	-13.8615
▁poverty	-13.8615
▁prerequisite	-13.8615
▁resolution	-13.8615
▁retailer	-13.8615
▁sarbat	-13.8615
▁scenarios	-13.8615
▁sporophores	-13.8615
▁torticollis	-13.8615
▁verified	-13.8615
▁victim	-13.8615
▁vulnerabilities	-13.8615
▁yeild	-13.8615
▁zink	-13.8615
Fertilizing	-13.8615
▁Cowpea	-13.8615
▁Sahel	-13.8615
▁Standard	-13.8615
▁Station	-13.8615
▁Sustainability	-13.8615
▁bordue	-13.8615
▁enzyme	-13.8615
▁grasshopper	-13.8615
▁license	-13.8615
▁mandatory	-13.8615
▁micronutrin	-13.8615
▁recipe	-13.8615
▁reddening	-13.8615
▁satisfact	-13.8615
▁simplify	-13.8615
▁5251	-13.8615
▁Internet	-13.8615
▁barsati	-13.8615
▁bhattacharyya	-13.8615
▁chikni	-13.8615
▁lilies	-13.8615
▁lobe	-13.8615
▁salad	-13.8615
▁subsist	-13.8615
flagella	-13.8615
▁Planning	-13.8615
▁aonla	-13.8615
▁bhab	-13.8615
▁entail	-13.8615
▁kuchia	-13.8615
▁numer	-13.8615
▁therapy	-13.8615
adver	-13.8615
hotspot	-13.8615
▁borbengena	-13.8615
▁jump	-13.8615
▁leaflet	-13.8615
▁members	-13.8615
▁jatropha	-13.8615
▁playgrounds	-13.8615
▁suspension	-13.8615
Risk	-13.8615
embryo	-13.8615
▁Adher	-13.8615
▁Borer	-13.8615
▁axil	-13.8615
▁Northeast	-13.8615
▁admitt	-13.8615
▁joymati	-13.8615
▁translate	-13.8615
▁cafta	-13.8615
▁majesty	-13.8615
▁soups	-13.8615
matically	-13.8615
▁Next	-13.8615
▁cyclone	-13.8615
▁parathion	-13.8615
▁1-1.3	-13.8615
▁Heav	-13.8615
▁arjuna	-13.8615
▁asaftid	-13.8615
▁chlorine	-13.8615
▁dhora	-13.8615
▁reforestation	-13.8615
▁tricho	-13.8615
methrin	-13.8615
▁bomba	-13.8615
▁70-80%	-13.8615
▁Invest	-13.8615
▁kmph	-13.8615
zyme	-13.8615
hailand	-13.8615
▁prevalence	-13.8615
▁enforc	-13.8615
▁trailing	-13.8615
venue	-13.8615
▁submission	-13.8615
▁aauj	-13.8615
▁stabilization	-13.8615
▁crisp	-13.8615
▁execution	-13.8615
781354	-13.8615
▁Temperature	-13.8615
▁Insights	-13.8615
▁kowari	-13.8615
▁discussions	-13.8615
oryza	-13.8615
▁ppr	-13.8615
▁untreated	-13.8615
▁zig	-13.8615
▁submergence	-13.8615
▁Introduction	-13.8615
▁Ready	-13.8615
▁interban	-13.8615
9551	-13.8615
cetive	-13.8615
▁maydis	-13.8615
▁nano	-13.8616
-163,	-13.8616
▁proximity	-13.8616
▁auto	-13.8616
▁copies	-13.8616
▁inclusive	-13.8616
▁modernization	-13.8616
▁@1:1	-13.8616
▁potent	-13.8616
▁quinal	-13.8616
▁pelvi	-13.8616
▁mangement	-13.8616
▁sapna	-13.8616
mura	-13.8616
▁progressive	-13.8616
oarse	-13.8616
achna	-13.8616
ucke	-13.8616
▁river	-13.8616
▁steam	-13.8616
▁firmness	-13.8616
▁jaya	-13.8616
▁dolomit	-13.8616
▁agency	-13.8616
▁pickling	-13.8616
▁carba	-13.8616
▁rabbit	-13.8616
▁transparent	-13.8616
kata	-13.8616
▁isolation	-13.8616
▁sugeg	-13.8616
6-6.5	-13.8616
▁mound	-13.8616
▁Infection	-13.8616
▁shortage	-13.8616
▁quil	-13.8617
DS	-13.8617
▁flushes	-13.8617
▁competence	-13.8617
▁queen	-13.8617
▁Home	-13.8617
▁Pressure	-13.8617
▁clu	-13.8617
▁reput	-13.8617
▁coordinate	-13.8617
▁madhuri	-13.8617
-175	-13.8617
▁tetra	-13.8617
▁bill	-13.8617
▁200-250	-13.8617
▁Enhancement	-13.8617
rinary	-13.8617
onium	-13.8617
▁refuse	-13.8617
▁Lab	-13.8617
▁Fine	-13.8617
ortable	-13.8617
▁grassland	-13.8618
outine	-13.8618
▁Rotation	-13.8618
mita	-13.8618
▁Cul	-13.8618
▁distinction	-13.8618
▁resemble	-13.8618
▁wter	-13.8618
283	-13.8618
▁Drought	-13.8618
▁surger	-13.8618
▁(25%)	-13.8618
▁America	-13.8618
@233	-13.8618
▁moment	-13.8618
vestin	-13.8619
osaic	-13.8619
sizing	-13.8619
▁myco	-13.8619
▁connected	-13.8619
▁mili	-13.862
uterine	-13.862
▁Practic	-13.862
▁born	-13.862
▁pitting	-13.862
▁Mars	-13.862
▁fullness	-13.862
aragu	-13.862
=45	-13.8621
▁chopped	-13.8621
icola	-13.8621
▁spry	-13.8621
▁chisell	-13.8621
oline	-13.8621
▁Data	-13.8622
ovate	-13.8622
▁irritati	-13.8622
▁intaly	-13.8622
▁dragon	-13.8622
▁bunches	-13.8623
▁nav	-13.8623
▁Dispos	-13.8623
▁115	-13.8623
lamb	-13.8623
▁allahabad	-13.8624
print	-13.8624
▁feedback	-13.8624
▁pratap	-13.8625
▁786010	-13.8625
▁Animal	-13.8625
▁faizabad	-13.8625
▁fenitroth	-13.8625
▁lakhimi	-13.8625
▁mahsuri	-13.8625
▁panjab	-13.8625
▁pregnency	-13.8625
▁tezpur	-13.8625
▁shillong	-13.8625
▁cabage	-13.8625
▁Recording	-13.8625
▁shredding	-13.8625
▁elevate	-13.8625
▁Mitigation	-13.8625
▁pap	-13.8626
▁Sus	-13.8626
▁consultation	-13.8626
▁darker	-13.8628
tra	-13.8629
▁sugg	-13.863
▁index	-13.863
▁starter	-13.863
60-65	-13.863
ck	-13.863
▁gord	-13.8633
shakti	-13.8633
▁intamox	-13.8634
▁pome	-13.8634
▁aris	-13.8635
▁capsulari	-13.8635
▁60-80	-13.8635
▁Leaves	-13.8637
▁carbohydrates	-13.8637
▁pollinators	-13.8637
▁psyllids	-13.8637
▁Boro	-13.8637
▁jrc	-13.8638
▁artemisinin	-13.8639
▁Recommendations	-13.864
Diet	-13.864
▁gentamycin	-13.8641
▁deltamethrin	-13.8641
▁trishul	-13.8641
▁tanning	-13.8642
▁twisting	-13.8642
▁earthen	-13.8642
▁clover	-13.8643
987	-13.8643
▁1551	-13.8644
▁yes	-13.8645
▁luc	-13.8646
▁rars	-13.8647
termite	-13.8649
▁kit	-13.8652
▁imidachlorp	-13.8652
Sprout	-13.8653
▁Poly	-13.8653
▁compacted	-13.8655
▁Medi	-13.8655
▁ple	-13.8656
▁alpha	-13.8658
▁granate	-13.8659
sters	-13.8662
diesel	-13.8663
enebank	-13.8668
▁chap	-13.8668
▁100-200	-13.8669
▁eaten	-13.8671
profeno	-13.8672
▁domains	-13.8675
▁25-40	-13.8675
▁manger	-13.8675
▁Address	-13.8676
▁brotone	-13.8676
▁netting	-13.8676
▁beak	-13.8679
▁win	-13.8685
▁palnting	-13.8694
▁fortnightly	-13.8694
tently	-13.8695
▁salin	-13.8695
▁quer	-13.8697
▁Inspect	-13.8698
haust	-13.8699
▁blot	-13.8701
▁secreti	-13.8701
▁Mulching	-13.8703
▁lem	-13.8705
down	-13.8705
▁trust	-13.8706
▁judiciously	-13.8708
▁Min	-13.8709
▁trip	-13.8709
-42	-13.8711
akti	-13.8712
▁10.1	-13.8712
-80	-13.8712
powder	-13.8713
-400	-13.8713
▁naa	-13.8714
tyl	-13.8717
▁alon	-13.8718
▁pollute	-13.8719
▁fur	-13.872
lie	-13.872
▁conditioner	-13.8723
571428571428571	-13.8727
repell	-13.8727
feeding	-13.8728
▁aven	-13.8728
▁Ahu	-13.873
▁New	-13.8733
▁10000	-13.8733
▁leader	-13.8735
▁oc	-13.8739
▁believe	-13.8741
atfish	-13.8743
▁ok	-13.8744
▁killed	-13.8745
▁@1250	-13.8746
▁sold	-13.8747
▁cured	-13.8748
▁55.0	-13.8748
▁1:1:1	-13.875
▁capsules	-13.8753
▁dys	-13.8753
▁14.0	-13.8754
exclud	-13.8758
▁Zon	-13.8758
ote	-13.8759
-33	-13.8769
/40	-13.8779
tida	-13.878
▁horsepower	-13.8781
sease	-13.8781
abha	-13.8784
▁*45	-13.8786
▁eaters	-13.8793
▁compensate	-13.8793
▁mach	-13.8801
▁befor	-13.8802
▁sha	-13.8806
racnose	-13.8809
efficiency	-13.8811
,27	-13.8811
▁conf	-13.8811
▁Bio	-13.8814
▁950	-13.8814
▁branding	-13.8817
ptimize	-13.8818
▁fertili	-13.8824
▁assessments	-13.8833
▁squirrels	-13.8833
85.	-13.8836
fight	-13.8837
▁Free	-13.8839
▁scraps	-13.8842
conta	-13.8858
▁1.16	-13.887
▁shops	-13.8872
▁corners	-13.8874
▁perfor	-13.8875
▁emphasized	-13.8875
NE	-13.8878
▁cuti	-13.8888
▁ess	-13.889
▁sawfl	-13.8896
rape	-13.8897
ctur	-13.8906
▁@13	-13.8906
ercospora	-13.8908
▁armyworms	-13.8913
/15	-13.8915
guri	-13.8918
iya	-13.8926
nali	-13.8935
▁23.0	-13.8936
▁10,000	-13.8937
▁overripe	-13.8944
▁pain	-13.8948
▁strengths	-13.8953
▁plen	-13.8963
▁Broad	-13.8963
nde	-13.8974
plac	-13.8975
rod	-13.8991
▁phosphat	-13.8991
▁manj	-13.8993
▁94	-13.8999
▁preserved	-13.9002
▁saran	-13.9002
harvesting	-13.9016
▁topic	-13.9018
▁Inter	-13.9027
loom	-13.9029
▁attributes	-13.9034
riate	-13.9039
(1.0%	-13.904
six	-13.9042
▁101	-13.9048
8.8	-13.9055
ember	-13.9064
stemborer	-13.9073
▁77	-13.9074
▁resolved	-13.9074
31.0	-13.9075
hyl	-13.9076
atic	-13.9079
kris	-13.9081
▁Cap	-13.9099
▁camp	-13.91
491	-13.9101
▁mind	-13.9106
xtension	-13.9111
▁packets	-13.9116
amukhi	-13.9119
▁tel	-13.9122
▁-(	-13.9129
hri	-13.915
▁prob	-13.9153
142	-13.9156
▁rainguns	-13.9156
▁kids	-13.9159
mended	-13.9171
▁tape	-13.9174
57.0	-13.9176
▁22.0	-13.9177
▁mis	-13.9177
▁bred	-13.9185
nj	-13.9194
auli	-13.9212
hion	-13.9215
▁Ros	-13.9216
▁PR	-13.9218
6.5	-13.9219
▁rod	-13.9223
boli	-13.9225
118.0	-13.9229
)50	-13.923
,900	-13.9238
▁papers	-13.924
▁lakhs	-13.924
100.0	-13.9249
▁chloro	-13.9253
raf	-13.926
ree	-13.9272
tant	-13.9274
igesters	-13.9279
▁doe	-13.9283
▁Neo	-13.9298
▁-25	-13.9299
char	-13.9309
71.	-13.9311
▁144	-13.9321
▁conventionally	-13.933
etel	-13.9347
08.0	-13.9351
lina	-13.9366
hoo	-13.9376
▁79	-13.9419
▁deco	-13.9419
▁mole	-13.9421
atment	-13.9427
03.	-13.9431
gic	-13.9436
▁correlat	-13.944
▁streaks	-13.9449
ani	-13.945
▁malat	-13.9461
428571428571428	-13.9465
@41	-13.9486
▁fingers	-13.9488
▁Schemes	-13.9492
▁elevations	-13.9492
▁Alwa	-13.9494
▁dh	-13.9503
thy	-13.9515
▁supplemental	-13.9521
▁-40	-13.9528
▁nets	-13.9534
▁adaptations	-13.9535
▁0.45	-13.9549
rtici	-13.955
36.	-13.9558
kh	-13.956
▁sil	-13.9574
ona	-13.9618
42.	-13.964
▁Success	-13.9655
▁constrain	-13.9668
▁ect	-13.9669
-7.5	-13.9672
til	-13.9682
▁mist	-13.9688
▁59	-13.969
logged	-13.9708
@23	-13.9717
cate	-13.9727
cav	-13.9732
@34	-13.9743
ath	-13.9747
▁manda	-13.9767
coc	-13.9771
tha	-13.9772
▁coop	-13.9773
eather	-13.9776
▁ura	-13.9779
▁8-9	-13.9782
tomycin	-13.9782
mat	-13.9786
essel	-13.9791
dies	-13.9801
lking	-13.9801
3.9	-13.9805
633	-13.9809
542	-13.9811
▁dra	-13.9824
▁Bi	-13.9833
try	-13.9833
240	-13.985
111.0	-13.9868
ology	-13.9877
mentation	-13.9887
▁ea	-13.9893
stock	-13.991
175	-13.9915
▁bolt	-13.9928
825	-13.9932
▁Ak	-13.9935
zer	-13.9943
ahar	-13.9948
ead	-13.9955
aya	-13.9956
▁pathologi	-13.9959
ong	-13.9966
▁Mea	-14.0007
▁bah	-14.0012
lets	-14.0021
▁reg	-14.0034
▁anthr	-14.0042
-23	-14.0043
▁caps	-14.0079
▁bana	-14.0097
tment	-14.0101
cona	-14.0101
▁micron	-14.0106
baha	-14.0107
pply	-14.0129
▁cha	-14.0134
hana	-14.0136
▁1.33	-14.0143
▁bh	-14.0145
166.0	-14.016
thri	-14.0171
trict	-14.0175
1500	-14.018
42857142857142	-14.0212
hole	-14.0223
urn	-14.0227
num	-14.0242
rious	-14.0244
itis	-14.0245
ank	-14.0246
endra	-14.0261
▁jalas	-14.0263
moha	-14.0277
▁gre	-14.03
ascit	-14.0301
▁dish	-14.0335
nate	-14.0336
5.5	-14.0343
wt	-14.0351
▁sim	-14.0372
arrowing	-14.0377
ease	-14.0386
ango	-14.0393
▁phosphor	-14.0396
@27	-14.0398
▁squ	-14.0404
@7	-14.0408
164	-14.0424
oderma	-14.0449
abale	-14.0459
inance	-14.047
▁visi	-14.0473
krish	-14.0481
ik	-14.0483
formation	-14.0515
▁0.40	-14.0519
▁thi	-14.0536
▁cam	-14.0537
asa	-14.0537
▁toler	-14.0541
▁Plac	-14.0542
ille	-14.0555
023	-14.0557
▁reshap	-14.0564
berries	-14.0569
mukhi	-14.058
▁phn	-14.0604
▁tap	-14.0606
umb	-14.0608
trus	-14.0611
une	-14.0619
▁1000-	-14.0641
▁bigh	-14.0648
▁infectio	-14.0656
▁evolv	-14.0656
▁streamlin	-14.0659
rought	-14.0659
aro	-14.0664
diazin	-14.0665
kp	-14.0699
056	-14.0722
385	-14.0727
18.0	-14.0729
nning	-14.073
499	-14.0731
▁preparato	-14.0738
▁spra	-14.0743
ocin	-14.0752
undation	-14.076
-115	-14.0763
(3	-14.0764
221	-14.0773
▁saa	-14.0778
hane	-14.0784
▁colo	-14.0785
rnihat	-14.0802
▁el	-14.0806
2222222222222	-14.0808
769	-14.0808
continuous	-14.0809
▁Yo	-14.0809
43.	-14.081
509	-14.0812
astern	-14.0816
abe	-14.0819
ient	-14.0825
oi	-14.0826
-46	-14.0832
968	-14.0845
2719	-14.0862
136.0	-14.0883
space	-14.089
▁bih	-14.0897
correct	-14.0901
wn	-14.0905
sufficient	-14.0909
tip	-14.0909
303	-14.091
ght	-14.091
▁Dinan	-14.0921
▁10.8	-14.0927
▁ski	-14.0931
▁peanut	-14.0937
579	-14.0939
168	-14.094
▁worsen	-14.094
▁capsule	-14.094
▁forecast	-14.0944
▁mason	-14.0944
trong	-14.0944
lies	-14.0947
▁supplier	-14.0949
▁Cucumber	-14.0951
▁marker	-14.0952
▁emission	-14.0954
▁attachment	-14.0957
▁Practice	-14.0958
-28	-14.0958
▁advancement	-14.0961
hydration	-14.0963
▁Sand	-14.0964
▁dripper	-14.0966
▁dropp	-14.0967
tery	-14.0974
Regula	-14.098
114	-14.0988
oux	-14.0989
137.0	-14.0992
552	-14.0993
▁2018	-14.1005
▁reco	-14.1012
ear	-14.1015
▁track	-14.1032
▁terrace	-14.1033
▁pseudo	-14.1033
titabor	-14.1035
bazar	-14.1035
purifie	-14.1036
kamrupa	-14.1036
product	-14.1037
▁piy	-14.1037
▁Mulch	-14.1037
brotone	-14.1038
▁climb	-14.1038
chloride	-14.1039
netting	-14.1039
sanitary	-14.1039
propiconazole	-14.1041
dispers	-14.1041
Impact	-14.1041
anglong	-14.1042
Krish	-14.1042
Specific	-14.1042
Benefits	-14.1042
road	-14.1043
baksa	-14.1043
self	-14.1043
Improve	-14.1044
aau	-14.1044
glyphosate	-14.1044
japanese	-14.1044
Pruning	-14.1044
▁deworm	-14.1044
divide	-14.1044
dependenc	-14.1044
suited	-14.1044
mission	-14.1044
kahikuchi	-14.1044
▁drink	-14.1044
inactive	-14.1044
methyl	-14.1045
Tracel	-14.1045
step	-14.1045
beneficiary	-14.1045
which	-14.1045
security	-14.1045
kcc	-14.1045
plough	-14.1045
trifos	-14.1045
High	-14.1045
Spraying	-14.1045
multi	-14.1045
managed	-14.1045
duck	-14.1045
foliar	-14.1045
horticultur	-14.1045
Bordeaux	-14.1045
balance	-14.1045
breed	-14.1045
remaining	-14.1045
advice	-14.1045
common	-14.1045
scheme	-14.1045
dissolve	-14.1045
fungal	-14.1045
cabbage	-14.1045
micronutrient	-14.1045
left	-14.1046
625	-14.1046
reasonabl	-14.1046
milk	-14.1046
avoid	-14.1046
ridomil	-14.1046
maturity	-14.1046
1800	-14.1047
@100	-14.1047
TS	-14.1047
cut	-14.1048
around	-14.1048
phone	-14.1048
rrange	-14.105
two	-14.105
0.1%	-14.1051
rtificial	-14.1051
▁pens	-14.1051
ccurate	-14.1052
raise	-14.1052
vailable	-14.1053
UT	-14.1054
nterval	-14.1054
4-5	-14.1055
provide	-14.1055
reach	-14.1055
▁simultaneous	-14.1055
▁----	-14.1055
ushy	-14.1055
naga	-14.1057
advised	-14.1057
make	-14.1058
To	-14.1059
aterial	-14.1059
ough	-14.106
(7	-14.106
sub	-14.106
▁08	-14.1061
▁generat	-14.1061
▁authorit	-14.1064
ermites	-14.1064
2.75	-14.1065
garden	-14.1068
▁benefici	-14.107
▁agin	-14.107
▁couple	-14.1071
spergillus	-14.1071
rates	-14.1072
▁,9	-14.1072
▁Health	-14.1072
suitability	-14.1073
▁variet	-14.1074
▁measue	-14.1074
▁collective	-14.1075
▁hol	-14.1076
ridomorph	-14.1084
that	-14.1084
ogether	-14.1086
▁serv	-14.1087
capsularis	-14.1089
3-4	-14.1091
▁interfer	-14.1092
availability	-14.1092
tempora	-14.1093
quire	-14.1094
▁eradicat	-14.1094
▁kra	-14.1097
▁cook	-14.1098
29.	-14.1102
ggested	-14.1102
1/3	-14.1103
▁Agri	-14.1103
▁connect	-14.1109
cell	-14.1109
-1.5-2	-14.111
gitation	-14.111
▁centimetr	-14.111
▁definit	-14.111
uber	-14.1111
▁uter	-14.1111
spective	-14.1112
imalaya	-14.1112
▁Advance	-14.1112
ypochlor	-14.1112
ummosis	-14.1112
grama	-14.1112
ullet	-14.1112
▁contro	-14.1113
▁kapil	-14.1113
apur	-14.1113
▁concentr	-14.1113
▁transparen	-14.1113
SI	-14.1113
ompound	-14.1114
ipul	-14.1114
▁chamarajanagar	-14.1114
MD	-14.1114
▁2:1	-14.1114
ettuce	-14.1114
amrup	-14.1114
arching	-14.1114
esistance	-14.1114
▁famili	-14.1114
solation	-14.1114
▁manufactur	-14.1114
▁diminish	-14.1114
▁patien	-14.1114
▁Educati	-14.1114
quare	-14.1114
ieties	-14.1114
iarrhea	-14.1115
ncozeb	-14.1115
epartment	-14.1115
▁ethyl	-14.1115
ecrotic	-14.1115
-1.7	-14.1115
foliation	-14.1115
▁appro	-14.1115
▁turbid	-14.1115
▁fytol	-14.1115
▁sequen	-14.1115
(1:1:25)	-14.1115
▁Experiment	-14.1115
▁lacrima	-14.1115
▁smallpox	-14.1115
▁bhawan	-14.1115
▁child	-14.1115
▁cocoon	-14.1115
(19:19:19)	-14.1115
11111111111111	-14.1115
45454545454545	-14.1115
=124.1	-14.1115
=124.3	-14.1115
=130.8	-14.1115
=131.4	-14.1115
=136.4	-14.1115
=136.8	-14.1115
=141.5	-14.1115
=147.4	-14.1115
=150.9	-14.1115
=151.4	-14.1115
=152.4	-14.1115
=153.3	-14.1115
=153.7	-14.1115
=154.3	-14.1115
=154.7	-14.1115
=155.3	-14.1115
=155.6	-14.1115
=156.1	-14.1115
=156.4	-14.1115
=156.5	-14.1115
=156.9	-14.1115
=157.5	-14.1115
=158.2	-14.1115
=158.3	-14.1115
=159.3	-14.1115
=159.4	-14.1115
=159.6	-14.1115
=159.7	-14.1115
=159.8	-14.1115
=161.4	-14.1115
=161.9	-14.1115
=162.2	-14.1115
=162.7	-14.1115
=162.8	-14.1115
=162.9	-14.1115
=163.3	-14.1115
=163.9	-14.1115
=164.3	-14.1115
=164.8	-14.1115
=165.7	-14.1115
=166.2	-14.1115
=166.3	-14.1115
=166.5	-14.1115
=166.6	-14.1115
=167.1	-14.1115
=167.2	-14.1115
=167.4	-14.1115
=167.6	-14.1115
=167.9	-14.1115
=168.8	-14.1115
=168.9	-14.1115
=169.4	-14.1115
=169.7	-14.1115
=170.9	-14.1115
=171.2	-14.1115
=171.5	-14.1115
=172.4	-14.1115
=173.4	-14.1115
=173.8	-14.1115
=174.3	-14.1115
=175.2	-14.1115
=176.1	-14.1115
=176.3	-14.1115
=176.6	-14.1115
=176.7	-14.1115
=176.9	-14.1115
=178.3	-14.1115
=179.2	-14.1115
=179.8	-14.1115
=180.2	-14.1115
=180.8	-14.1115
=181.3	-14.1115
=181.6	-14.1115
=181.8	-14.1115
=189.1	-14.1115
=190.7	-14.1115
=190.9	-14.1115
=192.6	-14.1115
=192.7	-14.1115
=192.8	-14.1115
=194.7	-14.1115
=195.1	-14.1115
=197.3	-14.1115
=197.4	-14.1115
=198.1	-14.1115
=198.9	-14.1115
=199.8	-14.1115
=199.9	-14.1115
Phyllac	-14.1115
Roundup	-14.1115
blaze	-14.1115
etrieve	-14.1115
iruvananthapuram	-14.1115
marwahi	-14.1115
ophyte	-14.1115
pargaon	-14.1115
risteza	-14.1115
ropine	-14.1115
▁(2022)	-14.1115
▁18:17:	-14.1115
▁9436709040	-14.1115
▁9954411012	-14.1115
▁Administration	-14.1115
▁Agronomi	-14.1115
▁Branch	-14.1115
▁Brief	-14.1115
▁Collaborat	-14.1115
▁Consortium	-14.1115
▁Fertility	-14.1115
▁Hybrid	-14.1115
▁LLS	-14.1115
▁Lanka	-14.1115
▁Marigold	-14.1115
▁Miracle	-14.1115
▁Pactus	-14.1115
▁Pesticide	-14.1115
▁Reckoner	-14.1115
▁Regeneration	-14.1115
▁Repeat	-14.1115
▁Rido	-14.1115
▁Sauvignon	-14.1115
▁Shirapur	-14.1115
▁Solanum	-14.1115
▁Sugarcane	-14.1115
▁Supply	-14.1115
▁Wait	-14.1115
▁acervuli	-14.1115
▁ahmadabad	-14.1115
▁alirajpur	-14.1115
▁anantnag	-14.1115
▁anuppur	-14.1115
▁aphanidermatum	-14.1115
▁aravalli	-14.1115
▁ariyalur	-14.1115
▁auraiya	-14.1115
▁bahraich	-14.1115
▁baleshwar	-14.1115
▁baloda	-14.1115
▁barwani	-14.1115
▁basti	-14.1115
▁begusarai	-14.1115
▁belgaum	-14.1115
▁bhadrak	-14.1115
▁bhilwara	-14.1115
▁bhojpur	-14.1115
▁bhopal	-14.1115
▁bijapur	-14.1115
▁bikaner	-14.1115
▁birbhum	-14.1115
▁bokaro	-14.1115
▁catterpil	-14.1115
▁cauvery	-14.1115
▁celery	-14.1115
▁champawat	-14.1115
▁chandigarh	-14.1115
▁chandrapur	-14.1115
▁chhotaudepur	-14.1115
▁chikballapur	-14.1115
▁chikkamagaluru	-14.1115
▁chikmi	-14.1115
▁chital	-14.1115
▁chitradurga	-14.1115
▁clarithromycin	-14.1115
▁conjunctivities	-14.1115
▁contours	-14.1115
▁coochbehar	-14.1115
▁coriender	-14.1115
▁dantewada	-14.1115
▁darbhanga	-14.1115
▁dhaincha	-14.1115
▁dhamtari	-14.1115
▁dhenkanal	-14.1115
▁diarrohoea	-14.1115
▁dindigul	-14.1115
▁drowsiness	-14.1115
▁economies	-14.1115
▁edema	-14.1115
▁equiseti	-14.1115
▁erode	-14.1115
▁expulsi	-14.1115
▁fatehabad	-14.1115
▁fatehpur	-14.1115
▁firozabad	-14.1115
▁gandhinagar	-14.1115
▁ganjam	-14.1115
▁ghaziabad	-14.1115
▁gomati	-14.1115
▁gondia	-14.1115
▁gulbarga	-14.1115
▁gwalior	-14.1115
▁hafir	-14.1115
▁hajari	-14.1115
▁handique	-14.1115
▁hoshangabad	-14.1115
▁hyacinth	-14.1115
▁indeterminate	-14.1115
▁jabalpur	-14.1115
▁jalandhar	-14.1115
▁jalna	-14.1115
▁jalore	-14.1115
▁jhansi	-14.1115
▁jharsuguda	-14.1115
▁jhunjhunu	-14.1115
▁jodhpur	-14.1115
▁kabirdham	-14.1115
▁kaliapani	-14.1115
▁kameng	-14.1115
▁kannur	-14.1115
▁karimnagar	-14.1115
▁kasaragod	-14.1115
▁khandwa	-14.1115
▁kheri	-14.1115
▁khowai	-14.1115
▁khurpi	-14.1115
▁kishanganj	-14.1115
▁kolasib	-14.1115
▁kolhapur	-14.1115
▁kollam	-14.1115
▁kondagaon	-14.1115
▁kottayam	-14.1115
▁krishnagiri	-14.1115
▁kudzu	-14.1115
▁kumey	-14.1115
▁kurnool	-14.1115
▁kurukshetra	-14.1115
▁lakhisarai	-14.1115
▁latitude	-14.1115
▁lizards	-14.1115
▁mahabubabad	-14.1115
▁mahesana	-14.1115
▁mandsaur	-14.1115
▁mathura	-14.1115
▁mirzapur	-14.1115
▁miscellaneous	-14.1115
▁mosambi	-14.1115
▁muktsar	-14.1115
▁murshidabad	-14.1115
▁muzaffarpur	-14.1115
▁mysore	-14.1115
▁nagapattinam	-14.1115
▁nagpur	-14.1115
▁nalanda	-14.1115
▁navsari	-14.1115
▁nayagarh	-14.1115
▁palamu	-14.1115
▁palghar	-14.1115
▁palwal	-14.1115
▁panchkula	-14.1115
▁partners	-14.1115
▁pathanamthitta	-14.1115
▁pathankot	-14.1115
▁perambalur	-14.1115
▁phytotoxic	-14.1115
▁pithoragarh	-14.1115
▁pondicherry	-14.1115
▁poonch	-14.1115
▁propagules	-14.1115
▁purulia	-14.1115
▁ramanathapuram	-14.1115
▁rangareddi	-14.1115
▁ratnagiri	-14.1115
▁regimen	-14.1115
▁rkvy	-14.1115
▁rodenticide	-14.1115
▁rohtak	-14.1115
▁rohtas	-14.1115
▁rupnagar	-14.1115
▁salivation	-14.1115
▁samastipur	-14.1115
▁samrat	-14.1115
▁scissor	-14.1115
▁sheikhpura	-14.1115
▁shravasti	-14.1115
▁sieve	-14.1115
▁singrauli	-14.1115
▁sirmaur	-14.1115
▁sitapur	-14.1115
▁sivaganga	-14.1115
▁somnath	-14.1115
▁srikakulam	-14.1115
▁subansiri	-14.1115
▁sultanpur	-14.1115
▁surendranagar	-14.1115
▁tablespoon	-14.1115
▁tamenglong	-14.1115
▁thanjavur	-14.1115
▁thiruvallur	-14.1115
▁thiruvarur	-14.1115
▁thousand	-14.1115
▁tiruchirappalli	-14.1115
▁tiruppur	-14.1115
▁tuticorin	-14.1115
▁udupi	-14.1115
▁umaria	-14.1115
▁undercarriages	-14.1115
▁vadodara	-14.1115
▁vanilla	-14.1115
▁varanasi	-14.1115
▁veggie	-14.1115
▁vehicle	-14.1115
▁vellore	-14.1115
▁warangal	-14.1115
▁wtaer	-14.1115
▁yadgir	-14.1115
▁yamunanagar	-14.1115
▁yavatmal	-14.1115
▁yesterday	-14.1115
▁zoospores	-14.1115
▁zunheboto	-14.1115
panchasira	-14.1115
vani	-14.1115
▁Focus	-14.1115
▁Luoguo	-14.1115
▁Reduction	-14.1115
▁Sporangi	-14.1115
▁Supplement	-14.1115
▁Thorough	-14.1115
▁article	-14.1115
▁fossil	-14.1115
▁jaipur	-14.1115
▁keteki	-14.1115
▁snakebite	-14.1115
▁sword	-14.1115
▁thorn	-14.1115
▁threshing	-14.1115
▁tonophosph	-14.1115
▁Burnihat	-14.1115
▁azara	-14.1115
▁bareli	-14.1115
▁derma	-14.1115
▁devastat	-14.1115
▁discomfort	-14.1115
▁karauli	-14.1115
▁karnal	-14.1115
▁larv	-14.1115
▁neocyclin	-14.1115
▁oblong	-14.1115
▁pukhraj	-14.1115
▁rakshak	-14.1115
zobi	-14.1115
▁grind	-14.1115
▁mandla	-14.1115
▁medak	-14.1115
albomar	-14.1115
olicymakers	-14.1115
▁Maxim	-14.1115
▁agree	-14.1115
▁howrah	-14.1115
▁mustrad	-14.1115
▁napth	-14.1115
▁quantitative	-14.1115
▁runner	-14.1115
=162.0	-14.1115
=167.0	-14.1115
basidi	-14.1115
▁bathinda	-14.1115
▁chives	-14.1115
▁commit	-14.1115
▁placenta	-14.1115
▁rewari	-14.1115
▁satna	-14.1115
=160.2	-14.1115
▁argul	-14.1115
▁hydroxide	-14.1115
▁thieves	-14.1115
=161.0	-14.1115
=168.0	-14.1115
▁daadi	-14.1115
▁etah	-14.1115
▁intercellular	-14.1115
▁mesta	-14.1115
▁pavistin	-14.1115
▁siang	-14.1115
▁daman	-14.1115
▁jind	-14.1115
▁launch	-14.1115
▁musturd	-14.1115
▁sharp	-14.1115
=150.0	-14.1115
=151.0	-14.1115
▁(2014)	-14.1115
▁0376-	-14.1115
▁Plastic	-14.1115
▁impart	-14.1115
▁overheating	-14.1115
▁pakur	-14.1115
▁Tillage	-14.1115
▁alkalinity	-14.1115
▁softneck	-14.1115
▁bundi	-14.1115
▁epidemic	-14.1115
▁hardoi	-14.1115
▁patan	-14.1115
▁precocious	-14.1115
caroten	-14.1115
▁zanide	-14.1115
=182.0	-14.1115
▁sanction	-14.1115
▁vacation	-14.1115
chloropyrifos	-14.1115
▁vaishali	-14.1115
valent	-14.1115
itud	-14.1115
▁quater	-14.1115
genic	-14.1115
▁spicy	-14.1115
▁Divid	-14.1115
▁mamit	-14.1115
ophyl	-14.1115
▁Frameworks	-14.1115
▁namdhari	-14.1115
▁pratapgarh	-14.1115
▁advisories	-14.1115
▁Expand	-14.1115
▁cyper	-14.1115
▁dungarpur	-14.1115
▁lucknow	-14.1115
ermicompost	-14.1115
▁diversified	-14.1115
▁gaot	-14.1115
▁incur	-14.1115
▁multigene	-14.1115
▁oxypro	-14.1115
▁ballari	-14.1115
▁parvati	-14.1115
▁caught	-14.1115
▁Watermelon	-14.1115
▁carbendazole	-14.1115
▁gurgaon	-14.1115
=164.0	-14.1115
▁almora	-14.1115
▁Buy	-14.1115
▁satara	-14.1115
dshah	-14.1115
▁bodo	-14.1115
▁curve	-14.1115
▁interference	-14.1115
▁mahbubnagar	-14.1115
▁metagreen	-14.1115
▁regeneration	-14.1115
▁refine	-14.1115
▁cochin	-14.1115
▁retard	-14.1115
▁scope	-14.1115
▁betul	-14.1115
▁purity	-14.1115
▁bidar	-14.1115
▁sourcing	-14.1115
▁hepawin	-14.1115
Digital	-14.1115
▁ICT	-14.1115
▁reproduce	-14.1115
▁sukma	-14.1115
▁vining	-14.1116
▁foetida	-14.1116
▁lablab	-14.1116
▁logical	-14.1116
ontex	-14.1116
zoid	-14.1116
▁jro	-14.1116
▁ratna	-14.1116
▁Acid	-14.1116
▁varification	-14.1116
▁0.05%	-14.1116
▁cigar	-14.1116
▁icar	-14.1116
▁summary	-14.1116
▁aligarh	-14.1116
▁bhandara	-14.1116
▁curb	-14.1116
▁manufacturer	-14.1116
▁pmkisan	-14.1116
▁diminishes	-14.1116
iations	-14.1116
▁Coun	-14.1116
▁koderma	-14.1116
▁dishes	-14.1116
▁distortion	-14.1116
▁accessibility	-14.1116
perat	-14.1116
▁NAA	-14.1116
▁Broiler	-14.1116
▁surekha	-14.1116
8543	-14.1116
uava	-14.1116
...1/2	-14.1116
▁ventilat	-14.1116
▁droplets	-14.1116
▁churu	-14.1116
▁wokha	-14.1116
idomi	-14.1116
▁specialist	-14.1116
▁sym	-14.1116
▁Integration	-14.1116
mahako	-14.1116
▁tapi	-14.1116
▁popularity	-14.1116
▁bargarh	-14.1116
▁hacter	-14.1117
versity	-14.1117
▁trycel	-14.1117
▁augment	-14.1117
▁Wide	-14.1117
aruna	-14.1117
AMF	-14.1117
@198	-14.1117
▁WS	-14.1117
▁spirit	-14.1117
▁Steps	-14.1117
eedling	-14.1117
litter	-14.1117
rucha	-14.1117
amol	-14.1117
▁restraint	-14.1117
▁Fall	-14.1117
▁harrowed	-14.1117
▁vision	-14.1117
▁wettened	-14.1117
itutional	-14.1118
FI	-14.1118
▁Sign	-14.1118
▁scav	-14.1118
▁downtime	-14.1118
▁roundup	-14.1118
▁smoothness	-14.1118
septic	-14.1118
▁baran	-14.1118
sioux	-14.1118
▁determinate	-14.1119
▁documentation	-14.1119
▁jagg	-14.1119
▁06	-14.1119
▁captu	-14.1119
▁onwards	-14.1119
-280	-14.1119
▁enrichment	-14.1119
▁ignite	-14.1119
▁sack	-14.1119
▁nadia	-14.1119
▁cork	-14.112
▁fif	-14.112
▁ashgourd	-14.112
▁ankur	-14.112
▁chopper	-14.112
uradon	-14.112
▁restriction	-14.112
▁acquir	-14.112
▁guntur	-14.112
▁wrapp	-14.112
▁Niger	-14.112
▁centimetre	-14.112
▁definite	-14.112
▁tarzan	-14.112
▁bright	-14.112
110-120	-14.1121
▁bactericid	-14.1121
ikkim	-14.1121
bharat	-14.1121
▁gaya	-14.1121
▁moti	-14.1121
▁turm	-14.1121
iph	-14.1121
▁majesti	-14.1122
▁Distinct	-14.1122
...30	-14.1122
▁charg	-14.1122
▁thicker	-14.1122
jana	-14.1122
▁alignment	-14.1122
▁immers	-14.1122
▁wine	-14.1123
judo	-14.1123
▁hydrochlori	-14.1123
▁tapgor	-14.1123
▁button	-14.1124
eady	-14.1124
▁harmon	-14.1124
▁2011	-14.1124
DP	-14.1124
▁Telangana	-14.1125
ware	-14.1125
▁cautiously	-14.1126
▁mixure	-14.1126
▁subcutaneously	-14.1126
ER	-14.1126
ila	-14.1126
▁assumption	-14.1127
▁acceptance	-14.1127
▁kuru	-14.1127
contained	-14.1127
▁Plan	-14.1127
▁cellulose	-14.1128
▁01123381092	-14.1128
▁jalgaon	-14.1128
▁sivsagar	-14.1128
▁Analysis	-14.1128
▁Considerations	-14.1128
▁Bleach	-14.1128
▁chambel	-14.1128
▁stimulation	-14.1128
▁lactation	-14.1128
▁harda	-14.1128
▁undermin	-14.1128
▁permit	-14.1128
troph	-14.1128
granular	-14.1129
ges	-14.1129
▁tackl	-14.1129
▁Basil	-14.113
▁adj	-14.113
▁Dev	-14.113
▁masuri	-14.113
emost	-14.1131
▁Till	-14.1131
▁Rhi	-14.1132
▁collards	-14.1133
eddish	-14.1134
▁vetch	-14.1134
▁butter	-14.1134
stocking	-14.1134
▁partur	-14.1135
▁Care	-14.1135
▁redish	-14.1135
40,000/	-14.1135
static	-14.1136
▁Injection	-14.1136
▁morena	-14.1136
ropyriphos	-14.1137
prooting	-14.1137
solut	-14.1137
▁impede	-14.1137
▁chloropyr	-14.1137
isan	-14.1137
▁grasses	-14.1138
anide	-14.1138
▁1300	-14.1139
▁haveri	-14.1139
▁inappitance	-14.114
▁pup	-14.114
▁sulpha	-14.114
nalphos	-14.114
▁hisar	-14.1141
drench	-14.1141
▁promotion	-14.1142
▁Infestation	-14.1143
▁musa	-14.1143
▁intramuscularly	-14.1144
▁Solutions	-14.1144
▁hypothesis	-14.1144
▁clumps	-14.1144
gibber	-14.1144
▁pom	-14.1144
20%,	-14.1145
▁15000	-14.1145
▁dio	-14.1145
udge	-14.1148
▁alfa	-14.1148
▁7896028773	-14.1149
-0.5	-14.115
rnia	-14.115
▁Artemisi	-14.115
▁glycerin	-14.115
▁glyodin	-14.115
▁qntl	-14.115
▁Species	-14.115
▁gitesh	-14.115
▁dermo	-14.115
▁deteriorating	-14.115
▁madhu	-14.115
▁Indi	-14.1152
chna	-14.1152
ux	-14.1154
▁suger	-14.1156
▁correlate	-14.1156
▁sealed	-14.1157
▁diease	-14.1157
▁immunize	-14.1159
▁9613	-14.1159
promin	-14.116
-404	-14.116
▁rai	-14.116
auses	-14.1161
ylactic	-14.1161
▁Sun	-14.1161
ensitiv	-14.1162
▁hps	-14.1163
ibr	-14.1163
interval	-14.1165
▁inflamm	-14.1165
▁learned	-14.1165
▁Historical	-14.1167
apid	-14.1168
▁riski	-14.1169
igar	-14.1169
▁longding	-14.1169
Pest	-14.117
▁2005	-14.117
▁neemuch	-14.117
▁Desi	-14.117
-800	-14.1171
▁Evidence	-14.1172
▁amp	-14.1172
▁cancer	-14.1173
▁Trees	-14.1174
vistin	-14.1175
▁pru	-14.1175
▁mann	-14.1178
pores	-14.1178
▁australi	-14.1179
▁singly	-14.1183
▁abu	-14.1184
▁gel	-14.1189
unch	-14.119
30-60	-14.1193
lokia	-14.1193
▁Issues	-14.1194
▁eucalypts	-14.1194
▁oilseeds	-14.1194
▁schools	-14.1194
▁music	-14.1194
umn	-14.1195
▁bedana	-14.1195
▁purifie	-14.1195
▁bazar	-14.1195
▁titabor	-14.1195
▁tonk	-14.1196
▁institutional	-14.1197
▁80,000	-14.1198
▁170	-14.1199
urella	-14.1199
205	-14.1204
▁kamrupa	-14.1204
▁activated	-14.1205
▁num	-14.1205
layer	-14.1206
▁0.04	-14.1209
▁segregate	-14.121
186	-14.1213
ourav	-14.1213
▁tension	-14.1214
▁9864	-14.1218
nosuperphosphate	-14.1218
600-	-14.1218
▁shakti	-14.1218
▁multineem	-14.1219
▁internationally	-14.122
iphon	-14.1221
▁Dre	-14.1221
▁dob	-14.1225
▁837	-14.1226
▁sum	-14.1227
tel	-14.1229
▁agoat	-14.1231
▁puri	-14.1231
▁bwd	-14.1234
▁acetam	-14.1235
▁fitting	-14.1238
▁Fib	-14.1239
ez	-14.1241
▁Filling	-14.1242
▁perme	-14.1245
▁kes	-14.1245
▁logs	-14.1245
▁exhibitions	-14.1245
▁ngo	-14.1249
▁jar	-14.125
inning	-14.1254
▁antioxidants	-14.1257
▁advisor	-14.1258
▁15,000	-14.1259
▁tps	-14.1266
▁que	-14.1266
boil	-14.1267
▁tamp	-14.127
sird	-14.127
usual	-14.1274
porting	-14.1276
▁blocked	-14.1278
▁,33	-14.1285
▁31.0	-14.1288
▁hide	-14.1293
athane	-14.1295
▁terraces	-14.1295
▁peanuts	-14.1298
▁320	-14.1304
key	-14.1311
▁680	-14.1315
▁abd	-14.1334
▁49.0	-14.1335
▁evaluations	-14.135
▁kernels	-14.135
▁Mad	-14.1354
acking	-14.1355
tact	-14.1357
▁bins	-14.1358
▁past	-14.137
regarding	-14.1372
▁bav	-14.1381
▁plugging	-14.1382
▁registering	-14.1383
weeds	-14.1386
▁overhea	-14.1395
▁tria	-14.1395
▁214	-14.1396
malaria	-14.1397
▁1.5-2.5	-14.1397
▁tones	-14.1399
-85	-14.1402
▁connections	-14.1403
▁dif	-14.1404
▁propell	-14.1411
1975	-14.1415
▁colored	-14.1417
▁Erythr	-14.1418
▁0.15	-14.1423
▁hatcher	-14.1427
120.0	-14.1429
ghat	-14.143
edge	-14.1431
azol	-14.1435
▁reject	-14.1439
55555555555555	-14.1441
-77	-14.1444
▁asst	-14.1449
eaching	-14.1452
▁ever	-14.1461
▁Balance	-14.1468
canut	-14.1469
▁tem	-14.1471
unburn	-14.1473
▁fru	-14.1475
para	-14.1477
▁@19	-14.1482
clin	-14.1483
rade	-14.1488
▁disa	-14.1491
▁@22	-14.1494
▁allo	-14.1501
-101	-14.1508
00-600	-14.1509
▁grubs	-14.1523
▁qwa	-14.1523
razil	-14.1526
▁phosp	-14.153
▁sulfon	-14.1545
umen	-14.1554
▁measurement	-14.1558
▁Impacts	-14.1563
▁cul	-14.1566
pollinated	-14.1572
▁gumming	-14.1573
noxi	-14.1576
bro	-14.1577
erv	-14.1588
sonin	-14.1588
acron	-14.1592
arak	-14.1606
NH	-14.1609
cillin	-14.1616
▁0.73	-14.1616
0.2	-14.1617
▁deposits	-14.1617
0:10	-14.1624
-21	-14.1631
▁barr	-14.1631
-3.5	-14.1632
960	-14.1637
je	-14.1641
pecifically	-14.1644
▁aap	-14.1648
551	-14.1648
▁0.95	-14.1653
▁94350	-14.1655
▁thane	-14.166
vora	-14.1661
tinia	-14.1662
trib	-14.1663
▁syn	-14.167
rapping	-14.167
▁networks	-14.1672
▁dasy	-14.1672
rgent	-14.1673
▁dosa	-14.1679
▁rubbe	-14.1702
liv	-14.1717
overnments	-14.1719
▁pall	-14.172
▁swim	-14.1721
▁lids	-14.1723
aux	-14.1725
▁ignit	-14.175
▁gaur	-14.175
ition	-14.1751
rab	-14.1759
▁aerated	-14.1759
▁Ever	-14.1766
▁prov	-14.1778
▁hardy	-14.1782
105-11	-14.1787
▁completed	-14.1792
nso	-14.18
▁-18	-14.1803
plen	-14.1804
▁crucia	-14.181
963	-14.1816
▁Faba	-14.1817
▁neo	-14.1818
log	-14.1819
▁354	-14.1825
▁potat	-14.1826
▁carbendi	-14.1826
▁0.24	-14.1842
akind	-14.1844
764	-14.1849
18181818181818	-14.1863
▁externally	-14.1885
▁prematurely	-14.1885
▁cli	-14.1898
tie	-14.1914
10-15	-14.192
tata	-14.1924
nom	-14.1924
dent	-14.1929
▁treatm	-14.1934
eatment	-14.1935
63.	-14.1939
sali	-14.1953
oats	-14.196
igna	-14.1962
ircu	-14.1976
nath	-14.2019
170	-14.2021
nis	-14.2045
iosp	-14.2056
cat	-14.206
hik	-14.2064
486	-14.2074
nife	-14.209
mul	-14.2091
▁ranj	-14.2098
@400	-14.2106
taion	-14.2115
mpo	-14.2117
athion	-14.2122
▁doesn	-14.2143
-35	-14.2143
vail	-14.2148
▁prac	-14.2157
▁80.0	-14.2159
onopo	-14.2164
117.0	-14.2181
erms	-14.2181
tail	-14.2181
PR	-14.2185
ober	-14.2205
▁spre	-14.2211
▁nrc	-14.2214
▁nem	-14.2218
▁advocate	-14.222
▁Technolog	-14.2234
anning	-14.2236
cause	-14.2246
▁brin	-14.2247
mit	-14.225
285714285714285	-14.2255
tetracycline	-14.2271
por	-14.2279
550	-14.228
▁5000	-14.2284
▁101,	-14.2299
atin	-14.2322
▁mol	-14.2323
698	-14.2336
▁Flow	-14.2341
▁anthra	-14.2342
▁03	-14.2346
@14	-14.2355
▁0.33	-14.2356
arma	-14.2411
▁pari	-14.2415
nk	-14.2436
kin	-14.2437
1/	-14.2448
llin	-14.2489
63.0	-14.2489
1.2	-14.2491
180	-14.2501
018	-14.254
▁clogg	-14.259
atching	-14.2596
should	-14.2599
niv	-14.2604
636	-14.2625
▁Brus	-14.2655
▁rema	-14.2657
▁Plow	-14.2664
155.0	-14.2666
SP	-14.2679
hydrated	-14.2692
116	-14.2695
172.0	-14.2705
▁Wi	-14.2714
elic	-14.272
▁cyst	-14.2724
▁904	-14.2733
117	-14.2737
fre	-14.2737
9242	-14.2738
▁0.20	-14.2792
▁differentia	-14.2794
▁volatil	-14.2801
ased	-14.2808
rican	-14.2814
262	-14.2818
ecological	-14.2819
uccessful	-14.2822
icroorganisms	-14.2838
nh	-14.2843
vt	-14.2865
▁cherr	-14.2867
tard	-14.2872
832	-14.2874
apa	-14.2876
gung	-14.2892
309	-14.2947
racks	-14.2956
▁indo	-14.2978
▁qua	-14.2985
▁locat	-14.3003
▁spec	-14.3006
429	-14.3012
121	-14.3029
1995	-14.303
----	-14.3034
019	-14.3046
▁173	-14.305
▁kat	-14.3054
ound	-14.3069
iga	-14.3069
▁5.1	-14.3071
tance	-14.3073
rals	-14.3081
under	-14.3082
727272727272727	-14.3084
sperm	-14.3105
841	-14.316
cus	-14.3192
4615384615384	-14.3227
982	-14.3231
TM	-14.3238
attle	-14.3245
▁1.07	-14.3257
nium	-14.3271
RP	-14.3276
vol	-14.3278
joy	-14.3282
▁dee	-14.3355
▁0.48	-14.3363
▁managem	-14.3366
festation	-14.3367
halo	-14.339
▁prot	-14.3391
▁En	-14.3409
ospori	-14.3436
▁dhe	-14.3449
954	-14.3457
122	-14.3465
usion	-14.3472
ttle	-14.3493
rol	-14.3508
▁enquir	-14.3536
DR	-14.3538
▁quinoa	-14.354
bium	-14.3551
0-6	-14.357
1.4	-14.3589
▁zn	-14.3592
bour	-14.3599
468.0	-14.36
999	-14.3611
pot	-14.3631
▁qualif	-14.3643
ku	-14.3651
▁163	-14.3665
-110	-14.3667
1320	-14.3688
lips	-14.3696
currently	-14.37
▁pi	-14.3723
▁Cat	-14.3724
icket	-14.3745
560	-14.3748
▁tru	-14.3754
0623	-14.3772
easure	-14.3779
dividing	-14.3789
▁7840	-14.3836
▁fli	-14.3852
cumb	-14.3857
▁intermi	-14.3861
draining	-14.3871
burn	-14.3902
abor	-14.3917
craft	-14.3918
▁2004	-14.3924
▁145	-14.3935
▁differentiat	-14.3942
shells	-14.3954
▁immu	-14.3955
nose	-14.3955
chet	-14.3959
1040	-14.3969
▁Balanc	-14.3977
0-15	-14.3979
▁375	-14.398
52631578947368	-14.3989
▁235	-14.3992
Ke	-14.4013
▁20:1	-14.4019
[...]
