<pad>	0
<s>	0
</s>	0
<unk>	0
,	-3.1985
.	-3.48501
▁the	-3.67995
▁and	-3.88646
:	-3.94018
▁of	-3.9532
▁**	-3.96701
▁(	-3.9711
▁###	-4.13692
▁in	-4.16423
▁is	-4.20569
▁	-4.21685
max	-4.36679
▁crop	-4.46428
s	-4.50635
**	-4.50908
▁to	-4.59871
▁for	-4.79099
▁Response	-4.83865
▁Instruction	-4.8391
▁a	-4.87641
▁*	-5.05947
:**	-5.09394
)	-5.0992
-	-5.14948
▁This	-5.16476
▁water	-5.2501
▁soil	-5.2845
▁P	-5.30598
▁on	-5.31002
C	-5.32048
▁K	-5.36207
▁season	-5.43416
▁pH	-5.45687
▁readings	-5.46636
▁recommended	-5.52579
°	-5.58912
/	-5.61977
▁with	-5.64758
▁best	-5.73801
▁The	-5.85148
▁has	-5.86873
▁which	-5.88654
▁2	-5.93904
ing	-5.96388
▁during	-5.97048
▁this	-5.97303
▁through	-5.9747
▁N	-5.98033
▁about	-5.98768
▁@	-5.99211
N	-6.00005
%	-6.01631
▁asking	-6.04275
▁well	-6.04619
▁Soil	-6.0673
▁your	-6.07077
▁from	-6.08781
▁temperature	-6.08872
▁grown	-6.10942
▁explain	-6.13879
▁humidity	-6.13944
▁sources	-6.14173
Crop	-6.14229
▁usually	-6.14365
Farming	-6.14484
▁sensor	-6.14606
Why	-6.14827
▁Based	-6.14853
▁typically	-6.14861
▁supported	-6.14938
▁Type	-6.15109
▁thrive	-6.15238
▁match	-6.15379
▁Recommend	-6.1558
▁Awareness	-6.15656
▁briefly	-6.15762
▁Your	-6.15789
▁Temp	-6.15857
Ideal	-6.15872
▁Conditions	-6.15872
?	-6.165
?**	-6.17069
▁be	-6.19213
▁60)	-6.27505
▁was	-6.31068
▁at	-6.3123
▁are	-6.32056
▁year	-6.34845
▁as	-6.35585
▁by	-6.38059
▁1	-6.38658
▁control	-6.38938
▁production	-6.41706
▁per	-6.44906
▁spray	-6.4688
▁yield	-6.4756
),	-6.48643
100),	-6.53902
▁What	-6.55189
e	-6.56911
ed	-6.57567
▁kg	-6.57877
▁area	-6.58006
▁3	-6.62556
▁or	-6.65556
▁can	-6.68706
▁based	-6.6871
▁days	-6.68969
Loamy	-6.71957
irrigated	-6.73343
▁apply	-6.7457
▁where	-6.75194
40),	-6.75858
▁data	-6.7857
▁cultivated	-6.82055
▁hectare	-6.8275
▁5	-6.83831
▁cultivate	-6.85165
▁recommendation	-6.86222
▁tonnes	-6.86374
▁historical	-6.87861
▁that	-6.88918
2	-6.88977
▁him	-6.92109
rainfed	-6.94582
▁ml	-6.97748
▁plant	-6.97906
▁suggested	-7.02067
▁should	-7.04368
vegetables	-7.05236
d	-7.05685
▁kharif	-7.05818
Zaid	-7.0683
1	-7.08088
▁80)	-7.11573
;	-7.13112
▁farmers	-7.13476
▁ICAR	-7.17636
ly	-7.21031
y	-7.21219
g	-7.21695
▁it	-7.2298
kharif	-7.2311
▁10	-7.23194
▁20	-7.23451
▁rice	-7.25372
l	-7.27448
▁s	-7.27578
▁A	-7.28371
a	-7.30007
▁gourd	-7.30201
▁management	-7.30338
▁fertilizer	-7.32058
▁rabi	-7.33452
▁urea	-7.33465
ha	-7.33622
▁50	-7.33958
▁seed	-7.34056
▁7.0)	-7.36817
▁-	-7.36887
▁an	-7.38037
▁4	-7.39174
▁/	-7.39604
sandy	-7.39887
▁m	-7.40509
▁pradesh	-7.41611
▁also	-7.42087
▁g	-7.42803
▁litre	-7.43749
120),	-7.4444
▁use	-7.45731
▁crops	-7.45886
▁growth	-7.45891
rabi	-7.45915
al	-7.46407
▁plants	-7.46548
▁In	-7.46567
▁disease	-7.46606
▁regarding	-7.49666
▁85)	-7.49836
▁gram	-7.50272
ml	-7.50318
▁fruit	-7.51129
▁time	-7.51246
▁interval	-7.52016
▁gm	-7.52309
▁have	-7.53388
▁after	-7.53563
i	-7.54279
m	-7.54305
er	-7.56521
▁were	-7.56772
▁advised	-7.57977
▁India	-7.59517
▁dose	-7.59902
t	-7.60187
▁measure	-7.60899
▁15	-7.61498
▁query	-7.61668
▁S	-7.6192
in	-7.62155
▁used	-7.62562
▁under	-7.63464
▁t	-7.63897
n	-7.64059
▁7.5)	-7.64093
▁like	-7.64432
▁whole	-7.6469
▁30).	-7.66169
▁irrigation	-7.66197
c	-7.67672
▁seeds	-7.68711
▁system	-7.70034
kg	-7.70386
▁It	-7.70521
▁B	-7.70747
▁leaf	-7.71235
▁other	-7.71885
▁been	-7.72571
▁application	-7.73018
▁6	-7.76112
▁Indian	-7.76191
▁cultivation	-7.76333
▁what	-7.76616
▁30	-7.77085
gm	-7.77656
▁potato	-7.77961
▁treatment	-7.78786
▁l	-7.79236
▁27).	-7.80317
▁varieties	-7.80676
=1	-7.81056
▁not	-7.81106
▁their	-7.81631
▁high	-7.82293
▁land	-7.8315
▁such	-7.84696
A	-7.84955
▁Research	-7.85288
▁field	-7.85347
▁y	-7.85774
▁Agricultural	-7.85958
r	-7.86601
▁more	-7.88222
▁agriculture	-7.88617
o	-7.88696
(	-7.89488
▁planting	-7.89748
▁agricultural	-7.8978
▁does	-7.89922
▁mop	-7.90214
▁bigha	-7.91248
▁30)	-7.91321
▁C	-7.91482
▁ec	-7.91971
'	-7.92622
es	-7.94451
3	-7.96529
▁its	-7.97091
millets	-7.97205
lit	-7.97589
▁7	-7.97659
▁farming	-7.97932
▁ssp	-7.97993
▁development	-7.98131
▁variety	-7.98399
▁leaves	-7.98518
▁quality	-7.99047
th	-7.99274
▁one	-7.99466
▁How	-7.99937
=6.6	-8.00029
▁T	-8.00698
▁150)	-8.01372
▁nutrient	-8.02637
▁will	-8.02838
▁all	-8.04365
▁I	-8.04669
P	-8.05794
=6.7	-8.05872
).	-8.06014
b	-8.06346
▁malathion	-8.07265
▁12	-8.07785
▁practices	-8.07839
▁M	-8.08196
▁uttar	-8.08406
▁etc	-8.08725
▁up	-8.09453
▁liter	-8.09758
▁0.00	-8.1063
4	-8.11244
▁these	-8.11839
▁8	-8.12308
▁rot	-8.12391
▁Pradesh	-8.12447
▁daily	-8.12556
▁25	-8.12559
▁90)	-8.13131
▁c	-8.13226
bigha	-8.13285
▁Dr	-8.13543
▁problem	-8.14048
▁different	-8.14139
▁may	-8.14396
pulses	-8.15542
▁pest	-8.15924
▁9	-8.16896
▁8.0	-8.17147
▁using	-8.17311
▁ITK	-8.17476
▁paddy	-8.17783
S	-8.18174
▁know	-8.18285
▁cm	-8.19033
=6.5	-8.19619
▁diseases	-8.19886
▁fish	-8.20368
▁how	-8.20663
▁conditions	-8.20762
▁sowing	-8.20992
▁root	-8.21217
▁over	-8.21242
▁told	-8.21384
▁100	-8.2169
ation	-8.21731
▁you	-8.22389
▁times	-8.22515
@	-8.22739
▁than	-8.23954
▁technology	-8.24674
=6.8	-8.24936
▁farm	-8.24948
▁e	-8.25051
▁tree	-8.25359
▁35).	-8.25526
k	-8.25727
st	-8.25861
▁tomato	-8.26282
▁maize	-8.26369
B	-8.27448
▁borer	-8.27468
▁millet	-8.27881
▁19	-8.28018
▁1.	-8.28025
▁method	-8.28506
▁food	-8.28635
▁research	-8.29283
well	-8.30368
▁due	-8.30381
▁against	-8.30648
▁measures	-8.31144
▁small	-8.31187
▁systems	-8.31196
▁income	-8.31725
or	-8.32259
▁coconut	-8.32365
drained	-8.32374
▁i	-8.32668
=6.1	-8.33102
▁health	-8.33198
▁following	-8.33422
▁areas	-8.34144
▁F	-8.34255
=6.3	-8.34363
=6.4	-8.34363
▁two	-8.34367
=6.9	-8.34864
▁ensure	-8.3569
▁bean	-8.35716
▁G	-8.36711
▁Agriculture	-8.36782
▁provide	-8.37204
tuber	-8.3723
=6.2	-8.37568
T	-8.38497
▁organic	-8.3881
▁18	-8.39167
Root	-8.39535
▁increase	-8.39805
▁blight	-8.39984
▁developed	-8.40159
▁district	-8.40897
▁productivity	-8.40961
▁into	-8.41048
▁wheat	-8.41609
▁Delhi	-8.41616
▁some	-8.42052
▁For	-8.4223
litre	-8.42268
▁40	-8.42303
▁p	-8.42381
▁help	-8.42445
h	-8.43019
▁onion	-8.43838
▁brinjal	-8.44019
▁stem	-8.44733
▁twice	-8.44858
▁Tables	-8.45348
▁New	-8.45427
▁70	-8.45433
▁To	-8.46149
▁biogas	-8.46516
M	-8.46723
▁prevent	-8.46875
▁chilli	-8.4696
on	-8.47122
▁higher	-8.47597
▁summer	-8.47799
▁pests	-8.47825
▁years	-8.48227
▁ha	-8.48271
▁R	-8.4851
p	-8.48869
▁contact	-8.49134
▁feed	-8.49714
▁effectively	-8.49802
▁gas	-8.50338
▁wilt	-8.50404
▁any	-8.5121
▁Institute	-8.51507
▁no	-8.51634
▁E	-8.51954
▁reduce	-8.5212
f	-8.5213
us	-8.52174
L	-8.52231
▁when	-8.52305
▁applied	-8.52352
▁out	-8.52384
▁D	-8.52691
▁solution	-8.5298
E	-8.53037
▁bed	-8.53169
R	-8.53281
I	-8.53781
▁1.5	-8.53858
adhya	-8.53992
▁before	-8.54025
ic	-8.54511
▁cost	-8.54584
▁cow	-8.54965
ee	-8.55116
6	-8.55232
▁but	-8.55323
▁45	-8.56011
▁day	-8.56015
ion	-8.56114
0	-8.5619
▁good	-8.5652
▁dry	-8.56609
▁fruits	-8.5678
G	-8.56867
ur	-8.57559
▁0	-8.57837
▁number	-8.57905
=7.0	-8.57987
▁green	-8.58434
D	-8.5886
O	-8.58873
5	-8.58988
▁technologies	-8.59325
▁25).	-8.5944
u	-8.59664
▁oil	-8.59894
▁trees	-8.5998
▁6.5)	-8.60048
liter	-8.60125
▁Use	-8.60168
8	-8.60258
ent	-8.60481
▁level	-8.6066
oil	-8.60719
▁do	-8.60884
▁better	-8.6094
▁value	-8.60945
9	-8.61055
▁need	-8.61134
▁11	-8.61188
an	-8.61242
▁Explain	-8.61305
▁training	-8.61598
▁Describe	-8.6181
plant	-8.62205
▁important	-8.62216
▁new	-8.6239
▁rate	-8.62427
▁various	-8.62623
▁suitable	-8.62623
▁r	-8.62825
K	-8.62953
F	-8.63548
▁along	-8.63559
um	-8.63716
▁low	-8.63759
▁effective	-8.6401
=6.0	-8.64166
▁13	-8.64532
▁potential	-8.64607
▁f	-8.65276
▁advice	-8.65298
▁re	-8.65348
▁b	-8.65788
▁between	-8.66313
▁banana	-8.6651
▁60	-8.67389
▁information	-8.6754
▁cotton	-8.67927
▁local	-8.68247
▁given	-8.68601
ri	-8.68749
▁cowpea	-8.69485
li	-8.70346
▁16	-8.70483
▁improved	-8.70593
▁stage	-8.71032
▁powder	-8.71233
▁efficiency	-8.71391
▁lit	-8.71417
ers	-8.71661
▁first	-8.71697
▁fungal	-8.71725
▁if	-8.7181
▁done	-8.7189
▁including	-8.72547
ii	-8.73225
▁infestation	-8.73304
▁content	-8.73445
▁These	-8.73452
▁1.0	-8.737
▁H	-8.73906
▁tthhee	-8.73929
▁insect	-8.74014
▁No	-8.74189
▁14	-8.74311
▁top	-8.7441
▁moisture	-8.74497
▁period	-8.74923
▁17	-8.7508
ta	-8.75129
to	-8.75134
▁available	-8.75219
▁sugarcane	-8.75237
▁24	-8.75257
▁200	-8.75491
▁farmer	-8.75494
▁methods	-8.75542
▁animals	-8.75553
▁healthy	-8.75624
▁take	-8.75798
H	-8.75997
▁6.7	-8.76255
▁total	-8.76355
▁karnataka	-8.76739
▁each	-8.76927
▁long	-8.77426
▁University	-8.77654
▁only	-8.78028
▁L	-8.78226
▁rain	-8.78356
▁products	-8.78443
▁found	-8.78677
▁Director	-8.78946
▁V	-8.78957
▁growing	-8.78976
w	-8.79006
rr	-8.79028
▁Name	-8.79361
▁mixture	-8.7939
▁bacterial	-8.79414
▁three	-8.79721
▁bihar	-8.79844
▁major	-8.79861
▁spacing	-8.8002
▁natural	-8.80072
▁early	-8.80324
ar	-8.80707
▁75	-8.8081
▁ooff	-8.8094
▁species	-8.8094
▁vegetable	-8.81076
▁6.8)	-8.81344
▁35	-8.81517
▁country	-8.81524
▁climate	-8.81805
▁administer	-8.82002
▁40).	-8.82155
▁fertilizers	-8.82391
▁made	-8.82436
▁Management	-8.82764
▁Technology	-8.82982
▁region	-8.83149
▁improve	-8.83524
V	-8.83791
▁raised	-8.84445
▁then	-8.8462
able	-8.84871
▁aanndd	-8.85596
▁seedlings	-8.8572
▁sustainable	-8.85863
▁poultry	-8.86095
▁proper	-8.86184
▁22	-8.86285
▁kisan	-8.86451
▁required	-8.86505
▁them	-8.86625
▁borax	-8.86632
v	-8.86656
▁2.5	-8.86683
▁milk	-8.87006
▁resources	-8.87014
▁support	-8.87023
▁goat	-8.87224
▁spread	-8.87361
le	-8.87705
▁nutrients	-8.8814
▁there	-8.88314
▁n	-8.88465
▁National	-8.88606
na	-8.88726
▁both	-8.88921
▁State	-8.89038
ir	-8.89176
▁being	-8.89302
▁they	-8.89747
▁mustard	-8.89898
▁large	-8.89935
▁Council	-8.89943
▁animal	-8.90317
▁process	-8.9042
▁de	-8.90603
▁Farmers	-8.91171
▁rogor	-8.91218
x	-8.91435
▁storage	-8.91589
▁most	-8.91606
▁2.	-8.91689
▁make	-8.92396
▁market	-8.92589
re	-8.92872
▁so	-8.9328
=7.2	-8.93457
▁non	-8.93631
=7.4	-8.93666
▁tamil	-8.93805
▁nadu	-8.93807
Laterit	-8.93841
=7.3	-8.94015
▁fields	-8.94165
▁assam	-8.94226
▁around	-8.9423
▁very	-8.94297
▁protect	-8.94405
▁grain	-8.94506
▁preparation	-8.94648
▁size	-8.94798
▁followed	-8.94821
▁red	-8.94832
▁further	-8.94997
▁month	-8.95489
▁give	-8.95648
▁q	-8.95848
▁name	-8.95987
▁while	-8.95994
▁practice	-8.96005
▁21	-8.96084
=5.9	-8.9649
▁impact	-8.96767
▁increased	-8.96857
▁x	-8.97057
=7.1	-8.97064
▁his	-8.97168
▁groundnut	-8.97601
▁include	-8.97664
at	-8.97666
▁odisha	-8.97714
▁needs	-8.97725
el	-8.97898
it	-8.98107
▁state	-8.98135
7	-8.98183
▁k	-8.9827
ate	-8.98378
▁weed	-8.98568
ec	-8.9875
oo	-8.99111
▁bottle	-8.99116
=19.	-8.99604
▁common	-8.99686
am	-8.99737
▁bank	-8.99892
▁d	-9.00059
▁surface	-9.00139
▁pumpkin	-9.00291
=18.	-9.00518
▁harvest	-9.00872
=5.8	-9.00955
▁amount	-9.01172
▁avoid	-9.01304
▁'	-9.01912
▁age	-9.01999
▁doses	-9.02056
ia	-9.02141
▁specific	-9.02334
▁sorghum	-9.02488
▁--	-9.02605
ol	-9.02747
▁foot	-9.03193
▁orally	-9.03294
▁rural	-9.03535
▁O	-9.03621
▁making	-9.03694
=5.7	-9.03841
▁vegetables	-9.04155
il	-9.04312
mm	-9.04404
▁Total	-9.04504
▁pm	-9.04523
▁3.	-9.05161
▁weight	-9.0526
▁nursery	-9.05383
▁lemon	-9.05394
▁compared	-9.05913
-2	-9.06131
ra	-9.06278
▁breeding	-9.06328
en	-9.06363
▁affected	-9.06549
ity	-9.06631
ment	-9.07424
▁damage	-9.07685
30	-9.07796
▁Project	-9.0793
▁less	-9.07952
▁J	-9.08113
▁W	-9.08144
20	-9.08487
▁west	-9.08561
ssp	-9.08882
▁appropriate	-9.08946
ll	-9.09025
▁transplanting	-9.09175
▁pond	-9.09361
and	-9.09416
▁loamy	-9.09483
▁significant	-9.09552
▁%	-9.09704
▁economic	-9.09782
▁KVK	-9.09855
▁benefits	-9.09896
gg	-9.09927
▁fodder	-9.10089
▁By	-9.10218
▁post	-9.10467
▁adviced	-9.10679
▁material	-9.10722
▁attack	-9.10987
▁Input	-9.11427
pur	-9.11493
▁0.5	-9.11524
hra	-9.11849
Sandy	-9.11987
▁role	-9.12003
▁cattle	-9.12027
▁resistant	-9.12035
▁availability	-9.12092
▁grams	-9.12605
▁Singh	-9.12833
▁same	-9.12879
▁late	-9.13042
▁drought	-9.13277
▁All	-9.13502
▁mango	-9.13594
▁processing	-9.13695
la	-9.13857
▁lime	-9.13914
▁micro	-9.13951
▁addition	-9.14051
▁helps	-9.14105
=17.	-9.14151
▁chemical	-9.14179
▁infection	-9.14208
▁condition	-9.14461
ma	-9.14552
▁details	-9.14597
▁ridge	-9.14626
▁black	-9.14653
iinngg	-9.14784
▁type	-9.14805
▁An	-9.15074
▁environment	-9.15181
dd	-9.15483
▁cucumber	-9.15578
=5.6	-9.1569
pp	-9.15711
▁main	-9.15896
▁cropping	-9.16273
=20.0	-9.16299
-1	-9.16333
▁produce	-9.16763
▁Krishi	-9.16765
▁un	-9.16765
▁sub	-9.16822
▁2022	-9.16902
▁livestock	-9.16906
▁change	-9.16967
▁essential	-9.16999
▁capacity	-9.17087
U	-9.17115
▁source	-9.17132
▁neem	-9.17324
▁activities	-9.17328
▁reducing	-9.1744
▁mixed	-9.17461
▁bavistin	-9.17544
W	-9.17588
▁bio	-9.17782
▁23	-9.18114
▁he	-9.18241
▁)	-9.18447
▁taken	-9.19026
▁stress	-9.19139
15	-9.19222
▁months	-9.19484
▁maintain	-9.19546
me	-9.19906
vi	-9.20055
▁population	-9.2031
▁rainfall	-9.20443
▁weeds	-9.20569
▁question	-9.20627
▁2019-20	-9.20718
▁bitter	-9.20934
▁harvesting	-9.20985
▁iinn	-9.21073
▁Education	-9.21252
▁resistance	-9.21356
▁4.	-9.21605
▁Seed	-9.21639
▁office	-9.21883
▁sector	-9.2189
ti	-9.22022
ak	-9.22151
ne	-9.22158
▁beds	-9.22268
▁related	-9.22427
mop	-9.22436
▁every	-9.22464
▁grow	-9.2283
▁within	-9.22892
▁cabbage	-9.22906
ala	-9.23014
uu	-9.23261
▁enhance	-9.23552
▁white	-9.23554
▁regions	-9.23667
nn	-9.23773
▁many	-9.23812
ul	-9.23886
▁Farming	-9.24012
▁fly	-9.24244
et	-9.24335
▁special	-9.24343
▁As	-9.24364
▁flowering	-9.24452
▁Pusa	-9.24503
ash	-9.24567
22	-9.24596
▁kilogram	-9.24614
88	-9.24637
ive	-9.24693
▁work	-9.24695
=16.	-9.24736
▁flower	-9.24783
▁drop	-9.25018
▁materials	-9.25021
44	-9.25175
▁address	-9.25303
▁hybrid	-9.25416
▁increasing	-9.25479
di	-9.25495
▁Tamil	-9.25565
40	-9.25571
▁body	-9.2558
▁culture	-9.25593
▁chillies	-9.25608
▁why	-9.25626
▁millets	-9.2582
45	-9.25833
▁nitrogen	-9.25855
▁provided	-9.25928
ine	-9.25957
ad	-9.26019
▁cauliflower	-9.26037
▁old	-9.26266
60	-9.26411
▁timely	-9.26721
▁agro	-9.27101
▁conservation	-9.27216
▁Kumar	-9.27367
▁parts	-9.27433
▁part	-9.27446
▁traditional	-9.27732
▁efficient	-9.28011
▁Development	-9.28048
▁Code	-9.28113
▁sweet	-9.28361
▁27	-9.28406
▁ensur	-9.286
▁visit	-9.28764
▁manure	-9.28889
▁litres	-9.29044
▁saaf	-9.29084
▁ring	-9.29147
▁winter	-9.29234
▁co	-9.29411
▁get	-9.29462
▁mildew	-9.2953
▁respectively	-9.29559
▁tracel	-9.29615
▁Horticulture	-9.29623
▁promote	-9.29656
▁among	-9.29681
co	-9.29764
▁Re	-9.30082
up	-9.30099
▁base	-9.30159
▁infected	-9.3029
▁mm	-9.30406
▁cowdung	-9.30509
▁enhanc	-9.30718
▁2018-19	-9.30836
▁spraying	-9.3088
▁would	-9.30885
▁rajasthan	-9.30935
▁mg	-9.30997
▁2.0	-9.31187
▁Nadu	-9.3119
▁compost	-9.31203
id	-9.31241
▁However	-9.31248
67	-9.31331
▁because	-9.3134
▁environmental	-9.31383
▁Government	-9.31682
▁tricel	-9.31849
▁resource	-9.32036
▁require	-9.32259
ant	-9.32302
▁2016-17	-9.3236
▁necessary	-9.32514
▁Gujarat	-9.32521
▁acid	-9.32594
ro	-9.32653
▁33	-9.33022
▁deep	-9.3312
▁village	-9.33226
▁suggest	-9.33331
cc	-9.33389
▁card	-9.33681
▁2023	-9.33709
▁supply	-9.33961
ut	-9.33977
▁want	-9.34071
▁requirement	-9.34082
▁yam	-9.34135
▁Animal	-9.3445
▁High	-9.34678
▁affect	-9.34716
▁Title	-9.3485
▁If	-9.34893
se	-9.34983
▁pre	-9.35042
▁Uttar	-9.35103
hhattisgarh	-9.35175
▁reduced	-9.35206
▁500	-9.35226
▁bolus	-9.35271
red	-9.35587
▁present	-9.35626
▁sp	-9.35914
▁Answer	-9.36065
▁knowledge	-9.36225
▁could	-9.36228
▁drip	-9.36269
▁Water	-9.36484
▁model	-9.36513
▁must	-9.36577
▁shoot	-9.36594
tic	-9.3661
▁education	-9.3666
0.0	-9.36746
▁annual	-9.36856
▁maharashtra	-9.36866
▁sprays	-9.37038
▁form	-9.37145
▁row	-9.37249
▁check	-9.37266
▁case	-9.37521
▁Co	-9.37526
▁He	-9.3796
▁Maharashtra	-9.38105
33	-9.38275
▁results	-9.38312
▁Plant	-9.38332
▁maturity	-9.38596
▁fresh	-9.38613
▁jute	-9.387
▁nutritional	-9.38712
▁half	-9.38811
clay	-9.38835
17	-9.38859
com	-9.38859
▁overall	-9.38879
tt	-9.38961
▁off	-9.38975
▁gujarat	-9.39089
=7.5	-9.3909
▁last	-9.39124
▁improving	-9.39253
based	-9.39439
18	-9.3958
▁average	-9.39681
▁Table	-9.39797
▁tea	-9.39978
▁study	-9.40025
▁net	-9.40094
▁ttoo	-9.40094
▁pulses	-9.40129
▁programmes	-9.40169
▁28	-9.40191
▁loss	-9.40346
▁security	-9.40423
▁commercial	-9.40439
▁sunflower	-9.40487
▁v	-9.40546
gram	-9.4077
ya	-9.40786
▁distance	-9.40861
▁clean	-9.40891
▁Karnataka	-9.40893
▁pig	-9.41045
▁26	-9.41118
▁fertility	-9.4114
▁31	-9.41159
▁benefit	-9.41218
▁mix	-9.41226
▁super	-9.41326
▁80	-9.41353
▁having	-9.41474
▁ratio	-9.41503
▁@2	-9.41521
▁feeding	-9.41557
▁life	-9.41611
▁without	-9.41652
▁fixed	-9.41715
▁Unit	-9.41772
de	-9.42006
▁approach	-9.42194
▁ash	-9.42414
▁regularly	-9.42543
cm	-9.42559
▁terms	-9.4281
nd	-9.42922
eedd	-9.43002
▁Science	-9.43051
▁scheme	-9.43058
▁Rs	-9.43096
lt	-9.43178
iv	-9.43303
▁yields	-9.43384
▁rainfed	-9.4348
cereals	-9.43542
▁matter	-9.43574
55	-9.43656
ni	-9.43737
▁h	-9.43836
▁spot	-9.43883
j	-9.43893
▁beans	-9.44086
▁light	-9.44087
▁cut	-9.44413
▁2-3	-9.44623
▁several	-9.44667
▁above	-9.449
te	-9.45097
ted	-9.4542
▁150	-9.4543
▁yellow	-9.45478
▁lower	-9.45631
▁programme	-9.45745
▁Central	-9.45765
▁across	-9.45773
▁human	-9.4601
▁effect	-9.46086
▁KVKs	-9.46226
▁Shri	-9.46277
▁activity	-9.46281
per	-9.4641
▁leading	-9.46502
ch	-9.46522
▁indofil	-9.4658
▁flowers	-9.46782
▁29	-9.47027
▁crucial	-9.47191
▁seedling	-9.47223
▁levels	-9.47339
▁demand	-9.47355
▁especially	-9.47356
▁moringa	-9.47489
▁protein	-9.47588
fibre	-9.47628
▁evening	-9.47802
▁erosion	-9.47967
▁who	-9.48037
▁distribution	-9.48088
▁vitamin	-9.48147
▁bengal	-9.48205
▁million	-9.48287
sugar	-9.48306
▁di	-9.4832
▁problems	-9.4882
J	-9.49176
ance	-9.49193
▁status	-9.49294
▁U	-9.49328
ag	-9.49352
▁Sciences	-9.49361
▁conducted	-9.4944
▁potash	-9.4954
▁structure	-9.4961
▁pea	-9.49801
thinai	-9.49875
ry	-9.49879
▁performance	-9.49903
▁providing	-9.49964
▁zone	-9.50036
▁once	-9.50124
▁Rice	-9.50219
age	-9.50228
kudiraivali	-9.50392
38	-9.50413
wa	-9.50505
ness	-9.50568
▁poor	-9.50821
sugarbeet	-9.50822
▁45).	-9.50953
samai	-9.5101
▁20).	-9.51065
▁Department	-9.51131
▁blitox	-9.51138
▁five	-9.51154
▁end	-9.51172
▁29).	-9.51184
gingely	-9.51255
▁95)	-9.51447
▁significantly	-9.51491
▁test	-9.51509
▁extension	-9.51615
▁roots	-9.51782
▁project	-9.51786
▁26).	-9.51808
colecrops	-9.51876
65	-9.51926
▁8.5)	-9.51929
▁symptoms	-9.52033
21	-9.52324
▁pressure	-9.52355
▁states	-9.52387
tur	-9.5239
▁factors	-9.52393
▁92)	-9.52405
▁near	-9.52538
▁castor	-9.52624
tapoica	-9.52626
is	-9.52644
▁properties	-9.52691
86	-9.52705
▁II	-9.52733
▁fertilization	-9.52929
op	-9.53163
▁brown	-9.53273
7°	-9.53334
ci	-9.53408
▁tab	-9.53551
▁diarrhoea	-9.53635
▁order	-9.53693
▁issues	-9.54011
▁General	-9.54137
▁6.0)	-9.54265
ac	-9.54358
▁insects	-9.54467
rd	-9.54492
▁taking	-9.54591
▁There	-9.54664
▁techniques	-9.54757
5°	-9.54815
ated	-9.54838
▁challenges	-9.54909
1°	-9.54972
▁controlling	-9.54995
▁set	-9.55011
ous	-9.55189
▁90	-9.55294
▁Scientist	-9.55407
ali	-9.55455
▁considered	-9.55529
ary	-9.55538
▁inject	-9.55589
▁55	-9.55599
ce	-9.55763
hi	-9.55921
▁June	-9.56034
▁go	-9.56233
▁soils	-9.56304
99	-9.56313
▁o	-9.56462
13	-9.56467
▁w	-9.56556
▁cluster	-9.56672
▁Committee	-9.56848
▁treat	-9.56905
▁women	-9.56921
97	-9.57006
da	-9.57045
▁colour	-9.5711
▁manage	-9.57208
▁waste	-9.57303
▁group	-9.57421
as	-9.57492
▁virus	-9.575
urea	-9.57572
▁prepared	-9.57689
▁mu	-9.57706
▁basal	-9.57711
▁Black	-9.57714
▁Punjab	-9.57714
▁rust	-9.57715
▁Crop	-9.57827
6°	-9.57867
ter	-9.57916
▁short	-9.57989
▁allow	-9.58018
▁dairy	-9.5824
77	-9.58367
80	-9.58524
hu	-9.58615
▁0.6	-9.58739
▁pepper	-9.58819
va	-9.58863
the	-9.58899
▁breed	-9.59168
▁peas	-9.59331
im	-9.59419
har	-9.5942
▁January	-9.59443
lo	-9.59549
▁pro	-9.5968
▁cause	-9.59763
▁dust	-9.59798
▁Centre	-9.59839
▁integrated	-9.60082
66	-9.60215
-45	-9.60295
▁laser	-9.6032
▁keep	-9.60471
▁contribute	-9.60554
▁Keywords	-9.60591
▁At	-9.60599
▁pusa	-9.60743
▁Extension	-9.60786
▁36	-9.60889
▁week	-9.60929
10	-9.61005
▁height	-9.61139
▁please	-9.61334
▁observed	-9.61501
Y	-9.61509
▁March	-9.6169
▁sprinkler	-9.617
▁May	-9.61806
est	-9.61841
▁national	-9.61846
no	-9.62255
16	-9.62348
▁cultural	-9.62479
lluvial	-9.62512
▁free	-9.62861
▁established	-9.63042
green	-9.6306
▁financial	-9.63068
=15.	-9.63162
om	-9.63166
q	-9.6322
ana	-9.63249
73	-9.63281
od	-9.63337
▁anti	-9.63342
▁protection	-9.6339
▁Production	-9.63419
▁purpose	-9.63426
34	-9.63594
▁unit	-9.63693
▁Rajasthan	-9.63715
▁turmeric	-9.63837
▁inter	-9.63895
▁De	-9.63967
▁districts	-9.63973
3°	-9.64239
▁shall	-9.64469
▁service	-9.64483
▁cover	-9.64516
▁highly	-9.64574
▁32	-9.64602
▁energy	-9.64664
ata	-9.64796
▁Zone	-9.64827
▁improvement	-9.64901
▁develop	-9.64908
▁weather	-9.64967
▁viz	-9.64977
▁44	-9.64977
▁block	-9.65018
Clay	-9.6522
▁rich	-9.65327
▁120	-9.65334
▁asked	-9.65357
▁bamboo	-9.65393
os	-9.65395
▁0.3	-9.65409
▁way	-9.65461
▁j	-9.65471
▁medium	-9.65528
11	-9.6568
min	-9.65752
▁particularly	-9.65852
ba	-9.65859
ization	-9.65865
▁(2	-9.6595
37	-9.65952
▁adoption	-9.6598
▁much	-9.66212
▁contain	-9.66292
▁5%	-9.66297
▁world	-9.6654
ty	-9.66619
▁heat	-9.66711
ide	-9.66726
▁al	-9.66835
▁strategies	-9.66902
▁line	-9.67017
-20	-9.67034
▁ginger	-9.67048
▁ex	-9.67052
▁importance	-9.67266
▁had	-9.67301
ai	-9.67363
76	-9.67396
ka	-9.674
▁global	-9.67482
▁identified	-9.67484
-3	-9.6751
▁types	-9.67535
bb	-9.67558
Rs	-9.67573
tra	-9.67578
▁aphids	-9.67593
▁product	-9.67716
▁They	-9.67776
▁vaccine	-9.67858
▁directed	-9.67883
▁analysis	-9.67968
elangana	-9.68107
rich	-9.68117
▁Reference	-9.68143
▁pesticides	-9.68146
▁acre	-9.6823
▁often	-9.68293
▁range	-9.68364
96	-9.68584
yy	-9.68598
▁scale	-9.68668
ling	-9.68816
▁maintaining	-9.68854
▁ragi	-9.68874
▁Fe	-9.69042
▁dried	-9.69056
▁depth	-9.69322
▁selection	-9.69343
▁papaya	-9.69468
0°	-9.69576
▁curl	-9.69589
▁blast	-9.6962
▁grains	-9.69621
▁capsicum	-9.69933
▁caused	-9.70023
ho	-9.70048
▁Fisheries	-9.70109
▁ant	-9.70109
▁250	-9.70169
▁developing	-9.70186
mi	-9.70246
▁System	-9.70252
▁2020	-9.70308
▁released	-9.70514
=25.3	-9.70588
cotton	-9.70626
▁3.0	-9.70699
▁losses	-9.7094
12	-9.70954
▁hours	-9.71029
ized	-9.71097
▁grass	-9.711
▁When	-9.71116
▁Jammu	-9.71117
▁During	-9.71268
▁services	-9.713
14	-9.71398
▁people	-9.71418
=25.1	-9.71494
▁arecanut	-9.71494
aa	-9.71515
▁(1	-9.71644
Red	-9.71683
4.	-9.71791
35	-9.71832
▁West	-9.71869
▁81	-9.71982
▁hand	-9.72203
▁boro	-9.7222
▁Andhra	-9.72225
▁building	-9.72265
▁Bengal	-9.72275
▁lead	-9.72289
▁2017-18,	-9.72398
▁germination	-9.72484
▁copper	-9.72561
ish	-9.72791
91	-9.72836
ence	-9.7286
▁maintenance	-9.72944
▁digester	-9.73087
26	-9.73194
▁layer	-9.73232
▁single	-9.73253
▁marketing	-9.73288
▁me	-9.73463
▁key	-9.73507
25	-9.73522
▁zinc	-9.73623
▁countries	-9.73872
.7	-9.739
▁drainage	-9.73951
5%	-9.73965
▁needed	-9.74145
▁trunk	-9.74182
27	-9.74184
▁regular	-9.74188
▁genetic	-9.74216
=26.2	-9.74416
▁towards	-9.74578
=25.8	-9.74728
▁After	-9.74729
▁With	-9.74729
▁establishment	-9.74733
▁policy	-9.74807
▁6.	-9.74813
▁clay	-9.74873
▁ants	-9.74878
▁maximum	-9.74894
icar	-9.74951
▁known	-9.75031
▁potassium	-9.75046
▁sown	-9.75101
ose	-9.75211
ies	-9.75242
▁since	-9.75279
▁additional	-9.75292
ip	-9.75308
z	-9.75401
lu	-9.75441
▁Control	-9.75471
▁International	-9.7551
▁mushroom	-9.75514
▁IC	-9.75589
▁salt	-9.75621
▁place	-9.75626
▁Hyderabad	-9.75672
sa	-9.75735
▁full	-9.75766
▁sali	-9.75824
▁planofix	-9.75831
ot	-9.75859
▁yy	-9.75977
85	-9.76057
▁access	-9.76141
wheat	-9.76195
▁produced	-9.76225
▁treated	-9.76237
▁even	-9.76269
▁requirements	-9.76462
▁operation	-9.76578
▁efforts	-9.76612
▁nutrition	-9.76743
▁gun	-9.76937
▁reduces	-9.76969
▁according	-9.76983
▁optimal	-9.77025
ig	-9.77047
ally	-9.77152
▁garlic	-9.77265
▁Veterinary	-9.77321
▁installment	-9.77429
▁extract	-9.77488
▁micronutrient	-9.77629
▁covered	-9.77665
▁agent	-9.77697
▁Pearl	-9.77708
▁2015-16	-9.77749
▁steps	-9.7775
▁involves	-9.77831
▁2021	-9.77839
=25.6	-9.78071
▁promoting	-9.78071
▁levelling	-9.78092
▁facilities	-9.78315
▁basis	-9.78317
=25.9	-9.78396
▁air	-9.78416
▁showed	-9.7855
▁radish	-9.78576
▁bark	-9.78669
▁flood	-9.78708
=25.2	-9.78721
▁aa	-9.78883
▁41	-9.78895
for	-9.79039
=25.5	-9.79047
▁50%	-9.79144
▁2018	-9.79352
▁sulphate	-9.79375
▁OF	-9.79394
▁recorded	-9.79442
▁Food	-9.79465
▁credit	-9.79478
▁monitoring	-9.79656
90	-9.79685
▁moist	-9.79702
du	-9.80011
pe	-9.80035
ts	-9.80109
▁page	-9.8014
=26.9	-9.80198
=26.0	-9.80199
▁we	-9.80242
▁110	-9.80256
▁second	-9.80274
▁design	-9.8032
▁four	-9.8044
▁lakh	-9.80532
=26.6	-9.80696
ari	-9.80747
=60.0	-9.80781
▁AND	-9.80797
=26.5	-9.80862
ox	-9.81135
▁pathogens	-9.81171
▁play	-9.81223
▁technical	-9.8124
▁inputs	-9.81262
72	-9.81277
▁Madhya	-9.81306
▁meet	-9.81334
=26.3	-9.81363
=25.0	-9.81364
nt	-9.81449
=26.4	-9.8153
▁risk	-9.81531
=26.8	-9.81698
▁carrot	-9.81702
▁villages	-9.81704
▁incidence	-9.8171
▁deficient	-9.81782
ca	-9.81926
▁semi	-9.81997
29	-9.82013
=25.4	-9.82034
ist	-9.8204
51	-9.82071
▁become	-9.82086
▁scientific	-9.82098
ting	-9.82108
▁October	-9.82118
▁remove	-9.82201
▁fisheries	-9.82287
▁french	-9.82307
=24.9	-9.82371
▁cassava	-9.82372
▁Bio	-9.82544
24	-9.8256
▁power	-9.82601
▁hills	-9.82661
▁duration	-9.82745
00	-9.82776
=26.7	-9.8288
un	-9.82972
▁account	-9.83157
▁watermelon	-9.83306
=26.1	-9.83391
▁teak	-9.8352
▁students	-9.83603
▁citrus	-9.83647
mo	-9.83682
46	-9.83723
▁Income	-9.83745
50	-9.83752
▁thereby	-9.83824
of	-9.83897
▁November	-9.83929
ff	-9.84059
▁tolerant	-9.84074
=25.7	-9.84076
▁pit	-9.84126
▁straw	-9.84162
▁North	-9.84232
ani	-9.84239
▁wood	-9.8435
do	-9.84364
▁critical	-9.84593
▁operations	-9.84651
▁soyabean	-9.8469
ating	-9.84746
▁initial	-9.84952
▁yielding	-9.84953
▁scientists	-9.85006
▁34	-9.85013
▁away	-9.85129
ru	-9.85158
▁plan	-9.85213
32	-9.85228
▁treatments	-9.85293
▁aphid	-9.85416
▁38	-9.85423
=24.4	-9.8546
▁cent	-9.85518
ja	-9.85533
▁costs	-9.8557
89	-9.85638
harvest	-9.85655
▁paste	-9.85662
▁carbon	-9.85742
man	-9.85802
ap	-9.85884
▁2019	-9.85892
ub	-9.85913
▁birds	-9.8599
▁stages	-9.86007
81	-9.86076
▁autumn	-9.86189
▁0.4	-9.86215
=5.5	-9.86337
▁Year	-9.86377
tion	-9.86473
▁nut	-9.86593
▁weeding	-9.86603
if	-9.86642
hh	-9.86671
res	-9.86765
▁(%)	-9.86803
19	-9.86839
▁37	-9.86892
▁Apply	-9.86898
▁open	-9.86917
▁equal	-9.86948
70	-9.87082
▁dressing	-9.87123
-4	-9.87226
▁below	-9.87415
▁Training	-9.87574
mail	-9.87779
7%	-9.87895
▁ridomil	-9.8802
▁apple	-9.88047
tu	-9.88077
▁split	-9.88149
▁registration	-9.88199
▁price	-9.88205
▁controlled	-9.88217
=24.1	-9.88289
kk	-9.88392
▁0.0	-9.88398
▁industry	-9.88558
64	-9.88604
one	-9.88617
▁FOR	-9.88655
▁slurry	-9.88702
ph	-9.88752
ara	-9.88804
000	-9.88823
▁kvk	-9.88863
36	-9.88892
ill	-9.88953
▁48	-9.89036
▁community	-9.89099
=65.0	-9.891
▁useful	-9.89143
▁ground	-9.89168
=24.3	-9.89189
=24.5	-9.89189
ite	-9.8919
▁dung	-9.89202
▁success	-9.89325
▁share	-9.89377
7.	-9.89457
▁degree	-9.89734
ang	-9.89806
48	-9.89878
▁adopted	-9.89953
▁consumption	-9.90007
▁branches	-9.90033
▁Integrated	-9.90149
▁indigenous	-9.90189
▁bug	-9.90294
▁streptomycin	-9.90325
▁multi	-9.90375
▁ch	-9.90378
em	-9.90421
▁July	-9.90505
▁blackgram	-9.90528
▁powdery	-9.90618
▁drying	-9.90622
▁primary	-9.90739
▁wide	-9.90802
92	-9.90905
mer	-9.90944
▁SRI	-9.90987
▁carried	-9.91018
go	-9.91132
▁42	-9.91215
▁space	-9.91321
line	-9.91407
▁Bihar	-9.91425
▁Suitable	-9.91477
less	-9.9159
▁Y	-9.91636
▁AICRP	-9.91712
=27.0	-9.91755
▁2013-14	-9.91756
79	-9.91761
93	-9.91788
light	-9.91815
▁oku	-9.91905
82	-9.91979
▁hybrids	-9.92016
▁horticultural	-9.92034
▁future	-9.92127
▁April	-9.92135
▁centre	-9.92198
▁result	-9.92217
=24.8	-9.92313
▁Volume	-9.92313
qu	-9.92372
▁fo	-9.9238
▁documents	-9.9244
▁juice	-9.925
=24.2	-9.92687
▁utilization	-9.92687
▁750	-9.92701
▁reported	-9.9271
▁2017	-9.9276
▁deficiency	-9.92781
▁absence	-9.92875
▁reduction	-9.92879
▁Haryana	-9.92888
-5	-9.92918
▁greengram	-9.92925
▁added	-9.93018
=21.1	-9.93062
▁direct	-9.93069
▁medicinal	-9.93157
▁Farm	-9.93182
=24.6	-9.93251
=24.0	-9.9344
▁lines	-9.93465
hy	-9.93472
=22.3	-9.93628
▁irrigated	-9.93738
ICAR	-9.93777
▁Post	-9.93818
63	-9.93853
▁create	-9.93921
▁adequate	-9.93933
▁transfer	-9.94
47	-9.94107
69	-9.94173
▁construction	-9.94202
▁few	-9.94226
-50	-9.94267
▁litr	-9.94279
▁ffoorr	-9.9432
ex	-9.94417
▁collected	-9.94441
54	-9.94519
▁et	-9.94571
▁possible	-9.94578
▁300	-9.9462
▁selected	-9.94705
▁units	-9.94736
▁obtained	-9.94737
▁minimize	-9.9477
▁ly	-9.94799
ell	-9.94824
▁date	-9.94864
▁Maize	-9.94869
▁government	-9.94869
▁severe	-9.94887
=22.8	-9.94961
▁head	-9.94978
6%	-9.95071
row	-9.95087
▁One	-9.95119
▁north	-9.95151
=24.7	-9.95153
oc	-9.95201
▁effects	-9.95204
▁sufficient	-9.95383
▁thus	-9.95461
71	-9.95471
▁drench	-9.95473
he	-9.95499
gmail	-9.95533
▁testing	-9.95553
▁generation	-9.95572
=90.0	-9.95637
87	-9.95687
▁heavy	-9.95763
=23.2	-9.95924
▁floating	-9.95942
▁Page	-9.96087
▁sustainability	-9.96119
=7.6	-9.96312
▁supplement	-9.96333
▁st	-9.96746
ga	-9.96779
▁Secretary	-9.96803
si	-9.96873
42	-9.96883
rice	-9.96973
=23.4	-9.97092
▁okra	-9.97092
▁Bank	-9.97108
75	-9.97115
day	-9.9713
▁fym	-9.97242
▁enhanced	-9.97248
=23.3	-9.97288
▁2003-04	-9.97288
▁meat	-9.97319
▁duck	-9.97381
▁moong	-9.97388
nu	-9.97528
▁livelihood	-9.97576
ability	-9.97587
po	-9.97606
▁release	-9.97636
▁2014-15	-9.97682
▁EC	-9.97753
▁adopt	-9.97918
▁vine	-9.98042
▁beneficial	-9.98175
3.	-9.98207
▁Application	-9.98373
▁least	-9.98383
ium	-9.98413
▁Assam	-9.98473
Table	-9.98566
▁upon	-9.98711
▁another	-9.98729
▁young	-9.98896
kar	-9.98961
▁signs	-9.98973
▁drum	-9.98979
59	-9.99103
▁biological	-9.99273
=22.2	-9.99469
=22.9	-9.99469
=23.8	-9.99469
▁2011-12	-9.99471
▁cake	-9.99581
▁throughout	-9.99794
▁popular	-9.9985
ng	-9.99855
=23.5	-9.99871
=7.8	-9.99871
▁Crops	-9.99891
▁Kashmir	-9.99924
▁Land	-10.0002
▁ka	-10.0004
▁1999-00	-10.0007
▁returns	-10.0008
▁now	-10.0022
pl	-10.0023
▁Area	-10.0032
84	-10.0036
▁start	-10.0062
▁self	-10.0063
▁((	-10.0064
=21.9	-10.0068
▁GW	-10.0069
▁package	-10.0078
▁mid	-10.0078
▁Low	-10.008
ge	-10.0083
▁depending	-10.0085
=22.7	-10.0088
@2	-10.0097
▁diversification	-10.0098
▁vi	-10.01
=21.8	-10.0109
▁attention	-10.0113
▁Odisha	-10.0116
▁Regularly	-10.0125
▁horticulture	-10.0129
▁3-4	-10.013
ve	-10.0131
bu	-10.0133
▁betel	-10.0133
fer	-10.0141
▁46	-10.0142
ah	-10.0143
▁conventional	-10.015
▁5.0	-10.0151
▁gold	-10.0152
1%	-10.0155
▁either	-10.017
=21.5	-10.019
=7.7	-10.0191
▁phosphate	-10.0192
land	-10.0193
▁7.8	-10.0195
▁rotation	-10.0198
▁interventions	-10.0199
▁normal	-10.0214
43	-10.0226
▁tools	-10.0233
▁snake	-10.0234
AU	-10.0241
▁planted	-10.0245
era	-10.0247
▁On	-10.0249
▁ku	-10.0255
05	-10.0256
▁our	-10.026
▁2009-10	-10.0263
▁Yield	-10.0279
▁Ex	-10.0282
bi	-10.0286
gov	-10.0287
=22.1	-10.0294
=22.6	-10.0294
57	-10.0299
28	-10.0299
▁contaminated	-10.0304
▁climatic	-10.0312
=27.1	-10.0315
▁Ma	-10.0316
ab	-10.0319
▁equipment	-10.0329
▁stored	-10.0331
/10	-10.0332
=22.5	-10.0335
▁2002-03	-10.0335
▁studies	-10.0335
▁remaining	-10.0338
7.0	-10.0338
▁business	-10.034
ud	-10.0352
=21.6	-10.0356
=23.7	-10.0356
▁Field	-10.0356
▁47	-10.036
▁Agri	-10.036
▁payment	-10.0371
=23.1	-10.0377
=23.9	-10.0377
=28.1	-10.0377
▁occurrence	-10.0377
▁assistance	-10.0377
▁select	-10.038
▁fibre	-10.0395
=23.6	-10.0398
▁cultivars	-10.0401
▁Cabbage	-10.0408
▁Please	-10.0409
▁mixing	-10.0415
=22.4	-10.0419
av	-10.0436
ors	-10.0437
▁Knowledge	-10.044
▁portion	-10.044
cl	-10.0449
▁precision	-10.0451
▁Report	-10.0451
▁stock	-10.0452
og	-10.0456
56	-10.0463
end	-10.0464
▁nature	-10.0472
=27.4	-10.0482
=28.8	-10.0482
=23.0	-10.0482
ure	-10.0485
▁tank	-10.0492
▁Green	-10.0493
▁pay	-10.0493
▁Sub	-10.0493
▁con	-10.05
=21.4	-10.0503
▁2006-07	-10.0514
▁length	-10.0514
▁2012-13	-10.0514
ili	-10.0531
ver	-10.0535
▁man	-10.0548
▁Ba	-10.0563
▁Specific	-10.0567
5.	-10.0568
be	-10.0572
za	-10.0583
▁agri	-10.0586
▁medicine	-10.0589
ki	-10.0594
▁marginal	-10.0598
▁fed	-10.0606
ect	-10.0628
▁physical	-10.0631
=21.2	-10.0631
=21.7	-10.0631
95	-10.0637
▁haryana	-10.0642
▁elephant	-10.0647
=21.3	-10.0653
▁4.0	-10.0664
▁Agro	-10.067
▁Institutes	-10.067
▁entire	-10.0675
▁achieve	-10.0675
▁plantation	-10.0678
▁managing	-10.0696
01	-10.0701
=7.9	-10.0718
08	-10.0723
rs	-10.0723
▁worm	-10.0728
▁February	-10.0737
ize	-10.0746
▁ppm	-10.0747
▁Su	-10.076
aarr	-10.0768
▁uniform	-10.0774
▁Ministry	-10.0778
pi	-10.0783
▁plastic	-10.0794
▁urine	-10.0794
ase	-10.0797
=27.5	-10.0805
▁Member	-10.0807
dome	-10.0807
53	-10.0807
▁those	-10.0816
▁density	-10.0822
▁2016	-10.083
▁2000-01	-10.0838
▁Universities	-10.0838
▁Kerala	-10.0838
▁72	-10.0839
cum	-10.0849
=29.6	-10.0849
▁2008-09	-10.0849
▁1.2	-10.0857
▁jharkhand	-10.086
yl	-10.087
Z	-10.087
▁2010-11	-10.0871
▁flow	-10.0881
▁cold	-10.089
▁garden	-10.0891
=28.2	-10.0893
▁next	-10.0893
▁urad	-10.0893
friable	-10.0893
maize	-10.0902
II	-10.0903
▁sa	-10.091
▁tuber	-10.0911
▁2020-21	-10.0915
▁shade	-10.0915
▁mineral	-10.0915
▁started	-10.0919
▁limited	-10.0921
▁Himachal	-10.0924
▁skin	-10.0925
eer	-10.0925
▁round	-10.0928
▁successful	-10.093
▁Promotion	-10.0937
=22.0	-10.0937
▁household	-10.0938
▁sow	-10.0938
▁goats	-10.094
74	-10.0953
▁hot	-10.0956
52	-10.0961
▁affecting	-10.0969
▁causes	-10.0975
▁2004-05	-10.0981
ung	-10.0983
▁Net	-10.0987
▁wild	-10.0992
▁sesamum	-10.0992
tomato	-10.1019
eenn	-10.1019
▁AA	-10.1024
▁focus	-10.1031
▁FYM	-10.1035
▁stakeholders	-10.1037
▁assessment	-10.1038
▁report	-10.1039
ow	-10.1044
▁Number	-10.1048
▁nearest	-10.1049
farm	-10.1057
=29.3	-10.107
▁Further	-10.1082
▁0.8	-10.1083
▁muskmelon	-10.1083
▁39	-10.1099
▁input	-10.1107
▁dis	-10.1114
ions	-10.1118
▁components	-10.1118
▁concentration	-10.1119
▁borers	-10.112
vegetable	-10.1121
▁bring	-10.1125
▁sugar	-10.1131
sp	-10.1137
▁facilitate	-10.1138
ragi	-10.1143
98	-10.1147
▁back	-10.1148
▁organized	-10.1151
cy	-10.1152
▁science	-10.1156
▁2001-02	-10.1161
=21.0	-10.1161
pt	-10.1166
▁eggs	-10.1168
▁directly	-10.1169
uri	-10.1176
▁veterinary	-10.1189
▁cross	-10.1193
▁2005-06	-10.1195
▁Division	-10.1195
▁tr	-10.1198
▁wound	-10.12
▁lack	-10.1202
▁harvested	-10.1203
=28.6	-10.1206
▁germplasm	-10.1206
▁officer	-10.1213
▁wind	-10.1218
▁implementation	-10.1219
groundnut	-10.1219
=28.3	-10.1229
cur	-10.1234
49	-10.1235
▁associated	-10.1235
▁highest	-10.1235
small	-10.1237
▁carp	-10.1241
▁institutes	-10.1251
▁breeds	-10.1254
▁machine	-10.1256
▁india	-10.1257
ok	-10.1273
au	-10.1274
=28.4	-10.1274
vv	-10.1274
▁TThhee	-10.1286
/5	-10.1289
▁calcium	-10.1297
=28.7	-10.1297
▁monsoon	-10.1298
▁east	-10.1306
▁samman	-10.1309
▁fungicide	-10.1315
ik	-10.1318
=27.6	-10.132
▁Improved	-10.1321
▁Programme	-10.1322
ina	-10.1328
▁7.	-10.1329
▁institutions	-10.1333
=20.7	-10.1343
▁weeks	-10.1355
▁subject	-10.1355
▁palm	-10.1356
▁enterprises	-10.1366
▁2002	-10.1367
▁fever	-10.1368
▁models	-10.1371
▁1998-99	-10.1378
▁minimum	-10.1378
ere	-10.138
led	-10.1384
=29.7	-10.139
▁captan	-10.139
▁feet	-10.1392
▁52	-10.1393
cauliflower	-10.1394
sorghum	-10.1394
0,000	-10.1395
▁mainly	-10.1398
▁Zn	-10.1401
▁chickpea	-10.1401
▁quantity	-10.1401
=28.9	-10.1413
out	-10.1413
▁response	-10.1413
▁00.0	-10.1417
▁redgram	-10.1417
Indian	-10.1418
▁generally	-10.142
▁rates	-10.1424
▁infrastructure	-10.1424
▁rapeseed	-10.1424
▁opportunities	-10.1424
cowpea	-10.1429
▁employment	-10.143
▁applications	-10.143
▁chicken	-10.1431
▁plus	-10.1432
▁interest	-10.1435
=27.3	-10.1436
=28.5	-10.1436
lic	-10.144
▁wilting	-10.1441
brinjal	-10.1441
▁changes	-10.1456
ind	-10.1458
▁central	-10.146
39	-10.1461
▁Telangana	-10.1476
▁public	-10.1481
▁parameters	-10.1483
onion	-10.1487
▁bhendi	-10.1496
und	-10.1499
sugarcane	-10.15
blackgram	-10.1501
▁Millets	-10.1504
▁2007-08	-10.1506
▁phosphorus	-10.151
Pearl	-10.1512
▁enhances	-10.1529
=20.3	-10.1529
=20.9	-10.1529
=27.7	-10.1529
▁Under	-10.153
sh	-10.1541
▁tillage	-10.1543
gi	-10.1544
elephant	-10.1548
eerr	-10.1549
▁component	-10.155
Adv	-10.1551
▁1.3	-10.1551
▁pipes	-10.1552
▁chain	-10.1553
▁Al	-10.1553
▁multiple	-10.1563
cucumber	-10.1572
bottle	-10.1572
=28.0	-10.1577
water	-10.1584
sweet	-10.1596
=20.8	-10.16
bulb	-10.1608
ful	-10.1611
83	-10.1615
▁Farmer	-10.1617
▁mr	-10.1619
=29.2	-10.1624
=29.5	-10.1624
▁caus	-10.1633
▁cases	-10.1638
▁action	-10.1639
▁September	-10.1641
heavy	-10.1644
sunflower	-10.1644
▁43	-10.1644
=20.6	-10.1648
aann	-10.1665
mg	-10.1669
0%	-10.1671
▁65	-10.1675
200	-10.1685
▁showing	-10.1691
ster	-10.1692
french	-10.1704
▁gene	-10.1711
varagu	-10.1716
capsicum	-10.1716
=20.2	-10.1719
=27.2	-10.1719
▁eye	-10.1722
▁Asia	-10.1732
radish	-10.1741
=20.5	-10.1743
=27.8	-10.1743
=27.9	-10.1743
annual	-10.1753
snake	-10.1753
greengram	-10.1754
▁nidhi	-10.1755
▁pesticide	-10.1756
act	-10.1756
▁horsegram	-10.1757
▁rows	-10.176
bhendi	-10.1765
form	-10.1766
▁bordeaux	-10.1767
han	-10.177
▁11.	-10.1772
▁multiplex	-10.1774
pumpkin	-10.1777
▁December	-10.1778
▁return	-10.1779
▁Ar	-10.1787
cluster	-10.1789
redgram	-10.1791
▁advantages	-10.1792
war	-10.1796
▁groups	-10.1798
▁microbial	-10.1801
▁mature	-10.1806
muskmelon	-10.1814
soyabean	-10.1814
=14.	-10.1817
▁ribbed	-10.1829
02	-10.1829
▁author	-10.183
ribbed	-10.1839
tinda	-10.1845
Iso	-10.1848
horsegram	-10.1851
▁biomass	-10.1852
▁Organic	-10.1856
▁loan	-10.1865
pa	-10.1872
loamy	-10.1875
carrot	-10.1875
▁lateritic	-10.1876
▁beetroot	-10.1876
▁8.2)	-10.1879
▁42).	-10.1883
beetroot	-10.1888
bengalgram	-10.1888
oli	-10.1888
▁85	-10.1896
tar	-10.1898
chillies	-10.19
▁NO	-10.1902
▁inj	-10.1906
watermelon	-10.1912
▁current	-10.1917
▁21).	-10.1918
▁sri	-10.1922
▁general	-10.194
ea	-10.1941
▁presented	-10.1945
▁0.9	-10.1946
▁add	-10.1946
▁2024	-10.1947
bitter	-10.195
▁wet	-10.1952
▁32).	-10.1958
▁finger	-10.1961
▁features	-10.1966
▁optimum	-10.1974
panivaragu	-10.1975
▁bi	-10.1975
castor	-10.1975
peas	-10.1981
▁24).	-10.1983
uc	-10.1985
▁egg	-10.1985
=29.8	-10.1986
Cabbage	-10.1987
▁iron	-10.1988
AD	-10.1995
▁includes	-10.1998
=13.	-10.2001
use	-10.2005
47).	-10.2005
▁till	-10.2013
jute	-10.2013
▁soybean	-10.2019
▁safety	-10.2023
▁certain	-10.2023
chowchow	-10.2025
▁host	-10.203
▁foliar	-10.2035
78	-10.2038
▁varagu	-10.2038
▁Se	-10.2038
▁8.	-10.204
SS	-10.2043
▁alternative	-10.2048
▁CO	-10.2049
mp	-10.2052
);	-10.207
AS	-10.2071
Ry	-10.2073
▁trials	-10.2079
▁existing	-10.2082
▁labour	-10.2083
▁pearl	-10.2089
▁saline	-10.2124
▁potatoes	-10.2127
▁canker	-10.2129
ial	-10.2134
▁south	-10.2134
▁kept	-10.2135
▁bengalgram	-10.2137
tr	-10.2137
=20.4	-10.216
▁mortality	-10.216
tan	-10.216
▁tinda	-10.2162
▁38).	-10.2167
62	-10.2167
chi	-10.2169
▁22).	-10.218
▁resulting	-10.2182
▁Fish	-10.2188
rraa	-10.219
ical	-10.2191
▁Pest	-10.2192
▁tobacco	-10.2197
▁ecosystem	-10.2199
▁Regular	-10.2203
▁zones	-10.2208
▁morning	-10.221
▁180)	-10.2211
▁deal	-10.2219
▁panivaragu	-10.2221
▁31)	-10.2229
61	-10.2235
▁improves	-10.2242
▁18).	-10.2246
▁dr	-10.2246
tri	-10.2247
▁9.0)	-10.2252
▁6.0	-10.2253
▁view	-10.2261
▁covering	-10.2268
▁awareness	-10.2273
▁presence	-10.2273
▁right	-10.2285
=29.4	-10.2285
▁oxygen	-10.2286
▁49	-10.2288
▁safe	-10.2294
▁male	-10.2295
▁SAUs	-10.23
▁booster	-10.2302
▁chowchow	-10.2309
▁technique	-10.2313
ven	-10.2333
ice	-10.2335
▁Me	-10.2339
▁constraints	-10.2354
▁fungi	-10.2362
thi	-10.2365
▁branch	-10.2366
▁collection	-10.2377
▁properly	-10.2378
▁98)	-10.2385
▁prevention	-10.2386
▁relative	-10.2387
▁Head	-10.2387
▁increases	-10.2392
▁respective	-10.2394
▁down	-10.2396
5.00	-10.2402
▁site	-10.2406
=29.1	-10.2413
▁Spray	-10.2413
her	-10.2413
▁npk	-10.2413
▁Un	-10.2422
▁target	-10.2425
▁Doubl	-10.2427
▁0.7	-10.2434
▁my	-10.2438
ner	-10.244
▁SS	-10.244
▁volume	-10.2451
ora	-10.2452
▁ba	-10.2462
=20.1	-10.2464
pro	-10.2478
▁own	-10.248
100	-10.2481
▁characteristics	-10.2482
▁La	-10.2484
▁liquid	-10.249
▁turn	-10.2492
▁working	-10.2496
▁march	-10.2498
bo	-10.25
▁Agenda	-10.2503
▁400	-10.2517
▁private	-10.2518
seed	-10.252
500	-10.2526
▁diversity	-10.2529
▁0.2	-10.253
▁centres	-10.2552
ole	-10.2556
▁aspects	-10.2559
ww	-10.2568
ain	-10.2575
▁Us	-10.2581
iti	-10.2583
▁achieved	-10.2592
▁spots	-10.2593
▁eating	-10.2594
▁calf	-10.2595
=	-10.2596
▁involved	-10.2597
▁95	-10.2601
▁la	-10.2603
▁Strategies	-10.2615
▁caterpillar	-10.2616
▁classic	-10.262
ative	-10.262
▁tolerance	-10.262
▁bo	-10.2625
▁uses	-10.2627
▁Con	-10.2631
▁bales	-10.2634
▁manner	-10.2634
ep	-10.2641
94	-10.2648
58	-10.2673
=29.0	-10.2673
=12.	-10.2674
▁influence	-10.2684
▁Climate	-10.2686
▁traits	-10.2688
long	-10.2689
▁su	-10.2689
▁strong	-10.2692
▁rearing	-10.2693
09	-10.2693
ct	-10.2703
3%	-10.2705
con	-10.2709
▁nagaland	-10.2713
▁buffalo	-10.2722
▁programs	-10.2727
▁Fruit	-10.273
▁effectiveness	-10.2739
▁collaboration	-10.2739
▁August	-10.2741
▁Di	-10.2746
=29.9	-10.2752
▁relevant	-10.2752
iinn	-10.2757
▁active	-10.2762
▁protected	-10.2765
▁AgR	-10.2766
▁procedure	-10.2776
▁whereas	-10.2778
▁samples	-10.279
▁schemes	-10.2794
▁foR	-10.2796
▁Irrigation	-10.2805
▁social	-10.2805
▁South	-10.2806
▁na	-10.2808
▁Capital	-10.2811
dy	-10.2812
▁introduced	-10.2824
soil	-10.2827
▁Sa	-10.283
▁promotion	-10.2832
▁Exclusive	-10.2832
ran	-10.2838
▁bucket	-10.2846
drum	-10.2852
▁51	-10.2858
ke	-10.2862
▁might	-10.2863
▁sand	-10.2867
▁Directorate	-10.2868
▁Therefore	-10.2886
iii	-10.2889
▁thin	-10.2891
▁app	-10.2898
▁dress	-10.2902
/100	-10.2905
▁biodiversity	-10.2907
▁nagar	-10.291
▁iiss	-10.2911
▁dosage	-10.2912
▁prepare	-10.2912
ula	-10.2916
▁CC	-10.2923
ore	-10.2927
ps	-10.2929
6.	-10.2931
tor	-10.2935
▁international	-10.2953
▁attain	-10.2954
▁tropical	-10.2962
▁Vi	-10.2965
▁Livestock	-10.2967
▁her	-10.2967
nagar	-10.2974
65),	-10.2975
▁Additionally	-10.2983
▁prone	-10.2984
ssee	-10.2985
▁preventing	-10.2991
▁cycle	-10.2994
term	-10.2998
▁Sh	-10.3001
▁milli	-10.3004
ten	-10.3007
▁1.8	-10.302
▁hydraulic	-10.3021
▁Ka	-10.3023
▁Vice	-10.3024
▁melon	-10.3032
▁66	-10.3032
akhand	-10.3036
▁respect	-10.3048
▁guidelines	-10.3048
▁network	-10.3049
▁care	-10.3057
▁easy	-10.3062
▁jammu	-10.3062
▁1%	-10.3064
▁en	-10.3065
▁store	-10.3068
▁bacteria	-10.3069
▁mo	-10.3073
▁quintal	-10.3076
▁recent	-10.3085
03	-10.3085
▁export	-10.3087
▁discuss	-10.3089
▁Achievements	-10.309
▁basic	-10.309
23	-10.3096
mu	-10.3099
▁institute	-10.3104
▁formation	-10.3112
▁degradation	-10.3117
▁arhar	-10.3118
▁issue	-10.3125
ian	-10.3127
▁operational	-10.313
gu	-10.3134
mustard	-10.3136
▁projects	-10.3137
▁received	-10.314
▁impacts	-10.3148
year	-10.3152
▁standard	-10.3159
▁meeting	-10.3161
sis	-10.3167
▁1997-98	-10.3172
▁About	-10.3172
ology	-10.3174
▁example	-10.3186
▁raising	-10.3186
▁hard	-10.3191
▁evaluation	-10.32
2.5	-10.3203
▁six	-10.3207
-10	-10.3207
▁similar	-10.3214
king	-10.3214
not	-10.3216
▁leveling	-10.3218
400	-10.3223
▁shape	-10.3226
04	-10.3245
▁ingredients	-10.3248
▁querry	-10.3256
ward	-10.3258
vo	-10.326
▁rs	-10.3265
tal	-10.3267
▁technological	-10.327
▁almo	-10.3271
▁Action	-10.3275
ju	-10.3278
▁vary	-10.3278
rg	-10.3287
▁stomach	-10.3296
▁2012	-10.3298
▁prices	-10.33
▁follow	-10.3303
ual	-10.3307
▁residues	-10.3311
▁complete	-10.3324
▁ii	-10.3325
▁liters	-10.3327
▁describe	-10.3331
▁Mo	-10.3345
▁ss	-10.3353
▁diameter	-10.3354
mal	-10.3355
▁Some	-10.3358
▁1250	-10.3358
ification	-10.3366
▁We	-10.3366
▁litchi	-10.337
our	-10.3374
▁suffering	-10.3379
ities	-10.338
aj	-10.3406
▁Cha	-10.3409
▁cleaning	-10.3419
▁Gandhiji	-10.3425
▁bhindi	-10.3425
▁kill	-10.3426
▁revealed	-10.3428
esh	-10.3429
▁meter	-10.344
▁ne	-10.3441
▁br	-10.3442
▁73	-10.3445
▁Sp	-10.3446
▁wounds	-10.3447
▁Plan	-10.3455
▁attract	-10.3466
300	-10.3468
▁applying	-10.3479
▁bbee	-10.348
volving	-10.3487
rree	-10.3487
▁expected	-10.3497
▁am	-10.3503
8°	-10.3505
▁100.0	-10.3508
▁Z	-10.3508
▁review	-10.351
▁99	-10.3517
▁again	-10.3523
▁commonly	-10.3524
▁insecticide	-10.3531
▁mulch	-10.3538
▁Mahatma	-10.3539
-12	-10.3544
▁bar	-10.3545
▁Potato	-10.3568
▁remedy	-10.3568
▁-----	-10.3568
shi	-10.3572
▁ability	-10.3579
black	-10.3579
▁broiler	-10.3582
der	-10.3592
▁100.00	-10.3595
▁Sustainable	-10.3596
time	-10.3599
cid	-10.3609
▁dark	-10.3612
ns	-10.3619
▁Do	-10.3619
▁organizations	-10.3625
▁staff	-10.3625
▁combination	-10.3626
scale	-10.3632
▁term	-10.3633
▁cap	-10.3633
▁led	-10.3634
▁vaccination	-10.3634
▁krishi	-10.364
▁64	-10.3653
▁Developed	-10.3658
▁eggplant	-10.3664
07	-10.3672
▁infections	-10.3675
gr	-10.3677
▁schedule	-10.3683
▁recovery	-10.3686
fi	-10.369
▁modern	-10.3697
▁mosaic	-10.3698
IR	-10.37
ries	-10.3708
ning	-10.371
▁real	-10.371
▁orchards	-10.3715
▁ideal	-10.3717
▁alternate	-10.372
▁900	-10.372
▁MM	-10.3724
▁creating	-10.3727
▁setting	-10.373
▁final	-10.3736
▁Region	-10.3736
▁punjab	-10.3742
▁th	-10.3748
▁formulation	-10.375
▁house	-10.3756
▁sheep	-10.3757
▁Wheat	-10.3757
▁Treatment	-10.3757
ron	-10.3758
▁leads	-10.3759
▁z	-10.3762
▁po	-10.3762
▁cereals	-10.3767
41	-10.3767
▁Pre	-10.3773
▁horse	-10.3785
▁Mal	-10.3796
▁AI	-10.3799
0000	-10.3807
▁called	-10.3808
▁drenching	-10.3811
▁par	-10.3811
▁Raj	-10.3813
let	-10.3813
men	-10.3816
▁side	-10.3816
▁78	-10.382
gen	-10.3823
▁Leaf	-10.383
ita	-10.3839
▁beetle	-10.384
▁1.1	-10.3842
▁kashmir	-10.3845
▁mahaphal	-10.3845
▁initiation	-10.3845
▁pod	-10.3863
io	-10.3872
▁mancozeb	-10.388
▁tractor	-10.3886
▁jowar	-10.3889
▁resilience	-10.3889
▁entrepreneurs	-10.3899
▁IARI	-10.3902
In	-10.3902
Central	-10.3907
▁skills	-10.3908
▁bl	-10.3908
▁ecological	-10.391
▁moderately	-10.391
dar	-10.3915
tro	-10.3918
▁diverse	-10.3919
ery	-10.3925
▁se	-10.3929
▁investment	-10.393
▁dome	-10.3932
▁industries	-10.3934
=11.	-10.3936
▁continuous	-10.3942
wal	-10.3945
▁great	-10.3952
▁St	-10.3953
▁indicated	-10.3955
▁learning	-10.396
▁universities	-10.3964
▁Minister	-10.3964
▁Hybrid	-10.3964
▁180	-10.3966
▁sun	-10.3968
▁dist	-10.397
▁0.1	-10.397
▁point	-10.3975
▁College	-10.3979
▁held	-10.3979
▁maintained	-10.398
▁Be	-10.3981
all	-10.3981
month	-10.3983
▁damping	-10.3994
▁Chhattisgarh	-10.4006
▁excessive	-10.401
▁greater	-10.4014
salty	-10.4021
▁forest	-10.4023
▁fall	-10.4044
▁grant	-10.4063
▁56	-10.4069
▁US	-10.4074
▁fruiting	-10.408
ped	-10.409
▁Average	-10.41
▁poly	-10.4101
so	-10.4105
▁concept	-10.4113
deep	-10.4124
▁Annual	-10.413
▁Refer	-10.4145
▁steel	-10.4145
▁kendra	-10.4146
▁4-5	-10.4151
▁spp	-10.4154
▁Ta	-10.416
▁family	-10.4161
▁panicle	-10.4161
▁orange	-10.4161
▁output	-10.4162
▁Ch	-10.4164
▁experience	-10.4167
yr	-10.4174
▁program	-10.4174
▁First	-10.4176
▁Vigyan	-10.4176
▁arunachal	-10.4176
▁RABI	-10.4177
aacc	-10.4187
▁cell	-10.4191
▁generated	-10.4197
▁containing	-10.4197
▁solutions	-10.4203
▁continue	-10.4203
▁According	-10.4207
▁Uttarakhand	-10.4208
-25	-10.421
▁manager	-10.4211
▁10-15	-10.4213
▁advise	-10.4213
▁ebi	-10.4214
▁resulted	-10.4214
zi	-10.422
acre	-10.422
ese	-10.4228
-19	-10.4231
▁Varieties	-10.4238
▁consistent	-10.4239
8%	-10.4239
▁ready	-10.424
iya	-10.4241
▁Date	-10.4254
PR	-10.4263
▁18)	-10.4265
▁diet	-10.4266
▁advantage	-10.4267
ise	-10.4269
▁dropping	-10.4269
▁Technical	-10.4281
▁profit	-10.4282
ring	-10.4283
▁Ga	-10.4283
▁just	-10.4284
▁unique	-10.4284
hal	-10.4286
▁offer	-10.4287
▁(19	-10.4288
▁downy	-10.4293
▁clear	-10.4296
▁@1	-10.4299
▁mean	-10.4301
▁Day	-10.4302
ARme	-10.4315
old	-10.4318
ding	-10.432
▁Principal	-10.4322
RI	-10.4327
▁superior	-10.4329
▁Arka	-10.4329
▁significance	-10.433
▁Tomato	-10.4331
ay	-10.4334
▁progress	-10.4345
▁labor	-10.4348
▁Rain	-10.435
▁lesions	-10.4353
▁Sali	-10.4356
▁female	-10.4362
▁delivery	-10.4363
▁show	-10.4364
▁markets	-10.4368
▁paper	-10.4375
▁farms	-10.4376
▁Society	-10.4377
▁vigyan	-10.4377
▁residue	-10.4377
▁So	-10.4386
▁AGRO	-10.4393
▁Proper	-10.4393
▁bajra	-10.4408
55),	-10.4416
▁oilseeds	-10.4416
▁organization	-10.4419
ach	-10.4422
▁october	-10.4424
▁rree	-10.4424
▁substrate	-10.4425
▁cutting	-10.4442
▁genes	-10.4454
▁youth	-10.4455
▁smooth	-10.4455
▁sh	-10.4456
▁captaf	-10.4457
▁vitamins	-10.4458
▁Ha	-10.4461
ev	-10.4467
▁meghalaya	-10.4471
▁allied	-10.4471
▁contribution	-10.4474
▁media	-10.4478
ira	-10.448
ew	-10.4482
▁moth	-10.4491
▁pan	-10.4502
▁precise	-10.4503
cent	-10.4509
▁planter	-10.4516
▁means	-10.4519
▁pipe	-10.4522
600	-10.4529
▁Ludhiana	-10.4534
▁Choos	-10.4534
tha	-10.454
▁54	-10.4541
▁consult	-10.4543
▁keeping	-10.4547
▁expenditure	-10.455
cut	-10.4553
ort	-10.4555
▁Board	-10.4566
▁sprayed	-10.4576
▁widely	-10.4579
▁CAFT	-10.458
▁Dairy	-10.4582
▁requirment	-10.4582
=30.0	-10.4582
▁10.0	-10.4583
▁liv	-10.4587
ens	-10.4592
▁Small	-10.4598
▁broad	-10.4601
▁4.5	-10.4626
▁appear	-10.4626
▁ee	-10.4638
par	-10.4639
▁53	-10.4641
▁populations	-10.4645
▁digital	-10.4646
▁innovative	-10.4646
▁00.	-10.465
▁bud	-10.4657
ug	-10.466
▁saving	-10.4663
▁IPM	-10.4672
az	-10.4682
ees	-10.4683
▁tri	-10.4691
▁Horticultural	-10.4694
▁intercropping	-10.4694
▁ca	-10.4699
▁designed	-10.4701
▁57	-10.4704
▁location	-10.4709
▁position	-10.4713
ele	-10.4713
▁Corresponding	-10.4726
▁extent	-10.4726
▁stability	-10.4727
▁machinery	-10.4728
▁1.4	-10.4733
▁Value	-10.4736
▁74	-10.4739
▁While	-10.4743
days	-10.4745
ber	-10.4751
▁excess	-10.4758
▁removal	-10.4759
▁width	-10.4759
▁greenhouse	-10.476
▁vital	-10.4761
late	-10.4763
▁act	-10.4765
-8	-10.4765
1.5	-10.4786
▁Planting	-10.4788
▁trench	-10.4788
▁stresses	-10.4788
▁Organization	-10.4792
▁pathogen	-10.4794
▁limit	-10.48
▁successfully	-10.4802
▁stems	-10.4803
▁anthracnose	-10.4808
▁bags	-10.4813
low	-10.4818
▁94	-10.4828
cul	-10.4831
▁put	-10.4835
▁600	-10.4837
▁avail	-10.4839
ard	-10.4839
ast	-10.484
▁aquaculture	-10.484
▁mentioned	-10.4843
cre	-10.4844
▁repeat	-10.4846
-9	-10.4853
▁mechanical	-10.4857
▁producing	-10.4865
▁manual	-10.4866
▁stop	-10.4867
ship	-10.4872
▁retention	-10.4873
▁Major	-10.4873
ear	-10.4879
ib	-10.4879
▁Business	-10.4882
▁ploughing	-10.4884
▁valve	-10.4889
▁chloride	-10.489
▁detection	-10.4891
▁NRC	-10.4892
silty	-10.4895
▁balance	-10.4897
6.0	-10.4898
▁minutes	-10.4904
▁himachal	-10.4906
▁responsible	-10.4906
▁structural	-10.4907
▁Man	-10.4912
▁structures	-10.492
ck	-10.4923
tin	-10.4939
▁oxychloride	-10.4939
▁recommend	-10.4939
▁digesters	-10.4941
▁1000	-10.4947
ised	-10.495
▁pp	-10.4951
▁coriander	-10.4955
▁ma	-10.4968
▁households	-10.497
▁aeration	-10.4972
▁profitability	-10.4972
son	-10.4976
▁ph	-10.4982
▁arid	-10.4997
▁77	-10.4998
▁guava	-10.5005
▁removed	-10.5006
fu	-10.5009
▁NPK	-10.5011
▁Other	-10.5014
ton	-10.5023
▁67	-10.5029
▁identify	-10.5029
▁88	-10.5041
▁department	-10.505
uk	-10.5055
▁death	-10.5072
▁pot	-10.5075
specific	-10.5076
▁metre	-10.5079
▁fat	-10.5083
▁Cost	-10.5089
gar	-10.5092
▁utilized	-10.5092
pal	-10.5093
▁growers	-10.5095
▁yellowing	-10.5096
▁pods	-10.5101
▁urban	-10.5104
▁Check	-10.5106
▁initiated	-10.5107
ene	-10.5109
ku	-10.5112
raj	-10.5113
▁Keep	-10.5114
▁pass	-10.5115
▁var	-10.5116
▁save	-10.5121
▁FIRST	-10.5122
▁termite	-10.5132
▁Poultry	-10.5139
▁fertiliser	-10.5139
▁2015	-10.5141
ral	-10.5143
tes	-10.5146
▁enough	-10.5156
▁emergence	-10.5159
phos	-10.5177
▁tissue	-10.5182
▁tubers	-10.5184
ey	-10.5187
▁yojana	-10.519
▁percentage	-10.5191
▁warm	-10.5193
▁corn	-10.5197
6.00	-10.5198
▁later	-10.5203
▁7.0	-10.5204
▁mode	-10.5204
▁You	-10.5204
06	-10.5205
▁members	-10.5206
▁Fax	-10.5212
ete	-10.5216
-6	-10.5222
▁raw	-10.5223
▁kilo	-10.5225
▁september	-10.5226
▁record	-10.5227
▁sheet	-10.5231
vis	-10.5236
▁DARE	-10.5238
▁domestic	-10.524
▁chemicals	-10.5249
rate	-10.5251
▁implemented	-10.5253
borax	-10.5265
ft	-10.5265
▁2007	-10.5268
rus	-10.5268
▁cows	-10.5289
▁appearance	-10.531
=10.	-10.5313
▁peppers	-10.5314
▁Group	-10.5326
▁together	-10.5326
▁estimated	-10.5329
▁dap	-10.5334
▁rainy	-10.5334
▁gap	-10.534
lon	-10.5347
▁Gandhi	-10.5353
ban	-10.5355
▁immature	-10.5361
ue	-10.5361
▁usage	-10.5362
▁resilient	-10.5364
▁individual	-10.5372
▁contribut	-10.5377
▁Early	-10.5378
▁agroforestry	-10.5378
▁pu	-10.5378
lam	-10.5379
▁En	-10.538
▁included	-10.5384
▁native	-10.5397
.55	-10.54
▁Ra	-10.5401
▁Ca	-10.5403
ome	-10.5406
8.00	-10.5407
▁Red	-10.5412
▁score	-10.5413
▁secondary	-10.5416
ever	-10.542
mit	-10.5423
31	-10.5426
▁DD	-10.5428
▁Trichoderma	-10.543
▁economy	-10.543
▁Phone	-10.543
sstt	-10.5438
▁62	-10.5439
▁communities	-10.5447
=31.0	-10.5447
▁Bengaluru	-10.5447
▁solar	-10.5448
cer	-10.5452
▁mobile	-10.546
▁transport	-10.5462
▁enhancement	-10.5472
▁sc	-10.5473
▁10-12	-10.5474
▁125	-10.5476
▁offers	-10.5476
=30.7	-10.5482
▁Engineering	-10.5482
▁facility	-10.5482
▁shed	-10.5485
2.00	-10.5488
gra	-10.5496
▁mastitis	-10.5499
▁Fig	-10.55
▁Variety	-10.5505
▁emerging	-10.5509
▁ponds	-10.5511
=31.3	-10.5517
▁handling	-10.5518
▁immediately	-10.5521
▁locally	-10.553
No	-10.5532
68	-10.5533
▁cl	-10.5539
▁upper	-10.5544
▁pa	-10.5544
▁table	-10.5552
▁positive	-10.5552
▁experiment	-10.5553
▁Once	-10.5571
▁Raised	-10.5588
▁injection	-10.5596
▁orchard	-10.5602
▁situation	-10.5603
=56.6	-10.5605
▁udder	-10.5605
ick	-10.5606
=30.4	-10.5622
▁dip	-10.563
▁too	-10.5638
▁pump	-10.5641
zo	-10.5642
ments	-10.5645
oonn	-10.5653
▁qu	-10.5657
▁Le	-10.5665
▁Fund	-10.567
▁book	-10.5675
▁Scheme	-10.5676
▁easily	-10.5676
▁identification	-10.5676
▁managed	-10.5681
▁particular	-10.5686
3.00	-10.5687
=8.0	-10.5693
▁Kan	-10.5706
▁mulching	-10.5707
we	-10.571
▁decrease	-10.572
▁concerned	-10.5724
▁Disease	-10.5727
aria	-10.5729
▁pigeonpea	-10.5729
▁tripura	-10.5729
▁abiotic	-10.5734
▁Jharkhand	-10.5734
pr	-10.5737
fertilizer	-10.5742
resistant	-10.5744
▁minerals	-10.5745
lin	-10.5749
▁getting	-10.575
4.00	-10.5757
-1,	-10.5768
ded	-10.577
rt	-10.5773
▁nurseries	-10.5783
▁distributed	-10.5787
DA	-10.5791
▁fertigation	-10.5801
▁ad	-10.581
izing	-10.5815
▁Sikkim	-10.5819
▁artificial	-10.5819
▁2011	-10.582
▁mite	-10.5822
▁Sowing	-10.5822
▁98	-10.5822
▁Professor	-10.583
▁pattern	-10.5836
▁recommendations	-10.5837
▁tested	-10.5841
▁still	-10.5842
▁Grant	-10.5856
▁tribal	-10.5857
▁63	-10.5858
▁external	-10.5866
▁English	-10.5869
=30.6	-10.5873
▁Introduction	-10.5875
▁Establishment	-10.5878
▁shown	-10.5879
▁monitor	-10.5884
▁initiatives	-10.5885
ola	-10.5888
lready	-10.5891
AR	-10.5893
▁holding	-10.5896
▁Health	-10.5902
▁linseed	-10.5909
▁worms	-10.5912
▁registered	-10.5913
▁20-25	-10.5918
ush	-10.592
=52.0	-10.5928
april	-10.5945
-7	-10.5946
=31.2	-10.5946
▁Implement	-10.5961
▁advanced	-10.597
▁bearing	-10.5976
▁places	-10.5979
=54.4	-10.5982
AT	-10.5984
▁curling	-10.5991
▁enable	-10.5994
▁placed	-10.6003
▁Tel	-10.6003
▁consist	-10.6003
▁frequent	-10.6012
eess	-10.6014
=30.8	-10.6019
=44.4	-10.6019
▁shoots	-10.6026
▁regional	-10.6027
▁iii	-10.6032
IS	-10.6034
side	-10.6036
▁come	-10.6042
▁3.5	-10.6048
▁complex	-10.6055
▁simple	-10.6056
ati	-10.6058
▁receive	-10.6059
▁tell	-10.606
▁Th	-10.6066
▁Eastern	-10.6068
▁(5	-10.6074
▁Pro	-10.6075
▁infested	-10.6079
8.	-10.6083
oon	-10.6085
=30.3	-10.6093
=51.9	-10.6093
▁strategy	-10.6093
▁Resource	-10.6095
ek	-10.6102
▁barley	-10.6112
▁govt	-10.6112
60.0	-10.6114
▁demonstrated	-10.6114
nia	-10.6117
osis	-10.6123
▁Sha	-10.6123
mar	-10.6124
=30.5	-10.613
=34.6	-10.613
=40.9	-10.613
ified	-10.613
▁introduction	-10.613
750	-10.6146
▁processes	-10.6151
▁mechanism	-10.6152
▁IFS	-10.6159
=41.8	-10.6167
=50.8	-10.6167
▁bodies	-10.6167
▁empty	-10.6167
▁7.5	-10.617
ants	-10.6172
cal	-10.6184
▁Details	-10.6184
▁Natural	-10.6186
holders	-10.6187
▁59	-10.619
ree	-10.6196
250	-10.6201
▁Non	-10.6216
▁filling	-10.6221
▁61	-10.6222
▁demonstration	-10.6227
ks	-10.6231
4°	-10.6234
=30.2	-10.6242
▁located	-10.6242
▁drinking	-10.6249
▁Hindi	-10.6258
▁pomegranate	-10.6261
▁plains	-10.6272
apply	-10.6272
▁Can	-10.6273
▁Coordinat	-10.6278
=33.4	-10.628
▁competition	-10.628
▁San	-10.6283
bha	-10.629
▁trap	-10.629
ava	-10.6291
▁april	-10.63
ella	-10.6301
ack	-10.6303
anga	-10.6308
▁58	-10.6313
=32.6	-10.6318
=45.5	-10.6318
▁joint	-10.6318
climatic	-10.6323
▁implementing	-10.6324
▁station	-10.6328
▁2014	-10.6334
=51.8	-10.6337
▁2000	-10.6343
▁vermicompost	-10.6349
7.5	-10.6352
pat	-10.6354
=31.8	-10.6356
=32.5	-10.6356
=33.2	-10.6356
=40.1	-10.6356
▁pruning	-10.6356
▁thrice	-10.6357
andhan	-10.6362
▁fine	-10.637
=53.1	-10.6375
▁uptake	-10.6376
ika	-10.6379
quality	-10.6386
=30.1	-10.6394
=34.3	-10.6394
=34.4	-10.6394
=34.5	-10.6394
=48.9	-10.6394
ax	-10.6394
▁Nutrient	-10.6395
rm	-10.6402
▁Sorghum	-10.6405
CS	-10.6408
iri	-10.6411
▁68	-10.6413
▁purple	-10.6413
▁thrips	-10.6413
▁Maintain	-10.6413
▁retain	-10.6418
70.0	-10.6422
▁detailed	-10.6423
put	-10.6423
▁risks	-10.6432
=34.0	-10.6433
▁percent	-10.6451
▁76	-10.6451
▁faculty	-10.6452
▁besides	-10.6452
efore	-10.6456
▁break	-10.6464
▁69	-10.6468
=31.1	-10.6471
=32.7	-10.6471
=33.5	-10.6471
▁achieving	-10.6471
▁indicators	-10.6479
port	-10.6479
▁mouth	-10.6499
=40.6	-10.6509
=44.2	-10.6509
▁packaging	-10.6509
▁survey	-10.6509
▁article	-10.6511
▁OC	-10.6517
rat	-10.6517
▁professional	-10.6518
0.5	-10.6526
▁function	-10.6527
ht	-10.6531
▁diseased	-10.6544
MS	-10.6544
▁face	-10.6545
=33.6	-10.6548
=43.2	-10.6548
=57.1	-10.6548
▁husbandry	-10.6548
=41.0	-10.6548
▁planning	-10.6549
▁trade	-10.6549
uch	-10.6555
▁expert	-10.6555
▁Lo	-10.656
▁publication	-10.656
▁regard	-10.6561
ining	-10.6562
=53.6	-10.6568
▁Policy	-10.6568
▁ADG	-10.6568
▁little	-10.657
▁fishery	-10.6571
▁More	-10.6574
▁director	-10.6578
=32.8	-10.6587
=33.8	-10.6587
=33.9	-10.6587
=34.1	-10.6587
▁Arunachal	-10.6587
Tech	-10.6593
▁balanced	-10.6597
asi	-10.6598
dependent	-10.6598
=51.3	-10.6606
=54.5	-10.6606
▁Through	-10.6606
ile	-10.6606
▁flies	-10.6607
▁Hence	-10.6611
-15	-10.6612
▁extend	-10.6612
▁intensive	-10.6613
=30.9	-10.6626
=34.8	-10.6626
▁Govt	-10.6626
▁Paddy	-10.6626
▁preferred	-10.6627
▁cream	-10.6627
gal	-10.6632
▁hopper	-10.6632
▁swelling	-10.6646
▁shows	-10.6649
cop	-10.6654
▁Fusarium	-10.6663
▁created	-10.6663
=52.6	-10.6665
=55.9	-10.6665
▁aromatic	-10.6665
▁Fertilizer	-10.6668
▁nos	-10.667
▁live	-10.6678
▁demonstrations	-10.6681
=50.7	-10.6685
▁Geographical	-10.6685
▁promising	-10.6685
▁internal	-10.6686
▁adaptation	-10.6687
▁aass	-10.6688
▁World	-10.6693
▁(10	-10.6699
▁mitigate	-10.67
▁third	-10.6704
=32.3	-10.6704
=40.2	-10.6704
=40.7	-10.6704
=54.6	-10.6704
▁larger	-10.6707
ram	-10.6718
ER	-10.6724
=57.8	-10.6724
=58.4	-10.6724
▁Method	-10.6724
▁comprehensive	-10.6725
▁Bi	-10.6726
▁past	-10.6728
▁interaction	-10.6734
compost	-10.6736
▁spices	-10.6742
▁Sher	-10.6743
▁correct	-10.6743
=31.5	-10.6744
=47.4	-10.6744
=57.5	-10.6744
▁Information	-10.6744
▁guidance	-10.6744
ther	-10.6749
▁raise	-10.6756
ool	-10.6759
▁carbendazim	-10.6762
=59.8	-10.6764
▁App	-10.6764
▁sunlight	-10.6764
▁(3	-10.6768
▁100%	-10.677
are	-10.6771
tre	-10.6772
▁stocking	-10.6773
fa	-10.678
▁practical	-10.6781
=31.6	-10.6784
=34.7	-10.6784
=45.1	-10.6784
=58.8	-10.6784
▁Botanical	-10.6784
▁context	-10.6784
phy	-10.6784
▁Two	-10.6787
▁oonn	-10.6787
▁movement	-10.6787
▁vet	-10.6787
▁Breeding	-10.6789
▁dhan	-10.6791
▁implement	-10.6791
▁transplanted	-10.6792
rit	-10.6797
▁ff	-10.6801
=55.5	-10.6804
▁center	-10.6806
bil	-10.6811
▁herbicide	-10.6814
▁locations	-10.6819
ction	-10.6821
=32.2	-10.6823
=33.1	-10.6823
=43.7	-10.6823
=45.8	-10.6823
=51.1	-10.6823
▁Provide	-10.6823
▁weevil	-10.6823
▁pulp	-10.6824
▁exposure	-10.6824
▁supports	-10.6828
▁tt	-10.683
▁moderate	-10.6836
▁traps	-10.6839
rain	-10.684
▁Si	-10.6841
▁0.25	-10.6842
▁83	-10.6842
▁Clean	-10.6843
▁herb	-10.6851
ong	-10.6858
=34.9	-10.6863
=50.5	-10.6863
ix	-10.6869
▁Over	-10.6872
▁lands	-10.6876
▁standards	-10.6881
=52.5	-10.6883
=55.4	-10.6883
▁States	-10.6896
▁concern	-10.6897
wise	-10.6899
▁serve	-10.6903
=31.4	-10.6904
=41.6	-10.6904
=50.4	-10.6904
▁Bhubaneswar	-10.6904
▁Traditional	-10.6904
nic	-10.6904
▁cure	-10.6908
▁industrial	-10.6909
friendly	-10.6918
type	-10.6919
▁able	-10.6921
ua	-10.6922
=52.4	-10.6924
=54.7	-10.6924
▁larvae	-10.6926
ement	-10.6931
▁assess	-10.6934
20.0	-10.6937
▁com	-10.6938
▁grade	-10.6941
van	-10.6941
▁load	-10.6942
=42.3	-10.6944
=54.1	-10.6944
▁serious	-10.6944
▁Phule	-10.6944
=55.0	-10.6944
▁IN	-10.6946
▁points	-10.6949
▁2025	-10.6951
.23	-10.6953
▁solve	-10.6964
=55.7	-10.6964
▁shelf	-10.6964
▁therefore	-10.6964
▁frame	-10.6964
▁rhizome	-10.6968
▁Kendra	-10.6971
▁boost	-10.6972
▁prevents	-10.6973
▁evenly	-10.6983
▁84	-10.6984
=41.3	-10.6984
=42.9	-10.6984
=43.1	-10.6984
▁Common	-10.6984
aattiioonn	-10.6985
▁pain	-10.7003
=52.7	-10.7005
=57.7	-10.7005
▁kerala	-10.7005
▁PP	-10.7005
25.	-10.7005
▁however	-10.7008
▁eco	-10.7008
▁Sam	-10.7009
▁min	-10.7019
▁Africa	-10.702
▁document	-10.7021
▁manures	-10.7024
=32.9	-10.7025
=40.4	-10.7025
=43.8	-10.7025
=58.6	-10.7025
▁Verma	-10.7025
▁sure	-10.7025
▁Anus	-10.7026
1.00	-10.7027
▁kind	-10.7028
ttii	-10.703
comp	-10.7035
ight	-10.7035
▁participants	-10.7045
▁Location	-10.7045
▁Technologies	-10.705
▁furrow	-10.7055
▁Bha	-10.7057
▁biotic	-10.7058
▁event	-10.7061
Black	-10.7062
▁sissoo	-10.7066
=32.0	-10.7066
race	-10.7066
▁exhibit	-10.7072
RT	-10.7077
▁Kharif	-10.708
▁Karnal	-10.7086
=50.0	-10.7086
35.0	-10.7093
oorr	-10.7094
=51.4	-10.7107
=56.1	-10.7107
=59.5	-10.7107
▁Address	-10.7107
▁bag	-10.7107
▁far	-10.7108
▁hill	-10.7111
pre	-10.7112
▁forage	-10.7115
▁sectors	-10.7117
lint	-10.7122
pusa	-10.7122
▁difficult	-10.7127
=51.7	-10.7127
=59.3	-10.7127
▁speed	-10.7127
▁Bhavan	-10.7127
▁decision	-10.7143
=33.3	-10.7148
=54.2	-10.7148
=55.3	-10.7148
▁blood	-10.7148
▁Rabi	-10.7149
▁soft	-10.7149
▁1.25	-10.7154
ger	-10.7156
30.0	-10.7161
▁rapid	-10.7161
-22	-10.7169
▁direction	-10.7169
.11	-10.717
▁lits	-10.7172
▁ki	-10.7172
▁130	-10.7175
▁ways	-10.7176
den	-10.7179
nch	-10.718
▁im	-10.7182
▁5-6	-10.7183
50.00	-10.7184
▁inside	-10.7187
=32.4	-10.7189
=43.9	-10.7189
=52.3	-10.7189
=59.4	-10.7189
▁Medicinal	-10.7189
▁exchange	-10.7189
▁primarily	-10.7189
▁changing	-10.7189
wo	-10.7189
san	-10.719
▁factor	-10.7192
▁mostly	-10.7192
dh	-10.7193
arid	-10.7199
▁funds	-10.7202
una	-10.7208
=56.5	-10.721
=57.3	-10.721
=58.1	-10.721
▁socio	-10.7212
▁big	-10.7213
▁efficacy	-10.7218
nal	-10.7222
=41.9	-10.723
=46.4	-10.723
=53.3	-10.723
▁Besides	-10.723
▁Public	-10.723
▁insurance	-10.723
=53.0	-10.7231
=33.0	-10.7231
▁Ranchi	-10.7231
▁Directors	-10.7232
▁tetracycline	-10.7236
▁Par	-10.724
▁approaches	-10.7244
=52.1	-10.7251
=59.6	-10.7251
▁approximately	-10.7259
RA	-10.7262
▁25%	-10.7265
▁skill	-10.7269
▁Scientists	-10.7269
▁Resources	-10.727
▁105	-10.7271
=48.5	-10.7272
▁Neem	-10.7273
▁phase	-10.7273
▁tomatoes	-10.7274
eri	-10.7282
uli	-10.7283
▁determine	-10.7284
▁consecutive	-10.7293
osa	-10.7302
▁01	-10.7302
=41.5	-10.7314
=47.7	-10.7314
=53.8	-10.7314
▁yojona	-10.7314
amba	-10.7316
▁elements	-10.7318
▁Data	-10.7323
▁micronutrients	-10.7324
58.	-10.7325
oid	-10.7329
▁languages	-10.733
▁71	-10.7332
.12	-10.7333
=50.9	-10.7335
=58.2	-10.7335
▁policies	-10.7335
▁Tripura	-10.7335
▁monthly	-10.7337
▁plantations	-10.7338
▁obtain	-10.7348
=49.9	-10.7356
▁Go	-10.7357
▁cough	-10.7359
7.00	-10.7359
holder	-10.7361
iz	-10.7372
▁promotes	-10.7372
=55.1	-10.7377
=56.2	-10.7377
▁accurate	-10.7377
▁company	-10.7377
▁salinity	-10.7377
=59.0	-10.7377
▁filled	-10.7386
▁encourage	-10.7389
▁Ro	-10.7391
=32.1	-10.7398
=40.5	-10.7398
=42.1	-10.7398
=42.8	-10.7398
=47.8	-10.7398
=47.9	-10.7398
=49.6	-10.7398
▁fallow	-10.7399
▁occurs	-10.7399
rin	-10.7401
cel	-10.7402
▁Bar	-10.7411
▁pulse	-10.7416
00.00	-10.7418
▁remain	-10.742
▁yard	-10.7424
▁15-20	-10.7434
=42.4	-10.744
=42.6	-10.744
=44.1	-10.744
▁scenario	-10.744
▁bee	-10.7442
tric	-10.7443
▁tonic	-10.7447
like	-10.745
ler	-10.7456
▁option	-10.7459
▁intervals	-10.7461
=57.2	-10.7462
▁dexona	-10.7462
▁debris	-10.7462
▁loam	-10.7476
▁Am	-10.7478
=31.7	-10.7483
=46.7	-10.7483
▁vegetative	-10.7483
=57.0	-10.7483
=42.0	-10.7483
=46.0	-10.7483
▁001	-10.7487
free	-10.7491
ign	-10.7493
▁intensity	-10.7504
▁minimizing	-10.7504
▁ooze	-10.7504
▁budget	-10.7504
▁collecting	-10.7505
medium	-10.7507
▁detect	-10.751
▁evaluated	-10.751
▁innovations	-10.751
aall	-10.7513
700	-10.7518
ica	-10.752
=31.9	-10.7525
=45.2	-10.7525
=46.1	-10.7525
=49.7	-10.7525
▁Since	-10.7526
=47.0	-10.7526
▁115	-10.7526
▁ro	-10.7529
rea	-10.7529
National	-10.7529
▁fishes	-10.753
▁adapt	-10.7532
▁run	-10.7533
SO	-10.7544
▁Active	-10.7546
=50.1	-10.7547
=53.5	-10.7547
▁possess	-10.7552
▁800	-10.7559
90.0	-10.7564
=51.2	-10.7568
▁Mission	-10.7568
▁valuable	-10.7568
=43.0	-10.7569
▁si	-10.7582
mic	-10.7585
▁depends	-10.7586
▁occur	-10.7587
▁Increase	-10.759
▁Special	-10.7593
▁(20	-10.7597
▁rains	-10.7597
▁preventive	-10.76
ie	-10.7601
▁candidates	-10.7603
▁Accounts	-10.7606
=33.7	-10.7611
=34.2	-10.7611
=43.4	-10.7611
=49.4	-10.7611
=53.9	-10.7611
=56.8	-10.7611
▁ventilation	-10.7611
▁bird	-10.7612
▁options	-10.7614
ae	-10.762
▁represent	-10.7633
=55.6	-10.7633
=58.9	-10.7633
▁agents	-10.7648
▁facilitat	-10.7651
=41.2	-10.7655
=42.5	-10.7655
=44.5	-10.7655
=45.9	-10.7655
=48.1	-10.7655
=49.8	-10.7655
=54.9	-10.7655
▁wash	-10.7657
▁2013	-10.7663
▁seen	-10.7666
▁1.6	-10.7673
tech	-10.7675
=53.2	-10.7676
▁Kufri	-10.7676
▁Reasonabl	-10.7676
▁agencies	-10.7676
▁constituent	-10.7676
▁manipur	-10.7676
▁Rainfed	-10.7676
▁desired	-10.7677
IARI	-10.7683
cha	-10.7688
▁2.8	-10.7691
sts	-10.7694
=47.1	-10.7698
=47.6	-10.7698
=50.6	-10.7698
=53.4	-10.7698
=59.1	-10.7698
=49.0	-10.7698
▁Mango	-10.7699
ino	-10.771
▁Nagaland	-10.7717
-18	-10.7717
▁supporting	-10.7717
2°	-10.7719
=51.5	-10.772
nk	-10.7721
▁Grain	-10.7722
▁remains	-10.7723
▁AUs	-10.7724
=19.8	-10.7724
102	-10.773
▁mono	-10.7733
▁rose	-10.7734
cin	-10.774
=51.6	-10.7742
▁grading	-10.7742
=56.0	-10.7742
▁objective	-10.7742
▁gain	-10.7743
▁home	-10.7743
ces	-10.7743
▁Gandhian	-10.7744
▁processed	-10.7744
▁seven	-10.7747
economic	-10.7748
=19.9	-10.7755
=19.2	-10.7759
▁mass	-10.7761
▁fully	-10.7762
=53.7	-10.7764
=56.9	-10.7764
▁perennial	-10.7764
=51.0	-10.7764
-14	-10.7764
▁Micro	-10.7764
▁outlet	-10.7765
aceae	-10.7768
-30	-10.7769
lets	-10.7774
ological	-10.778
=45.3	-10.7786
=48.8	-10.7786
▁ccrroopp	-10.7786
▁iv	-10.7789
▁caterpillars	-10.7793
▁Vegetable	-10.7797
▁Source	-10.7797
app	-10.7799
set	-10.7807
▁ni	-10.7811
▁cha	-10.7815
ris	-10.7817
▁97	-10.7819
=46.3	-10.783
=56.7	-10.783
▁Jhansi	-10.783
PM	-10.7847
tta	-10.7849
▁spreading	-10.7849
nna	-10.7851
=57.6	-10.7852
▁Target	-10.7852
▁proposed	-10.7852
ttiioonn	-10.7853
▁trans	-10.7855
uality	-10.7867
▁Weed	-10.787
▁Goat	-10.7873
=43.6	-10.7874
=45.6	-10.7874
▁Description	-10.7874
=54.0	-10.7874
▁hydroponic	-10.7875
▁holders	-10.7875
▁BB	-10.7877
▁Up	-10.7879
▁Add	-10.7884
adi	-10.7886
=50.3	-10.7896
=58.3	-10.7896
▁rainwater	-10.7899
▁thick	-10.7918
=42.7	-10.7918
=44.6	-10.7918
=44.8	-10.7918
=47.2	-10.7918
=58.5	-10.7918
▁cloth	-10.7918
▁guide	-10.7923
▁cool	-10.7924
org	-10.7925
▁Among	-10.7941
▁160	-10.7942
▁contributed	-10.7942
▁establish	-10.7943
▁smart	-10.7945
3.3	-10.7948
▁Recommended	-10.7949
=44.3	-10.7963
=44.9	-10.7963
=46.9	-10.7963
▁Manipur	-10.7963
▁brought	-10.7963
▁012	-10.7967
by	-10.7967
cchh	-10.797
▁Li	-10.7974
ern	-10.7974
▁86	-10.7974
til	-10.7979
▁forward	-10.7984
▁decis	-10.7985
▁9.0	-10.7985
rup	-10.7985
10.0	-10.7985
▁hence	-10.7988
▁gender	-10.7989
▁optimize	-10.7989
lar	-10.7998
▁practiced	-10.8004
▁10%	-10.8005
=40.3	-10.8007
=41.4	-10.8007
=43.3	-10.8007
=45.7	-10.8007
=47.5	-10.8007
=48.3	-10.8007
=58.7	-10.8007
▁examination	-10.8007
▁cells	-10.801
▁intervention	-10.8011
oda	-10.8014
Kashmir	-10.8018
▁TT	-10.8019
=18.8	-10.8028
=56.4	-10.803
▁ornamental	-10.803
▁choice	-10.803
▁runoff	-10.803
▁Bt	-10.803
tight	-10.8031
▁hour	-10.8035
uka	-10.8036
▁Assistant	-10.8041
rid	-10.805
=19.4	-10.8051
=48.4	-10.8052
▁Large	-10.8053
ric	-10.806
▁us	-10.8065
nath	-10.8068
▁u	-10.8075
=55.2	-10.8075
=58.0	-10.8075
▁Banana	-10.8075
▁Anand	-10.8075
jan	-10.8076
▁namely	-10.8077
50.0	-10.8078
4%	-10.8086
▁meters	-10.8093
=49.1	-10.8098
=55.8	-10.8098
▁viral	-10.8098
▁provision	-10.8102
▁trained	-10.8102
▁gave	-10.8104
▁Effect	-10.8119
▁hole	-10.8127
▁dog	-10.8129
=18.2	-10.8137
=42.2	-10.8143
=48.6	-10.8143
=81.2	-10.8143
▁operating	-10.8143
▁Local	-10.8143
aw	-10.8148
▁Jan	-10.8149
▁Bo	-10.815
▁PRA	-10.8153
art	-10.8156
▁decline	-10.8158
▁But	-10.8163
nam	-10.8163
ound	-10.8171
▁Processing	-10.8175
▁Chi	-10.8182
=39.7	-10.8189
=48.2	-10.8189
=49.3	-10.8189
=52.2	-10.8189
=78.6	-10.8189
▁university	-10.8189
▁East	-10.8191
iitt	-10.8192
gaon	-10.8202
▁promoted	-10.8205
▁replied	-10.8212
▁taste	-10.8212
▁passbook	-10.8212
▁integration	-10.8213
▁slope	-10.8217
▁Regional	-10.822
▁Gun	-10.8223
▁Cultivation	-10.8224
vvee	-10.8226
▁Act	-10.8226
▁course	-10.8232
=45.4	-10.8235
▁eliminate	-10.8235
▁sheath	-10.8235
▁flour	-10.8235
ace	-10.8238
RS	-10.8239
▁Medium	-10.8243
▁pigs	-10.8245
anta	-10.8248
▁pow	-10.8256
▁Indigenous	-10.8258
grained	-10.8263
▁slow	-10.8264
9.5	-10.8267
▁Orissa	-10.827
▁separate	-10.8272
atch	-10.8274
▁rest	-10.8276
▁compounds	-10.8278
=41.1	-10.8281
=41.7	-10.8281
=46.8	-10.8281
=49.5	-10.8281
=57.9	-10.8281
=77.4	-10.8281
▁Husbandry	-10.8281
▁spider	-10.8281
▁Sharma	-10.8281
▁Improvement	-10.8281
▁consider	-10.8283
gun	-10.8283
▁bb	-10.8283
▁Dec	-10.8286
lands	-10.8288
kh	-10.8289
▁coat	-10.8291
▁Inter	-10.8302
▁chicks	-10.8306
▁Environmental	-10.831
▁furrows	-10.8312
▁dwarf	-10.8312
olo	-10.8313
sur	-10.8314
▁ICT	-10.8318
▁generate	-10.8321
▁longer	-10.8321
▁did	-10.8325
=50.2	-10.8327
▁removing	-10.8327
▁Avoid	-10.8327
▁burning	-10.8327
▁neck	-10.8327
▁groundwater	-10.8328
▁96	-10.8337
hhaa	-10.8338
▁Mustard	-10.8338
aran	-10.8338
▁person	-10.8349
=52.9	-10.835
Gross	-10.835
▁class	-10.8353
kha	-10.8354
car	-10.8355
-52	-10.8355
▁find	-10.8357
▁02	-10.8359
▁reason	-10.8363
▁aarree	-10.8364
iicc	-10.837
lob	-10.8372
▁honey	-10.8373
=43.5	-10.8373
▁Validation	-10.8373
=45.0	-10.8374
yan	-10.8376
▁Thus	-10.8376
,500	-10.8388
ttee	-10.8394
=57.4	-10.8397
▁approved	-10.8397
▁chloropyriphos	-10.8397
▁reach	-10.8403
▁initiative	-10.8404
entrepreneurship	-10.8405
▁adult	-10.8405
SD	-10.8409
ture	-10.8411
yo	-10.8413
▁Enhanc	-10.842
=44.0	-10.842
▁dressed	-10.8421
▁upto	-10.8429
▁20%	-10.8434
ona	-10.8437
▁largest	-10.8439
ark	-10.8439
▁rise	-10.8441
inal	-10.8441
▁indicate	-10.8442
SA	-10.8443
=79.1	-10.8443
▁Conservation	-10.8444
▁140	-10.8444
▁ko	-10.8446
ze	-10.8446
▁Its	-10.8448
-100	-10.8453
hamp	-10.8455
▁mud	-10.8456
▁Tri	-10.8458
▁Kashi	-10.846
▁pigeon	-10.8467
=54.8	-10.8467
▁Impact	-10.8467
▁Welfare	-10.8467
▁published	-10.8472
▁adjust	-10.8474
oor	-10.8478
▁Network	-10.8479
▁fertile	-10.848
▁pointed	-10.8489
▁standing	-10.8489
▁WP	-10.8491
▁Western	-10.8491
9.1	-10.8492
▁China	-10.8492
▁adding	-10.8495
ada	-10.8497
llee	-10.8498
▁rotting	-10.8498
▁custom	-10.8499
▁District	-10.8499
1.8	-10.8509
▁boron	-10.851
AI	-10.8514
=54.3	-10.8514
▁Cotton	-10.8514
▁profile	-10.8514
▁scope	-10.8514
▁viable	-10.8517
su	-10.8519
▁consumers	-10.8519
▁institutional	-10.852
▁synthetic	-10.8521
▁online	-10.8522
▁Acacia	-10.8525
▁stable	-10.8526
aya	-10.8532
▁follows	-10.8532
les	-10.8537
▁PARTY	-10.8538
▁adaptability	-10.8538
▁fuel	-10.8539
▁mi	-10.8542
ough	-10.8552
▁soaked	-10.8559
▁build	-10.8559
=40.8	-10.8561
=59.7	-10.8561
▁safflower	-10.8561
▁values	-10.8564
▁link	-10.8571
▁herbicides	-10.8573
▁te	-10.8573
ila	-10.8574
▁79	-10.8578
▁hi	-10.858
▁87	-10.8581
=18.4	-10.8581
ove	-10.8583
▁hormone	-10.8585
▁plot	-10.8598
32.0	-10.8602
CH	-10.8608
=35.2	-10.8609
=36.6	-10.8609
=46.5	-10.8609
=76.7	-10.8609
=84.2	-10.8609
▁canopy	-10.8609
▁2.4	-10.861
▁gg	-10.8611
▁Out	-10.8614
▁cc	-10.8619
▁Genetic	-10.862
▁ra	-10.862
▁fungicides	-10.862
cing	-10.8621
ST	-10.8622
▁bran	-10.8624
▁ft	-10.8625
▁lateral	-10.8631
uru	-10.8636
rous	-10.8649
900	-10.8653
▁container	-10.8654
▁cuttings	-10.8655
=40.0	-10.8657
=44.7	-10.8657
=46.6	-10.8657
=48.7	-10.8657
=49.2	-10.8657
=52.8	-10.8657
=59.2	-10.8657
=59.9	-10.8657
=84.7	-10.8657
▁mechanization	-10.8657
▁society	-10.8657
▁website	-10.8657
▁Experiment	-10.8657
▁spring	-10.8658
▁arka	-10.8662
▁difference	-10.8668
▁Harvest	-10.8676
▁pink	-10.8683
▁job	-10.8684
▁91	-10.8685
▁FMD	-10.8689
▁ram	-10.8695
▁strength	-10.8701
▁close	-10.8704
=47.3	-10.8705
=56.3	-10.8705
▁Aquaculture	-10.8705
lla	-10.8705
ave	-10.8705
TR	-10.8714
▁quick	-10.8722
▁strengthening	-10.8724
▁met	-10.8729
▁Similarly	-10.873
▁IV	-10.8735
▁mal	-10.8739
aga	-10.8745
▁others	-10.8752
=35.3	-10.8753
=36.3	-10.8753
=36.8	-10.8753
▁furadon	-10.8753
▁incubation	-10.8754
▁principles	-10.8759
▁2004	-10.8769
▁(4	-10.8777
▁emphasis	-10.8777
▁lentil	-10.8777
=79.0	-10.8777
129	-10.8779
▁undertaken	-10.8779
▁periods	-10.8786
▁Das	-10.8792
=37.6	-10.8801
▁Bordeaux	-10.8801
=82.0	-10.8802
ood	-10.8805
▁Timely	-10.8807
ned	-10.882
▁mz	-10.8821
▁nation	-10.8824
▁aaggrriiccuul	-10.8826
▁comprise	-10.8826
▁ulcer	-10.8826
▁spike	-10.8826
▁bbyy	-10.8826
▁pure	-10.883
▁Aid	-10.8834
ode	-10.8838
▁forms	-10.884
cus	-10.8849
effective	-10.8849
spray	-10.885
▁productive	-10.8853
45.0	-10.8857
9.00	-10.8866
ttoo	-10.8866
=84.4	-10.8875
▁Support	-10.8875
39.0	-10.8877
TL	-10.8879
assi	-10.8883
▁Yes	-10.8884
▁sea	-10.8896
along	-10.8898
▁Higher	-10.8899
=39.2	-10.8899
▁Shimla	-10.8899
house	-10.89
gh	-10.8901
▁0.05	-10.8904
ages	-10.8915
Contents	-10.8917
ker	-10.8919
▁Pay	-10.8919
lan	-10.8922
▁bottom	-10.8924
▁sludge	-10.8924
▁Conference	-10.8924
▁edible	-10.8924
ima	-10.8927
▁Mar	-10.8928
▁contaf	-10.8929
▁borne	-10.8935
▁kufri	-10.8935
▁1500	-10.8942
▁Sar	-10.8948
=35.7	-10.8948
=37.5	-10.8948
▁vimeral	-10.8948
▁hispa	-10.8951
▁III	-10.8952
▁Sl	-10.8952
34.0	-10.8953
▁Cu	-10.896
af	-10.8964
▁mmaa	-10.8967
▁Moderate	-10.8973
=79.3	-10.8973
▁strategic	-10.8973
▁Journal	-10.8975
▁coverage	-10.8976
mmun	-10.8977
icide	-10.8985
▁03	-10.8987
▁Meghalaya	-10.8987
33.0	-10.8989
▁id	-10.8992
▁promoter	-10.8997
▁82	-10.8997
=37.2	-10.8998
=37.8	-10.8998
▁robust	-10.8998
▁maturing	-10.8998
▁huge	-10.8998
▁Rural	-10.8999
▁healthier	-10.8999
IP	-10.9005
log	-10.9007
matic	-10.9008
=18.9	-10.901
▁spawn	-10.9023
▁Power	-10.9023
▁coastal	-10.9024
▁refer	-10.9027
▁collect	-10.9027
▁channels	-10.9028
5,000	-10.9032
▁equivalent	-10.9035
pyr	-10.9038
▁Due	-10.904
▁optimiz	-10.9041
IC	-10.9047
=46.2	-10.9047
=77.9	-10.9047
=78.3	-10.9047
=78.7	-10.9047
=79.5	-10.9047
=80.5	-10.9047
=80.9	-10.9047
ism	-10.9048
▁entry	-10.9048
=35.0	-10.9048
▁permanent	-10.9048
▁tender	-10.9059
ena	-10.9061
oma	-10.9072
▁Bangalore	-10.9072
▁Resistant	-10.9072
▁du	-10.9074
▁Root	-10.9075
▁soi	-10.9077
▁stick	-10.9091
▁spine	-10.9097
=36.5	-10.9097
=36.9	-10.9097
=83.9	-10.9097
▁families	-10.9097
▁dissemination	-10.9097
▁composition	-10.9097
=39.0	-10.9098
PS	-10.9098
▁submit	-10.9098
▁road	-10.9098
hat	-10.91
▁comes	-10.9101
anda	-10.9102
▁buffaloes	-10.9104
38.0	-10.9117
eet	-10.9119
▁eastern	-10.912
▁jaggery	-10.9122
▁relationship	-10.9123
▁nearby	-10.9123
1.3	-10.9125
ref	-10.9131
▁Bacillus	-10.9133
▁Ho	-10.9133
iioonn	-10.9133
ura	-10.914
▁92	-10.9146
4.8	-10.9147
=38.3	-10.9148
=79.8	-10.9148
▁utilizing	-10.9148
▁characterized	-10.9148
=48.0	-10.9148
▁fire	-10.9151
▁committee	-10.916
▁trace	-10.9172
=76.6	-10.9173
▁Design	-10.9173
▁floor	-10.9173
▁Plants	-10.9173
▁0.75	-10.9174
unit	-10.9175
fo	-10.9176
▁rat	-10.9183
▁efficiently	-10.9186
▁Such	-10.9188
▁piglet	-10.9191
▁text	-10.9192
▁2010	-10.9194
▁80%	-10.9195
▁Dry	-10.9197
=38.2	-10.9198
=38.6	-10.9198
=78.1	-10.9198
▁personnel	-10.9198
▁children	-10.9198
▁opportunity	-10.9198
42.0	-10.92
▁From	-10.92
Tamil	-10.9203
46.0	-10.9204
43.0	-10.9206
▁rae	-10.9207
▁purposes	-10.9212
▁20.0	-10.9213
▁profex	-10.9214
=77.7	-10.9223
=79.7	-10.9223
=83.2	-10.9223
▁convert	-10.9223
▁profitable	-10.9226
▁rec	-10.9229
▁Ram	-10.9233
▁centers	-10.924
▁names	-10.9241
rc	-10.9245
2019	-10.9247
=38.5	-10.9249
=39.6	-10.9249
▁Gupta	-10.9249
▁susceptible	-10.9249
eb	-10.9255
off	-10.9257
Fig	-10.926
▁tall	-10.9261
▁Sri	-10.9261
olu	-10.9264
rop	-10.9265
itioonn	-10.9265
pid	-10.9266
▁innovation	-10.9267
▁substantial	-10.9268
MM	-10.927
=76.4	-10.9274
▁gum	-10.9277
▁capital	-10.9278
▁Annexure	-10.9281
▁ll	-10.9282
▁sequence	-10.9286
nate	-10.9292
rot	-10.9292
▁crore	-10.9293
=35.9	-10.93
=36.7	-10.93
=38.7	-10.93
=78.5	-10.93
▁healing	-10.93
▁starch	-10.93
▁installation	-10.9301
▁minor	-10.9303
41.0	-10.9305
▁extraction	-10.9306
▁experts	-10.9315
▁double	-10.9317
=76.5	-10.9325
=80.1	-10.9325
=80.8	-10.9325
▁Strategy	-10.9325
▁uneven	-10.9326
▁melonex	-10.9326
%),	-10.9333
tis	-10.9335
unc	-10.9336
▁str	-10.9342
=79.6	-10.9351
▁approval	-10.9351
malathion	-10.9359
▁destroy	-10.9363
jo	-10.9363
bor	-10.9363
▁insecticides	-10.9366
=77.8	-10.9377
▁radius	-10.9377
▁submission	-10.9377
▁Amount	-10.9378
▁fast	-10.9379
Chancellor	-10.9384
raft	-10.9392
▁dec	-10.9395
cost	-10.9397
sar	-10.9397
▁amounts	-10.9399
=35.1	-10.9402
=75.1	-10.9402
=81.5	-10.9402
=83.4	-10.9402
▁backyard	-10.9402
▁calves	-10.9402
een	-10.9403
▁burn	-10.9409
▁dissolved	-10.9409
▁Station	-10.9411
▁cage	-10.9411
▁completed	-10.9418
ient	-10.9418
chlor	-10.9419
▁extreme	-10.9427
=83.6	-10.9428
▁Coimbatore	-10.9428
▁Sugarcane	-10.9428
▁CSV	-10.9428
▁antioxidant	-10.9428
▁Hisar	-10.943
▁thoroughly	-10.9431
▁Senior	-10.9431
▁lot	-10.9433
fl	-10.9439
table	-10.944
44.0	-10.9441
win	-10.9441
aamm	-10.9444
ommercialization	-10.9448
▁cereal	-10.9449
▁achievements	-10.9452
=35.4	-10.9454
▁excellent	-10.9454
▁Nagpur	-10.9454
▁failure	-10.9454
▁die	-10.9454
▁Road	-10.9455
▁tablet	-10.9456
hel	-10.9458
▁band	-10.9461
season	-10.9463
PP	-10.9467
sel	-10.9473
▁2005	-10.9475
nc	-10.9476
▁forte	-10.9477
▁10.00	-10.9478
▁participation	-10.9481
▁numbers	-10.9489
▁intra	-10.949
head	-10.9491
333333333333333	-10.9504
▁move	-10.9504
=36.1	-10.9506
=38.9	-10.9506
▁always	-10.9506
=38.0	-10.9506
▁cor	-10.9508
fil	-10.9508
▁inhibit	-10.9518
eu	-10.952
▁living	-10.9522
▁sap	-10.9527
tive	-10.9531
=76.1	-10.9532
=82.9	-10.9532
=84.1	-10.9532
▁Expenditure	-10.9532
▁seaweed	-10.9532
▁Chief	-10.9532
▁heart	-10.9533
▁Good	-10.9538
che	-10.954
4.5	-10.954
▁Kannada	-10.9542
ji	-10.9548
▁adverse	-10.9551
tthh	-10.9552
▁prior	-10.9557
125	-10.9558
▁Insect	-10.9558
=35.5	-10.9558
=39.9	-10.9558
=77.3	-10.9558
=82.1	-10.9558
▁chilly	-10.9558
vI	-10.956
92.	-10.9568
pu	-10.9571
▁platform	-10.9581
IN	-10.9581
=82.4	-10.9585
=83.7	-10.9585
▁Leaves	-10.9585
▁vector	-10.9585
▁agenda	-10.9585
▁castration	-10.9585
▁minimal	-10.9585
▁functional	-10.9587
▁composting	-10.9587
9°	-10.959
▁kcc	-10.9591
▁Associate	-10.9593
▁5-7	-10.9594
▁Ph	-10.96
▁04	-10.9601
-60	-10.9605
▁rang	-10.961
▁choose	-10.9611
▁livelihoods	-10.9613
▁mites	-10.9613
▁Trans	-10.9615
▁engineering	-10.9616
▁sale	-10.9619
▁Na	-10.9626
▁700	-10.9626
▁05	-10.9629
▁extensive	-10.963
4.4	-10.9635
=80.4	-10.9637
=83.1	-10.9637
▁evaporation	-10.9637
▁parasitic	-10.9642
mmee	-10.9645
cultural	-10.9649
lum	-10.9649
▁kh	-10.9651
rh	-10.9651
55.0	-10.9653
ega	-10.9653
36.0	-10.9658
531	-10.9659
3.5	-10.9661
▁ten	-10.9662
=35.8	-10.9664
=37.7	-10.9664
=75.3	-10.9664
=75.4	-10.9664
=82.6	-10.9664
ky	-10.9665
▁promptly	-10.9666
▁Email	-10.967
05.0	-10.9671
AB	-10.9672
▁coming	-10.9672
1.1	-10.9673
▁1-2	-10.9675
▁producer	-10.9684
bal	-10.9688
▁grape	-10.9688
▁Har	-10.9689
=79.2	-10.969
=80.7	-10.969
▁believe	-10.969
150	-10.9691
▁HD	-10.9703
rav	-10.9703
=39.8	-10.9717
=77.6	-10.9717
▁Demonstration	-10.9718
▁Mean	-10.9721
▁171	-10.9731
▁conserve	-10.9735
▁linkages	-10.9741
▁Va	-10.9742
▁gall	-10.9743
▁SC	-10.9743
=75.9	-10.9744
▁Capacity	-10.9744
▁fert	-10.9744
TS	-10.9747
▁dead	-10.9751
▁proof	-10.9752
▁cane	-10.9763
fish	-10.9765
▁repellent	-10.9766
▁wwitithh	-10.977
▁write	-10.977
=36.0	-10.9771
▁Officer	-10.9771
▁discussion	-10.9772
▁gur	-10.9772
6.6	-10.9774
ping	-10.9775
▁Per	-10.9777
endra	-10.978
▁2009	-10.9782
▁events	-10.9783
▁Ash	-10.9793
=84.9	-10.9797
▁sesame	-10.9797
=81.0	-10.9797
▁25-30	-10.9801
ou	-10.9816
▁produces	-10.9816
12.0	-10.9817
=75.6	-10.9824
▁masoor	-10.9824
▁proposal	-10.9824
▁veterinarian	-10.9824
▁pseudostem	-10.9824
▁firm	-10.9824
▁pen	-10.9827
▁transportation	-10.9828
hr	-10.9837
▁93	-10.9839
9.6	-10.984
▁except	-10.9847
eennt	-10.9848
▁varied	-10.9851
=84.0	-10.9851
vari	-10.986
▁though	-10.9863
▁request	-10.9864
49.0	-10.9867
▁subsequent	-10.9871
▁Most	-10.9876
=37.9	-10.9878
=76.2	-10.9878
▁Village	-10.9878
=83.0	-10.9878
ible	-10.988
▁Price	-10.9881
sol	-10.9889
ota	-10.9889
chemical	-10.9893
culture	-10.9897
▁Stem	-10.9904
=80.6	-10.9905
▁enabling	-10.9905
▁expansion	-10.9905
▁teaching	-10.9905
▁portal	-10.9905
▁altitude	-10.9906
▁step	-10.9906
▁ddee	-10.9911
▁inorganic	-10.9912
1.6	-10.9912
▁threat	-10.9914
3.8	-10.9917
▁Mu	-10.9918
▁2.6	-10.9925
=38.1	-10.9932
=39.3	-10.9932
=78.8	-10.9932
=80.3	-10.9932
▁Flower	-10.9932
▁Groundnut	-10.9932
gan	-10.9934
▁desi	-10.9939
▁ear	-10.9949
▁Mr	-10.9952
=78.2	-10.9959
▁infiltration	-10.9959
▁shrub	-10.996
▁digestion	-10.996
▁carry	-10.9962
▁western	-10.9963
ny	-10.9971
▁Economic	-10.9972
▁Mi	-10.9974
brown	-10.9977
▁concentrations	-10.9978
▁Dis	-10.9985
=83.8	-10.9987
▁Varanasi	-10.9987
▁waterlogging	-10.9987
=75.5	-10.9987
=37.0	-10.9987
▁pollution	-10.9987
over	-10.9988
▁stand	-10.9992
▁12.0	-11.0004
▁humid	-11.0013
▁challenge	-11.0015
mma	-11.0017
▁Chilli	-11.0018
GR	-11.002
xx	-11.0021
EC	-11.0037
▁ob	-11.0039
▁FF	-11.0041
=36.2	-11.0042
=78.9	-11.0042
=79.4	-11.0042
=84.5	-11.0042
▁diagnostic	-11.0042
▁metal	-11.005
▁Chairman	-11.005
▁nano	-11.0056
MR	-11.0057
Co	-11.0058
ency	-11.0058
▁1/2	-11.006
▁newly	-11.0066
=82.8	-11.0069
=84.6	-11.0069
▁varies	-11.007
▁plays	-11.0071
▁acids	-11.0075
▁onset	-11.0082
▁Scientific	-11.0082
▁dd	-11.0092
▁ATARI	-11.0094
▁researchers	-11.0095
=76.8	-11.0097
=77.2	-11.0097
=77.5	-11.0097
▁Izatnagar	-11.0097
▁White	-11.0097
▁dietary	-11.0098
▁IP	-11.0103
garh	-11.0105
▁ccoo	-11.0106
aass	-11.0107
▁tillering	-11.0107
▁11.0	-11.0113
ists	-11.0114
▁Du	-11.0116
▁falling	-11.0117
▁Fresh	-11.0125
=82.2	-11.0125
▁Sector	-11.0125
▁molecular	-11.0125
can	-11.0125
▁enterprise	-11.0125
▁Fa	-11.0126
▁My	-11.0126
▁Harvesting	-11.0127
▁Mizoram	-11.0128
llyy	-11.0136
▁sucking	-11.0136
▁detail	-11.0141
▁UP	-11.0141
▁agronomic	-11.0141
eh	-11.0146
6.4	-11.0146
cu	-11.0149
▁understanding	-11.015
=81.4	-11.0152
▁team	-11.0153
▁accessions	-11.0154
51.0	-11.0161
9.4	-11.0165
2.8	-11.0177
▁suppress	-11.0178
=81.1	-11.018
▁certification	-11.018
▁constant	-11.018
▁Model	-11.018
▁concrete	-11.018
=76.0	-11.018
▁Also	-11.0181
ature	-11.0185
▁wt	-11.0187
▁said	-11.0188
arb	-11.0191
▁kit	-11.0192
0.6	-11.0194
▁reasonabl	-11.0194
top	-11.02
▁reference	-11.0201
▁Women	-11.0208
=8.9	-11.0208
ook	-11.0209
▁reproduction	-11.0209
▁night	-11.021
▁rock	-11.021
oot	-11.0214
▁Fruits	-11.0215
▁Telugu	-11.0222
▁blue	-11.0234
▁eligible	-11.0236
▁timber	-11.0236
=77.0	-11.0236
▁chlorpyriphos	-11.0237
▁survival	-11.0237
▁Goa	-11.0238
▁alone	-11.0239
mid	-11.024
▁deworming	-11.0243
▁mini	-11.0245
▁hid	-11.0248
▁aid	-11.0256
RR	-11.0258
borne	-11.0259
▁sprinklers	-11.0259
=39.1	-11.0264
=76.9	-11.0264
▁Bhopal	-11.0264
▁Chemical	-11.0264
=78.0	-11.0265
ray	-11.0268
▁DAS	-11.0269
ably	-11.0271
▁2003	-11.0272
006	-11.0273
▁email	-11.0273
uni	-11.0276
▁Onion	-11.0277
▁fact	-11.0285
▁1:1	-11.0288
coc	-11.029
▁remote	-11.0292
▁sponge	-11.0292
aabblele	-11.0292
▁employees	-11.0293
75.	-11.0295
▁outside	-11.0296
▁ar	-11.03
47.0	-11.03
4.1	-11.0301
▁negative	-11.0313
▁analyze	-11.0318
=37.1	-11.0321
▁Precision	-11.0321
▁fungus	-11.0321
▁proportion	-11.0321
▁Ahmednagar	-11.0321
▁grows	-11.0326
▁predicted	-11.0329
pri	-11.0336
▁hrs	-11.034
▁cr	-11.0348
=77.1	-11.0349
pen	-11.0349
▁validation	-11.035
litres	-11.035
▁Ab	-11.0351
▁PG	-11.0352
gn	-11.0358
48.0	-11.0362
▁erect	-11.0366
cit	-11.0369
mmenetn	-11.0375
=80.0	-11.0377
=84.8	-11.0377
▁panacur	-11.0377
tru	-11.038
▁GG	-11.038
▁DAT	-11.0381
▁DDG	-11.0383
▁Chandra	-11.0384
▁liver	-11.0385
▁quickly	-11.0386
fe	-11.039
▁irrigate	-11.0397
▁extended	-11.0398
ama	-11.0399
ull	-11.0399
Re	-11.0401
izoram	-11.0403
▁2.1	-11.0405
▁understand	-11.0409
hum	-11.041
▁Gu	-11.041
▁genotypes	-11.0412
dhi	-11.0415
▁Hon	-11.0416
▁tool	-11.0422
ini	-11.0427
SOR	-11.0429
ble	-11.043
▁indica	-11.043
▁centimeter	-11.0434
=81.6	-11.0434
=81.7	-11.0434
▁communication	-11.0434
▁left	-11.0434
▁stalk	-11.0435
=8.7	-11.0435
que	-11.0436
▁items	-11.0439
▁Marathi	-11.0444
ract	-11.0453
▁concentrate	-11.0454
▁accounts	-11.0455
350	-11.0456
=74.2	-11.0463
▁syrup	-11.0463
▁cum	-11.0465
▁clinical	-11.0465
▁establishing	-11.0468
▁box	-11.0468
▁experiments	-11.0469
▁350	-11.0471
zz	-11.0472
TT	-11.0476
▁Nagar	-11.0479
▁110012	-11.0482
▁aim	-11.0489
=35.6	-11.0492
=37.3	-11.0492
=75.2	-11.0492
=75.8	-11.0492
▁French	-11.0492
▁89	-11.0492
▁Laser	-11.0492
6.5	-11.0493
▁Days	-11.0493
▁leveller	-11.0495
▁launched	-11.0495
▁Account	-11.0498
▁ww	-11.0504
▁1.7	-11.0506
▁lodging	-11.0508
▁IVRI	-11.051
aadd	-11.0512
most	-11.0512
=79.9	-11.0521
=83.3	-11.0521
▁Results	-11.0521
▁Rahuri	-11.0521
▁Commission	-11.0521
▁call	-11.0523
▁laid	-11.0525
amu	-11.0527
▁organisms	-11.0527
▁Many	-11.054
The	-11.0542
▁indications	-11.0545
▁Dhan	-11.0548
=37.4	-11.055
=80.2	-11.055
▁Bureau	-11.055
▁blade	-11.055
bol	-11.055
▁2021-22	-11.055
▁ultimately	-11.0551
ssuu	-11.0551
US	-11.0552
ef	-11.0552
▁damaged	-11.0554
1.4	-11.0565
▁waiting	-11.0567
rap	-11.0567
▁indicates	-11.0571
aba	-11.0573
worm	-11.0575
▁mill	-11.0576
=76.3	-11.0579
▁Contact	-11.0579
▁consistency	-11.0579
▁index	-11.0579
▁foster	-11.058
▁scientist	-11.0583
▁property	-11.0584
▁annually	-11.059
lation	-11.0596
▁amino	-11.0602
▁mechanisms	-11.0603
▁becomes	-11.0605
=39.5	-11.0608
▁Selection	-11.0609
▁texture	-11.0611
▁40%	-11.0617
▁2006	-11.0617
=17.2	-11.0621
IL	-11.0632
▁0.58	-11.0632
=82.7	-11.0637
▁Deputy	-11.0637
▁TOTAL	-11.0637
▁cat	-11.0639
pan	-11.064
yielding	-11.0642
28.	-11.0653
▁operate	-11.0657
SH	-11.0664
▁metals	-11.0665
=81.9	-11.0666
▁durability	-11.0666
▁Center	-11.0666
▁overcome	-11.0668
▁allowed	-11.0668
itation	-11.0671
▁30%	-11.0675
3.2	-11.0678
ori	-11.0679
▁avoided	-11.0687
▁che	-11.0687
kal	-11.0688
▁108	-11.069
▁middle	-11.0695
▁Ag	-11.0696
aka	-11.0699
▁Bhawan	-11.07
ump	-11.0703
▁brand	-11.0705
air	-11.0705
▁trend	-11.0706
▁HI	-11.0709
ening	-11.0711
▁15.0	-11.0715
ware	-11.0717
▁101	-11.0718
▁Ref	-11.072
▁extra	-11.072
▁NAARM	-11.0724
=39.4	-11.0725
▁kernel	-11.0725
▁creation	-11.0725
▁prescribed	-11.0725
october	-11.0725
Maharashtra	-11.0726
=17.9	-11.0727
▁rationale	-11.0732
▁Service	-11.0734
root	-11.074
▁apart	-11.074
Ma	-11.0741
▁functions	-11.0743
▁004	-11.0743
=81.8	-11.0754
▁poverty	-11.0754
=98.7	-11.0754
▁Basmati	-11.0754
▁ccoomm	-11.0756
▁targeted	-11.0757
▁Feb	-11.0765
ory	-11.0768
▁@10	-11.0775
▁ccoonn	-11.0776
ire	-11.0777
▁ask	-11.0778
▁holes	-11.0778
▁Com	-11.0779
dry	-11.0781
▁dual	-11.0782
01.0	-11.0783
=83.5	-11.0784
▁reproductive	-11.0784
▁genome	-11.0784
▁influent	-11.0785
13.0	-11.0788
▁Each	-11.0788
▁web	-11.0789
▁functioning	-11.0794
▁30.0	-11.0795
after	-11.0799
hor	-11.08
flor	-11.0805
▁likely	-11.0805
▁courses	-11.0806
25.0	-11.081
▁absorb	-11.0813
▁categories	-11.0813
▁diagnosis	-11.0813
▁earlier	-11.0813
▁valley	-11.0813
▁Ltd	-11.0814
▁crown	-11.0814
▁dilute	-11.0814
rti	-11.0815
▁She	-11.0817
▁look	-11.0819
opt	-11.0824
▁fishing	-11.0825
75.0	-11.0829
▁completely	-11.0829
▁machines	-11.0829
▁miner	-11.084
▁she	-11.084
▁river	-11.0842
▁commodities	-11.0843
▁Single	-11.0844
=85.0	-11.0844
▁Bas	-11.0845
▁strain	-11.0845
▁FAO	-11.0847
▁5.5	-11.0849
ov	-11.0856
▁wider	-11.0856
MA	-11.0856
▁tteecchhnn	-11.0857
▁gives	-11.0858
▁Seeds	-11.0861
▁KK	-11.0862
▁Marketing	-11.0867
=82.3	-11.0873
▁Survey	-11.0873
▁bh	-11.0873
▁smut	-11.0873
-24	-11.0874
▁Collection	-11.0874
▁aann	-11.0876
▁faster	-11.0879
cro	-11.0888
8.2	-11.0903
▁giving	-11.0903
▁Bengali	-11.0904
▁garo	-11.0905
▁situations	-11.0908
emb	-11.0915
sam	-11.0917
▁Aug	-11.0917
emp	-11.0918
▁fund	-11.0921
▁color	-11.0921
nol	-11.0926
iiss	-11.0927
65.0	-11.0931
▁Zonal	-11.0933
▁answer	-11.0933
with	-11.0933
▁actual	-11.0934
▁patterns	-11.0934
more	-11.0938
▁dia	-11.0939
▁Sc	-11.0946
500.0	-11.0954
oku	-11.0958
▁bunch	-11.0963
=8.8	-11.0964
lia	-11.0965
▁13.0	-11.0971
cular	-11.0974
owing	-11.0977
▁informed	-11.0977
▁Key	-11.0988
▁temperate	-11.0993
rad	-11.0995
▁CSH	-11.0998
▁RC	-11.1
▁constructed	-11.1001
=84.3	-11.1024
▁operator	-11.1024
▁NEH	-11.1024
▁102	-11.1032
▁nematode	-11.1036
▁Nutrition	-11.1039
OR	-11.1043
▁pollination	-11.1047
dia	-11.1051
▁mar	-11.1054
=81.3	-11.1054
=87.9	-11.1054
▁shisham	-11.1054
▁subsidy	-11.1054
▁lac	-11.1054
▁methane	-11.1054
Himachal	-11.106
2.2	-11.106
ential	-11.1061
▁leaching	-11.1062
▁dh	-11.1064
▁workers	-11.1065
▁partnership	-11.1067
▁reasons	-11.1074
▁Time	-11.108
ject	-11.1083
=38.4	-11.1085
=38.8	-11.1085
=82.5	-11.1085
▁Different	-11.1085
▁Faculty	-11.1085
▁companies	-11.1085
▁reflect	-11.1085
=99.4	-11.1085
back	-11.1085
ult	-11.1086
▁consumed	-11.1089
ute	-11.11
xi	-11.1104
▁funding	-11.1111
▁Bacterial	-11.1115
▁Yellow	-11.1115
▁digested	-11.1115
▁numerous	-11.1115
▁pregnant	-11.1115
▁variability	-11.1115
▁suitability	-11.1115
▁dig	-11.1126
73.0	-11.1128
bit	-11.1129
allowing	-11.113
=98.5	-11.1146
▁until	-11.1156
run	-11.1158
▁disciplines	-11.1165
61.0	-11.1173
▁adhar	-11.1173
graduate	-11.1175
▁Kolkata	-11.1177
▁physiological	-11.1177
▁whether	-11.1177
▁specialization	-11.1181
▁fill	-11.1183
▁demands	-11.1184
vel	-11.119
▁streptocyclin	-11.1193
▁1.9	-11.1201
rib	-11.1206
▁fracture	-11.1207
▁Moreover	-11.1208
▁propagation	-11.1208
▁bending	-11.1209
mala	-11.1211
▁flat	-11.1212
▁bone	-11.1216
▁symptom	-11.1222
mly	-11.1225
▁cash	-11.1228
600.0	-11.1231
hara	-11.1234
0.3	-11.1236
mbi	-11.1238
▁zero	-11.1239
▁niger	-11.1239
▁visible	-11.1239
▁coating	-11.1246
▁instructions	-11.1246
▁106	-11.1248
▁hilly	-11.125
54.0	-11.125
tit	-11.1252
▁charge	-11.1254
▁sl	-11.1264
▁2.2	-11.1264
▁Vegetables	-11.1268
=36.4	-11.1269
▁Soybean	-11.1269
=87.0	-11.127
▁rather	-11.1271
▁shell	-11.1272
▁lakhs	-11.1273
▁AP	-11.1274
▁Process	-11.1275
▁dimensions	-11.1285
RNA	-11.1289
▁consideration	-11.1289
▁evaluate	-11.1292
▁drag	-11.1296
▁ripe	-11.1297
=68.6	-11.1301
▁foliage	-11.1301
▁poplar	-11.1301
▁Zinc	-11.1301
▁Pune	-11.1301
▁novel	-11.1303
je	-11.1309
ade	-11.1313
▁decades	-11.1323
▁cons	-11.1325
▁gra	-11.1331
▁pieces	-11.1331
=64.4	-11.1332
▁mastilep	-11.1332
=75.7	-11.1332
=99.7	-11.1332
▁try	-11.1334
lab	-11.1334
▁alter	-11.134
▁tanks	-11.1341
cation	-11.1341
NS	-11.1346
000.00	-11.1351
met	-11.1358
▁nuts	-11.136
-11	-11.136
=62.7	-11.1363
▁THE	-11.1363
thrin	-11.1365
wer	-11.1368
▁specifically	-11.1368
▁Union	-11.137
▁7-10	-11.1371
iivvee	-11.1377
▁foods	-11.1377
▁laying	-11.1378
▁employ	-11.1379
▁drain	-11.138
PD	-11.138
carb	-11.1389
▁gardens	-11.139
▁strengthen	-11.1391
▁1.75	-11.1394
▁dryland	-11.1394
=8.6	-11.1395
=85.6	-11.1395
=87.4	-11.1395
=99.5	-11.1395
▁Malabar	-11.1395
▁Ensure	-11.1395
▁gunny	-11.1395
▁relief	-11.1395
▁standardized	-11.1396
52.0	-11.1397
6.8	-11.1399
-13	-11.1399
▁handle	-11.1402
Agricultural	-11.1406
37.0	-11.141
▁image	-11.1413
▁trial	-11.1422
ui	-11.1425
▁Pant	-11.1426
=60.6	-11.1426
▁Jabalpur	-11.1426
▁acacia	-11.1426
▁marigold	-11.1426
▁squash	-11.1426
▁blocks	-11.1436
▁weak	-11.1438
03.0	-11.1441
▁shallow	-11.1445
▁meal	-11.1448
▁17.0	-11.1451
▁tap	-11.1452
hir	-11.1453
ctive	-11.1455
▁aims	-11.1455
▁objectives	-11.1458
=5.3	-11.1458
=66.6	-11.1458
=72.7	-11.1458
=95.1	-11.1458
▁Brinjal	-11.1458
▁evidence	-11.1458
▁Global	-11.1458
press	-11.1458
=68.0	-11.1458
▁code	-11.1463
▁Oil	-11.1468
▁methyl	-11.1471
▁inform	-11.1471
▁cal	-11.1474
▁paint	-11.1476
rn	-11.1476
▁jam	-11.1477
1.2	-11.1486
=68.2	-11.149
=88.1	-11.149
▁borux	-11.149
▁easier	-11.149
▁fortnight	-11.149
▁microorganisms	-11.149
▁surplus	-11.149
▁discloser	-11.149
▁aadhar	-11.149
▁masonry	-11.1491
▁prefer	-11.1491
tl	-11.1491
▁priority	-11.1491
ccee	-11.1497
▁pits	-11.1514
▁distinct	-11.1521
=62.6	-11.1521
▁kamrup	-11.1521
=98.2	-11.1522
▁Though	-11.1522
▁8-10	-11.1529
▁inlet	-11.1529
▁vessels	-11.1529
ank	-11.1533
▁grasses	-11.1537
▁Systems	-11.1537
22.0	-11.1538
▁14.0	-11.1544
▁got	-11.155
▁EE	-11.1551
oba	-11.1552
=60.9	-11.1553
=66.2	-11.1553
▁Lucknow	-11.1553
▁Maturity	-11.1553
▁enrocin	-11.1553
▁Finger	-11.1554
▁Urea	-11.1555
▁slightly	-11.1557
▁proteins	-11.156
▁deliver	-11.1564
▁Line	-11.1566
62.0	-11.1566
uumm	-11.1569
▁ostovet	-11.157
llll	-11.1571
▁450	-11.1571
▁109	-11.1571
2.3	-11.1576
ition	-11.1577
pore	-11.1581
▁CROP	-11.1583
=67.9	-11.1585
=86.9	-11.1585
▁Fodder	-11.1585
▁comparison	-11.1585
=98.9	-11.1586
=99.0	-11.1586
=75.0	-11.1586
vii	-11.1592
sil	-11.1599
Orissa	-11.16
74.0	-11.1605
▁dense	-11.1612
▁works	-11.1613
rom	-11.1614
▁151	-11.1614
cil	-11.1616
=65.1	-11.1618
=69.9	-11.1618
=74.7	-11.1618
=98.3	-11.1618
▁maggot	-11.1618
▁procurement	-11.1618
▁Spraying	-11.1618
▁(2000)	-11.1618
ties	-11.1619
▁Long	-11.1621
▁operated	-11.1624
eng	-11.1625
RE	-11.1626
▁imp	-11.1629
products	-11.1629
▁Da	-11.1633
▁fu	-11.1639
▁continued	-11.1643
OO	-11.1646
▁bor	-11.1649
=78.4	-11.165
▁Release	-11.165
▁comprising	-11.165
▁ddaattaa	-11.165
▁frequency	-11.165
▁scarcity	-11.165
▁Vision	-11.165
▁DNA	-11.165
▁fermentation	-11.1651
▁perform	-11.1651
8.8	-11.1652
▁Recommendations	-11.1654
▁transplant	-11.1656
▁suffer	-11.1657
▁DG	-11.1657
fym	-11.1665
hri	-11.1667
7.9	-11.167
▁112	-11.167
▁3-5	-11.1672
unt	-11.1674
▁immediate	-11.1675
var	-11.1675
=62.4	-11.1682
=63.6	-11.1682
=67.8	-11.1682
▁enemies	-11.1682
▁repair	-11.1682
=69.0	-11.1683
▁mandate	-11.1685
69.0	-11.1685
dde	-11.1687
▁habit	-11.169
▁forests	-11.1695
▁maan	-11.1696
▁devices	-11.1698
char	-11.1704
▁loose	-11.1705
85.0	-11.171
▁70%	-11.1713
▁implements	-11.1714
=66.5	-11.1715
=69.8	-11.1715
▁submitted	-11.1716
▁cristocycline	-11.1717
▁fe	-11.1718
71.0	-11.1719
MV	-11.1719
▁strip	-11.172
▁suited	-11.1723
IV	-11.1727
▁advance	-11.1728
▁ease	-11.1728
itis	-11.1728
▁employed	-11.1729
hur	-11.1736
jj	-11.1746
▁empower	-11.1746
=71.4	-11.1747
▁Digital	-11.1747
▁contamination	-11.1747
▁shrimp	-11.1747
▁widespread	-11.1747
tia	-11.1755
▁decreased	-11.1763
3.1	-11.1769
▁drops	-11.1771
.31	-11.1776
CR	-11.1776
=85.4	-11.178
▁integrity	-11.178
▁monocrotophos	-11.178
=89.0	-11.178
▁placenta	-11.178
0.8	-11.1784
▁harm	-11.1785
31.0	-11.1789
FR	-11.1791
shaped	-11.1796
▁experimental	-11.1799
ale	-11.1799
=94.3	-11.1813
▁beneficiary	-11.1813
▁sanitation	-11.1813
▁classification	-11.1813
ND	-11.1813
09.0	-11.1814
▁decomposed	-11.1815
how	-11.1817
▁lo	-11.1819
▁Market	-11.182
▁protective	-11.1822
▁Popularization	-11.1825
▁plots	-11.1832
abad	-11.1836
64.0	-11.1844
=60.4	-11.1846
=67.6	-11.1846
=68.3	-11.1846
=69.7	-11.1846
=73.7	-11.1846
▁criteria	-11.1846
▁implications	-11.1846
▁fiber	-11.1846
▁Incubation	-11.1846
28.0	-11.185
=17.3	-11.1852
bio	-11.1852
63.0	-11.1854
▁sann	-11.1855
SF	-11.1857
-40	-11.1858
▁sensitive	-11.186
bar	-11.186
666666666666666	-11.186
▁America	-11.1862
nutrient	-11.1863
▁described	-11.1866
▁conduct	-11.1869
▁cultivar	-11.187
own	-11.1871
59.0	-11.1877
=61.8	-11.1879
=68.5	-11.1879
=73.2	-11.1879
=87.6	-11.1879
▁laboratory	-11.1879
▁marine	-11.188
66.0	-11.1882
68.0	-11.1883
ria	-11.1885
-16	-11.1894
andi	-11.1895
fen	-11.1899
bean	-11.1903
col	-11.1908
-110	-11.191
3.9	-11.1912
=88.8	-11.1912
=89.8	-11.1912
▁Vidyapeeth	-11.1912
▁PFMS	-11.1912
▁Ja	-11.1912
7.3	-11.1915
@1.5	-11.1915
▁environments	-11.1915
▁Multi	-11.1917
▁tract	-11.1921
▁emissions	-11.1924
▁board	-11.1925
▁formulations	-11.1926
▁termites	-11.1928
78.0	-11.1931
-72	-11.1932
▁para	-11.1934
▁drug	-11.1936
▁Of	-11.1939
▁acts	-11.1942
eeaa	-11.1943
▁ffrroomm	-11.1945
▁sulphur	-11.1945
▁variable	-11.1945
=98.8	-11.1945
=99.3	-11.1945
▁impart	-11.1945
▁exotic	-11.1946
650	-11.1946
ule	-11.1946
▁enter	-11.1959
▁performed	-11.1959
▁ppoo	-11.1961
82.0	-11.1971
ero	-11.1971
▁SK	-11.1976
=66.3	-11.1978
=67.4	-11.1978
=86.8	-11.1978
=87.5	-11.1978
▁boiled	-11.1978
oa	-11.1983
▁crores	-11.1987
nov	-11.1991
▁plans	-11.1993
vin	-11.1995
ES	-11.2
ender	-11.2002
=61.4	-11.2012
=69.1	-11.2012
=74.9	-11.2012
▁flavour	-11.2012
▁portable	-11.2012
▁sometimes	-11.2012
▁em	-11.2012
▁Effective	-11.2012
▁phone	-11.2013
▁sciences	-11.202
mix	-11.2023
arma	-11.2024
▁majority	-11.2025
▁determined	-11.2026
▁President	-11.2031
21.0	-11.2032
▁bananas	-11.2032
▁delay	-11.2033
▁alcohol	-11.2045
=85.5	-11.2045
=88.9	-11.2045
▁surrounding	-11.2045
▁grafting	-11.2045
▁preferably	-11.2045
III	-11.2046
▁vision	-11.2047
▁agrimin	-11.2047
▁Feed	-11.205
▁constituted	-11.2054
eecct	-11.206
8.4	-11.2062
▁habitat	-11.2065
▁Remove	-11.207
▁IInn	-11.207
56.0	-11.2072
▁His	-11.2073
ko	-11.2076
▁exist	-11.2078
=60.7	-11.2079
=66.9	-11.2079
=69.2	-11.2079
=73.6	-11.2079
▁vertical	-11.2079
▁reaction	-11.2079
ID	-11.2079
=71.0	-11.2079
▁transformation	-11.208
▁3000	-11.2081
▁dithane	-11.2083
alli	-11.2083
▁plantomycin	-11.2085
▁economically	-11.2089
▁encouraged	-11.2093
72.0	-11.2094
▁ble	-11.2094
ida	-11.2096
▁fa	-11.2097
▁pair	-11.2097
▁ecosystems	-11.2103
BS	-11.2103
▁Start	-11.2104
odi	-11.2105
▁consumer	-11.2107
=71.6	-11.2113
=74.3	-11.2113
=86.1	-11.2113
=99.2	-11.2113
▁cardamom	-11.2113
▁polythene	-11.2113
=96.7	-11.2113
=98.4	-11.2113
=99.6	-11.2113
▁discharge	-11.2113
=62.0	-11.2113
▁Gujarati	-11.2114
onia	-11.2118
6.3	-11.2118
phal	-11.2119
▁receiver	-11.212
▁Cover	-11.2121
24.0	-11.2125
▁tend	-11.2132
▁seeded	-11.2132
▁pprroo	-11.2134
435	-11.2136
▁offering	-11.2138
ious	-11.2143
▁Solan	-11.2145
=63.9	-11.2147
=69.5	-11.2147
=70.4	-11.2147
=71.2	-11.2147
=71.5	-11.2147
=95.7	-11.2147
▁Finance	-11.2147
=99.1	-11.2147
hang	-11.2147
became	-11.2147
▁Deep	-11.2149
▁Mah	-11.2151
▁200.0	-11.2156
560	-11.2162
bre	-11.2162
wood	-11.2174
AM	-11.2178
=61.9	-11.2181
=87.1	-11.2181
=88.5	-11.2181
=99.9	-11.2181
=91.8	-11.2181
▁fertilizing	-11.2181
▁Venue	-11.2181
▁Agroforestry	-11.2181
=73.0	-11.2181
▁via	-11.2182
▁relation	-11.2183
▁buds	-11.2183
▁1200	-11.2183
▁210	-11.2184
222	-11.2188
uff	-11.2194
▁revolution	-11.2195
▁naturally	-11.2195
▁FPOs	-11.2198
▁departments	-11.2199
also	-11.2202
▁parasites	-11.2203
▁Advance	-11.2206
▁inspection	-11.221
=73.8	-11.2215
=88.3	-11.2215
▁Productivity	-11.2215
▁recognized	-11.2221
5.9	-11.2223
wan	-11.2226
▁75%	-11.2226
▁bw	-11.2227
▁list	-11.2231
▁adapted	-11.2237
6.1	-11.2238
Jharkhand	-11.224
▁extracted	-11.224
▁purchase	-11.224
▁rep	-11.2242
AG	-11.2246
▁Building	-11.2249
▁deficiencies	-11.2249
▁Apple	-11.2254
▁2.3	-11.2255
▁posts	-11.2258
▁map	-11.2259
▁cracking	-11.2259
▁Malayalam	-11.2261
▁combined	-11.2262
▁frequently	-11.2263
875	-11.2269
mil	-11.2271
89.0	-11.2278
▁holder	-11.2279
▁meetings	-11.2281
▁pin	-11.2281
anja	-11.2282
=65.3	-11.2283
=65.7	-11.2283
=67.1	-11.2283
=73.5	-11.2283
=97.4	-11.2283
=96.3	-11.2283
▁visual	-11.2284
▁discussed	-11.2284
▁grapes	-11.2287
▁2017-18	-11.2289
▁eki	-11.2289
▁era	-11.2292
rude	-11.2298
hil	-11.2301
▁Ti	-11.2301
▁113	-11.2301
95.0	-11.2302
52.	-11.2308
irrigation	-11.2309
rol	-11.2312
▁foundation	-11.2314
=71.7	-11.2318
▁Milk	-11.2318
▁Audit	-11.2318
▁ssooili	-11.2318
▁bulb	-11.2322
▁splits	-11.2323
0.4	-11.2324
▁practic	-11.2324
=16.4	-11.2327
▁170	-11.2328
79.0	-11.233
related	-11.2341
▁toxic	-11.2347
=72.8	-11.2353
▁cooking	-11.2353
▁layers	-11.2357
▁emerged	-11.2358
▁decisions	-11.2363
value	-11.2365
ott	-11.2367
hot	-11.2376
▁275	-11.2376
ount	-11.2383
11.0	-11.2384
▁stands	-11.2387
=64.2	-11.2387
=67.2	-11.2387
=95.6	-11.2387
▁sharing	-11.2387
▁Reddy	-11.2388
▁Rat	-11.2396
▁lt	-11.2396
ket	-11.24
AP	-11.2403
84.0	-11.2409
9.3	-11.241
9.7	-11.2412
▁5.4	-11.2414
AA	-11.2414
des	-11.2416
▁shift	-11.2417
08.0	-11.2418
lies	-11.2419
4.7	-11.2421
▁Complex	-11.2422
▁instead	-11.2422
=90.2	-11.2422
=90.3	-11.2422
tum	-11.2423
nnoo	-11.2425
▁batch	-11.2425
▁1.00	-11.2432
▁90%	-11.2434
ami	-11.2434
56.	-11.2434
dra	-11.2437
▁20.00	-11.2439
4)	-11.244
aal	-11.2443
▁240	-11.2445
▁careful	-11.2451
KVK	-11.2453
=5.2	-11.2457
=68.4	-11.2457
=68.9	-11.2457
=86.3	-11.2457
▁Himalayas	-11.2457
▁accumulation	-11.2457
▁category	-11.2457
▁exceed	-11.2457
=96.0	-11.2457
▁2023-24	-11.2458
▁Implementation	-11.2462
▁signed	-11.2466
-17	-11.2467
9.9	-11.2468
▁6.5	-11.2469
14.0	-11.2471
▁recently	-11.2476
▁viruses	-11.2477
its	-11.248
▁tillers	-11.2482
▁Current	-11.2485
▁authors	-11.2488
=63.8	-11.2492
=65.5	-11.2492
=65.6	-11.2492
▁TNAU	-11.2492
▁Level	-11.2492
=98.0	-11.2493
way	-11.2494
▁Both	-11.2497
ono	-11.2498
▁helpful	-11.2499
▁procedures	-11.2499
93.0	-11.2508
▁(50	-11.2509
▁tip	-11.251
▁here	-11.251
▁Sun	-11.251
▁sites	-11.2511
▁Standard	-11.2516
▁mint	-11.252
akh	-11.2521
eti	-11.2525
=67.5	-11.2527
=68.7	-11.2527
=73.9	-11.2527
=85.7	-11.2527
=90.7	-11.2527
=96.4	-11.2527
=97.9	-11.2527
▁money	-11.2528
▁Cooperation	-11.2528
▁becoming	-11.2528
=66.0	-11.2528
=72.0	-11.2528
▁cultivating	-11.2528
▁bloom	-11.2528
▁capture	-11.2528
▁Irrigated	-11.253
▁freshwater	-11.253
▁husk	-11.2531
▁LL	-11.2533
▁litter	-11.2537
▁Ad	-11.2537
PG	-11.2544
▁Nutritional	-11.2545
91.0	-11.2552
▁seal	-11.2555
▁previous	-11.2555
riate	-11.2561
crop	-11.2561
pest	-11.2562
quin	-11.2562
=64.9	-11.2563
=86.2	-11.2563
=89.1	-11.2563
=92.0	-11.2563
▁Chickpea	-11.2563
▁absorption	-11.2563
HRD	-11.2563
▁Three	-11.2563
▁buy	-11.2563
▁Cl	-11.2564
▁Centres	-11.2566
get	-11.2567
▁Lack	-11.2569
▁sold	-11.2583
intensive	-11.2596
▁VL	-11.2597
=66.1	-11.2598
=86.5	-11.2598
=89.6	-11.2598
=97.1	-11.2598
▁Microbial	-11.2598
▁harmful	-11.2599
▁semen	-11.2599
▁align	-11.26
dr	-11.2604
▁Pea	-11.2606
▁hydro	-11.2611
▁beetles	-11.2611
fold	-11.2611
▁Wa	-11.2614
81.0	-11.2616
▁111	-11.2623
94.0	-11.2627
800	-11.2628
uur	-11.2629
PA	-11.263
▁gandhi	-11.2634
=61.6	-11.2634
=98.1	-11.2634
▁recomended	-11.2634
▁decoction	-11.2634
=61.0	-11.2634
oi	-11.2639
▁nga	-11.2642
▁23.0	-11.2643
ensis	-11.2648
round	-11.265
-23	-11.2656
oni	-11.2658
▁Kisan	-11.2659
▁tons	-11.2663
Introduction	-11.2666
550	-11.2667
isation	-11.2669
=64.6	-11.2669
=85.2	-11.2669
▁sandalwood	-11.2669
wari	-11.2676
625	-11.2678
▁regulator	-11.2679
situ	-11.2685
▁prop	-11.2685
unda	-11.2687
▁incorporated	-11.2687
53.0	-11.2689
▁5.00	-11.269
▁nematodes	-11.2691
▁25.0	-11.2692
mati	-11.2695
SP	-11.2695
ration	-11.2697
▁Hill	-11.2697
▁core	-11.2699
khol	-11.2701
atus	-11.2702
=63.3	-11.2705
=86.7	-11.2705
=87.8	-11.2705
=95.2	-11.2705
=97.2	-11.2705
▁Skill	-11.2705
▁academic	-11.2705
NDRI	-11.2706
@2.5	-11.2708
▁Amrit	-11.271
▁validated	-11.2717
83.0	-11.2718
ela	-11.272
▁@5	-11.2721
udi	-11.2722
9%	-11.2724
▁pole	-11.2726
▁linked	-11.2726
▁latest	-11.2729
▁involve	-11.273
=5.1	-11.2741
=69.6	-11.2741
=96.1	-11.2741
lixen	-11.2741
▁nutritious	-11.2741
▁foreign	-11.2741
▁Patel	-11.2743
▁uniformity	-11.2745
2.1	-11.2745
020	-11.2753
▁Products	-11.2754
▁soluble	-11.2755
▁Masters	-11.2757
▁18.0	-11.2765
▁yet	-11.277
▁press	-11.2772
ection	-11.2774
=60.2	-11.2777
=65.4	-11.2777
=67.0	-11.2777
=72.6	-11.2777
=86.6	-11.2777
=89.9	-11.2777
▁Summer	-11.2777
▁desirable	-11.2777
▁molasses	-11.2777
=90.9	-11.2777
=95.9	-11.2777
=96.9	-11.2777
▁Strengthening	-11.2777
▁border	-11.2778
▁Protection	-11.2778
▁gundhi	-11.2778
▁outer	-11.2786
▁Monitor	-11.2788
▁drill	-11.2789
=15.9	-11.2791
29.0	-11.2793
-150	-11.2798
66.	-11.2801
▁230	-11.2803
spite	-11.2804
▁sustain	-11.2808
▁derived	-11.2813
=65.9	-11.2814
=67.7	-11.2814
=70.8	-11.2814
=71.3	-11.2814
=72.3	-11.2814
=74.5	-11.2814
=89.7	-11.2814
=90.1	-11.2814
=99.8	-11.2814
▁Financial	-11.2814
=66.7	-11.2814
oriented	-11.2814
▁Manager	-11.2817
23.0	-11.2822
▁Swa	-11.2822
ei	-11.2828
04.0	-11.2835
▁chlor	-11.2838
▁disc	-11.2839
▁114	-11.284
bra	-11.284
=64.8	-11.285
=68.8	-11.285
=70.3	-11.285
=85.1	-11.285
▁depletion	-11.285
=97.3	-11.285
▁augment	-11.285
▁Biotechnology	-11.285
▁Assessment	-11.285
pul	-11.2851
▁stream	-11.2851
tightness	-11.2851
▁collar	-11.2854
▁VCs	-11.2857
sagar	-11.2868
pon	-11.2868
▁wanted	-11.2874
▁assessed	-11.2875
lay	-11.288
▁Success	-11.2886
Jammu	-11.2886
=71.1	-11.2886
▁Dissolve	-11.2886
▁Protein	-11.2886
▁square	-11.2886
=93.6	-11.2886
▁june	-11.2886
=91.4	-11.2886
▁bunds	-11.2886
▁piece	-11.2887
▁participatory	-11.2887
▁attractive	-11.2889
▁signal	-11.2891
40.00	-11.2892
BG	-11.2895
▁geographical	-11.2898
▁prepar	-11.2902
▁aquatic	-11.2909
▁Office	-11.2919
eru	-11.2921
=74.6	-11.2923
=88.2	-11.2923
=96.2	-11.2923
▁Eucalyptus	-11.2923
▁diarrhea	-11.2923
▁logging	-11.2923
=93.8	-11.2923
▁framework	-11.2923
▁Benefits	-11.2924
▁soon	-11.2926
▁104	-11.2929
▁sell	-11.2932
98.0	-11.2934
3.6	-11.2936
88.0	-11.2937
▁continuously	-11.2941
▁Improv	-11.2945
▁HH	-11.2946
▁5-10	-11.2952
▁kilograms	-11.2954
▁413	-11.2957
▁Direct	-11.2957
iness	-11.296
=73.4	-11.296
▁genomic	-11.296
▁contract	-11.296
▁Revolution	-11.296
▁goal	-11.296
=91.0	-11.296
▁antibiotic	-11.2962
rv	-11.2968
▁washing	-11.2968
▁(6	-11.2973
▁syn	-11.2974
ksh	-11.298
tation	-11.2985
▁MS	-11.2988
tam	-11.2989
▁explained	-11.299
vit	-11.299
num	-11.2992
▁infestations	-11.2994
=61.7	-11.2997
=62.3	-11.2997
=72.9	-11.2997
=97.6	-11.2997
▁grazing	-11.2997
▁Period	-11.2997
=91.3	-11.2997
rum	-11.3003
▁121	-11.3004
▁producers	-11.3005
▁Hand	-11.3006
▁upland	-11.302
▁Gram	-11.3023
ED	-11.3023
asa	-11.3025
▁16.0	-11.3027
gam	-11.3031
was	-11.3034
=64.5	-11.3034
=64.7	-11.3034
=66.4	-11.3034
=72.4	-11.3034
=87.7	-11.3034
=88.6	-11.3034
=97.8	-11.3034
▁Dalbergia	-11.3034
▁appliances	-11.3034
▁certified	-11.3034
=97.7	-11.3034
CIFA	-11.3034
=8.5	-11.3034
▁kid	-11.3035
▁room	-11.3035
▁Adoption	-11.3035
half	-11.3037
▁19.0	-11.3041
▁cu	-11.3043
MP	-11.3044
▁learn	-11.3045
▁incubat	-11.3046
hul	-11.3048
▁origin	-11.3049
ez	-11.3052
=61.2	-11.3071
=74.4	-11.3071
=87.2	-11.3071
=92.7	-11.3071
▁residual	-11.3071
▁bulk	-11.3071
▁terminal	-11.3071
▁andaman	-11.3072
202	-11.3072
▁maximize	-11.3073
▁member	-11.3073
▁yellowish	-11.3075
▁Sy	-11.3077
kin	-11.308
other	-11.3099
tityy	-11.3103
▁plough	-11.3106
planting	-11.3108
=95.5	-11.3108
▁rootstock	-11.311
▁tannin	-11.3112
▁proved	-11.3113
▁friendly	-11.3119
▁103	-11.3121
▁oorr	-11.3122
▁kar	-11.3133
▁force	-11.3138
athi	-11.3138
▁24.0	-11.3139
▁clogging	-11.3146
▁venture	-11.3146
▁storing	-11.3146
▁Work	-11.3146
▁brood	-11.3146
eas	-11.3148
▁engaged	-11.3149
▁compound	-11.3149
▁Pig	-11.315
▁setup	-11.3151
GG	-11.3155
anna	-11.3158
375	-11.3161
▁car	-11.3163
net	-11.3163
▁107	-11.3172
IIMR	-11.3183
=86.4	-11.3183
▁magnesium	-11.3183
▁manuring	-11.3183
=96.6	-11.3183
loo	-11.3183
▁Mobile	-11.3184
▁polyhouse	-11.3184
▁indicating	-11.3184
▁INM	-11.3187
Uttar	-11.3188
▁spary	-11.3188
▁135	-11.3191
kumar	-11.3193
ake	-11.3194
amine	-11.3195
▁leg	-11.3195
▁Kar	-11.3202
mor	-11.3202
flox	-11.3211
sR	-11.3213
istic	-11.3213
RM	-11.3217
▁longevity	-11.3221
▁ssyysstteemm	-11.3221
▁supplied	-11.3221
=63.0	-11.3222
▁ration	-11.3223
▁module	-11.3225
▁sodium	-11.3227
▁user	-11.3228
26.0	-11.323
@1	-11.3234
rai	-11.3237
▁1,000	-11.324
▁starting	-11.3241
▁earth	-11.3243
por	-11.3244
▁starts	-11.3247
▁Environment	-11.3249
otic	-11.3251
▁rodent	-11.3259
=68.1	-11.3259
=70.9	-11.3259
=85.3	-11.3259
uducherry	-11.3259
▁Parameter	-11.3259
▁requiring	-11.3259
▁timing	-11.3259
▁therapy	-11.3259
=86.0	-11.3259
▁betelvine	-11.3259
=97.0	-11.3259
▁wall	-11.3263
para	-11.3271
96.0	-11.3274
▁count	-11.3276
▁faced	-11.3276
▁eat	-11.3276
▁climates	-11.3293
=62.1	-11.3297
=70.5	-11.3297
=74.1	-11.3297
=87.3	-11.3297
=95.3	-11.3297
▁beyond	-11.3297
▁wastage	-11.3297
▁mapping	-11.3297
▁atmospheric	-11.3302
▁noticed	-11.3302
aff	-11.3303
▁Dean	-11.3307
▁UG	-11.3327
-120	-11.3333
▁60%	-11.3333
=62.8	-11.3335
=63.2	-11.3335
=69.4	-11.3335
▁Pseudomonas	-11.3335
▁gross	-11.3335
titude	-11.3342
▁tonne	-11.3347
▁Coordinator	-11.3351
▁bees	-11.3353
▁seasonal	-11.3356
▁Departments	-11.3357
▁seek	-11.3358
bel	-11.3359
▁fertilize	-11.336
▁advisory	-11.336
pin	-11.3361
▁smaller	-11.3365
food	-11.3371
▁topicure	-11.3373
▁Cattle	-11.3374
▁intercrop	-11.3374
▁Pulses	-11.3374
LA	-11.3377
▁effort	-11.338
▁invest	-11.3383
▁mat	-11.3386
tak	-11.3386
▁section	-11.339
▁GI	-11.3397
▁selling	-11.3401
7.7	-11.3402
▁obu	-11.3404
850	-11.3411
=63.4	-11.3412
=63.5	-11.3412
=98.6	-11.3412
▁Although	-11.3412
▁century	-11.3412
=96.5	-11.3412
▁cucurbits	-11.3413
▁chance	-11.3415
99.0	-11.3416
▁Millet	-11.3419
▁banks	-11.342
DS	-11.3421
▁(25	-11.3421
-27	-11.3422
lex	-11.3425
ier	-11.3426
▁depend	-11.3429
▁2008	-11.3429
▁intake	-11.343
▁Bur	-11.3431
▁def	-11.3439
▁shortage	-11.3443
=70.2	-11.345
=73.3	-11.345
=89.3	-11.345
▁housing	-11.3451
▁film	-11.3451
▁earthen	-11.3453
▁Dh	-11.3454
-90	-11.3457
efficient	-11.3459
rab	-11.3461
▁manually	-11.3468
▁scar	-11.3472
▁2.7	-11.3474
MH	-11.3479
▁formed	-11.3481
ulu	-11.3484
78.	-11.3484
2%)	-11.3486
oro	-11.3488
=64.1	-11.3489
▁Mushroom	-11.3489
▁Several	-11.3489
▁cashew	-11.349
▁billion	-11.3491
▁fetch	-11.3493
▁eight	-11.3495
▁legumes	-11.3496
▁supplementation	-11.3501
generating	-11.3505
ccuu	-11.3507
▁utilize	-11.352
▁hands	-11.352
lai	-11.352
▁op	-11.352
.41	-11.3526
=61.5	-11.3528
=62.5	-11.3528
=72.2	-11.3528
▁studied	-11.3528
▁1-1.75	-11.3528
▁ointment	-11.3529
▁curing	-11.353
▁splitting	-11.353
ail	-11.3531
▁sample	-11.3535
irsa	-11.3538
▁2303	-11.3542
▁20-30	-11.3542
/4.5	-11.3543
▁division	-11.3552
come	-11.3552
@50	-11.356
▁Document	-11.3565
▁Select	-11.3565
▁Foliar	-11.3567
▁peel	-11.3568
▁Jam	-11.3568
▁wooden	-11.3573
▁seeding	-11.3576
-2.5	-11.3578
86.0	-11.3579
holding	-11.3579
▁Bharat	-11.3587
▁pumps	-11.3589
IM	-11.3591
▁enrich	-11.3593
▁Bhu	-11.3596
▁DKMA	-11.3597
thion	-11.36
▁differ	-11.3604
=60.8	-11.3606
=62.2	-11.3606
=63.7	-11.3606
=69.3	-11.3606
▁Cuttack	-11.3606
▁dysentery	-11.3606
▁intensification	-11.3606
▁modified	-11.3606
▁prominent	-11.3607
▁Fishery	-11.3607
nut	-11.3612
▁soap	-11.3612
▁cement	-11.3613
▁markers	-11.3617
▁mt	-11.3628
▁import	-11.3631
700.0	-11.3633
arabia	-11.3636
▁kk	-11.3638
▁Nov	-11.364
eastern	-11.3645
▁grey	-11.3645
76.0	-11.3646
=63.1	-11.3646
=65.8	-11.3646
=70.1	-11.3646
=71.9	-11.3646
▁Nitrogen	-11.3646
▁thousand	-11.3646
▁vulnerable	-11.3646
=93.3	-11.3646
▁Krishna	-11.3646
▁mild	-11.3646
▁hiring	-11.3647
▁MoU	-11.3649
2,000	-11.3655
▁focused	-11.3656
▁RR	-11.3656
▁integrat	-11.3663
ET	-11.3665
▁Mau	-11.3666
15.0	-11.3668
19.0	-11.3669
mul	-11.367
any	-11.368
=65.2	-11.3685
=74.8	-11.3685
=85.8	-11.3685
▁Energy	-11.3685
▁Preparation	-11.3685
▁Security	-11.3685
=91.1	-11.3685
=94.5	-11.3685
▁microbes	-11.3685
=74.0	-11.3686
▁tata	-11.3686
▁suggestions	-11.3692
ION	-11.3696
soaked	-11.3697
▁Part	-11.3699
LC	-11.3699
rel	-11.3701
bed	-11.3705
shed	-11.3719
▁defined	-11.3722
▁Pra	-11.3724
▁Coconut	-11.3725
▁contrast	-11.3725
▁lettuce	-11.3725
▁narrow	-11.3725
▁IT	-11.3727
▁Commercial	-11.3735
▁separately	-11.3738
▁forecast	-11.3739
▁rapidly	-11.3739
▁Here	-11.374
▁hold	-11.3745
▁mother	-11.3746
RC	-11.3753
dhar	-11.3754
=72.1	-11.3765
=72.5	-11.3765
=88.4	-11.3765
=95.8	-11.3765
▁Revenue	-11.3765
▁divided	-11.3765
▁glass	-11.3765
=91.6	-11.3765
▁preservation	-11.3765
▁Storage	-11.3765
▁elevation	-11.3767
▁phyto	-11.3768
▁transplantation	-11.3768
usa	-11.377
▁leafy	-11.3772
▁notified	-11.3774
RG	-11.3774
fra	-11.3777
ense	-11.3787
800.0	-11.379
▁parent	-11.3795
rant	-11.3797
De	-11.3804
▁checks	-11.3804
▁Mumbai	-11.3805
▁astringent	-11.3805
▁respiratory	-11.3805
▁amister	-11.3805
=92.5	-11.3805
▁globally	-11.3805
▁southern	-11.3806
▁expression	-11.3806
▁UAS	-11.3807
▁Tea	-11.3808
▁Documentation	-11.3808
▁fair	-11.3809
5.5	-11.381
sshh	-11.381
2016	-11.3814
▁Less	-11.3814
108	-11.3815
▁adversely	-11.3816
▁ripening	-11.3816
▁Cal	-11.3825
▁pickle	-11.3827
▁strains	-11.3831
▁path	-11.3834
▁outcomes	-11.3835
omu	-11.3835
tree	-11.3843
▁pull	-11.3843
biovita	-11.3844
=95.4	-11.3845
▁coffee	-11.3845
▁mycelium	-11.3845
▁neblon	-11.3845
▁remunerative	-11.3845
▁couple	-11.3845
▁Pantnagar	-11.3845
▁electricity	-11.3846
▁lost	-11.3849
▁Bara	-11.3859
tera	-11.3864
▁assist	-11.3869
▁restrict	-11.3871
▁vitro	-11.3872
duction	-11.3877
▁Editor	-11.3885
▁Economics	-11.3885
=73.1	-11.3885
▁011-2584	-11.3885
▁Dharwad	-11.3885
▁Jodhpur	-11.3885
▁Marginal	-11.3885
▁Turmeric	-11.3885
=90.5	-11.3885
▁drive	-11.3886
▁reliable	-11.3886
hari	-11.3887
▁Kanpur	-11.3888
▁arrangement	-11.3889
imi	-11.3889
TI	-11.389
▁IoT	-11.3892
▁prediction	-11.3893
Pro	-11.3898
pot	-11.3901
oh	-11.3902
▁3.1	-11.3904
18.0	-11.3908
ique	-11.391
▁119	-11.3912
2.4	-11.3925
106	-11.3925
=67.3	-11.3926
=85.9	-11.3926
=89.4	-11.3926
=93.4	-11.3926
▁Independence	-11.3926
▁Symptoms	-11.3926
▁rubber	-11.3926
=88.0	-11.3926
8.5	-11.3929
▁award	-11.3929
▁MT	-11.393
▁30-40	-11.3933
anti	-11.3935
try	-11.3938
BB	-11.3939
▁118	-11.394
eo	-11.3943
▁houses	-11.3946
190	-11.3946
aatt	-11.395
▁carps	-11.395
=15.2	-11.395
▁severely	-11.3957
▁savings	-11.3959
▁personal	-11.3961
bri	-11.3962
97.0	-11.3963
▁acres	-11.3964
▁loans	-11.3965
▁Sanskrit	-11.3966
▁Swarna	-11.3966
▁association	-11.3966
▁conserving	-11.3966
▁routine	-11.3966
=93.2	-11.3967
▁agrimycin	-11.3967
▁tsf	-11.3968
▁Ap	-11.3971
hand	-11.3972
▁ccaann	-11.3979
rang	-11.398
▁Drip	-11.3982
▁nationalise	-11.3987
▁consequences	-11.3993
▁reports	-11.3994
dur	-11.4003
early	-11.4007
▁Malathion	-11.4007
▁attached	-11.4007
▁dalbergia	-11.4007
▁school	-11.4007
▁Review	-11.4007
▁hatchery	-11.4008
▁knol	-11.4009
▁Saline	-11.4011
Entrepreneurship	-11.4016
FA	-11.4017
IA	-11.4021
▁145	-11.4021
▁wp	-11.4022
wat	-11.4023
▁3.2	-11.4023
vent	-11.4033
▁Program	-11.4042
▁men	-11.4042
shan	-11.4042
▁recover	-11.4042
▁king	-11.4043
=5.4	-11.4048
=60.3	-11.4048
=60.5	-11.4048
=89.2	-11.4048
▁Identification	-11.4048
▁responsibility	-11.4048
▁straight	-11.4048
▁Biogas	-11.4048
▁agency	-11.4048
▁mesta	-11.4048
▁worldwide	-11.4049
=94.0	-11.4049
=70.0	-11.4049
▁141	-11.4053
▁fr	-11.4055
ock	-11.4055
pea	-11.406
▁covers	-11.4064
▁128	-11.4065
▁send	-11.4066
985	-11.4067
NRC	-11.4069
▁sides	-11.4069
VII	-11.407
micar	-11.4071
ren	-11.4074
AE	-11.4076
appa	-11.4076
lli	-11.4077
▁cultiv	-11.4083
viii	-11.4088
▁goals	-11.4088
=91.9	-11.4089
▁Mahotsav	-11.4089
▁diuretic	-11.4089
▁eucalyptus	-11.4089
=92.8	-11.4089
=94.4	-11.4089
=97.5	-11.409
▁coordination	-11.409
▁viability	-11.4091
▁pending	-11.4092
▁30-35	-11.4093
▁chili	-11.4094
▁Poor	-11.4095
ifi	-11.4096
▁participated	-11.4101
▁conc	-11.4104
▁hatch	-11.4106
▁Industrial	-11.4106
availability	-11.4109
▁mah	-11.411
▁extracts	-11.411
77.0	-11.4112
mber	-11.4113
▁5.2	-11.4114
▁ban	-11.4116
▁Chancellor	-11.4118
bl	-11.4119
east	-11.4121
arla	-11.413
=62.9	-11.4131
=66.8	-11.4131
▁Australia	-11.4131
▁diversified	-11.4131
▁Meeting	-11.4131
▁IISR	-11.4131
▁situ	-11.4132
enn	-11.4133
▁itself	-11.4134
▁Or	-11.4137
▁consultation	-11.4138
genta	-11.4141
▁Role	-11.4142
▁beam	-11.4142
▁Mob	-11.4143
▁discipline	-11.4146
87.0	-11.4148
nth	-11.4149
▁hair	-11.4151
900.0	-11.4153
mmoo	-11.4155
▁cri	-11.4155
▁Districts	-11.4157
%).	-11.4161
▁shared	-11.417
=64.3	-11.4172
=88.7	-11.4172
=94.6	-11.4172
▁Human	-11.4172
▁Vitamin	-11.4172
▁embryo	-11.4172
▁Castor	-11.4172
=91.2	-11.4172
=94.7	-11.4172
▁fusariu	-11.4172
=95.0	-11.4173
▁quite	-11.4173
▁Gene	-11.4178
▁epi	-11.4178
▁Lakh	-11.4179
under	-11.4181
▁Advanced	-11.4183
8.7	-11.4195
▁uniformly	-11.4201
▁initially	-11.4208
▁Foundation	-11.4214
▁hygiene	-11.4214
▁pineapple	-11.4214
▁database	-11.4214
▁systematic	-11.4214
=94.1	-11.4214
▁Intervention	-11.4214
▁Series	-11.4215
▁insecticidal	-11.4215
▁underground	-11.4216
▁breadth	-11.4217
▁5.3	-11.422
▁hairy	-11.4221
116	-11.4222
▁Cr	-11.4225
▁drugs	-11.4226
▁commercially	-11.4227
▁List	-11.4228
oopp	-11.423
105	-11.4231
ago	-11.4237
▁pra	-11.4238
▁Services	-11.4243
▁122	-11.4249
▁ber	-11.4251
adha	-11.4252
▁stone	-11.4252
=70.7	-11.4256
▁administrative	-11.4256
▁vegetation	-11.4256
=96.8	-11.4256
▁findings	-11.4256
▁cooperation	-11.4256
vine	-11.4257
▁0.50	-11.4259
▁coloured	-11.426
▁disposal	-11.426
▁Ganga	-11.4261
asu	-11.4262
120	-11.4262
▁pool	-11.4264
-78	-11.4266
ME	-11.4268
▁bur	-11.427
▁candidate	-11.4273
▁solid	-11.4273
▁users	-11.428
571	-11.4282
ifolia	-11.4283
gene	-11.4286
▁typical	-11.429
8.9	-11.4294
▁peak	-11.4295
▁came	-11.4297
▁Alternaria	-11.4298
▁Distribution	-11.4298
▁photosynthesis	-11.4298
▁farmyard	-11.4298
aattee	-11.4299
▁Azadi	-11.4301
tter	-11.4308
▁cracks	-11.4309
▁Lal	-11.4315
idae	-11.432
TA	-11.4322
100.0	-11.4322
4,000	-11.4329
▁vaccines	-11.4334
cet	-11.4336
▁treating	-11.4337
▁compact	-11.4338
-1)	-11.4339
=94.9	-11.434
inflammatory	-11.434
▁receiving	-11.434
▁Grade	-11.434
=92.9	-11.4341
▁gradually	-11.4342
nar	-11.4342
SR	-11.4345
household	-11.4363
▁advisories	-11.4364
▁roller	-11.4364
even	-11.4368
dan	-11.4368
▁visits	-11.4379
▁Lecture	-11.4382
▁Nursery	-11.4382
▁algae	-11.4382
▁chronic	-11.4382
▁kranti	-11.4382
▁wheel	-11.4382
=94.8	-11.4382
▁beneficiaries	-11.4382
▁chamber	-11.4383
▁oblong	-11.4383
▁Teak	-11.4385
▁CROPS	-11.4386
eshwar	-11.439
▁poisoning	-11.4391
vailable	-11.4391
agri	-11.4395
jacket	-11.4398
fruit	-11.4406
57.0	-11.4407
hol	-11.441
▁Schedule	-11.4416
▁221	-11.4417
-21	-11.442
▁favour	-11.4423
aanndd	-11.4424
▁Ensuring	-11.4425
▁doubling	-11.4425
▁receipt	-11.4425
▁finance	-11.4425
=90.4	-11.4425
▁twigs	-11.4425
=91.5	-11.4425
▁belonging	-11.4425
gauge	-11.4426
▁ranges	-11.4426
West	-11.4428
▁proven	-11.4429
▁lab	-11.443
▁considering	-11.443
▁Make	-11.4435
▁influences	-11.4439
▁ABI	-11.4441
claim	-11.4441
300.0	-11.4444
▁07	-11.4447
▁thought	-11.445
▁issued	-11.4452
▁characters	-11.4455
▁AICRPs	-11.4457
life	-11.4458
▁117	-11.4464
▁predominant	-11.4468
=61.3	-11.4468
=71.8	-11.4468
=8.1	-11.4468
▁Chennai	-11.4468
▁TTeecchhn	-11.4468
▁inadequate	-11.4468
▁pollen	-11.4468
▁quantities	-11.4468
▁recycling	-11.4468
▁specified	-11.4468
▁revised	-11.4468
▁nozzle	-11.4468
▁ffaarrmmeersr	-11.4468
=92.3	-11.4468
=64.0	-11.4468
217	-11.447
▁today	-11.4471
▁drawn	-11.4472
▁observations	-11.4485
till	-11.4487
hhaass	-11.4488
2244	-11.4488
2018	-11.449
233	-11.4492
arch	-11.4492
ggee	-11.4493
▁incubator	-11.4494
▁barriers	-11.4498
▁induce	-11.4506
002	-11.4509
=60.1	-11.4511
▁Drought	-11.4511
▁(1998)	-11.4511
▁decided	-11.4511
ular	-11.4511
▁wwaas	-11.4528
posed	-11.4533
▁cont	-11.4534
▁Sat	-11.4537
▁toria	-11.4538
lock	-11.4544
▁Practices	-11.4544
=16.9	-11.4544
999	-11.4547
▁concerns	-11.455
nngg	-11.4553
▁Foxtail	-11.4554
▁patches	-11.4554
▁radiation	-11.4554
▁revenue	-11.4554
=90.8	-11.4554
=93.1	-11.4554
=93.9	-11.4554
biofortified	-11.4558
▁Block	-11.4558
▁persist	-11.456
▁...	-11.4565
▁Note	-11.4565
▁HP	-11.4569
156	-11.457
▁wait	-11.4571
hhee	-11.4573
▁bear	-11.4574
▁pose	-11.458
TM	-11.4581
sulf	-11.4584
idi	-11.4585
010	-11.4585
▁compare	-11.4588
len	-11.4588
▁127	-11.4589
=15.8	-11.4594
=61.1	-11.4597
▁composite	-11.4597
▁piggery	-11.4597
▁infuse	-11.4597
▁nationalized	-11.4601
▁oxy	-11.4604
▁Section	-11.4604
ras	-11.4606
▁ensured	-11.4607
▁breeder	-11.4608
148	-11.4614
▁flu	-11.4614
uta	-11.4618
▁don	-11.4623
▁oilseed	-11.4625
▁cater	-11.4625
▁earthing	-11.4627
▁persons	-11.4628
▁hr	-11.4631
rani	-11.4631
▁particles	-11.4632
icic	-11.4633
▁draw	-11.4637
▁inspect	-11.4638
=92.6	-11.464
=94.2	-11.464
▁wwiitthh	-11.464
▁immune	-11.464
▁birth	-11.464
▁earthworm	-11.4641
▁elite	-11.4641
▁Institutions	-11.4641
▁paid	-11.4649
▁220	-11.4649
▁aatt	-11.465
IPM	-11.4664
tory	-11.468
=15.4	-11.4681
=70.6	-11.4684
=89.5	-11.4684
▁Adequate	-11.4684
▁Dist	-11.4685
▁Biological	-11.4685
▁mark	-11.469
▁30.00	-11.469
mato	-11.4696
▁Ri	-11.47
ltr	-11.4701
lle	-11.4706
60.00	-11.4707
▁identifying	-11.4708
▁124	-11.4713
▁722	-11.4717
▁Week	-11.4719
▁vis	-11.4719
▁smallholder	-11.4722
27.0	-11.4723
added	-11.4726
▁college	-11.4727
atta	-11.4727
▁Bikaner	-11.4728
=92.1	-11.4728
▁pick	-11.4728
llooww	-11.4728
lobia	-11.473
▁Home	-11.4734
▁Generally	-11.4735
▁CGIAR	-11.4735
▁catch	-11.4736
cap	-11.4738
▁fla	-11.4739
▁facilitated	-11.4746
140	-11.4746
▁RRee	-11.4752
▁hing	-11.4755
hopper	-11.4759
meter	-11.4759
122	-11.4762
▁induced	-11.4765
▁radio	-11.477
▁forestry	-11.4771
▁immense	-11.4772
▁Bundelkhand	-11.4772
▁broccoli	-11.4772
▁uprooting	-11.4772
▁description	-11.4772
▁circular	-11.4772
▁germinate	-11.4772
▁Change	-11.4772
▁mitigation	-11.4773
▁Need	-11.4778
▁Sr	-11.4779
▁statement	-11.4783
028	-11.4784
▁images	-11.4792
eat	-11.4804
▁Additional	-11.4811
▁Subscription	-11.4816
▁Grand	-11.4816
▁multiplication	-11.4817
▁Planning	-11.4817
▁competent	-11.4817
posing	-11.4819
▁Even	-11.4823
▁platforms	-11.4823
▁Northeast	-11.4824
bir	-11.4827
▁correction	-11.4828
-1.5	-11.4828
chu	-11.4834
1000	-11.4834
▁dependent	-11.4837
▁Five	-11.4839
▁leave	-11.4841
▁pale	-11.4841
▁ventilated	-11.4842
AICRP	-11.4847
including	-11.4848
▁modules	-11.4856
▁occasion	-11.486
▁mohaphol	-11.4861
▁Important	-11.4861
▁Performance	-11.4861
▁amendments	-11.4861
▁august	-11.4861
▁landscape	-11.4861
=92.4	-11.4861
=93.5	-11.4861
▁malnutrition	-11.4861
▁pursu	-11.4861
▁Growth	-11.4863
graph	-11.4864
earing	-11.4867
▁economics	-11.4882
▁dk	-11.4883
▁133	-11.4885
▁disorders	-11.4887
▁publications	-11.4888
0.2	-11.4896
391	-11.49
▁AAggrriiccuul	-11.4905
▁applicable	-11.4905
▁Smart	-11.4905
▁folder	-11.4906
vu	-11.4907
▁advantageous	-11.4907
▁138	-11.4909
▁incorporat	-11.4911
▁116	-11.4911
▁Apart	-11.4912
bh	-11.4913
KV	-11.4916
fed	-11.4917
▁1100	-11.4918
▁format	-11.4926
450	-11.493
▁Innovation	-11.4931
▁liq	-11.4931
▁highlight	-11.4936
▁november	-11.494
103	-11.4941
2011	-11.4949
▁Solapur	-11.495
▁corrosion	-11.495
=91.7	-11.495
▁containers	-11.4952
▁vines	-11.4953
▁hope	-11.4953
▁Dryland	-11.4953
▁km	-11.4954
3%)	-11.4958
Monthly	-11.4963
now	-11.4969
▁tick	-11.4969
▁variation	-11.4976
▁picking	-11.4977
▁currently	-11.4977
▁Master	-11.4978
chin	-11.4988
189	-11.4993
▁DBW	-11.4995
▁abundant	-11.4995
▁nicobar	-11.4995
▁piping	-11.4995
▁whitefly	-11.4996
▁logo	-11.4997
▁Diseases	-11.5
▁designs	-11.5
▁91-	-11.5007
CO	-11.5012
iningg	-11.5013
▁ambiplex	-11.5018
▁Indo	-11.503
▁09	-11.5039
enband	-11.504
▁lifespan	-11.504
▁sseeeedd	-11.5041
▁liming	-11.5041
▁series	-11.5042
than	-11.5049
▁gi	-11.5052
135	-11.5054
▁soaking	-11.5057
▁screen	-11.506
▁colleges	-11.5063
▁0.1%	-11.5068
▁observation	-11.5069
▁appears	-11.5075
treatment	-11.5076
▁06	-11.5076
ific	-11.5078
▁40.0	-11.5078
aram	-11.5078
▁scum	-11.5081
▁Campus	-11.5086
▁ELISA	-11.5086
▁hunger	-11.5086
▁relevance	-11.5086
▁Industry	-11.5086
▁rules	-11.5086
50,000	-11.5087
▁favourable	-11.5087
▁empowerment	-11.5088
carp	-11.5091
400.0	-11.5093
ben	-11.5095
iidd	-11.5095
▁corresponding	-11.5096
▁Mostly	-11.5098
ved	-11.5103
▁lesser	-11.5107
angi	-11.5107
▁Maha	-11.5109
pine	-11.5109
PU	-11.5112
mple	-11.5118
obtaining	-11.5119
west	-11.5121
▁6-7	-11.5121
▁El	-11.5122
▁update	-11.5125
▁Mix	-11.5127
▁opening	-11.5128
UEST	-11.5132
▁Family	-11.5132
▁intelligence	-11.5132
▁prevalent	-11.5132
▁Intercropping	-11.5132
▁prioritiz	-11.5132
▁figure	-11.5132
▁july	-11.5132
AESR	-11.5132
▁Open	-11.5134
▁attributes	-11.5134
▁Super	-11.5135
ARI	-11.5139
mme	-11.5141
▁corm	-11.5143
▁Content	-11.5145
▁emission	-11.5162
▁tube	-11.5163
▁ga	-11.5163
▁filter	-11.5164
guided	-11.5167
TEC	-11.5169
ecological	-11.517
▁see	-11.5172
▁saw	-11.5172
▁Studies	-11.5177
▁disadvantage	-11.5177
▁sequestration	-11.5177
▁frost	-11.5177
=92.2	-11.5178
CIFT	-11.5178
▁horizontal	-11.5178
▁combat	-11.5178
▁beginning	-11.5178
▁weekly	-11.5181
▁transferred	-11.5182
355	-11.5183
▁carefully	-11.5187
▁Mon	-11.5191
▁132	-11.5192
ising	-11.5193
2-3	-11.5196
▁rhizomes	-11.5196
▁train	-11.5199
lp	-11.52
IIVR	-11.5201
fri	-11.5206
▁insemination	-11.521
▁areca	-11.521
,800	-11.5218
▁Evaluation	-11.5224
▁Issue	-11.5224
▁Yojana	-11.5224
▁Southern	-11.5224
▁SNA	-11.5226
▁progressive	-11.5227
▁scab	-11.5227
▁margin	-11.5228
▁Producer	-11.5229
0.9	-11.5232
▁300.0	-11.5234
▁rope	-11.5234
▁chains	-11.5237
▁islands	-11.5241
▁22.0	-11.5241
pani	-11.5242
5.6	-11.5242
EE	-11.525
▁Give	-11.525
▁ds	-11.5252
▁CR	-11.5253
▁characteristic	-11.5253
▁depression	-11.5256
phen	-11.526
HH	-11.5261
CGIAR	-11.5262
emergence	-11.5262
fly	-11.5263
favorable	-11.5263
200.0	-11.5265
017	-11.5265
▁Province	-11.527
▁drudgery	-11.527
▁flexibility	-11.527
▁nominated	-11.527
▁circulation	-11.527
▁facing	-11.527
▁manpower	-11.527
▁21.0	-11.527
▁licensed	-11.5275
▁golden	-11.5275
▁bold	-11.5276
▁0.01	-11.5288
*	-11.5291
VR	-11.5291
▁install	-11.5298
▁feature	-11.5301
▁ovate	-11.5303
driven	-11.5309
▁mis	-11.5311
DD	-11.5311
▁offered	-11.5313
making	-11.5314
▁Garlic	-11.5316
▁nitrate	-11.5316
▁premium	-11.5316
▁harrow	-11.5316
▁Pvt	-11.5317
▁begin	-11.5317
thu	-11.5324
oxy	-11.5328
▁2001	-11.5329
▁bulbs	-11.533
nin	-11.5331
▁read	-11.5336
▁outbreaks	-11.5336
▁Anti	-11.535
SI	-11.535
▁disrupt	-11.5352
control	-11.5356
▁educational	-11.5356
761	-11.5359
▁126	-11.5361
▁ffaarrmm	-11.5362
▁competitive	-11.5362
▁Andaman	-11.5363
▁Sweet	-11.5363
ettaka	-11.5363
▁bloat	-11.5363
▁Class	-11.5363
▁agroecological	-11.5364
▁ffaarrmmiinngg	-11.5364
▁rough	-11.5367
uma	-11.5369
▁Late	-11.5373
▁expenses	-11.5381
▁orchids	-11.5385
inza	-11.5386
DU	-11.5388
och	-11.5389
▁Bor	-11.5393
▁reservoir	-11.5395
3000	-11.5396
▁trends	-11.5397
▁wastes	-11.5397
▁startups	-11.5398
▁dam	-11.54
▁Way	-11.5403
▁0.40	-11.5404
surface	-11.5404
▁protocols	-11.5405
▁Any	-11.5408
=90.6	-11.541
aat	-11.5411
▁display	-11.5412
▁weedicide	-11.5412
lut	-11.5419
▁African	-11.5421
950	-11.5422
Eco	-11.5424
horn	-11.5429
▁considerations	-11.5434
▁Others	-11.5436
▁(100	-11.5437
▁aspect	-11.5443
ittle	-11.5443
IT	-11.5448
▁roles	-11.5449
▁Rot	-11.5452
▁0.08	-11.5455
▁survive	-11.5456
tellectual	-11.5457
▁foxtail	-11.5457
▁godavari	-11.5457
▁shelter	-11.5457
▁staple	-11.5457
CMFRI	-11.5457
▁saplings	-11.5457
▁copies	-11.5457
995	-11.5458
▁wool	-11.5459
▁referred	-11.546
▁inches	-11.5461
▁economical	-11.5468
2.50	-11.547
▁Transfer	-11.5472
cn	-11.5477
Pa	-11.5478
▁measurement	-11.5478
▁Chand	-11.5481
▁sole	-11.5482
GA	-11.5482
characterization	-11.5489
▁Monitoring	-11.5491
▁organ	-11.5502
▁guar	-11.5503
▁substances	-11.5504
▁Summary	-11.5505
▁deficit	-11.5505
▁jorhat	-11.5505
▁leaving	-11.5505
▁mililitre	-11.5505
▁terrace	-11.5505
▁reforms	-11.5505
▁expertise	-11.5505
▁replacement	-11.5507
▁Basic	-11.5509
▁Sang	-11.5514
To	-11.5516
▁installed	-11.5519
▁144	-11.5519
198	-11.5521
▁fluctuations	-11.5523
▁220022	-11.5526
▁2.00	-11.5528
ending	-11.5531
▁FP	-11.5532
▁solids	-11.5533
atory	-11.5538
▁Introduc	-11.5543
80.00	-11.5545
2010	-11.5549
logical	-11.5551
▁necrotic	-11.5552
=93.7	-11.5552
=100.0	-11.5553
▁Staff	-11.5553
▁northern	-11.5553
▁wire	-11.5554
▁Poly	-11.5554
▁0.20	-11.5556
izer	-11.5559
▁sig	-11.556
2200	-11.5562
▁50.0	-11.5567
uct	-11.5568
▁27.0	-11.5569
dl	-11.5572
▁pots	-11.5573
▁indian	-11.5573
nce	-11.5577
▁fix	-11.5578
▁heading	-11.5585
dul	-11.5587
▁UU	-11.5591
▁Hy	-11.5595
each	-11.5596
▁AR	-11.5596
▁contributions	-11.5597
General	-11.5597
▁Increasing	-11.56
▁Joint	-11.56
▁Promoting	-11.56
▁recruitment	-11.56
▁stunted	-11.56
▁message	-11.56
▁Prasad	-11.56
▁moving	-11.56
▁sensing	-11.56
CIAE	-11.56
▁transmitter	-11.56
▁Actual	-11.5601
▁2022-23	-11.5602
▁Sprinkler	-11.5603
▁wastewater	-11.5603
▁aids	-11.5606
ukh	-11.5607
▁Dev	-11.5607
lop	-11.5612
▁marked	-11.5615
621	-11.5615
▁PO	-11.5616
▁rights	-11.563
▁Semi	-11.5632
▁regulation	-11.5635
▁note	-11.5635
dhan	-11.5637
▁WW	-11.5645
▁Cucumber	-11.5648
▁bioactive	-11.5648
▁vascular	-11.5648
▁Spices	-11.5648
▁insulation	-11.5648
▁tthhaat	-11.5648
▁nutritive	-11.5648
▁session	-11.5648
▁thickness	-11.565
▁12.5	-11.5651
HB	-11.5659
▁hinder	-11.5661
fest	-11.5663
arka	-11.5664
▁incorporate	-11.5665
nom	-11.5675
SRF	-11.5675
PV	-11.5677
▁articles	-11.5679
▁adults	-11.568
▁mung	-11.5681
▁5.1	-11.5684
▁1).	-11.5689
163	-11.5689
▁Analysis	-11.5696
▁jyoti	-11.5696
▁pprroodduuctc	-11.5696
▁fluton	-11.5697
▁vigorous	-11.5697
▁preference	-11.5698
▁audit	-11.5699
itch	-11.57
IG	-11.5703
Ac	-11.5712
inter	-11.5715
▁Keeping	-11.5722
▁predict	-11.5722
LS	-11.5725
▁adjusted	-11.5725
▁ke	-11.5731
▁vessel	-11.5733
ution	-11.5736
▁automatic	-11.5745
▁immunity	-11.5745
▁irregular	-11.5745
▁Despite	-11.5746
bacter	-11.5746
▁das	-11.5747
▁considerable	-11.5748
apa	-11.5755
▁peach	-11.5757
MI	-11.5758
▁macro	-11.5762
▁fingerlings	-11.5765
Gr	-11.5774
▁vill	-11.5776
▁Che	-11.5777
kot	-11.5779
▁channel	-11.5782
▁principle	-11.5782
ivity	-11.5785
204	-11.5786
943	-11.5789
▁Communicat	-11.579
▁Establish	-11.5791
▁halves	-11.5794
▁advisable	-11.5794
▁Balance	-11.5794
October	-11.5794
▁slender	-11.5794
▁sept	-11.58
TH	-11.5806
▁driven	-11.5807
iff	-11.5812
▁vermi	-11.5813
▁Growing	-11.5815
▁Jo	-11.5817
spiration	-11.5818
787	-11.5819
110	-11.5821
▁MP	-11.5822
awa	-11.5829
▁genotype	-11.5832
179	-11.5836
▁inclusive	-11.5837
▁marker	-11.5838
▁substrates	-11.584
▁carrying	-11.584
EA	-11.5841
▁Administrative	-11.5843
▁anthelmintic	-11.5843
▁pilot	-11.5843
tolerant	-11.5844
▁Stor	-11.5844
▁domain	-11.5844
ccaa	-11.5845
▁MH	-11.585
Dr	-11.5853
▁scaling	-11.5854
▁improvements	-11.5861
▁CCoo	-11.5863
▁tissues	-11.5864
▁greatly	-11.5867
▁Award	-11.5867
▁meta	-11.5868
▁guwahati	-11.5879
▁PR	-11.5882
▁repeated	-11.5885
▁@50	-11.5887
prim	-11.5888
205	-11.5891
969	-11.5892
▁Sep	-11.5892
tltuurer	-11.5892
▁attempt	-11.5892
▁strawberry	-11.5892
▁Forestry	-11.5893
=93.0	-11.5893
▁words	-11.5893
▁bush	-11.5898
▁bin	-11.5899
▁139	-11.59
▁earned	-11.5903
▁zi	-11.5905
aid	-11.5906
▁herbal	-11.5907
horti	-11.5911
ccoomm	-11.5913
149	-11.5915
fol	-11.5915
▁endo	-11.5916
DR	-11.5917
▁bad	-11.5918
▁.00	-11.592
lim	-11.5922
IET	-11.5923
▁remained	-11.5925
▁Treat	-11.5925
lat	-11.5926
-75	-11.5929
▁(30	-11.5929
▁element	-11.5932
▁provisions	-11.5932
RH	-11.5935
▁trib	-11.5935
▁Europe	-11.594
▁conducive	-11.5942
▁imidacloprid	-11.5942
▁Pratap	-11.5942
▁transgenic	-11.5942
▁touch	-11.5943
▁going	-11.5943
▁vast	-11.5944
▁true	-11.5945
▁Prof	-11.5945
▁grub	-11.5947
▁culm	-11.5948
▁cast	-11.5948
point	-11.595
▁sticky	-11.5956
azo	-11.5957
▁Controll	-11.5958
▁26.0	-11.5958
abi	-11.5959
▁mission	-11.5961
▁happens	-11.5969
FP	-11.5977
from	-11.5985
TO	-11.5987
ttiinngg	-11.5988
▁Cauliflower	-11.5991
▁Initiative	-11.5991
▁manufacturing	-11.5991
▁Earth	-11.5991
connect	-11.5992
▁lady	-11.5993
225	-11.5995
▁Gender	-11.5995
▁authority	-11.5996
direct	-11.5999
ache	-11.6001
alam	-11.6006
228	-11.6006
▁conducting	-11.6007
▁constructing	-11.6015
cic	-11.6018
plication	-11.6019
▁0.02	-11.6019
▁FFP	-11.6026
992	-11.6028
cine	-11.6032
▁legume	-11.6032
▁Top	-11.6035
▁19:19:19	-11.6041
▁Applicant	-11.6041
▁Association	-11.6041
▁convenient	-11.6041
▁cycles	-11.6042
▁Ran	-11.6042
▁idea	-11.6042
breeding	-11.6046
▁1000.0	-11.6046
▁Rules	-11.6055
▁butter	-11.6056
test	-11.6056
▁investments	-11.6056
▁acidic	-11.606
183	-11.6063
▁Govern	-11.6064
▁art	-11.6066
6.9	-11.6069
rem	-11.6073
▁Bee	-11.6076
▁trait	-11.6082
▁Ganoderma	-11.6092
▁therapeutic	-11.6092
▁Ravindra	-11.6092
▁Budget	-11.6092
▁pathway	-11.6092
▁Body	-11.6092
fusion	-11.6092
▁Short	-11.6093
@1.75	-11.6094
178	-11.6097
▁Linn	-11.6099
jit	-11.6104
▁pressures	-11.6108
▁wise	-11.6109
▁enriched	-11.6109
▁piglets	-11.6109
joining	-11.611
vir	-11.611
▁vety	-11.611
@10	-11.6114
90.00	-11.6116
▁insufficient	-11.6116
▁Developing	-11.6117
243	-11.6126
4%)	-11.6129
785	-11.613
347	-11.6133
▁walls	-11.6136
▁011-25843657	-11.6142
▁caterpiller	-11.6142
▁vigour	-11.6142
CIFRI	-11.6142
▁instance	-11.6142
▁Chlor	-11.6143
alaries	-11.6146
pra	-11.6146
▁suckers	-11.6147
ATARI	-11.6148
▁crushed	-11.6149
▁makers	-11.6149
▁Develop	-11.6152
▁nnee	-11.6154
yt	-11.6154
lav	-11.6155
load	-11.6155
▁USA	-11.6158
▁gardening	-11.6159
340	-11.6164
▁highlights	-11.6164
edge	-11.6176
qq	-11.6176
nan	-11.6179
00/-	-11.618
▁mangoes	-11.6186
▁Kochi	-11.6193
▁diammonium	-11.6193
177	-11.6194
gga	-11.6194
▁overflow	-11.6195
fectious	-11.6196
itit	-11.6197
▁Nil	-11.6199
▁experiences	-11.62
thane	-11.6201
1.7	-11.6203
ulate	-11.6204
1.20	-11.6205
▁carbohydrates	-11.6211
▁label	-11.6213
▁10,000	-11.6217
▁eggplants	-11.6218
▁sent	-11.6219
iva	-11.622
306	-11.6228
▁weigh	-11.6232
part	-11.6241
#	-11.6244
sufficiency	-11.6244
▁Potassium	-11.6244
▁inclusion	-11.6244
▁pheromone	-11.6244
▁stabilize	-11.6244
=8.2	-11.6244
▁ongoing	-11.6245
▁Grants	-11.6245
▁hypo	-11.6247
▁exposed	-11.6248
986	-11.625
power	-11.6251
784	-11.6256
▁3,000	-11.6265
▁earning	-11.6265
then	-11.6266
▁presentation	-11.627
▁Mid	-11.6272
EP	-11.6278
▁Sen	-11.628
▁shifting	-11.6282
rch	-11.6282
ahoo	-11.6291
▁cart	-11.6292
▁although	-11.6295
▁circumstances	-11.6295
▁holistic	-11.6295
▁kitchen	-11.6295
▁IRRI	-11.6295
▁Mishra	-11.6295
▁Transplanting	-11.6295
▁pasture	-11.6296
Cdn	-11.6298
▁Creat	-11.6298
fected	-11.6299
jal	-11.6301
▁Seedling	-11.6302
ecosystem	-11.6303
DARE	-11.6303
▁flooding	-11.6303
This	-11.6304
428	-11.6305
▁40-50	-11.6307
▁reservoirs	-11.6312
697	-11.6315
▁hoeing	-11.6316
▁190	-11.6322
aabb	-11.6322
ators	-11.6326
▁175	-11.6327
ij	-11.633
70.00	-11.6335
▁preserve	-11.6339
▁journals	-11.6339
▁Mn	-11.6343
▁oral	-11.6343
CAZRI	-11.6347
▁transaction	-11.6347
▁Prepare	-11.6347
▁file	-11.6347
▁estimation	-11.6347
▁selective	-11.6351
384	-11.6355
Head	-11.6355
Sc	-11.6356
304	-11.6357
▁Payment	-11.6364
▁Acid	-11.6372
aimed	-11.6373
▁Experimenter	-11.6375
▁secure	-11.6377
223	-11.638
▁gained	-11.638
undi	-11.6381
▁washed	-11.6381
omycin	-11.6385
Mail	-11.6388
bul	-11.6389
bro	-11.6389
▁Raja	-11.6391
New	-11.6394
LL	-11.6397
▁Guidelines	-11.6398
▁Jorhat	-11.6398
▁Social	-11.6398
▁caflon	-11.6398
▁perspective	-11.6398
zine	-11.6399
▁Ginger	-11.6399
▁allocation	-11.6399
▁took	-11.64
hytophthora	-11.6401
71428571428	-11.6401
tious	-11.6405
▁Book	-11.6408
▁herd	-11.6411
826	-11.6413
▁boosting	-11.6413
▁extensively	-11.6413
▁individuals	-11.6415
ploid	-11.6416
▁Jal	-11.6421
mini	-11.6431
▁drilling	-11.6436
▁deka	-11.6437
MT	-11.6438
▁positions	-11.6439
▁mold	-11.6442
▁Not	-11.6442
oids	-11.6443
BI	-11.6443
▁Activities	-11.6451
▁gypsum	-11.6451
▁responsive	-11.6451
▁stimulate	-11.6451
157	-11.6451
▁nagaon	-11.6453
rl	-11.646
Hindi	-11.6461
growing	-11.6462
/30	-11.6468
014	-11.647
▁ON	-11.6474
DO	-11.6475
inda	-11.6476
897	-11.6484
▁Himalayan	-11.6484
FS	-11.6489
PGS	-11.6491
cult	-11.6493
▁Thar	-11.6494
▁addressed	-11.6498
bari	-11.6499
▁1/3	-11.6499
▁instrument	-11.65
▁Shi	-11.65
unn	-11.6502
owdery	-11.6503
▁Fertilization	-11.6503
▁commitment	-11.6503
▁Bamboo	-11.6503
▁pumkin	-11.6503
▁anistamin	-11.6503
▁Habit	-11.6503
▁dipped	-11.6504
▁involvement	-11.6505
▁AK	-11.6505
▁prune	-11.6505
▁feedback	-11.6506
▁(1)	-11.6508
▁annum	-11.6512
▁otherwise	-11.6515
▁suggestion	-11.6518
irir	-11.652
348	-11.6525
▁enabled	-11.6528
▁clearly	-11.6528
PO	-11.6532
▁checked	-11.6533
▁Nutri	-11.6538
▁Sur	-11.654
pit	-11.6542
taitoion	-11.6546
▁Av	-11.6546
▁Members	-11.6547
ghat	-11.6548
021	-11.6549
ibility	-11.6555
▁Artificial	-11.6556
▁automation	-11.6556
▁suspension	-11.6556
▁cooked	-11.6556
▁armyworm	-11.6556
▁mungbean	-11.6556
▁classified	-11.6556
▁1990	-11.6557
▁holdings	-11.6559
▁pathogenic	-11.6562
inder	-11.6563
▁interested	-11.6566
English	-11.6567
onda	-11.6569
aging	-11.6573
logy	-11.6574
277	-11.6582
▁electrical	-11.6582
112	-11.6586
omo	-11.6591
▁influenc	-11.6598
▁Paras	-11.6602
▁2.75	-11.6603
▁1960	-11.6608
▁Milestone	-11.6608
▁Prakash	-11.6608
▁Which	-11.6608
▁fertlizer	-11.6608
▁swine	-11.6609
▁IWM	-11.661
▁roof	-11.661
▁eaten	-11.661
▁dosages	-11.6612
▁bael	-11.6614
▁Protected	-11.6614
hip	-11.6615
-36	-11.6618
eria	-11.662
DKMA	-11.6621
▁28.0	-11.6625
tail	-11.6626
▁gaps	-11.6627
emia	-11.6628
▁Innovations	-11.6632
▁streptocycline	-11.6633
160	-11.6635
275	-11.6636
425	-11.6636
ebi	-11.6636
bank	-11.664
▁experienced	-11.6643
▁suit	-11.6644
▁holds	-11.6648
▁155	-11.665
▁Char	-11.6655
▁capita	-11.6656
▁850	-11.6656
▁Citrus	-11.6662
▁comparable	-11.6662
▁pregnancy	-11.6662
▁suspected	-11.6662
▁tapioca	-11.6662
▁Pension	-11.6662
▁assured	-11.6662
▁fmd	-11.6662
mod	-11.6664
▁cloudy	-11.6669
▁sales	-11.667
AL	-11.6671
▁Well	-11.6672
385	-11.6672
▁realized	-11.6676
▁lowest	-11.6676
rk	-11.6679
▁CD	-11.6682
isi	-11.6682
Term	-11.6684
ural	-11.6684
▁0.80	-11.6685
▁introduc	-11.6692
387	-11.6693
00000	-11.6695
rob	-11.6696
▁cloud	-11.6708
▁Utiliz	-11.6712
▁BOOK	-11.6715
▁trouble	-11.6715
▁Copper	-11.6715
▁cylindrical	-11.6715
860	-11.6718
▁track	-11.672
▁threshing	-11.6721
▁expressed	-11.6723
▁50-60	-11.6729
▁0.15	-11.6733
▁prevailing	-11.6733
pests	-11.6734
▁fabric	-11.6742
▁specially	-11.6746
▁Genetics	-11.6746
▁counter	-11.675
▁formalin	-11.6751
▁institution	-11.6752
▁005	-11.6755
▁oct	-11.6755
▁slopes	-11.6756
lele	-11.6756
uj	-11.6757
▁2.9	-11.6758
▁maximiz	-11.6766
sagorika	-11.6769
▁Bavistin	-11.6769
▁Litchi	-11.6769
▁Objective	-11.6769
▁accuracy	-11.6769
▁built	-11.6769
▁determining	-11.6769
▁dibrugarh	-11.6769
▁exercise	-11.6769
▁january	-11.6769
▁penetration	-11.6769
▁ranjit	-11.6769
lttuurree	-11.6769
▁Overall	-11.677
feed	-11.677
▁toxicity	-11.6771
▁functionality	-11.6771
▁isolated	-11.6774
▁reared	-11.6782
▁placement	-11.6785
controlled	-11.6785
▁focusing	-11.6786
▁sign	-11.6786
leaf	-11.6788
▁Kendras	-11.6791
▁Naga	-11.6793
▁pile	-11.6797
062	-11.68
RB	-11.6804
▁VI	-11.6807
▁Rao	-11.681
▁000	-11.6812
▁spin	-11.6815
▁exclusive	-11.6816
158	-11.6822
▁COVID	-11.6823
▁Community	-11.6823
▁Industries	-11.6823
▁attachment	-11.6823
▁welfare	-11.6823
▁replications	-11.6823
▁Handbook	-11.6823
▁boiling	-11.6823
▁Aromatic	-11.6823
▁frontline	-11.6823
she	-11.6823
▁copy	-11.6824
▁precautions	-11.6824
▁Creation	-11.6825
nndd	-11.6831
▁grants	-11.6834
▁sanctioned	-11.6836
▁0.30	-11.6838
▁closely	-11.684
PH	-11.684
▁chapters	-11.6843
▁interactions	-11.6851
▁differences	-11.6853
▁approaching	-11.6853
▁stones	-11.6857
▁1970	-11.6862
195	-11.6865
310	-11.6867
▁flesh	-11.687
68.	-11.6871
▁0.2%	-11.6875
▁certificate	-11.6877
▁completion	-11.6877
▁basket	-11.6877
▁basin	-11.6877
▁decay	-11.6878
▁Jute	-11.6879
▁avil	-11.6881
▁5000	-11.6886
17.0	-11.6886
location	-11.6887
▁Gir	-11.6888
gur	-11.689
odium	-11.6892
cont	-11.6894
affected	-11.6895
▁slowly	-11.6895
▁landless	-11.6901
▁serves	-11.6902
▁emerge	-11.6904
▁observe	-11.6904
tn	-11.6906
▁sant	-11.6909
▁Devi	-11.6911
ucc	-11.6912
468	-11.6915
168	-11.6917
▁NGOs	-11.6918
▁5.6	-11.6925
▁bread	-11.6929
▁adjustments	-11.693
▁Discuss	-11.6932
▁HYV	-11.6932
▁Student	-11.6932
▁ruminants	-11.6932
▁suppliment	-11.6932
▁Self	-11.6932
▁Bitter	-11.6932
▁Rajendranagar	-11.6932
▁software	-11.6932
NRRI	-11.6933
▁Assamese	-11.6934
cyclin	-11.6934
▁actions	-11.6945
rine	-11.695
place	-11.6953
410	-11.696
▁dimethoate	-11.6962
Bt	-11.6969
hl	-11.697
rub	-11.6978
▁bull	-11.6986
▁commodity	-11.6987
▁fibrous	-11.6987
▁opinion	-11.6987
▁hydrogen	-11.6987
▁Authority	-11.6987
▁simultaneously	-11.6989
exploitation	-11.6989
▁elevated	-11.6992
614	-11.6997
▁ideas	-11.6998
▁construct	-11.7
184	-11.7001
ime	-11.7003
▁watershed	-11.7003
▁delayed	-11.701
▁bit	-11.701
aximum	-11.7014
▁FW	-11.7017
▁123	-11.7022
240	-11.7025
▁solani	-11.7025
128	-11.703
▁changed	-11.704
161	-11.7041
▁interface	-11.7042
▁leaks	-11.7042
▁behind	-11.7042
▁segment	-11.7042
▁NEW	-11.7042
▁subtropical	-11.7043
curring	-11.7044
▁(1999	-11.7046
206	-11.7047
anthus	-11.7048
▁farmland	-11.7051
▁146	-11.7057
▁regulations	-11.7057
tropical	-11.7061
▁nutri	-11.7062
branch	-11.7062
197	-11.7066
ifera	-11.707
stem	-11.707
994	-11.707
▁sq	-11.7071
725	-11.7071
trop	-11.7075
▁lowland	-11.7077
▁forecasting	-11.7078
▁tail	-11.7087
rryy	-11.7093
edic	-11.7093
▁Reduc	-11.7094
▁photo	-11.7097
▁respond	-11.7098
▁anaerobic	-11.7098
▁comparative	-11.7098
▁deltoides	-11.7098
▁inflammation	-11.7098
▁lavender	-11.7098
▁IlooTT	-11.7098
▁GPF	-11.7098
▁Yadav	-11.7098
▁entries	-11.7098
▁limitations	-11.7098
grain	-11.7098
▁reddish	-11.7099
▁Marine	-11.71
674	-11.7101
him	-11.7101
▁phy	-11.7102
▁parasi	-11.7104
▁dated	-11.7105
▁acidity	-11.711
▁dissolve	-11.7113
2023	-11.7114
Karnataka	-11.7119
IVRI	-11.7119
354	-11.7123
▁khanapara	-11.7133
hana	-11.7136
415	-11.7138
hill	-11.7141
▁performing	-11.7143
▁hetero	-11.7146
FLD	-11.7151
▁Capsicum	-11.7154
▁Category	-11.7154
▁TThhisi	-11.7154
▁challenging	-11.7154
▁encouraging	-11.7154
▁inflorescence	-11.7154
▁necrosis	-11.7154
▁escape	-11.7154
▁Trait	-11.7154
▁desert	-11.7154
▁Rajendra	-11.7154
▁mind	-11.7154
▁running	-11.7154
180	-11.7159
▁mould	-11.7159
vive	-11.7163
▁tractors	-11.7173
379	-11.7175
biodiversity	-11.7176
prop	-11.7177
Comp	-11.7178
tab	-11.718
06.0	-11.718
▁yrs	-11.7183
▁3.6	-11.7183
▁equipp	-11.7184
▁gni	-11.7187
▁documented	-11.7192
▁sanction	-11.7196
▁combine	-11.7202
icidal	-11.7204
▁partial	-11.7207
▁Adopt	-11.7208
▁Vari	-11.7209
▁Academy	-11.721
▁DELHI	-11.721
▁FFaarrmmiinngg	-11.721
▁Principles	-11.721
▁decomposition	-11.721
▁insightful	-11.721
▁lameness	-11.721
▁streak	-11.721
▁harness	-11.721
▁ghee	-11.721
313	-11.7211
▁Phase	-11.7212
att	-11.7216
stock	-11.7219
▁That	-11.722
onic	-11.7222
194	-11.7223
▁discovered	-11.7223
▁Care	-11.7228
▁Bag	-11.7228
828	-11.7229
▁closed	-11.723
2015	-11.7231
phon	-11.7233
▁variations	-11.7234
sess	-11.7236
▁uussee	-11.7237
808	-11.7237
product	-11.7237
tiioonn	-11.7238
nother	-11.7239
▁broadcast	-11.7241
▁1.15	-11.7245
▁4.2	-11.725
3.20	-11.7255
6.7	-11.726
▁Magazine	-11.7264
▁0.22	-11.7265
spectrum	-11.7266
▁Chemistry	-11.7266
▁Medicine	-11.7266
▁Phosphorus	-11.7266
▁champaran	-11.7266
▁decreasing	-11.7266
▁calving	-11.7266
▁heifer	-11.7266
▁silage	-11.7266
▁representative	-11.7267
▁Nav	-11.7269
▁IIHR	-11.7272
GO	-11.7273
▁lato	-11.7274
▁masses	-11.7276
lined	-11.728
aannccee	-11.728
pol	-11.7284
▁Kodo	-11.7285
126	-11.7286
▁ammonium	-11.7287
lime	-11.7294
pac	-11.7302
▁29.0	-11.7304
-500	-11.7305
▁NRM	-11.7306
▁3.4	-11.7312
NARS	-11.7312
342	-11.7317
▁cfu	-11.7317
▁Lab	-11.7317
CIBA	-11.7321
320	-11.7321
kanpur	-11.7322
▁dioxide	-11.7323
▁premature	-11.7323
▁qualifications	-11.7323
▁Potential	-11.7323
▁Brown	-11.7323
▁withstand	-11.7323
▁kodo	-11.7324
▁potting	-11.7325
Po	-11.7325
▁cob	-11.7325
alu	-11.7327
▁Postage	-11.7328
▁Operation	-11.7328
▁reaching	-11.7329
▁linkage	-11.733
▁camel	-11.7333
weed	-11.7334
▁constitute	-11.7341
vad	-11.7344
▁3.7	-11.7348
▁Cap	-11.7349
▁metric	-11.7366
▁formal	-11.7368
▁1.52	-11.7372
officio	-11.738
▁aallssoo	-11.738
▁atmosphere	-11.738
▁automated	-11.738
▁discoloration	-11.738
▁lakhimpur	-11.738
▁tunnel	-11.738
▁letter	-11.738
▁beverage	-11.738
▁panama	-11.7381
▁stake	-11.7382
RF	-11.7382
▁tied	-11.7383
▁fixation	-11.7383
▁0.5%	-11.7384
▁emphasized	-11.7393
338	-11.7393
ibwa	-11.7394
ttle	-11.7394
▁ecology	-11.7396
▁antimicrobial	-11.7396
▁Challenges	-11.7396
203	-11.7402
▁Plantation	-11.7409
▁Thi	-11.7412
▁rear	-11.7414
▁rank	-11.7416
208	-11.742
▁6.2	-11.7431
▁exports	-11.7433
cover	-11.7435
▁4.3	-11.7437
▁bulls	-11.7437
▁Website	-11.7438
▁heavily	-11.7438
▁laboratories	-11.7438
▁malabar	-11.7438
▁AVT	-11.7438
▁redomil	-11.7439
▁resin	-11.7439
▁Prime	-11.7443
▁cooling	-11.7447
cru	-11.7448
▁habitats	-11.7452
▁subsequently	-11.7453
▁165	-11.7458
▁Rai	-11.746
274	-11.7462
465	-11.7462
shallow	-11.7464
▁traditionally	-11.7468
▁roll	-11.7469
475	-11.7469
sure	-11.7472
▁And	-11.7473
ccoo	-11.7473
▁acting	-11.7475
bat	-11.7477
▁134	-11.7481
▁Feeding	-11.7482
right	-11.7483
▁appropriately	-11.7485
▁fail	-11.7486
▁incorporation	-11.7487
▁fit	-11.7492
▁edge	-11.7492
teen	-11.7494
▁introduce	-11.7495
▁Moisture	-11.7495
▁Parbhani	-11.7495
▁Promote	-11.7495
▁UNDER	-11.7495
▁Valley	-11.7495
▁chlorophyll	-11.7495
▁diversify	-11.7495
▁mosquito	-11.7495
▁Grape	-11.7496
▁quarter	-11.7496
▁vein	-11.7497
▁supplementary	-11.75
▁Mulching	-11.7501
▁protocol	-11.7502
▁specialized	-11.7503
▁cooperative	-11.7503
▁31.0	-11.7504
▁advancement	-11.7504
230	-11.7505
▁dispos	-11.7506
▁mitigat	-11.7506
▁spice	-11.7506
ppu	-11.7507
iga	-11.7512
angu	-11.7518
▁Cell	-11.752
▁administered	-11.7524
▁cleaned	-11.7524
Mo	-11.7525
tural	-11.7525
▁400.0	-11.753
▁reached	-11.753
▁limits	-11.7533
▁cumin	-11.7536
080	-11.7536
▁sex	-11.7539
▁print	-11.754
▁discover	-11.754
yi	-11.7542
▁examine	-11.7546
▁milking	-11.7548
▁hexaconazole	-11.7549
▁Organiz	-11.7551
▁Limited	-11.7554
▁Udaipur	-11.7554
▁oxysporum	-11.7554
▁recognition	-11.7554
▁utility	-11.7554
▁Shelf	-11.7554
▁Teaching	-11.7554
▁modification	-11.7554
▁Pigeonpea	-11.7554
▁electronic	-11.7554
=9.0	-11.7554
▁admission	-11.7554
▁governance	-11.7554
▁bovine	-11.7554
▁serum	-11.7554
▁Manure	-11.7555
▁tilt	-11.7556
▁rising	-11.7557
104	-11.7561
oct	-11.7561
ethyl	-11.7561
▁reaches	-11.7563
▁CRIDA	-11.7565
▁master	-11.7572
▁panel	-11.7578
▁necessitate	-11.758
▁Hills	-11.7581
▁fry	-11.7581
▁aged	-11.7584
PE	-11.7585
022	-11.7586
059	-11.7592
▁aau	-11.7594
▁PAU	-11.7598
▁reveal	-11.7598
▁0.16	-11.7603
▁gape	-11.7603
▁bima	-11.7608
▁rid	-11.7608
▁spaced	-11.7608
▁females	-11.7611
113	-11.7612
▁Carbendazim	-11.7612
▁Cassava	-11.7612
▁Mancozeb	-11.7612
▁confidence	-11.7612
▁dedicated	-11.7612
▁expensive	-11.7612
▁licensing	-11.7612
▁written	-11.7612
▁Diversification	-11.7612
648	-11.7612
▁Tribal	-11.7613
pertaining	-11.7613
▁varities	-11.7613
5500	-11.7616
sowing	-11.7622
lima	-11.7626
2012	-11.7627
001	-11.763
▁highlighted	-11.763
ppa	-11.7637
▁lay	-11.7645
cast	-11.7645
▁exhibited	-11.7652
970	-11.7652
▁album	-11.7653
rev	-11.7653
(10)	-11.7658
680	-11.7661
▁1980	-11.7663
toxin	-11.7667
270	-11.7667
▁NARS	-11.767
▁convey	-11.767
CPCRI	-11.7671
▁Liquid	-11.7671
▁Mohapatra	-11.7671
▁deciduous	-11.7671
▁floriculture	-11.7671
▁illustrat	-11.7671
▁complement	-11.7671
▁sterile	-11.7671
▁IInnddiiaann	-11.7671
▁affordable	-11.7672
▁Vikas	-11.7672
▁acceptable	-11.7672
▁khasi	-11.7674
▁Utilization	-11.7674
▁practised	-11.7674
396	-11.7675
tteedd	-11.7675
▁forming	-11.7679
▁Tree	-11.7682
2000	-11.7688
-35	-11.7691
▁ppeerr	-11.7695
▁grades	-11.7696
▁mon	-11.7697
zen	-11.7698
netn	-11.77
▁0.32	-11.7701
▁hatching	-11.7709
▁mL	-11.7711
▁combin	-11.7714
▁225	-11.7716
▁Bala	-11.7719
▁pear	-11.772
▁fasa	-11.7728
▁Machine	-11.7729
▁campaign	-11.773
▁Learning	-11.773
▁glabrous	-11.773
▁stimulant	-11.773
edinipur	-11.773
▁conference	-11.773
▁tolerate	-11.7731
▁collaborative	-11.7731
▁limb	-11.7732
▁retail	-11.7732
▁Format	-11.7732
▁render	-11.7734
▁Officers	-11.7735
▁DAP	-11.7736
▁bitterness	-11.774
▁Full	-11.7741
yog	-11.7741
174	-11.7743
ould	-11.7745
illa	-11.7745
▁sprouting	-11.7751
▁february	-11.7754
66666666666666	-11.7757
▁Nano	-11.7759
business	-11.7761
▁dynamics	-11.7762
through	-11.7763
biotic	-11.7766
-26	-11.7767
kol	-11.7767
▁(2)	-11.7772
655	-11.7776
ako	-11.7776
▁ranged	-11.7778
-200	-11.7783
358	-11.7783
▁bath	-11.7784
▁hydroponics	-11.7785
gic	-11.7786
ich	-11.7789
▁Clinical	-11.779
▁Parliament	-11.779
▁Physical	-11.779
▁hygienic	-11.779
▁investigation	-11.779
▁kerosene	-11.779
▁leakage	-11.779
▁prospects	-11.779
▁rigid	-11.779
▁teachers	-11.779
▁trichoderma	-11.779
▁integrate	-11.779
▁worth	-11.779
▁evergreen	-11.779
▁kannad	-11.779
▁Pradhan	-11.779
▁Adapt	-11.779
ttuurarla	-11.779
▁acute	-11.779
▁rupee	-11.779
▁brick	-11.7791
▁accessible	-11.7791
036	-11.7792
▁Nations	-11.78
▁official	-11.78
▁Four	-11.78
▁mealy	-11.7804
480	-11.7806
▁plum	-11.7806
441	-11.7807
▁VV	-11.7807
▁pour	-11.7807
date	-11.781
aatitioonn	-11.7813
hhaann	-11.7813
984	-11.7813
flow	-11.7814
charge	-11.7816
▁prob	-11.7818
▁requested	-11.782
kara	-11.7822
July	-11.7823
612	-11.7824
▁environmentally	-11.7825
tnem	-11.7834
024	-11.7837
sible	-11.7842
268	-11.7844
▁antibiotics	-11.7847
▁Article	-11.7849
▁Broad	-11.7849
▁Calcium	-11.7849
▁anorexia	-11.7849
▁deterioration	-11.7849
▁petiole	-11.7849
▁Narendra	-11.785
▁injuries	-11.785
▁respondents	-11.785
▁pellet	-11.785
▁transition	-11.785
tiioonns	-11.785
▁Figure	-11.7851
▁biochemical	-11.7859
ley	-11.7859
▁suck	-11.7868
▁shifted	-11.7874
▁sick	-11.7876
IF	-11.7877
▁Him	-11.7879
▁Var	-11.7879
▁NBPGR	-11.7881
multiplex	-11.7884
▁manufacture	-11.7887
▁Cow	-11.7888
range	-11.7888
/200	-11.7889
▁bite	-11.7891
419	-11.7895
▁officials	-11.7899
▁142	-11.7903
▁Ben	-11.7904
inajpur	-11.791
scorbic	-11.791
▁Complete	-11.791
▁incentives	-11.791
▁tthhiiss	-11.791
▁viride	-11.791
▁patent	-11.791
▁Percentage	-11.791
▁aroma	-11.791
▁amaranth	-11.7911
▁csc	-11.7912
uit	-11.7912
▁SBI	-11.7915
fic	-11.7916
▁flush	-11.7917
248	-11.7919
211	-11.7921
rp	-11.7923
862	-11.7924
▁conserved	-11.7929
▁Manag	-11.793
▁131	-11.7934
781	-11.7935
▁136	-11.7938
▁marks	-11.7941
325	-11.7941
▁streptomycine	-11.7944
level	-11.7948
▁tasks	-11.7949
hydr	-11.7949
▁renewable	-11.7954
▁Grow	-11.7957
▁Dam	-11.7959
660	-11.7959
▁HS	-11.7962
opping	-11.7963
▁worked	-11.7966
▁fulfill	-11.7969
▁Nicobar	-11.797
▁colocasia	-11.797
▁dehydration	-11.797
▁susceptibility	-11.797
▁urgent	-11.797
▁MOP	-11.797
▁injury	-11.797
▁Patna	-11.797
bhai	-11.7972
▁silk	-11.7972
▁arise	-11.7976
VI	-11.7977
401	-11.7982
▁workshop	-11.7983
▁DSR	-11.7984
▁(1-2	-11.7986
mission	-11.7987
tact	-11.7989
▁gland	-11.7992
▁Oriya	-11.7992
646	-11.7994
iieess	-11.7995
▁lowering	-11.7996
Me	-11.7998
main	-11.8006
June	-11.8007
pada	-11.8012
▁tetracyclin	-11.8013
658	-11.8016
▁rational	-11.8016
march	-11.8017
zy	-11.8018
118	-11.802
447	-11.8021
528	-11.8022
▁0.04	-11.8024
979	-11.8024
PI	-11.8028
8%)	-11.8028
101	-11.8028
DM	-11.8029
▁subsidies	-11.8031
▁yyiieelldd	-11.8031
▁declining	-11.8031
▁leadership	-11.8031
▁wwhhicichh	-11.8031
▁silver	-11.8031
▁flexible	-11.8031
▁planned	-11.8033
▁Interest	-11.8033
196	-11.8034
▁claims	-11.8034
▁coordinated	-11.8035
ote	-11.8036
642	-11.8036
▁commercialized	-11.8038
▁topical	-11.8039
▁insert	-11.8042
ova	-11.8044
▁pox	-11.8044
164	-11.8045
▁Ber	-11.8056
uuss	-11.8058
378	-11.8059
grade	-11.806
▁ostocalcium	-11.8061
175	-11.8065
amycin	-11.8068
@4	-11.8072
dip	-11.8073
▁Solanum	-11.8075
pura	-11.8081
▁blend	-11.8083
698	-11.8086
▁collective	-11.8088
gradation	-11.8091
▁deploy	-11.8093
bbaasseedd	-11.8093
▁Modern	-11.8093
▁colonies	-11.8093
▁defoliation	-11.8093
▁mahafal	-11.8093
▁profuse	-11.8093
▁scheduling	-11.8093
▁Pepper	-11.8093
▁insights	-11.8093
▁connected	-11.8093
▁Subject	-11.8094
▁Kalyan	-11.8094
▁rivers	-11.8095
440	-11.8095
▁story	-11.8106
mari	-11.811
510	-11.8112
▁marketable	-11.8118
341	-11.812
▁valued	-11.812
▁funded	-11.8121
dai	-11.8122
entrepreneur	-11.8125
▁Cut	-11.8129
▁vle	-11.8133
▁SSP	-11.8137
▁eexx	-11.8139
▁mounted	-11.8139
rian	-11.8148
▁Jag	-11.8148
flu	-11.8153
▁sspp	-11.8153
▁Bangladesh	-11.8154
▁Culture	-11.8154
▁economies	-11.8154
▁irrigating	-11.8154
▁pmkisan	-11.8154
▁severity	-11.8154
▁supervision	-11.8154
▁tehsil	-11.8154
▁tremendous	-11.8154
▁varietal	-11.8154
▁Colour	-11.8154
▁megha	-11.8154
▁smell	-11.8154
=8.4	-11.8155
▁phenol	-11.8156
▁Islands	-11.8157
jor	-11.8157
▁Presently	-11.8159
▁replaced	-11.8168
EPD	-11.817
▁behaviour	-11.8174
hera	-11.8178
AF	-11.8179
cious	-11.8183
▁krishna	-11.8185
centric	-11.8186
▁sequences	-11.8186
▁kw	-11.8187
368	-11.8189
▁MMaa	-11.819
372	-11.8191
ammonium	-11.8193
oouut	-11.8198
eennttrree	-11.8217
▁Malhotra	-11.8217
▁thiram	-11.8217
▁error	-11.8217
▁spoon	-11.8219
▁evolved	-11.8221
343	-11.8222
agged	-11.8225
wel	-11.8229
▁inspections	-11.8229
▁Iron	-11.823
▁language	-11.8232
▁outcome	-11.8235
▁estimates	-11.8236
▁Junagadh	-11.8239
▁gran	-11.8246
3.7	-11.8248
▁push	-11.8258
▁Ravi	-11.8262
▁entering	-11.8265
virus	-11.8267
▁sections	-11.8269
oollooggyy	-11.8279
▁JIk	-11.8279
▁Rhizobium	-11.8279
▁Workshop	-11.8279
▁knife	-11.8279
▁Okra	-11.8279
▁pension	-11.8279
▁sodic	-11.8279
▁chips	-11.8279
▁Nodal	-11.8279
▁Nepal	-11.828
▁older	-11.8284
▁attended	-11.8286
▁minute	-11.8288
▁partners	-11.829
▁gaining	-11.8291
▁pheno	-11.8292
rium	-11.8302
orp	-11.8304
▁continu	-11.8305
▁strengthened	-11.8307
137	-11.8315
India	-11.8317
335	-11.832
214	-11.8321
▁NGO	-11.8324
▁pprr	-11.8324
▁parents	-11.8325
311	-11.8333
668	-11.8338
▁valid	-11.834
▁Dehradun	-11.8342
▁Molecular	-11.8342
▁carbofuran	-11.8342
▁laxative	-11.8342
▁outstanding	-11.8342
▁stories	-11.8342
▁pivotal	-11.8342
IASRI	-11.8342
▁contour	-11.8342
▁dipping	-11.8344
static	-11.8344
▁onwards	-11.8344
killer	-11.8347
▁Light	-11.8347
▁isolates	-11.8347
▁purb	-11.8347
▁uuss	-11.8348
▁popularity	-11.8349
▁pap	-11.8349
610	-11.835
▁*******	-11.8352
eennccee	-11.8353
▁doctor	-11.8359
ckle	-11.8363
▁Arid	-11.8366
@25	-11.8368
▁accord	-11.8379
▁character	-11.838
▁ARS	-11.8384
▁hoe	-11.8384
chim	-11.8386
888	-11.839
gandha	-11.8393
212	-11.8396
▁demonstrate	-11.8397
independence	-11.8405
▁Bhubaneshwar	-11.8405
▁Fertigation	-11.8405
▁Function	-11.8405
▁debility	-11.8405
▁floraboost	-11.8405
▁Portal	-11.8405
Gangeti	-11.8405
▁sulfate	-11.8406
▁Effectiveness	-11.8407
▁accreditation	-11.8407
▁siang	-11.8407
284	-11.8407
▁draft	-11.8409
▁Royal	-11.841
▁substitute	-11.8411
rach	-11.8412
▁systemic	-11.8414
444	-11.8414
▁calculated	-11.8414
207	-11.8417
790	-11.8418
▁previously	-11.8418
▁barrier	-11.8423
▁decade	-11.8424
945	-11.8425
▁surveillance	-11.8425
▁thresher	-11.8425
▁FY	-11.8425
▁Following	-11.843
flower	-11.8431
▁ssoo	-11.8431
929	-11.8432
trans	-11.8437
take	-11.8439
ahi	-11.844
▁Rose	-11.844
uda	-11.8441
arna	-11.8445
tif	-11.8446
▁jack	-11.8447
▁emphasiz	-11.8451
about	-11.8453
▁vit	-11.8455
ulating	-11.8458
▁mesh	-11.8458
▁law	-11.8459
PT	-11.8461
ilo	-11.8465
▁lactat	-11.8468
353	-11.8468
▁celebrat	-11.8469
▁furnish	-11.8469
iiggiittaal	-11.8469
lanceolate	-11.8469
▁aurangabad	-11.8469
▁benzoate	-11.8469
▁campus	-11.8469
▁imbalance	-11.8469
▁mascularly	-11.8469
▁nutraceutical	-11.8469
▁oyster	-11.8469
▁aadhaar	-11.8469
▁intended	-11.8469
▁danger	-11.8469
▁spinach	-11.8469
▁midge	-11.8469
▁ratoon	-11.847
▁Ashok	-11.847
▁Virus	-11.847
▁Bark	-11.8473
518	-11.8476
RD	-11.8477
▁dept	-11.8478
490	-11.848
▁0.18	-11.8485
ARS	-11.8496
▁eventual	-11.8499
242	-11.85
fortified	-11.85
▁Plains	-11.8501
path	-11.8501
states	-11.8516
▁AAU	-11.8518
▁silt	-11.8519
iirr	-11.852
aaggee	-11.8521
▁cooperatives	-11.8526
▁thorough	-11.8526
▁disinfect	-11.8526
tel	-11.8527
▁Sree	-11.8527
Helicoverpa	-11.8533
▁Tuber	-11.8533
▁Seminar	-11.8533
▁conversion	-11.8533
▁edition	-11.8533
▁quail	-11.8533
▁Northern	-11.8535
▁137	-11.8537
584	-11.8537
▁Recently	-11.854
ographic	-11.854
▁lid	-11.854
illary	-11.8541
▁Test	-11.8543
395	-11.8548
alaya	-11.8549
▁6-8	-11.8551
▁Second	-11.8554
▁regulate	-11.8555
▁iimmpp	-11.856
▁herbs	-11.856
ppm	-11.8566
structured	-11.857
▁twi	-11.8574
Rajasthan	-11.858
▁distribut	-11.8581
▁workshops	-11.8584
▁advancements	-11.8591
Plant	-11.8595
▁turning	-11.8597
satellite	-11.8598
▁Significant	-11.8598
▁excellence	-11.8598
▁harzianum	-11.8598
▁puddling	-11.8598
▁quintle	-11.8598
▁Fungal	-11.8598
▁mukta	-11.8598
▁relating	-11.8598
▁digging	-11.8598
▁undertake	-11.8598
▁accounting	-11.8599
▁Life	-11.86
inciacla	-11.86
▁thermal	-11.8602
▁accelerate	-11.8607
▁plate	-11.8608
▁notice	-11.861
▁JJ	-11.861
▁Amr	-11.8616
▁harvester	-11.862
8,000	-11.862
▁7.6	-11.8631
▁Agronomy	-11.8634
278	-11.8637
▁normally	-11.8644
123	-11.866
▁Component	-11.8662
▁Vermicompost	-11.8662
▁bijapur	-11.8662
▁contingency	-11.8662
▁flavor	-11.8662
▁Features	-11.8662
▁norms	-11.8663
▁shedding	-11.8664
tun	-11.8665
Di	-11.8668
570	-11.8669
471	-11.8673
474	-11.8678
circulat	-11.8679
637	-11.868
cat	-11.8681
▁restricted	-11.8685
arious	-11.8685
▁capsule	-11.8686
▁1-1.5	-11.8688
▁earn	-11.8689
▁electric	-11.8694
▁sound	-11.8694
988	-11.8697
▁necessitat	-11.8698
▁heating	-11.8708
▁sustaining	-11.8709
Variety	-11.8712
Directorate	-11.8713
▁publish	-11.8714
visit	-11.8718
ABI	-11.8721
iF	-11.8721
▁Employe	-11.8728
▁Provision	-11.8728
▁Tolerant	-11.8728
▁cyclone	-11.8728
▁molases	-11.8728
▁permanganate	-11.8728
▁placing	-11.8728
▁pollinator	-11.8728
▁principal	-11.8728
▁subscription	-11.8728
▁tailored	-11.8728
▁distinguish	-11.8728
▁resolve	-11.8728
▁Moringa	-11.8728
▁travel	-11.8728
▁proceedings	-11.8728
▁medak	-11.8728
▁Pathology	-11.8728
consuming	-11.8728
▁regime	-11.8728
▁Pesticide	-11.8729
down	-11.8731
▁Oku	-11.874
▁bred	-11.8744
▁reliance	-11.875
▁inhibitor	-11.8755
inch	-11.8757
232	-11.8764
▁enzymes	-11.8767
▁born	-11.8769
▁Mt	-11.8772
▁credited	-11.8774
▁PCR	-11.8776
made	-11.8776
gni	-11.8776
▁breeders	-11.8778
762	-11.8779
▁register	-11.878
proof	-11.8781
▁SAU	-11.8783
▁978-81-7164-	-11.8794
▁ASRB	-11.8794
▁bordeux	-11.8794
▁mandarin	-11.8794
▁niche	-11.8794
▁Mandate	-11.8795
▁bright	-11.8797
033	-11.8797
▁genetically	-11.8798
383	-11.8805
▁pride	-11.8807
▁Very	-11.8807
▁assisted	-11.8813
▁musli	-11.8814
▁task	-11.8817
▁003	-11.8817
904	-11.8817
▁advances	-11.8818
229	-11.8822
▁Entomology	-11.8824
▁destroyed	-11.8829
.2020	-11.8833
632	-11.8839
▁8.5	-11.884
692	-11.8841
▁consume	-11.8847
121	-11.8847
▁rely	-11.8848
mantri	-11.8849
agu	-11.8851
▁dug	-11.8853
▁UN	-11.8854
▁Because	-11.886
▁assigned	-11.886
▁golaghat	-11.886
▁iodine	-11.886
▁ancient	-11.886
▁Status	-11.886
▁fatty	-11.8862
▁basil	-11.8863
▁germs	-11.8866
▁classes	-11.887
EL	-11.8873
tura	-11.888
oorrmmataitoion	-11.8881
▁parasite	-11.8884
▁fee	-11.8894
▁screening	-11.8898
▁partnerships	-11.8899
▁bullocks	-11.89
721	-11.8901
▁147	-11.8902
484	-11.8907
riti	-11.8908
field	-11.8913
hectare	-11.8914
▁ducklings	-11.8918
Pusa	-11.8919
210	-11.8922
▁popul	-11.8924
▁Rhizo	-11.8926
IGFRI	-11.8926
▁Chinese	-11.8926
▁Company	-11.8926
▁abundance	-11.8926
▁destruction	-11.8926
▁ccuullttiivvaa	-11.8926
NICRA	-11.8927
▁bleeding	-11.8927
▁PLAN	-11.8927
▁enrox	-11.8927
▁inactive	-11.8927
▁Guava	-11.8927
▁Sheep	-11.8927
▁Prevention	-11.8928
▁history	-11.8928
NAIP	-11.8928
263	-11.8931
▁restore	-11.8932
▁acquired	-11.8934
▁Lac	-11.8937
mad	-11.8941
▁rotten	-11.8941
▁naga	-11.8942
004	-11.8946
▁PPR	-11.8948
▁.5	-11.8949
▁sustained	-11.8952
GS	-11.8959
▁Follow	-11.8968
▁0.33	-11.8968
▁capsules	-11.8972
542	-11.8973
▁retained	-11.8975
▁sero	-11.8977
730	-11.8981
resilient	-11.8982
220	-11.8982
erial	-11.8982
phosphate	-11.8982
▁Best	-11.8984
(1)	-11.8985
▁goa	-11.8986
936	-11.8987
▁neutral	-11.8994
Anthracnose	-11.8994
pollinated	-11.8994
▁Aphid	-11.8994
▁Bareilly	-11.8994
▁Laboratory	-11.8994
▁evident	-11.8994
▁possibility	-11.8994
▁succinic	-11.8994
▁transcript	-11.8994
▁background	-11.8994
▁Duration	-11.8994
▁plug	-11.8994
▁spatial	-11.8999
170	-11.9
▁030	-11.9005
▁Considering	-11.9007
▁Conduct	-11.9009
328	-11.9009
▁plaster	-11.9011
hini	-11.9014
298	-11.9015
▁developmental	-11.9018
▁qualifi	-11.902
▁externally	-11.9021
▁listed	-11.9021
▁stated	-11.9024
448	-11.903
▁gases	-11.9037
▁Muk	-11.904
▁ample	-11.9041
115	-11.9042
▁stag	-11.905
security	-11.905
market	-11.905
684	-11.9051
▁bbuu	-11.9051
380	-11.9052
▁Chapter	-11.9061
▁balrampur	-11.9061
▁bilaspur	-11.9061
▁degraded	-11.9061
▁refinement	-11.9061
▁warangal	-11.9061
▁encompass	-11.9061
▁rejected	-11.9061
▁girth	-11.9061
▁emitt	-11.9061
▁Resilien	-11.9061
▁kantha	-11.9062
▁isolation	-11.9062
▁route	-11.9063
▁35-40	-11.9064
▁alongwith	-11.9065
▁18-40	-11.9066
947	-11.9067
▁Japan	-11.9067
▁designing	-11.9069
ophil	-11.9071
▁Take	-11.9072
▁expanded	-11.9072
▁maps	-11.9073
980	-11.9075
▁CICR	-11.9079
171	-11.9079
0000.0	-11.9086
▁bullock	-11.9088
Proposed	-11.9088
add	-11.9089
▁mol	-11.909
▁BAU	-11.9091
▁15.00	-11.9093
005	-11.9093
▁warming	-11.9097
HS	-11.9101
169	-11.9101
▁auto	-11.9104
786	-11.911
▁0.70	-11.912
324	-11.9123
▁12-15	-11.9124
154	-11.9129
▁digestive	-11.9129
▁dursban	-11.9129
▁integral	-11.9129
▁subscriber	-11.9129
▁Lanka	-11.9129
▁basins	-11.913
▁considerably	-11.913
▁assets	-11.913
▁17.8	-11.913
pil	-11.9131
▁fluid	-11.9131
▁envisaged	-11.9131
▁trout	-11.9132
▁HRM	-11.9132
▁cheaper	-11.9133
▁Wood	-11.9133
▁hazards	-11.9134
mph	-11.9134
▁Communication	-11.9134
▁llii	-11.9134
▁Niger	-11.9135
▁villagers	-11.9136
▁costly	-11.9139
@200	-11.914
▁possesses	-11.9141
▁BE	-11.9142
519	-11.9146
non	-11.9151
▁broader	-11.9151
▁scraper	-11.9152
▁waterlogged	-11.9156
▁enzyme	-11.9157
712	-11.9159
▁4-6	-11.9167
obu	-11.9167
▁Compos	-11.917
gestion	-11.9171
ream	-11.9172
dress	-11.9173
▁226	-11.9177
2.60	-11.9182
249	-11.9184
system	-11.9188
▁Proso	-11.9191
dap	-11.9195
011	-11.9196
versity	-11.9197
▁Jalkund	-11.9198
▁cherry	-11.9198
▁december	-11.9198
▁photosynthetic	-11.9198
261	-11.9198
▁sharp	-11.9199
Punjabi	-11.9199
▁stay	-11.92
▁751	-11.9201
genic	-11.9201
▁Sea	-11.9205
▁literature	-11.9205
▁Plastic	-11.9206
▁Meat	-11.921
version	-11.9213
▁tune	-11.9214
▁biofertilizers	-11.9214
▁Card	-11.9221
▁moved	-11.9221
▁disorder	-11.9226
▁tiller	-11.9229
1993	-11.923
▁separat	-11.9231
▁Main	-11.9232
829	-11.9235
▁primer	-11.9237
575	-11.9238
ziz	-11.9239
▁1995	-11.9243
▁185	-11.9246
▁replace	-11.925
▁Cho	-11.9251
▁0.60	-11.9251
704	-11.9256
blitox	-11.9258
675	-11.926
DF	-11.9261
▁soak	-11.9263
▁Livelihood	-11.9267
▁Sahiwal	-11.9267
▁metabolism	-11.9267
▁pandemic	-11.9267
▁replacing	-11.9267
▁sponsored	-11.9267
▁supplies	-11.9267
▁Course	-11.9267
▁Palampur	-11.9267
▁crystal	-11.9267
▁milch	-11.9267
▁jackfruit	-11.9267
▁rajma	-11.9267
▁quinalphos	-11.9267
▁coordinator	-11.9267
▁ridgegourd	-11.9267
▁assay	-11.9268
▁biotechnology	-11.9268
▁Later	-11.9268
▁baby	-11.9268
390	-11.9269
vitamin	-11.9269
961	-11.9275
019	-11.9278
▁nodes	-11.9279
393	-11.9279
▁upward	-11.9282
▁failed	-11.9283
▁tax	-11.9286
fall	-11.9287
▁participate	-11.9292
▁plain	-11.9296
uucchh	-11.9297
362	-11.9299
▁opened	-11.9307
▁Lower	-11.931
organic	-11.9312
301	-11.9313
fif	-11.9318
329	-11.932
work	-11.9329
Journal	-11.933
1111	-11.9331
▁gear	-11.9332
FI	-11.9334
SW	-11.9334
▁Where	-11.9336
▁hhiigghh	-11.9336
▁OUAT	-11.9336
▁RReeppoortr	-11.9336
▁RReevvoolulutit	-11.9336
▁berseem	-11.9336
▁configuration	-11.9336
▁convergence	-11.9336
▁percolation	-11.9336
▁packing	-11.9336
▁snail	-11.9336
▁pprrooddu	-11.9336
▁Seaweed	-11.9336
631	-11.9336
▁client	-11.9337
▁ZPD	-11.9337
▁recharge	-11.9338
153	-11.9338
▁biochar	-11.9338
▁settle	-11.9339
▁Cropping	-11.9339
▁graduates	-11.934
▁dna	-11.9342
▁drones	-11.9349
kul	-11.9351
▁trenches	-11.9352
▁Trial	-11.9353
▁eby	-11.9355
▁Treated	-11.9356
tle	-11.9357
eno	-11.9358
▁loosen	-11.9358
ectin	-11.9361
oides	-11.9367
etting	-11.9371
▁flag	-11.9371
being	-11.9371
hou	-11.9382
JRF	-11.9382
▁prime	-11.9385
tata	-11.9388
▁176	-11.939
tensive	-11.9391
MAP	-11.9392
▁BNBt	-11.9394
IIHR	-11.9399
April	-11.94
body	-11.9402
▁Recent	-11.9403
operative	-11.9404
Private	-11.9406
▁Cluster	-11.9406
▁Ecological	-11.9406
▁Particular	-11.9406
▁Secretariat	-11.9406
▁elliptic	-11.9406
▁fellow	-11.9406
▁themselves	-11.9406
▁Fixed	-11.9406
▁Lentil	-11.9406
▁editing	-11.9406
▁ammonia	-11.9406
▁gently	-11.9406
▁paragraph	-11.9406
▁sapota	-11.9406
▁Indore	-11.9408
▁curd	-11.9409
989	-11.9409
▁wave	-11.941
349	-11.941
▁Off	-11.9411
▁enquiry	-11.9413
▁cord	-11.9413
▁sms	-11.9414
▁singh	-11.9414
rreedd	-11.9418
▁seedbed	-11.9418
▁GIS	-11.942
▁fertilized	-11.9422
▁purchased	-11.9424
▁143	-11.9426
▁Fat	-11.9429
▁7.2	-11.943
▁explore	-11.943
▁realize	-11.9432
▁Character	-11.9433
▁happen	-11.9438
▁NAHEP	-11.9442
456	-11.9461
▁judicious	-11.9469
mmpp	-11.947
addition	-11.9471
BH	-11.9473
▁Phytophthora	-11.9474
@12	-11.9474
uantity	-11.9476
=8.3	-11.9476
Calotropis	-11.9476
▁Efficient	-11.9476
▁Examination	-11.9476
▁Guwahati	-11.9476
▁Prospects	-11.9476
▁adilabad	-11.9476
▁colony	-11.9476
▁eligibility	-11.9476
▁eliminating	-11.9476
▁feasible	-11.9476
▁hundred	-11.9476
▁Blue	-11.9477
▁Enhancement	-11.9477
▁larval	-11.948
▁Contribution	-11.9481
662	-11.9482
▁snow	-11.949
114	-11.9496
▁Sah	-11.95
▁sky	-11.9501
258	-11.9502
▁predators	-11.9505
▁Compe	-11.9506
424	-11.9517
296	-11.9518
▁Only	-11.9527
029	-11.9528
316	-11.9532
▁slight	-11.9535
462	-11.9537
▁Ver	-11.9545
chemistry	-11.9547
▁ZONE	-11.9547
sulfuron	-11.9547
▁Technological	-11.9547
▁carminative	-11.9547
▁dakshin	-11.9547
▁paraganas	-11.9547
▁parasitoid	-11.9547
▁thread	-11.9547
▁tthhrroouugghh	-11.9547
▁miligram	-11.9547
▁medication	-11.9547
▁Smt	-11.9548
▁Turn	-11.9548
▁leverag	-11.9548
▁Adult	-11.9548
▁ML	-11.9548
▁fitted	-11.9548
▁circle	-11.9549
▁weakness	-11.9549
▁Online	-11.9551
▁agreement	-11.9553
▁fallen	-11.9553
inngg	-11.9553
hybrids	-11.9555
▁2027	-11.9556
603	-11.9561
▁leaflets	-11.9562
485	-11.9567
itoion	-11.9567
685	-11.9567
imate	-11.9574
puram	-11.9576
▁dynamic	-11.9581
HI	-11.9584
▁assume	-11.9587
onta	-11.959
30.00	-11.959
dish	-11.9591
640	-11.9603
bacteria	-11.9611
organiz	-11.9614
technology	-11.9615
streptomycin	-11.9616
production	-11.9618
33333333333	-11.9618
aught	-11.9619
np	-11.9619
▁TTrraannssff	-11.9619
▁Anonymous	-11.9619
▁Ecosystem	-11.9619
▁Statistics	-11.9619
▁Vivek	-11.9619
▁backstopping	-11.9619
▁chamarajanagar	-11.9619
▁coarse	-11.9619
▁compliance	-11.9619
▁davangere	-11.9619
▁dominant	-11.9619
▁packet	-11.9619
▁tamarind	-11.9619
▁transparent	-11.9619
▁driving	-11.9619
▁genus	-11.9619
▁transmission	-11.9619
▁Prior	-11.9619
▁increment	-11.9619
climate	-11.9619
ksa	-11.962
▁Ragi	-11.962
▁barnyard	-11.9621
▁phenolic	-11.9621
typ	-11.9622
▁TSP	-11.9626
vet	-11.9626
▁Shiv	-11.9628
▁deb	-11.9639
▁attribut	-11.9643
▁vermicomposting	-11.9644
▁rotary	-11.9652
591	-11.9666
▁Estimates	-11.967
flo	-11.967
▁analys	-11.9676
654	-11.9677
rox	-11.968
▁resolution	-11.968
▁2500	-11.9682
▁esa	-11.9683
326	-11.9684
▁enquir	-11.9684
20.00	-11.9685
▁contained	-11.9686
608	-11.9687
parasitic	-11.9689
908	-11.9691
▁Investment	-11.9691
▁administration	-11.9691
▁migration	-11.9691
▁qualitative	-11.9691
▁untreated	-11.9691
▁jelly	-11.9691
▁axillary	-11.9691
▁Sunflower	-11.9691
▁formulated	-11.9692
▁pipeline	-11.9693
▁uunn	-11.9694
mamectin	-11.9696
▁gather	-11.9697
keep	-11.9699
▁accepted	-11.9701
ertain	-11.9705
kj	-11.9706
fixing	-11.9706
▁substantially	-11.9712
aru	-11.9712
eenndd	-11.9713
▁pumping	-11.9724
▁Sta	-11.9731
cies	-11.9731
▁FPO	-11.9733
tration	-11.9742
last	-11.9746
▁visited	-11.975
496	-11.9754
▁electro	-11.9763
▁iimmpprroovv	-11.9763
▁KKVVKKs	-11.9763
▁cifax	-11.9763
▁journey	-11.9763
▁measuring	-11.9763
▁qualities	-11.9763
▁quarantine	-11.9763
▁invasion	-11.9763
▁packed	-11.9763
▁Cross	-11.9763
▁Temperature	-11.9763
▁quantitative	-11.9764
AMAR	-11.9764
▁Shoot	-11.9764
▁Solar	-11.9764
▁caseworm	-11.9765
▁compaction	-11.9766
▁Coasta	-11.9766
ioonniziz	-11.9767
▁arranged	-11.9768
HU	-11.9776
▁Clos	-11.978
▁oat	-11.9784
1.50	-11.9787
aavv	-11.9787
3.50	-11.9787
▁organizational	-11.9789
ret	-11.979
roshan	-11.9792
▁transform	-11.9794
▁sprout	-11.9796
ography	-11.9797
▁Minimum	-11.98
▁pprree	-11.9802
▁JG	-11.9802
itcic	-11.9803
▁bridg	-11.9804
mara	-11.9808
782	-11.9809
▁drink	-11.981
lap	-11.9811
2013	-11.9811
aila	-11.9812
948	-11.9814
▁Plain	-11.9817
anthi	-11.9823
▁clones	-11.983
▁sprinkle	-11.9832
▁optimized	-11.9832
position	-11.9833
arnyard	-11.9834
parasite	-11.9836
cropping	-11.9836
▁Isabgol	-11.9836
hanerogami	-11.9836
▁Buffalo	-11.9836
▁Indicator	-11.9836
▁Meerut	-11.9836
▁Purple	-11.9836
▁accommodat	-11.9836
▁identity	-11.9836
▁invasive	-11.9836
▁TTeelleeccoomm	-11.9836
▁estrus	-11.9836
▁Gur	-11.9836
▁PBW	-11.9836
▁burden	-11.9837
▁inspire	-11.9837
pressure	-11.9837
▁dependence	-11.9837
▁ibd	-11.9838
▁editor	-11.9838
▁felt	-11.9838
495	-11.9839
third	-11.9851
677	-11.9852
366	-11.986
anya	-11.9862
▁imported	-11.9862
iivv	-11.9867
,00,000	-11.9868
priya	-11.9869
623	-11.9869
▁device	-11.9874
▁student	-11.9874
▁lesion	-11.9874
▁Jh	-11.9883
▁span	-11.9883
193	-11.9883
▁detected	-11.9884
elia	-11.9885
▁threaten	-11.9885
▁cyt	-11.9893
▁cho	-11.9897
▁equally	-11.9898
▁initiate	-11.9901
▁ISBN	-11.991
▁Pomegranate	-11.991
▁bagalkot	-11.991
▁barpeta	-11.991
▁beekeeping	-11.991
▁belgaum	-11.991
▁dhubri	-11.991
▁rangareddi	-11.991
▁steady	-11.991
Cassia	-11.991
drawn	-11.9911
▁Text	-11.9911
▁erode	-11.9913
▁popularization	-11.9914
guard	-11.9916
▁cutter	-11.9919
▁propagated	-11.9921
109	-11.9924
▁linear	-11.9926
fur	-11.9926
397	-11.9928
▁sep	-11.9929
615	-11.9933
borer	-11.9935
399	-11.9938
▁Healthy	-11.994
711	-11.9942
▁interact	-11.9946
▁deposit	-11.9946
▁wwee	-11.9947
UT	-11.9947
sscc	-11.9951
told	-11.9954
ML	-11.9956
413	-11.9958
▁NNaa	-11.9963
▁Optim	-11.9966
958	-11.9971
zone	-11.9971
770	-11.9975
2967	-11.9982
▁vigor	-11.9983
▁object	-11.9983
uinciactaitoionn	-11.9983
Brassica	-11.9984
▁Accreditation	-11.9984
▁Brazil	-11.9984
▁Material	-11.9984
▁Physiology	-11.9984
▁Recruitment	-11.9984
▁Shisham	-11.9984
▁botanical	-11.9984
▁disseminate	-11.9984
▁feroliv	-11.9984
▁pharmaceutical	-11.9984
▁versatile	-11.9984
▁whiteflies	-11.9984
▁chosen	-11.9984
▁readily	-11.9984
▁switch	-11.9984
▁writing	-11.9984
▁ffaarrmmeresr	-11.9984
▁Ridge	-11.9984
▁School	-11.9984
▁Bottle	-11.9984
▁glucose	-11.9984
▁Cooperative	-11.9985
▁Cowpea	-11.9985
▁biocontrol	-11.9985
547	-11.9986
▁cutworm	-11.9986
Su	-11.9988
March	-11.999
789	-11.999
037	-11.999
▁cloves	-11.9991
.2021	-11.9993
▁aerial	-11.9994
365	-11.9999
ulated	-12
407	-12.0002
▁greenish	-12.0002
▁vehicles	-12.0009
75.00	-12.0015
795	-12.0019
If	-12.0021
865	-12.0021
▁orchid	-12.0024
2001	-12.0025
2014	-12.003
bot	-12.0034
DT	-12.0041
262	-12.0044
636	-12.0044
etre	-12.0045
▁mention	-12.0048
▁brief	-12.0051
abar	-12.0053
968	-12.0054
▁Ganjam	-12.0058
▁Headquarters	-12.0058
▁Microbiology	-12.0058
▁advertisement	-12.0058
▁afanil	-12.0058
▁alternating	-12.0058
▁appetite	-12.0058
▁frozen	-12.0058
▁neglect	-12.0058
▁nuvacron	-12.0058
▁pepsid	-12.0058
▁stubble	-12.0058
▁sulcoprim	-12.0058
▁Lemon	-12.0058
CIFE	-12.0058
choosing	-12.0059
▁Zero	-12.0059
▁Mineral	-12.006
▁Raipur	-12.006
bred	-12.0061
▁flock	-12.0062
▁instruments	-12.0063
▁Dark	-12.0065
▁resid	-12.0065
▁(2-4	-12.0066
576	-12.0076
▁trays	-12.0076
140.0	-12.0079
▁breaking	-12.0084
627	-12.0097
rraamm	-12.0106
▁0.03	-12.0111
406	-12.0114
▁began	-12.0118
▁mandi	-12.0122
▁Sind	-12.0124
2009	-12.0124
ipping	-12.0127
2008	-12.0127
▁accordingly	-12.0128
▁front	-12.0133
▁Rupees	-12.0134
▁biscuit	-12.0134
▁hatcheries	-12.0134
▁rheumatism	-12.0134
▁sequencing	-12.0134
▁subtilis	-12.0134
▁urinary	-12.0134
▁finish	-12.0134
▁cashewnut	-12.0134
▁Internet	-12.0134
▁window	-12.0136
▁adhere	-12.0138
▁Coordination	-12.0142
TV	-12.0145
▁filed	-12.0147
743	-12.0148
valu	-12.015
▁5.8	-12.0151
asia	-12.0153
▁Automat	-12.0153
436	-12.0156
Ext	-12.0158
auri	-12.0164
▁mega	-12.0167
▁Bud	-12.0176
▁ingredient	-12.0176
econdary	-12.0176
▁hhaavv	-12.018
498	-12.0183
ISA	-12.0189
▁dams	-12.0195
939	-12.02
phag	-12.0201
▁vide	-12.0205
45.00	-12.0209
Framework	-12.0209
▁Barrackpore	-12.0209
▁Conclusion	-12.0209
▁Vaccine	-12.0209
▁curricula	-12.0209
▁ddeevveelloopp	-12.0209
▁diabetes	-12.0209
▁mahbubnagar	-12.0209
▁pratapgarh	-12.0209
▁prolonged	-12.0209
▁verification	-12.0209
▁Assets	-12.0209
▁Index	-12.0209
▁PEST	-12.021
▁connection	-12.021
▁prophylactic	-12.021
▁Profile	-12.021
▁layout	-12.021
▁Extn	-12.021
▁automatically	-12.021
▁smear	-12.021
▁occurring	-12.021
▁wax	-12.0213
695	-12.0213
▁enclos	-12.0213
forestry	-12.0213
extremely	-12.0214
▁4.6	-12.0215
known	-12.0216
pm	-12.0216
▁fruitfly	-12.0219
4.50	-12.0219
plly	-12.0222
469	-12.0225
aceous	-12.0227
processing	-12.0229
▁Roy	-12.023
▁coli	-12.023
▁ssttaa	-12.0231
007	-12.0232
ndra	-12.0235
356	-12.0239
▁Hari	-12.0242
956	-12.0244
▁relieve	-12.025
▁outbreak	-12.0253
uva	-12.0253
▁indicator	-12.0254
-31	-12.0255
▁Rate	-12.0255
▁alleviat	-12.0256
regulated	-12.026
987	-12.026
▁weaken	-12.0264
▁Mandi	-12.0266
ngue	-12.0272
247	-12.0277
▁Mohan	-12.0283
▁irrespective	-12.0286
▁manifest	-12.0286
▁preperation	-12.0286
▁societies	-12.0286
▁Expert	-12.0286
▁acknowledg	-12.0286
▁nalbari	-12.0286
▁NASF	-12.0286
ebimera	-12.0286
▁Suresh	-12.0286
▁DAC	-12.0289
230769230769	-12.029
▁wetting	-12.029
▁Advisory	-12.029
▁benefitted	-12.0296
473	-12.0299
▁regulatory	-12.0301
▁0.36	-12.0302
▁bait	-12.0308
ambu	-12.0322
BR	-12.0323
ffi	-12.0327
2,500	-12.0328
▁sized	-12.0331
▁Bhat	-12.0337
460	-12.0338
HT	-12.0341
639	-12.0349
ologist	-12.0361
▁Availability	-12.0363
▁Future	-12.0363
▁additive	-12.0363
▁bevistin	-12.0363
▁feasibility	-12.0363
▁teaspoon	-12.0363
▁tumkur	-12.0363
DMAPR	-12.0363
▁Fibre	-12.0363
▁Wild	-12.0363
▁Continuous	-12.0363
tulsi	-12.0363
▁Weight	-12.0364
▁topography	-12.0364
▁thinning	-12.0364
▁proso	-12.0367
▁Ranja	-12.0367
443	-12.0367
2003	-12.0369
▁GPS	-12.037
please	-12.0371
▁10.1	-12.0375
▁Weeding	-12.0376
003	-12.0386
▁Dte	-12.0389
▁fourth	-12.0394
▁supplemented	-12.0396
620	-12.0407
oso	-12.0407
▁dys	-12.0409
▁0.10	-12.0409
anni	-12.041
▁fingerling	-12.0412
404	-12.0413
▁constraint	-12.0414
703	-12.0417
833	-12.0419
mitted	-12.0423
▁2050	-12.0435
shattering	-12.044
▁Agreement	-12.044
▁Mechanization	-12.044
▁Tobacco	-12.044
▁accumulate	-12.044
▁aeroponic	-12.044
▁amistar	-12.044
▁capabilities	-12.044
▁prosperity	-12.044
▁tafgor	-12.044
▁wrong	-12.044
continent	-12.044
NRCPB	-12.044
▁discard	-12.0441
bacterium	-12.0441
▁entrepreneurial	-12.0441
▁evolution	-12.0442
883	-12.0442
CISH	-12.0442
307	-12.0443
imul	-12.0444
▁setts	-12.0447
▁Oct	-12.0448
CAFT	-12.0449
▁IItt	-12.0451
705	-12.0453
▁deposited	-12.0455
▁wine	-12.0457
▁7-8	-12.0458
urban	-12.0462
minent	-12.0465
▁say	-12.0466
▁awarded	-12.0468
LM	-12.047
tributed	-12.0471
1.75	-12.0472
DB	-12.0473
9.20	-12.0478
liable	-12.0483
▁predator	-12.0489
rya	-12.049
▁Thiru	-12.0502
823	-12.0502
▁granted	-12.0513
atla	-12.0514
616	-12.0515
▁CIAT	-12.0518
▁Carbon	-12.0518
▁Custom	-12.0518
▁EEnnggiinneeeer	-12.0518
▁INDIA	-12.0518
▁Infrastructure	-12.0518
▁Jyoti	-12.0518
▁bulletin	-12.0518
▁hamirpur	-12.0518
▁hospital	-12.0518
▁nizamabad	-12.0518
▁repository	-12.0518
▁sivasagar	-12.0518
▁sprinkling	-12.0518
▁thuringiensis	-12.0518
▁LGP	-12.0518
▁queries	-12.0518
▁Install	-12.0518
▁Stress	-12.0518
▁incurred	-12.0518
▁80.0	-12.0519
▁safeguard	-12.0519
▁(1993)	-12.052
▁DDee	-12.052
▁strictly	-12.0525
▁PVC	-12.0526
▁mau	-12.0527
▁relie	-12.0529
furrow	-12.0529
saving	-12.0531
580	-12.0539
OM	-12.0542
1.25	-12.0542
▁0.55	-12.0542
▁panch	-12.0543
645	-12.0545
633	-12.0558
031	-12.0564
285	-12.0565
▁prevail	-12.0571
Man	-12.0573
773	-12.0584
mmeentn	-12.0589
▁prompt	-12.059
▁Sale	-12.0591
▁Azolla	-12.0597
▁Populus	-12.0597
▁occupie	-12.0597
▁reinforced	-12.0597
▁Identify	-12.0597
▁Nominee	-12.0597
▁Waste	-12.0597
▁odour	-12.0597
▁snowfall	-12.0597
▁organisation	-12.0597
▁organizing	-12.0598
▁0.99	-12.0598
▁petal	-12.0599
▁faec	-12.0602
▁witnessed	-12.0603
273	-12.0603
▁merit	-12.0603
::2200	-12.0604
825	-12.0607
▁exclusively	-12.0608
▁stomachic	-12.0608
▁observ	-12.0608
except	-12.0608
▁dye	-12.0609
▁mange	-12.0609
toxic	-12.061
▁angle	-12.0612
▁transformed	-12.0612
1/2	-12.0612
cross	-12.0615
▁Place	-12.0615
▁explored	-12.0615
▁UV	-12.0616
tteenn	-12.0616
132	-12.0617
605	-12.0621
source	-12.0622
book	-12.0624
516	-12.0625
487	-12.0629
▁scion	-12.0629
▁legal	-12.0629
▁broadcasting	-12.0633
▁safely	-12.0643
ordinate	-12.0644
4400	-12.0647
▁kan	-12.0648
▁0.45	-12.0654
apati	-12.066
▁MON	-12.0665
elli	-12.0666
▁0.17	-12.0666
rati	-12.0668
xii	-12.0673
▁331122228	-12.0676
=115.6	-12.0676
requisite	-12.0676
▁whitish	-12.0676
▁abroad	-12.0676
▁assurance	-12.0676
▁darrang	-12.0676
▁GDP	-12.0676
▁Indira	-12.0676
▁looper	-12.0676
▁terrain	-12.0676
▁leguminous	-12.0676
Revised	-12.0677
954	-12.0677
▁internet	-12.0678
▁FLDs	-12.0679
▁uusseedd	-12.0679
▁8713	-12.0679
924	-12.0679
▁respiration	-12.0679
▁Just	-12.068
740	-12.0682
eersr	-12.0683
▁wherever	-12.0686
OS	-12.0689
▁SiA	-12.0691
▁updated	-12.0692
pox	-12.0692
▁Till	-12.0694
▁printed	-12.0696
▁Forest	-12.0703
▁alleviate	-12.0707
7.50	-12.0708
ugu	-12.0711
257	-12.0721
416	-12.0724
kku	-12.0726
▁chapter	-12.0727
▁carbohydrate	-12.0727
3.33	-12.0728
▁Age	-12.0732
630	-12.0739
▁CCS	-12.0745
Farm	-12.0745
295	-12.0756
etal	-12.0756
▁carotenoid	-12.0756
Kiphire	-12.0756
▁Technique	-12.0756
▁fumigation	-12.0756
▁thrust	-12.0756
▁vulnerability	-12.0756
cellulose	-12.0756
▁Jawahar	-12.0756
▁Excess	-12.0756
▁Observations	-12.0756
▁false	-12.0756
▁Pandey	-12.0756
bikoola	-12.0756
▁damaging	-12.0757
▁inoculation	-12.0757
▁bidar	-12.0758
KA	-12.0759
sphere	-12.0759
rix	-12.076
▁matrix	-12.0762
rata	-12.0764
▁fermented	-12.0765
▁fleshy	-12.0767
▁fig	-12.0769
▁methodology	-12.0771
riinngg	-12.0773
▁Currently	-12.0773
543	-12.0774
▁Ven	-12.0785
ogenic	-12.0786
▁declined	-12.0787
▁halo	-12.0788
▁locality	-12.0791
013	-12.0794
708	-12.0797
American	-12.0798
▁biopesticides	-12.0798
kula	-12.0799
617	-12.0802
▁Product	-12.0807
▁infect	-12.0809
803	-12.0811
863	-12.0817
iiddee	-12.0825
▁career	-12.0827
▁Mini	-12.0829
▁vvii	-12.0831
▁ddiiss	-12.0835
2255	-12.0836
10.00	-12.0836
▁pseudo	-12.0837
=106.7	-12.0837
=107.0	-12.0837
=109.2	-12.0837
=113.6	-12.0837
NBAIR	-12.0837
▁Tropical	-12.0837
▁charcoal	-12.0837
▁compilation	-12.0837
▁entitled	-12.0837
▁erratic	-12.0837
▁manganese	-12.0837
▁morphological	-12.0837
▁motivate	-12.0837
▁serving	-12.0837
▁ssiiggnn	-12.0837
▁volatile	-12.0837
▁mandya	-12.0837
▁organised	-12.0838
▁search	-12.0838
▁seminar	-12.0838
▁25.00	-12.084
wide	-12.0842
▁Incharge	-12.0845
▁balod	-12.0849
FYM	-12.0853
870	-12.0855
▁peer	-12.0857
atti	-12.086
Seed	-12.086
▁concentrated	-12.0862
145	-12.0865
▁compromis	-12.087
▁Desi	-12.0871
▁dal	-12.0873
▁saved	-12.088
1.80	-12.0881
vation	-12.0885
666	-12.0885
▁0.12	-12.0886
314	-12.0892
414	-12.0892
14285714285714	-12.0893
▁15,000	-12.0895
▁0.21	-12.0896
796	-12.0897
893	-12.0897
▁iinntteerr	-12.09
▁license	-12.091
▁strict	-12.0912
▁mast	-12.0914
serve	-12.0916
aji	-12.0916
▁Germplasm	-12.0918
▁emulsion	-12.0918
▁synthesis	-12.0918
▁transpiration	-12.0918
▁underutilized	-12.0918
RKVY	-12.0918
▁flakes	-12.0918
▁Organis	-12.0918
▁utilis	-12.0918
▁Grass	-12.0918
▁alkaline	-12.0919
opsis	-12.0919
▁priorities	-12.0919
▁hemispherical	-12.0919
▁Srinagar	-12.0919
▁exported	-12.0919
▁slug	-12.092
▁lactation	-12.0921
▁biology	-12.0922
809	-12.0925
▁catla	-12.0925
530	-12.0926
582	-12.0929
domil	-12.093
▁0.42	-12.093
▁0.24	-12.0933
409	-12.0933
rish	-12.0935
zinc	-12.0936
Institute	-12.0937
▁Cold	-12.0941
sls	-12.0941
513	-12.0942
▁dn	-12.0945
▁spent	-12.0947
umba	-12.0954
▁1,500	-12.0957
disciplinary	-12.0964
▁Lam	-12.0969
466	-12.0969
▁original	-12.097
▁vehicle	-12.0973
813	-12.0975
▁genera	-12.0978
▁adequately	-12.0982
verse	-12.0984
▁recogniz	-12.0986
rar	-12.0988
▁feel	-12.0991
gular	-12.0994
877	-12.0996
HD	-12.0997
▁disturb	-12.1
Ocimum	-12.1
NBFGR	-12.1
▁Consequently	-12.1
▁Species	-12.1
▁chittoor	-12.1
▁correlation	-12.1
▁fittings	-12.1
▁Textbook	-12.1
▁bagging	-12.1
▁pkt	-12.1
▁Fellowship	-12.1
▁frontier	-12.1
▁Wheth	-12.1001
▁berries	-12.1001
▁agromycin	-12.1001
▁improper	-12.1001
▁whorl	-12.1002
tourism	-12.1003
/000,0	-12.1009
▁bore	-12.1011
▁Gold	-12.1012
▁experimentation	-12.1013
november	-12.1018
rogor	-12.1019
319	-12.1021
▁Back	-12.1022
794	-12.1024
lux	-12.1026
▁notification	-12.1026
346	-12.103
▁18.5	-12.1033
▁reput	-12.1034
6,000	-12.1036
oop	-12.1044
124	-12.1047
▁0.78	-12.1049
Supplement	-12.1049
▁ball	-12.1055
777	-12.1061
837	-12.1063
309	-12.1064
649	-12.1065
573	-12.1069
748	-12.107
▁Mela	-12.1071
▁pf	-12.1072
746	-12.1076
944	-12.1077
806	-12.1078
430	-12.1078
ecologies	-12.1083
▁Azamgarh	-12.1083
▁Azospirillum	-12.1083
▁Mexico	-12.1083
▁Srivastava	-12.1083
▁antiseptic	-12.1083
▁computer	-12.1083
▁fentas	-12.1083
▁mandatory	-12.1083
▁molecule	-12.1083
▁occupation	-12.1083
▁philosophy	-12.1083
▁intamox	-12.1083
▁bellary	-12.1083
▁educate	-12.1083
▁mutant	-12.1083
▁Pruning	-12.1083
▁mahua	-12.1083
▁Receipts	-12.1084
▁Internal	-12.1084
▁motor	-12.1085
▁MTU	-12.1085
▁Foot	-12.109
▁CSR	-12.1092
▁Jaya	-12.1099
745	-12.1101
ather	-12.1101
▁Host	-12.1103
▁negatively	-12.1105
▁equi	-12.1107
skill	-12.1107
898	-12.1108
323	-12.112
rack	-12.112
3000.0	-12.1125
1100	-12.1127
MF	-12.113
▁cup	-12.114
▁Reduce	-12.1144
107	-12.1148
659	-12.1154
879	-12.1157
723	-12.1157
▁metro	-12.1158
127	-12.116
▁Palm	-12.1162
okul	-12.1165
▁coast	-12.1165
▁Forage	-12.1166
quir	-12.1166
=105.4	-12.1166
=107.5	-12.1166
▁Tripathi	-12.1166
▁Understanding	-12.1166
▁broken	-12.1166
▁climbing	-12.1166
▁sonitpur	-12.1166
▁spoilage	-12.1166
▁anamika	-12.1166
▁Akola	-12.1166
▁cocoa	-12.1166
ebirime	-12.1166
▁Weather	-12.1167
▁ccoommmmunuin	-12.1167
▁trainees	-12.1167
▁Pathak	-12.1167
▁lucidum	-12.1167
▁capability	-12.1169
▁garhwal	-12.1171
2.40	-12.1177
628	-12.1183
33333333333333	-12.1185
▁join	-12.1188
998	-12.1192
▁Six	-12.1192
▁Extract	-12.1193
▁secur	-12.1202
▁medi	-12.1204
▁Mad	-12.1204
▁hassan	-12.1205
layer	-12.1208
942	-12.1217
▁Safed	-12.122
▁estimate	-12.1221
▁skilled	-12.1223
▁ppaa	-12.1223
obi	-12.1229
508	-12.1233
▁Mill	-12.1234
▁Variet	-12.1234
593	-12.1238
524	-12.1246
▁Cashew	-12.125
▁Rhizoctonia	-12.125
▁alkalinity	-12.125
▁applicant	-12.125
▁metabolic	-12.125
▁metabolites	-12.125
▁premises	-12.125
▁yojna	-12.125
▁smoke	-12.125
▁globe	-12.125
oderma	-12.1251
CPRI	-12.1251
▁shock	-12.1251
▁jamun	-12.1252
▁mmaannaaggee	-12.1253
▁Approximately	-12.1253
▁Cercospora	-12.1254
▁alkali	-12.1254
▁relay	-12.1254
▁stain	-12.1255
▁grind	-12.1255
▁Herb	-12.1256
kam	-12.1257
▁stover	-12.1257
6.50	-12.1257
▁confirmed	-12.1262
▁parental	-12.1262
▁Map	-12.1264
allabh	-12.1266
▁seem	-12.1267
Director	-12.1272
summer	-12.1273
induced	-12.1275
▁Collect	-12.1276
▁Rich	-12.1282
large	-12.129
548	-12.129
769	-12.1292
▁8.3	-12.1293
LD	-12.1294
tuurree	-12.1295
▁expand	-12.1295
398	-12.1295
▁pash	-12.1298
▁Ranga	-12.1298
▁goes	-12.1299
836	-12.1314
▁Mur	-12.1318
itting	-12.1322
919	-12.1325
patti	-12.1325
ovate	-12.133
▁formula	-12.1332
▁ssuussttaaiinn	-12.1335
=106.5	-12.1335
=107.1	-12.1335
▁Godavari	-12.1335
▁chikmagalur	-12.1335
▁dhemaji	-12.1335
▁kahikuchi	-12.1335
▁khammam	-12.1335
▁precipitation	-12.1335
▁preserving	-12.1335
▁shimoga	-12.1335
▁sunken	-12.1335
▁Every	-12.1335
=114.8	-12.1335
monetary	-12.1335
▁Sometimes	-12.1335
▁durable	-12.1335
▁Multiple	-12.1335
▁specifications	-12.1336
▁ttaka	-12.1336
▁hedge	-12.1336
▁instant	-12.1337
382	-12.1337
Pulse	-12.1337
▁European	-12.1338
bac	-12.1339
915	-12.1342
▁0.26	-12.1345
333	-12.1349
tification	-12.1353
▁infla	-12.1354
574	-12.1355
▁sense	-12.1356
board	-12.1361
IE	-12.1362
▁transforming	-12.1365
rajan	-12.1376
352	-12.1378
139	-12.1381
▁compromise	-12.1386
issu	-12.1387
icate	-12.139
857142857142857	-12.139
tara	-12.1391
▁addresses	-12.1401
▁Rule	-12.1403
▁Initial	-12.1413
All	-12.1413
292	-12.1415
▁compet	-12.1419
ppraisal	-12.1421
▁Cultural	-12.1421
▁Maintenance	-12.1421
▁bollworm	-12.1421
▁ddiisseeaassee	-12.1421
▁versatility	-12.1421
▁Toxic	-12.1421
▁ttrraannss	-12.1421
▁probably	-12.1421
▁Barley	-12.1421
▁apex	-12.1421
▁Labour	-12.1421
▁SNP	-12.1421
Bio	-12.1422
▁Imphal	-12.1423
▁immuno	-12.1424
▁dragon	-12.1426
▁agreed	-12.1426
▁branched	-12.1429
▁feb	-12.1432
688	-12.1433
896	-12.1436
▁Jai	-12.1439
wwaa	-12.1439
536	-12.1441
▁accelerated	-12.1444
▁complicat	-12.1448
▁ploughed	-12.1453
dld	-12.1453
purpose	-12.1454
▁meri	-12.1455
▁crack	-12.1462
371	-12.1464
▁alternately	-12.1464
▁Liv	-12.1468
▁0.06	-12.1477
aainin	-12.1479
micro	-12.1491
2002	-12.1494
issi	-12.1494
exploited	-12.1497
=100.5	-12.1507
=114.2	-12.1507
▁AIEEA	-12.1507
▁FOOD	-12.1507
▁Mechanical	-12.1507
▁alkaloids	-12.1507
▁appointed	-12.1507
▁dharwad	-12.1507
▁karimnagar	-12.1507
▁senior	-12.1507
▁overnight	-12.1507
▁scoring	-12.1507
▁talent	-12.1507
▁aonla	-12.1507
Terminal	-12.1507
mililiter	-12.1507
▁proforma	-12.1508
▁Carp	-12.1508
ntrance	-12.1508
▁berry	-12.1509
▁indoor	-12.151
▁title	-12.1512
4.80	-12.1513
▁ootthheer	-12.1513
illi	-12.1514
701	-12.1517
▁conception	-12.1518
metric	-12.1521
876	-12.1525
▁potion	-12.1527
▁permission	-12.1529
▁eexxpp	-12.153
▁reasonably	-12.153
▁corner	-12.1533
indofil	-12.1534
effectiveness	-12.1536
Appendix	-12.1538
obola	-12.1539
▁End	-12.1542
▁served	-12.1544
903	-12.1545
▁cured	-12.1548
2005	-12.1557
590	-12.1564
scarce	-12.1566
bag	-12.1576
▁3086	-12.1577
NAM	-12.1579
loom	-12.1585
▁0.81	-12.1588
jh	-12.159
ggoo	-12.1592
▁resist	-12.1593
carotene	-12.1594
▁Previous	-12.1594
▁prolific	-12.1594
▁vellore	-12.1594
▁neighbour	-12.1594
▁Flood	-12.1594
▁Landscap	-12.1594
▁crossbred	-12.1594
▁intercropped	-12.1594
▁textile	-12.1595
18181818181818	-12.1595
queous	-12.1596
▁advocated	-12.1598
▁Conventional	-12.1603
134	-12.1607
-1250	-12.161
high	-12.1613
cellular	-12.1614
526	-12.1618
▁agril	-12.1624
egis	-12.163
▁delivered	-12.1632
▁ranking	-12.1633
▁cry	-12.1634
522	-12.1637
533	-12.1641
designated	-12.165
▁Madhu	-12.1654
▁instruction	-12.166
568	-12.1663
▁biofertilizer	-12.1665
▁JS	-12.167
▁SSuu	-12.1671
357	-12.1673
2.20	-12.1676
Bli	-12.1677
294	-12.1681
▁algorithm	-12.1681
▁iinncclluudd	-12.1681
=115.1	-12.1681
NBAIM	-12.1681
▁Carrot	-12.1681
▁Dendrobium	-12.1681
▁advertisers	-12.1681
▁allopathic	-12.1681
▁bangalore	-12.1681
▁expectorant	-12.1681
▁koraput	-12.1681
▁loofah	-12.1681
▁napier	-12.1681
▁polyethylene	-12.1681
▁prakasam	-12.1681
▁replenish	-12.1681
▁tiruvannamalai	-12.1681
▁succeed	-12.1681
▁chief	-12.1681
▁spouse	-12.1681
▁2,4-	-12.1682
▁enlarge	-12.1682
▁agribusiness	-12.1682
▁acceptance	-12.1682
▁Machinery	-12.1683
▁karbi	-12.1683
▁BRAN	-12.1683
mycin	-12.1683
▁ESR	-12.1686
communica	-12.1686
▁boom	-12.1686
▁cv	-12.1686
▁Incubator	-12.1687
ccyy	-12.1689
▁ranchi	-12.1693
▁hybridization	-12.1693
592	-12.1695
▁shop	-12.1697
▁topdressing	-12.17
▁0.89	-12.1701
▁Moti	-12.1704
▁IIT	-12.1711
toria	-12.1717
corporation	-12.1728
▁temp	-12.1736
906	-12.1742
ground	-12.1749
▁organism	-12.175
831	-12.1754
▁organize	-12.1756
▁define	-12.1764
eve	-12.1764
Institution	-12.1768
▁tray	-12.1769
atio	-12.177
▁Concept	-12.177
▁aerobic	-12.177
▁immemorial	-12.177
▁kadapa	-12.177
▁kurnool	-12.177
▁pprroocceesss	-12.177
▁spherical	-12.177
▁Civil	-12.177
▁commenc	-12.177
▁Safety	-12.177
▁Swaraj	-12.1771
▁tiny	-12.1771
▁suction	-12.1771
▁algal	-12.1774
ivet	-12.1777
▁alongside	-12.1779
▁Hydro	-12.1779
0-300	-12.178
plasm	-12.1781
523	-12.1785
▁1991	-12.1797
▁Mixed	-12.1797
GE	-12.1799
▁doubled	-12.18
▁rotating	-12.1801
635	-12.1808
▁0.46	-12.1818
▁separated	-12.1821
569	-12.1823
458	-12.1823
▁Entrepreneur	-12.1824
▁random	-12.1827
799	-12.1829
0.77	-12.183
514	-12.1831
0.13	-12.1832
oouunn	-12.1833
▁Dou	-12.1835
poor	-12.1839
339	-12.185
=110.4	-12.1859
=111.7	-12.1859
=113.1	-12.1859
▁avocado	-12.1859
▁consortium	-12.1859
▁dindigul	-12.1859
▁purgative	-12.1859
▁accomplish	-12.1859
▁blossom	-12.1859
▁concluded	-12.1859
▁dduurr	-12.1859
▁orientation	-12.1859
▁sediment	-12.1859
▁gadag	-12.1859
▁wealth	-12.1859
ernacular	-12.1859
▁sulfur	-12.1859
▁medical	-12.186
▁admitted	-12.186
▁Bhima	-12.186
▁proliferation	-12.186
▁Property	-12.1863
▁SAC	-12.1864
▁25-35	-12.1864
431	-12.1864
▁emphasizes	-12.1864
dadra	-12.1866
=117.0	-12.1866
▁SSoo	-12.1869
▁never	-12.187
plus	-12.1873
594	-12.1876
burn	-12.1877
429	-12.1878
607	-12.188
788	-12.1883
okukula	-12.1886
Eastern	-12.1893
variety	-12.1893
▁0.49	-12.1894
poly	-12.1895
▁finally	-12.1905
AWC	-12.1905
▁1950	-12.1912
host	-12.1912
719	-12.1919
098	-12.1926
094	-12.1928
Mon	-12.1935
▁steriliz	-12.1947
▁Assist	-12.1947
Vanaraja	-12.1949
▁Cynodon	-12.1949
▁ekalux	-12.1949
▁imperative	-12.1949
▁methodologies	-12.1949
▁rroollee	-12.1949
▁showcasing	-12.1949
11-25841282	-12.1949
ualify	-12.1949
▁bundle	-12.1949
▁buried	-12.1949
Gujrat	-12.1949
▁Depend	-12.1949
▁Normal	-12.195
▁purity	-12.195
▁Frontline	-12.195
▁winged	-12.195
▁priming	-12.195
▁ZnSO	-12.1951
▁Meena	-12.1952
▁things	-12.1952
895	-12.1952
426	-12.1952
▁appreciated	-12.1953
recept	-12.1955
▁dirt	-12.1956
▁collectively	-12.196
▁Mass	-12.1963
ofthe	-12.1963
▁Pink	-12.1967
1155	-12.1972
▁expanding	-12.1977
▁correctly	-12.1983
service	-12.1984
720	-12.1985
▁Sona	-12.1987
839	-12.1988
itinngg	-12.1988
▁graded	-12.1989
▁0.72	-12.199
vitro	-12.1993
▁Tamarind	-12.201
▁Sch	-12.2018
▁WH	-12.2024
▁Improve	-12.2032
(11)	-12.2036
689	-12.2038
=104.7	-12.204
=119.7	-12.204
▁Access	-12.204
▁Allahabad	-12.204
▁Channels	-12.204
▁FFiigguurree	-12.204
▁Floriculture	-12.204
▁Purchase	-12.204
▁bardhaman	-12.204
▁desease	-12.204
▁emptied	-12.204
▁nalgonda	-12.204
▁recommanded	-12.204
▁subsistence	-12.204
▁Rogor	-12.204
▁anigest	-12.204
▁Spacing	-12.204
▁storm	-12.204
▁textbook	-12.204
▁nodal	-12.204
▁HDPE	-12.204
▁catfish	-12.2041
▁bottlegourd	-12.2041
▁machineries	-12.2043
word	-12.2043
▁Manish	-12.2044
▁katha	-12.2044
515	-12.2051
025	-12.2057
arable	-12.2059
▁densely	-12.2061
▁lining	-12.2063
▁Reduced	-12.2073
Andhra	-12.2077
nutrition	-12.2078
▁Breed	-12.2083
694	-12.2085
rika	-12.2086
fit	-12.2093
644	-12.2093
▁0.48	-12.2095
ppllaannt	-12.2103
▁0.85	-12.2109
May	-12.2113
BL	-12.2115
▁drone	-12.2118
▁tried	-12.2119
499	-12.2123
llium	-12.2127
pectral	-12.2128
▁9.8	-12.2132
▁Biodiversity	-12.2132
▁armigera	-12.2132
▁Kadaknath	-12.2132
▁bronchitis	-12.2132
▁curriculum	-12.2132
▁inoculum	-12.2132
▁mountain	-12.2132
▁wonder	-12.2132
IFPRI	-12.2132
burnihat	-12.2132
▁Founder	-12.2132
▁showcase	-12.2132
▁perishable	-12.2132
▁ATMA	-12.2132
▁Khasi	-12.2132
▁Biochemistry	-12.2133
▁pupa	-12.2133
▁House	-12.2133
▁cyst	-12.2134
▁Telex	-12.2134
▁backward	-12.2135
▁rohu	-12.2135
Magazines	-12.2136
▁tilth	-12.2136
▁executed	-12.2136
▁powerful	-12.2136
▁ascend	-12.2138
WP	-12.2139
▁Draft	-12.2139
idium	-12.214
Zn	-12.2141
▁Bean	-12.2143
▁boxes	-12.2144
7,000	-12.2146
▁analysed	-12.215
▁salem	-12.2151
▁0.64	-12.2155
478	-12.2156
667	-12.2165
Scientist	-12.217
▁engine	-12.217
technologies	-12.217
application	-12.2171
raya	-12.2176
▁Heat	-12.2178
916	-12.2182
389	-12.2192
549	-12.2193
@5	-12.2197
1,000	-12.2207
832	-12.2209
▁ripen	-12.221
▁Gul	-12.2213
▁partner	-12.2215
▁Vijaya	-12.2218
▁Ray	-12.2219
914	-12.2221
▁gravity	-12.2225
▁iirrrriiggaatt	-12.2225
=114.6	-12.2225
Enterprises	-12.2225
▁Approach	-12.2225
▁Excellence	-12.2225
▁Structure	-12.2225
▁Sustainability	-12.2225
▁WATER	-12.2225
▁anantapur	-12.2225
▁coimbatore	-12.2225
▁furniture	-12.2225
▁khesari	-12.2225
▁remarkable	-12.2225
▁sucrose	-12.2225
▁tinsukia	-12.2225
▁visakhapatanam	-12.2225
=116.0	-12.2225
▁MACS	-12.2225
▁mysore	-12.2225
▁Sanjay	-12.2225
▁voter	-12.2225
intestinal	-12.2225
▁Indofil	-12.2225
▁kalita	-12.2225
▁baksa	-12.2225
▁deodar	-12.2225
▁wwhhee	-12.2225
▁Better	-12.2225
▁Vaccination	-12.2225
▁kolar	-12.2225
▁Score	-12.2226
▁reserve	-12.2226
▁Integration	-12.2227
▁solvent	-12.2227
▁iimmaaggee	-12.2229
417	-12.2232
647	-12.2232
champa	-12.2235
▁button	-12.2235
hrys	-12.2237
▁Licensing	-12.2241
741	-12.2245
phytic	-12.2245
descript	-12.2248
374	-12.2249
hybrid	-12.225
plan	-12.2256
▁Testing	-12.2262
Department	-12.2265
lodging	-12.2265
Business	-12.2265
potato	-12.2265
kwa	-12.2267
tttt	-12.227
▁hardy	-12.2274
949	-12.2276
▁mice	-12.2276
▁strongly	-12.2277
364	-12.2283
757	-12.2287
579	-12.2291
uca	-12.2293
619	-12.2298
▁0.76	-12.2312
pig	-12.2315
▁Pigeon	-12.2318
▁CROSS	-12.2318
▁Residue	-12.2318
▁displacement	-12.2318
▁fragment	-12.2318
▁milestone	-12.2318
▁sambalpur	-12.2318
▁Study	-12.2318
▁oovveer	-12.2318
▁sanitiz	-12.2318
▁ustad	-12.2318
boundary	-12.2318
reliant	-12.2318
▁noitp	-12.2318
▁inherent	-12.2318
▁Visit	-12.2318
▁plateau	-12.2319
▁offshoot	-12.2319
▁crisis	-12.2319
▁lean	-12.2319
▁Phyto	-12.2319
▁vipul	-12.2319
▁ifsc	-12.232
Contd	-12.232
▁Editorial	-12.232
▁Room	-12.2321
▁talk	-12.2321
HO	-12.2321
▁throw	-12.2322
atrix	-12.2323
819	-12.2335
▁15-30	-12.234
▁0.23	-12.2341
▁filtered	-12.2347
▁warmer	-12.2347
▁Lime	-12.2357
▁Jain	-12.2358
heat	-12.236
density	-12.236
▁broadly	-12.2362
▁item	-12.2374
goat	-12.2374
AAS	-12.2387
▁Mantr	-12.2388
3.25	-12.239
957	-12.2391
▁wear	-12.2394
▁rewa	-12.2395
075	-12.2395
tier	-12.2403
▁CChh	-12.2403
▁Stee	-12.2404
483	-12.2405
▁hyper	-12.2409
=105.5	-12.2412
=106.2	-12.2412
=109.3	-12.2412
=117.6	-12.2412
=5.0	-12.2412
▁Hqrs	-12.2412
▁Navsari	-12.2412
▁anthalmintic	-12.2412
▁dormancy	-12.2412
▁excreta	-12.2412
▁gerbera	-12.2412
▁lecture	-12.2412
▁pearlmillet	-12.2412
▁purulia	-12.2412
▁rayagada	-12.2412
▁saponin	-12.2412
▁seepage	-12.2412
▁swollen	-12.2412
=114.7	-12.2412
=116.5	-12.2412
▁neomec	-12.2412
▁ailments	-12.2412
▁coincid	-12.2412
▁Bhasin	-12.2413
▁antibacterial	-12.2413
▁bipul	-12.2413
▁sawani	-12.2414
▁Sensor	-12.2414
▁Trade	-12.2414
▁casing	-12.2414
▁Young	-12.2415
▁adjustable	-12.2418
=106.0	-12.2419
899	-12.242
▁brownish	-12.2421
irning	-12.2422
▁thorn	-12.2422
034	-12.2425
▁bill	-12.2427
▁7.4	-12.2427
cow	-12.2433
▁Optimiz	-12.2435
▁soup	-12.2438
946	-12.2438
▁Set	-12.2449
dimethoate	-12.2456
Source	-12.2456
587	-12.2464
058	-12.2465
▁CAR	-12.2465
zers	-12.2472
482	-12.2479
teedd	-12.2486
awai	-12.2487
759	-12.2489
▁propagat	-12.2491
2004	-12.2495
OU	-12.2496
▁1987	-12.2498
935	-12.2499
animal	-12.2501
▁Appropriate	-12.2508
▁Chaudhary	-12.2508
▁Corporation	-12.2508
▁Reaction	-12.2508
▁Sesame	-12.2508
▁Suitability	-12.2508
▁aggregation	-12.2508
▁determination	-12.2508
▁flubendiamide	-12.2508
▁magnet	-12.2508
▁purchasing	-12.2508
▁viridi	-12.2508
▁Oilseeds	-12.2508
▁luffa	-12.2508
▁obstruct	-12.2508
NARES	-12.2508
▁activate	-12.2508
▁approx	-12.2508
▁fried	-12.2508
▁cachar	-12.2508
▁Construction	-12.2509
▁arize	-12.251
▁seats	-12.251
aarrcchh	-12.2512
▁readers	-12.2516
▁guntur	-12.2516
▁chart	-12.2516
▁inhibition	-12.2518
irendra	-12.2524
871	-12.2529
vention	-12.253
▁TSS	-12.2533
▁participat	-12.254
▁colder	-12.2553
▁Experimental	-12.2553
NBPGR	-12.2553
where	-12.2554
reventive	-12.2559
region	-12.2565
▁1974	-12.258
aqua	-12.2584
hydrate	-12.2587
▁stripe	-12.2592
▁antigen	-12.2594
neem	-12.2595
▁Ripe	-12.2595
=101.1	-12.2604
=104.6	-12.2604
=106.9	-12.2604
=107.7	-12.2604
=115.2	-12.2604
=119.8	-12.2604
=119.9	-12.2604
▁Hkkjr	-12.2604
▁Individual	-12.2604
▁Inventory	-12.2604
▁Ladakh	-12.2604
▁Strategic	-12.2604
▁analytics	-12.2604
▁authentic	-12.2604
▁chitradurga	-12.2604
▁ddeevviiccee	-12.2604
▁delicious	-12.2604
▁detergent	-12.2604
▁dharmapuri	-12.2604
▁gulbarga	-12.2604
▁kanchipuram	-12.2604
▁kendujhar	-12.2604
▁progeny	-12.2604
▁syndrome	-12.2604
▁udalguri	-12.2604
▁villupuram	-12.2604
▁periodically	-12.2604
▁sitapur	-12.2604
=110.8	-12.2604
=117.3	-12.2604
▁Garden	-12.2604
▁shaping	-12.2604
▁Female	-12.2604
▁kiwifruit	-12.2604
Genus	-12.2604
▁NASC	-12.2605
▁River	-12.2605
▁flame	-12.2606
▁Biofertilizer	-12.2607
▁Reduction	-12.2607
▁favor	-12.2617
▁diar	-12.2619
2007	-12.2624
▁uupp	-12.2631
Hub	-12.2632
018	-12.2633
▁Month	-12.2634
▁differential	-12.2636
closer	-12.2637
▁Kalpa	-12.2638
577	-12.264
▁aarreeaa	-12.2647
Telugu	-12.2651
▁WB	-12.2651
119	-12.2652
local	-12.2655
▁0.84	-12.2658
tida	-12.2669
737	-12.2676
643	-12.2678
awan	-12.2679
934	-12.2687
india	-12.2697
▁0.96	-12.2697
▁Sponsor	-12.2701
zadirachtin	-12.2701
▁Agrawal	-12.2701
▁Efforts	-12.2701
▁Rakesh	-12.2701
▁Spread	-12.2701
▁Surface	-12.2701
▁dactylon	-12.2701
▁granules	-12.2701
▁membrane	-12.2701
▁nellore	-12.2701
▁outreach	-12.2701
▁possibly	-12.2701
▁ygolonhcet	-12.2701
▁Straw	-12.2701
▁buffer	-12.2701
▁Floor	-12.2701
▁melting	-12.2701
▁polish	-12.2701
▁anglong	-12.2701
▁chandan	-12.2701
▁KHAR	-12.2701
▁probiotic	-12.2702
▁sunny	-12.2702
CCPI	-12.2702
▁polymer	-12.2704
▁exact	-12.2706
ctively	-12.2709
▁Initially	-12.2709
▁CARI	-12.2712
▁Agricul	-12.2713
▁Rani	-12.2715
853	-12.2723
assum	-12.2724
▁AAnn	-12.2743
▁2.25	-12.2744
Network	-12.275
SAUs	-12.2751
krishna	-12.2757
▁lose	-12.2761
▁bole	-12.2764
gone	-12.2766
▁1998	-12.2769
▁Dhar	-12.2769
854	-12.2769
▁calculat	-12.2774
GV	-12.2779
▁0.90	-12.2782
▁chick	-12.2784
▁express	-12.2785
uarter	-12.2789
▁Operat	-12.2792
▁Cultivat	-12.2797
=104.5	-12.2799
=108.6	-12.2799
▁Berseem	-12.2799
▁Modipuram	-12.2799
▁Sanjeev	-12.2799
▁aappppliliccaat	-12.2799
▁assembly	-12.2799
▁cuttack	-12.2799
▁footprint	-12.2799
▁functionaries	-12.2799
▁jalpaiguri	-12.2799
▁kalahandi	-12.2799
▁mayurbhanj	-12.2799
▁nabarangpur	-12.2799
▁nayagarh	-12.2799
▁perception	-12.2799
▁prawn	-12.2799
▁raichur	-12.2799
=110.6	-12.2799
=118.4	-12.2799
▁rhizosphere	-12.2799
▁child	-12.2799
▁Alternate	-12.2799
▁sorting	-12.2799
▁floral	-12.2799
▁dependency	-12.2799
▁durum	-12.2799
▁drier	-12.28
▁Manual	-12.2801
▁durg	-12.2801
▁Biology	-12.2802
▁clayey	-12.2802
▁bhut	-12.2803
▁Ground	-12.2805
Point	-12.281
iigghht	-12.2811
aerated	-12.2813
529	-12.2815
0.27	-12.2833
UG	-12.2835
achi	-12.2839
434	-12.2841
wani	-12.2844
▁node	-12.2847
omics	-12.2847
mouth	-12.285
producing	-12.285
2024	-12.2851
▁0.37	-12.2855
▁Mono	-12.286
▁germ	-12.2866
▁accept	-12.2881
lateral	-12.2887
595	-12.2892
816	-12.2893
Benefit	-12.2896
▁Subsequently	-12.2898
▁Imidacloprid	-12.2898
▁Intensification	-12.2898
▁intermediate	-12.2898
▁pathotype	-12.2898
▁roasted	-12.2898
▁suspended	-12.2898
▁Papaya	-12.2898
▁sarson	-12.2898
▁Emerg	-12.2898
▁grafted	-12.2898
▁voice	-12.2898
▁harsh	-12.2898
▁comfort	-12.2898
▁Allied	-12.2898
▁HPLC	-12.2898
▁imaging	-12.2898
IFS	-12.2899
▁PSB	-12.2899
▁Notification	-12.29
stone	-12.2902
▁disinfection	-12.2902
▁prove	-12.2902
▁suppression	-12.2905
▁Soak	-12.2905
039	-12.2905
▁HHB	-12.2908
▁Blackgram	-12.291
▁partially	-12.2911
▁documentation	-12.2911
▁burnt	-12.2918
▁Spot	-12.2919
self	-12.2919
▁0.57	-12.2919
▁Prune	-12.2921
▁SMS	-12.2924
▁mamm	-12.2924
▁RRaa	-12.2925
Startup	-12.2926
▁ddii	-12.2936
▁kiy	-12.294
kufri	-12.2952
718	-12.2958
▁Geo	-12.2958
▁Incorporat	-12.2965
727	-12.2968
868	-12.2974
escent	-12.2976
724	-12.2977
▁geo	-12.2981
▁leach	-12.2982
ibang	-12.2987
505	-12.2992
▁Arun	-12.2995
servation	-12.2996
=100.4	-12.2998
=102.2	-12.2998
=102.7	-12.2998
=103.8	-12.2998
=104.1	-12.2998
=104.9	-12.2998
=105.2	-12.2998
=108.5	-12.2998
=109.4	-12.2998
=112.4	-12.2998
=117.2	-12.2998
=118.1	-12.2998
=118.6	-12.2998
▁autonomous	-12.2998
▁chlorothalonil	-12.2998
▁haridwar	-12.2998
▁necessity	-12.2998
▁parbhani	-12.2998
▁perambalur	-12.2998
▁saturated	-12.2998
▁thoothukudi	-12.2998
▁delhi	-12.2998
=112.2	-12.2998
=116.4	-12.2998
=117.5	-12.2998
=119.1	-12.2998
melior	-12.2998
▁ganjam	-12.2998
▁Registratio	-12.2998
▁plasma	-12.2998
Pacific	-12.2998
▁Insecticide	-12.2999
▁occasionally	-12.2999
▁nadia	-12.2999
▁Microbe	-12.3
▁conform	-12.3001
327	-12.3003
▁Profit	-12.3003
▁CSS	-12.3004
▁Scale	-12.3005
▁Heav	-12.3009
▁depicted	-12.3009
=108.0	-12.3009
media	-12.3015
▁0.29	-12.3022
iittyy	-12.3025
476	-12.3027
ttyy	-12.3028
raman	-12.3029
tz	-12.3032
▁Dept	-12.3033
genesis	-12.3037
▁Banda	-12.3037
890	-12.3037
▁ddoo	-12.3044
joy	-12.3045
▁Path	-12.3045
678	-12.3045
IU	-12.3047
▁NNee	-12.305
849	-12.305
Principal	-12.3053
employment	-12.3055
▁accelerat	-12.3057
▁lice	-12.3061
▁1976	-12.308
udam	-12.3081
putting	-12.3082
00.0.0	-12.3083
▁isolate	-12.3083
5000.0	-12.3088
▁hazard	-12.3092
▁preced	-12.3093
responsibilities	-12.3099
rhizobium	-12.3099
▁Adjust	-12.3099
▁Partnership	-12.3099
▁People	-12.3099
▁capacities	-12.3099
▁curcumin	-12.3099
▁GHG	-12.3099
▁command	-12.3099
▁Credit	-12.3099
▁Published	-12.3099
▁Wilt	-12.3099
▁ccaapp	-12.3099
▁pradhan	-12.3099
▁Rainfall	-12.3099
▁transmit	-12.3099
▁Dried	-12.3099
▁chlorosis	-12.31
▁pork	-12.31
▁solarisation	-12.31
▁sucker	-12.31
▁Honey	-12.31
▁Sonapur	-12.31
▁greyish	-12.31
▁Soft	-12.3101
2.10	-12.3101
▁Orange	-12.3101
▁MAPs	-12.3101
▁Gopal	-12.3102
▁dominated	-12.3104
1.60	-12.3105
Allocation	-12.3113
▁Ants	-12.3114
▁0.28	-12.3115
805	-12.3115
▁0.83	-12.3119
▁cities	-12.3121
▁mulches	-12.3125
Sub	-12.3132
940	-12.3144
618	-12.3147
▁dew	-12.3147
versa	-12.3147
▁Compar	-12.315
909	-12.3151
yellow	-12.3156
dried	-12.3157
pass	-12.3158
genetic	-12.3159
432	-12.3161
▁rind	-12.3163
▁cope	-12.3178
464	-12.3186
▁crush	-12.3188
▁Similar	-12.3194
▁parameter	-12.3195
▁Addition	-12.3195
ercospora	-12.3197
=100.7	-12.3201
=101.5	-12.3201
=102.6	-12.3201
=103.1	-12.3201
=105.3	-12.3201
=105.8	-12.3201
=107.6	-12.3201
=109.1	-12.3201
=110.1	-12.3201
ebiriisa	-12.3201
yurvedic	-12.3201
▁Azotobacter	-12.3201
▁Bhanjanagar	-12.3201
▁CTCRI	-12.3201
▁boudh	-12.3201
▁cholesterol	-12.3201
▁deogarh	-12.3201
▁gajapati	-12.3201
▁ganoderma	-12.3201
▁intramuscular	-12.3201
▁plague	-12.3201
▁rajnandgaon	-12.3201
▁sampling	-12.3201
▁satisfactory	-12.3201
▁sivaganga	-12.3201
▁sterility	-12.3201
▁stuck	-12.3201
▁sundargarh	-12.3201
▁tridemorph	-12.3201
▁vvaarriioouus	-12.3201
▁endemic	-12.3201
▁walnut	-12.3201
=113.8	-12.3201
=114.4	-12.3201
▁vocation	-12.3201
▁Severe	-12.3201
▁bastar	-12.3201
▁Determin	-12.3201
▁sustainably	-12.3201
▁acceptability	-12.3201
▁Rust	-12.3201
▁Agribusiness	-12.3202
▁bargarh	-12.3202
▁Khadi	-12.3203
▁manipulation	-12.3203
▁Old	-12.3203
506	-12.3205
▁thereafter	-12.3206
itundu	-12.3211
▁IVT	-12.3211
=111.0	-12.3213
hexa	-12.3215
▁0.88	-12.3217
▁Scheduled	-12.3222
▁clove	-12.3222
▁hhoo	-12.3228
497	-12.3233
▁jointly	-12.3241
▁Case	-12.3251
▁Encourage	-12.3251
sensitive	-12.326
State	-12.326
Integrated	-12.3261
tracel	-12.3263
889	-12.3268
what	-12.3268
▁scrap	-12.327
xiii	-12.3272
transplant	-12.3284
ikka	-12.3286
▁confirm	-12.3287
▁Integrat	-12.3288
626	-12.3288
loss	-12.3289
1177	-12.3292
bengaluru	-12.3294
▁cheap	-12.3302
uurarla	-12.3303
excluding	-12.3304
▁Efficiency	-12.3304
▁Household	-12.3304
▁Telephone	-12.3304
▁dehradun	-12.3304
▁endeavour	-12.3304
▁fellowships	-12.3304
▁intacef	-12.3304
▁phenotyping	-12.3304
▁Tracel	-12.3304
▁revision	-12.3304
▁Ready	-12.3304
▁uprooted	-12.3304
▁nuvan	-12.3304
▁Extent	-12.3304
▁cataly	-12.3304
▁mmoorer	-12.3304
▁Generation	-12.3304
azette	-12.3304
▁distress	-12.3305
▁iittss	-12.3305
▁earhead	-12.3305
▁equity	-12.3305
▁jaint	-12.3305
▁bittergourd	-12.3305
▁equine	-12.3305
▁Golden	-12.3305
▁unlike	-12.3309
▁Anjan	-12.3311
▁randomly	-12.3313
▁nitrogenous	-12.332
oouurr	-12.3326
▁Former	-12.3328
▁exporter	-12.3333
▁011-	-12.3335
▁40-45	-12.3339
7755	-12.3342
1188	-12.3345
▁releas	-12.3349
810	-12.335
▁Ratio	-12.3352
ITK	-12.336
September	-12.3366
duration	-12.3375
▁deworm	-12.3387
▁vers	-12.3388
aakk	-12.3397
ollar	-12.3404
▁compete	-12.3406
▁WWi	-12.3407
▁Santosh	-12.3408
=101.9	-12.3408
=102.4	-12.3408
=104.3	-12.3408
=106.4	-12.3408
=109.6	-12.3408
=115.5	-12.3408
=116.9	-12.3408
=118.7	-12.3408
diabetic	-12.3408
▁Gaurav	-12.3408
▁Importance	-12.3408
▁Shakti	-12.3408
▁Srinivas	-12.3408
▁cottage	-12.3408
▁custard	-12.3408
▁declared	-12.3408
▁drooping	-12.3408
▁guiding	-12.3408
▁koppal	-12.3408
▁madurai	-12.3408
▁nuapada	-12.3408
▁pondicherry	-12.3408
▁srikakulam	-12.3408
▁summarize	-12.3408
▁tropics	-12.3408
▁tryptophan	-12.3408
▁virudhunagar	-12.3408
informatics	-12.3408
▁Linseed	-12.3408
▁artisan	-12.3408
=113.5	-12.3408
=114.1	-12.3408
▁Leader	-12.3408
▁snack	-12.3408
▁leather	-12.3408
▁Hindu	-12.3408
▁appeal	-12.3408
▁Agency	-12.3409
▁Composite	-12.3409
▁Media	-12.3411
▁hamper	-12.3412
iikkee	-12.3415
[...]
