<pad>	0
<s>	0
</s>	0
<unk>	0
▁the	-3.42928
,	-3.54983
:	-3.55164
.	-3.60277
▁###	-3.60381
▁is	-3.83584
▁**	-3.83766
▁crop	-4.05699
▁(	-4.05938
▁of	-4.07214
▁in	-4.0798
▁and	-4.12954
**	-4.20239
max	-4.23962
ruction	-4.3056
▁Inst	-4.3057
▁Response	-4.30579
s	-4.41184
▁a	-4.48527
▁to	-4.5692
),	-4.63574
▁season	-4.6654
▁for	-4.73612
▁Thi	-4.76805
?	-4.91986
▁*	-4.9329
▁during	-4.9458
▁	-4.96721
▁recommended	-4.97182
:**	-4.99521
▁on	-5.02682
▁water	-5.1023
▁best	-5.1316
ly	-5.24796
▁soil	-5.2519
▁year	-5.28995
▁P	-5.30173
C	-5.30528
▁K	-5.33241
▁pH	-5.33698
▁readings	-5.34078
▁with	-5.37061
d	-5.4797
°	-5.51242
▁What	-5.52336
▁from	-5.53392
▁about	-5.53584
▁asking	-5.53587
▁The	-5.54504
▁area	-5.60309
▁yield	-5.60802
▁production	-5.61917
▁h	-5.64015
▁where	-5.64748
▁cultivate	-5.65018
▁based	-5.65111
▁was	-5.65579
▁hectare	-5.65681
▁recommendation	-5.66067
▁data	-5.66112
istorical	-5.66368
▁cultivated	-5.66416
▁tonnes	-5.70373
▁@	-5.73693
)	-5.78071
▁2	-5.82218
/	-5.82516
y	-5.84242
▁kharif	-5.87641
r	-5.88123
▁which	-5.94025
▁your	-5.94427
▁has	-5.96272
▁this	-5.99188
▁Soil	-5.99221
▁through	-5.99406
▁well	-6.00056
▁temperature	-6.00405
▁explain	-6.00782
N	-6.01048
▁humidity	-6.01709
▁You	-6.02275
▁N	-6.02323
▁typical	-6.02344
▁grown	-6.02395
Wh	-6.02622
▁usual	-6.02817
▁sources	-6.02864
▁match	-6.02989
Crop	-6.02991
▁sensor	-6.03186
▁Base	-6.03202
▁supported	-6.03217
▁Recommend	-6.03252
▁briefly	-6.03283
▁thrives	-6.03292
Farming	-6.03308
reness	-6.03339
▁Type	-6.03358
▁Conditions	-6.03368
▁Temp	-6.03378
Ideal	-6.03384
▁Awa	-6.03389
▁spray	-6.08026
▁60	-6.08649
%	-6.10773
▁control	-6.13316
▁rabi	-6.17278
▁pradesh	-6.19659
-	-6.19789
ing	-6.28177
▁100	-6.29937
▁apply	-6.35724
▁him	-6.39124
▁per	-6.42474
▁40)	-6.52909
▁suggested	-6.54156
▁whole	-6.57023
my	-6.57048
▁20	-6.57864
▁1	-6.59643
irrigated	-6.60768
▁kg	-6.63515
).	-6.72264
▁3	-6.78665
▁days	-6.79156
▁ml	-6.81883
▁at	-6.82453
rainfed	-6.84215
▁be	-6.92012
▁80	-6.9289
vegetables	-6.93225
Zai	-6.93726
ml	-6.95356
▁uttar	-6.96064
▁regarding	-6.96444
▁Loa	-6.97196
▁5	-6.98713
▁30)	-6.99736
▁can	-7.00251
▁query	-7.04197
▁rice	-7.07671
▁gram	-7.08818
▁urea	-7.0918
kharif	-7.12588
▁gourd	-7.12862
▁fertilizer	-7.13469
▁are	-7.1453
▁advised	-7.1484
▁7.0	-7.1569
▁measure	-7.1785
▁/	-7.19962
▁or	-7.20234
▁litre	-7.20502
▁plant	-7.23323
gm	-7.24341
▁120	-7.26413
▁gm	-7.28697
sandy	-7.2905
▁should	-7.3081
▁50	-7.31077
▁g	-7.32337
▁85	-7.32875
ya	-7.33331
▁dose	-7.35381
rabi	-7.36366
lit	-7.37045
▁madh	-7.39052
▁interval	-7.41125
▁disease	-7.41737
▁what	-7.42539
▁potato	-7.45451
▁as	-7.45771
▁karnataka	-7.49355
▁by	-7.49675
kg	-7.49879
▁10	-7.51497
▁that	-7.52124
▁7.5)	-7.53161
▁bihar	-7.59481
l	-7.60318
▁bigha	-7.62164
▁summer	-7.63301
▁r	-7.6466
▁management	-7.68401
▁mop	-7.69242
▁growth	-7.69756
▁does	-7.69862
▁27)	-7.70253
▁ec	-7.70821
▁time	-7.71247
bigha	-7.71248
Loa	-7.71907
▁plants	-7.72224
▁assam	-7.73082
▁malathion	-7.7332
▁leaf	-7.73437
▁it	-7.7359
▁150	-7.74175
▁seed	-7.7618
▁25	-7.76229
▁fruit	-7.76759
▁35	-7.77607
▁4	-7.77654
▁ssp	-7.78005
▁c	-7.79239
▁How	-7.79416
ajasthan	-7.80693
▁application	-7.8156
t	-7.81708
▁told	-7.82488
(	-7.84063
▁o	-7.84626
▁know	-7.85511
▁problem	-7.85824
e	-7.864
=6.6	-7.86409
millets	-7.8766
▁use	-7.88061
▁&	-7.88483
pulses	-7.88893
▁liter	-7.89095
▁seeds	-7.89835
▁advice	-7.90549
ï	-7.90707
▁irrigation	-7.90782
▁90	-7.90783
▁west	-7.91102
▁maize	-7.91783
▁rot	-7.91789
▁nadu	-7.9308
tamil	-7.93086
=6.7	-7.93486
▁after	-7.95922
▁maharashtra	-7.96554
▁8.0	-7.96597
disha	-7.96659
▁planting	-7.96824
00.0	-7.97279
▁15	-7.98403
▁contact	-7.99986
▁treatment	-8.00165
▁variety	-8.01002
▁30	-8.01794
▁daily	-8.0225
hra	-8.02571
ed	-8.02854
▁farmers	-8.03094
▁how	-8.03717
▁nutrient	-8.0437
▁paddy	-8.04533
litre	-8.05035
=6.5	-8.05063
¿1⁄2	-8.05063
▁like	-8.07369
▁m	-8.08355
hhattisgarh	-8.0883
▁-	-8.08893
g	-8.0903
▁borer	-8.09295
=6.8	-8.09346
▁D	-8.12916
▁coconut	-8.13001
▁1.0	-8.13548
▁land	-8.14359
▁6	-8.14392
▁you	-8.14716
ujarat	-8.14783
▁pest	-8.16165
▁cultivation	-8.16313
▁bengal	-8.16489
'	-8.16897
liter	-8.1859
al	-8.18854
▁tomato	-8.1935
▁onion	-8.19922
=6.1	-8.21426
=6.9	-8.21696
▁200	-8.21731
=6.2	-8.23972
▁brinjal	-8.24319
well	-8.25087
&	-8.25321
▁wilt	-8.25644
=6.4	-8.25925
▁7	-8.2694
=6.3	-8.27059
▁measures	-8.2773
drained	-8.27746
▁times	-8.27947
tuber	-8.28714
ain	-8.28751
▁blight	-8.29222
Root	-8.29292
▁an	-8.29996
▁chilli	-8.30107
▁bean	-8.32126
▁other	-8.33122
escribe	-8.33374
=18.	-8.33951
▁root	-8.34008
▁practices	-8.34492
▁fungal	-8.34603
▁Expl	-8.35026
khand	-8.35594
m	-8.35646
▁kisan	-8.3611
▁stem	-8.36728
▁biogas	-8.36935
=19.	-8.37091
▁1.	-8.38186
▁1.5	-8.39762
▁prevent	-8.4061
▁twice	-8.40679
▁6.5	-8.41078
▁field	-8.42604
▁tree	-8.42794
▁12	-8.43334
▁rogor	-8.43409
▁following	-8.43675
=7.0	-8.43881
▁sugarcane	-8.46925
▁bavistin	-8.46928
▁gas	-8.47053
▁system	-8.47103
▁lit	-8.4853
▁effectively	-8.48769
▁method	-8.48921
ch	-8.49787
plant	-8.50034
=6.0	-8.50502
▁ensure	-8.5078
▁bed	-8.51339
▁2019	-8.51701
▁wheat	-8.51834
▁40	-8.52255
▁diseases	-8.53793
-20,	-8.54261
▁I	-8.54268
▁banana	-8.54584
▁70	-8.54618
▁varieties	-8.54921
▁sowing	-8.5536
▁cow	-8.55534
▁pm	-8.55635
▁9	-8.55677
▁Input	-8.55677
▁reduce	-8.55819
▁cowpea	-8.56096
▁winter	-8.57724
▁fish	-8.58366
▁details	-8.58448
▁2016	-8.58507
ic	-8.58739
▁2018-19	-8.58824
-17,	-8.58843
▁borax	-8.58972
▁administer	-8.59156
a	-8.60244
▁adviced	-8.60986
oil	-8.62526
▁agains	-8.62715
▁2017	-8.62834
▁k	-8.62994
▁bacterial	-8.63103
-18,	-8.63514
▁groundnut	-8.64213
▁su	-8.64243
▁0.5	-8.64279
▁some	-8.64807
▁agriculture	-8.64815
▁also	-8.64927
▁45	-8.65018
▁leaves	-8.65323
i	-8.65744
▁2015-16	-8.66202
▁district	-8.66255
ssp	-8.67208
▁used	-8.67403
▁A	-8.67891
▁chillies	-8.68251
▁solution	-8.68335
▁dry	-8.68878
▁8	-8.69032
ite	-8.69239
=17.	-8.6994
▁@2	-8.71357
green	-8.71649
▁trees	-8.72197
▁etc	-8.72299
▁6.8	-8.72355
▁0.	-8.72411
▁b	-8.72546
▁one	-8.72773
▁6.7	-8.72836
▁beans	-8.7298
▁agricultural	-8.73183
▁2013	-8.73264
▁office	-8.73282
▁infestation	-8.73643
-14,	-8.73752
▁bottle	-8.74127
-12,	-8.75039
▁spacing	-8.75253
▁It	-8.7555
▁small	-8.75786
▁2011	-8.75806
▁not	-8.75928
▁have	-8.76258
mop	-8.77118
2	-8.77154
=5.9	-8.7718
14-15	-8.77652
er	-8.77743
08-09	-8.78125
▁2.0	-8.78402
▁tracel	-8.78412
-10,	-8.78703
▁18	-8.78857
▁2009	-8.7888
▁6.0	-8.78905
▁2004	-8.79324
-05	-8.79523
▁cm	-8.79556
▁cotton	-8.79679
▁bank	-8.7987
10-11	-8.80131
▁moong	-8.80286
4,	-8.80464
▁visit	-8.80482
=7.3	-8.80528
▁mixture	-8.80532
▁healthy	-8.80763
▁pumpkin	-8.8122
▁mustard	-8.81323
Later	-8.81672
01,	-8.81725
12-13	-8.82329
▁powder	-8.82368
=7.4	-8.82825
▁autumn	-8.82991
▁2000-	-8.83265
▁do	-8.83616
▁raised	-8.84108
03-0	-8.8417
▁applied	-8.84506
2-03	-8.84582
▁2006	-8.84727
▁top	-8.85229
=7.2	-8.85515
-07	-8.85623
▁2005-06	-8.86027
urad	-8.86062
▁suggest	-8.86418
=7.1	-8.86715
ir	-8.86966
▁24	-8.87041
▁doses	-8.87056
-08	-8.87177
▁2007	-8.87417
▁pests	-8.88146
▁age	-8.88696
in	-8.89102
▁uttara	-8.89112
=5.7	-8.89336
▁ridge	-8.89608
o	-8.9016
=5.8	-8.90763
▁given	-8.90866
▁l	-8.90955
n	-8.90986
▁more	-8.91048
▁insect	-8.91447
▁13	-8.91635
▁sesamum	-8.92028
▁saaf	-8.92034
th	-8.92231
gram	-8.924
4.	-8.92401
▁tricel	-8.92596
-02	-8.92779
▁2001	-8.9307
7.	-8.93673
▁haryana	-8.94426
ec	-8.94534
3.	-8.94736
▁rain	-8.94892
▁using	-8.95834
▁kilogram	-8.95858
▁cabbage	-8.96021
▁orally	-8.96139
▁give	-8.96143
▁lemon	-8.96302
▁take	-8.96396
▁no	-8.96746
=16.	-8.97093
▁quality	-8.97136
▁pond	-8.97378
Sandy	-8.97653
▁maintain	-8.97899
▁farm	-8.98271
▁grams	-8.98488
▁want	-8.98575
▁2.5	-8.98876
▁peas	-8.99181
▁cucumber	-8.99186
5.	-8.99247
▁spread	-8.99267
▁26	-8.99311
or	-8.99404
6.	-8.9953
▁lime	-8.9982
▁goat	-9.00072
▁protect	-9.00235
▁i	-9.00335
▁conditions	-9.00399
-99	-9.00411
▁month	-9.00498
00,	-9.00638
▁1998	-9.00674
▁rapeseed	-9.00866
▁will	-9.00868
▁seedlings	-9.0098
=5.6	-9.01165
▁feed	-9.01259
▁health	-9.01879
▁question	-9.01949
▁In	-9.02236
tur	-9.02303
▁2.	-9.02343
▁card	-9.02375
=20.0	-9.02977
▁'	-9.033
▁provide	-9.03519
▁1999	-9.03592
▁infection	-9.03596
▁75	-9.03853
▁indofil	-9.04054
▁loamy	-9.04055
2.	-9.04058
▁common	-9.04213
▁help	-9.04322
mustard	-9.04327
▁then	-9.04678
▁why	-9.05025
▁before	-9.05033
▁attack	-9.05047
▁high	-9.05565
▁when	-9.05653
▁two	-9.05962
▁good	-9.06805
▁nagaland	-9.06907
▁Answer	-9.0733
▁rate	-9.07458
▁--	-9.07586
▁these	-9.07918
▁improve	-9.08144
▁sunflower	-9.08338
▁over	-9.08492
▁0.3	-9.08501
▁arhar	-9.0861
▁3.0	-9.08676
▁nagar	-9.10137
▁day	-9.10219
▁information	-9.10234
▁proper	-9.10252
f	-9.10679
▁farming	-9.10993
▁kvk	-9.11808
▁methods	-9.11831
▁may	-9.11836
▁19	-9.1204
▁pulses	-9.12164
▁systems	-9.12429
▁its	-9.12509
▁if	-9.12665
▁farmer	-9.12924
▁been	-9.13512
▁due	-9.13678
▁cauliflower	-9.1381
▁affect	-9.13868
se	-9.14242
▁blitox	-9.14401
▁local	-9.14712
▁sweet	-9.14719
▁0.4	-9.14734
▁drop	-9.14771
▁suitable	-9.14925
▁grow	-9.14939
000.0	-9.15021
▁along	-9.15031
achal	-9.15271
▁asked	-9.1539
▁name	-9.16485
▁bales	-9.17004
8.	-9.17231
▁efficiency	-9.17487
▁ragi	-9.17757
▁0	-9.17824
▁development	-9.17944
▁tel	-9.18331
▁up	-9.18608
▁22	-9.18742
▁jute	-9.18945
▁red	-9.191
▁lead	-9.19726
▁amount	-9.19829
erala	-9.19838
@	-9.19967
b	-9.20159
angana	-9.2071
c	-9.20905
▁nutrients	-9.21183
▁11	-9.21303
▁foot	-9.21432
▁bitter	-9.21463
▁super	-9.21628
▁tea	-9.21695
▁ring	-9.21868
▁infected	-9.21911
▁95	-9.21949
▁bolus	-9.22174
▁scheme	-9.22425
0.0	-9.22642
▁organic	-9.22788
▁jhar	-9.23005
1	-9.2308
=15.	-9.23221
▁punjab	-9.23301
▁x	-9.23538
▁beds	-9.23698
A	-9.2425
▁green	-9.25216
▁pusa	-9.2599
▁vitamin	-9.26201
▁Use	-9.26249
clay	-9.26507
▁stage	-9.26763
▁into	-9.26938
▁fly	-9.27329
▁14	-9.27552
▁cassava	-9.28106
▁fields	-9.28349
=7.5	-9.28368
▁east	-9.28369
p	-9.2858
▁late	-9.28766
▁92	-9.28828
jowar	-9.30482
▁moringa	-9.30617
▁number	-9.30735
▁further	-9.30755
▁17	-9.30865
gingely	-9.30884
▁soyabean	-9.31205
▁special	-9.31218
-98	-9.31485
▁mildew	-9.3156
1.	-9.31823
▁1997	-9.31887
tapoica	-9.31963
thinai	-9.31973
▁preparation	-9.32098
▁0.2	-9.32135
▁meghalaya	-9.3237
▁jammu	-9.32507
▁better	-9.32507
▁20)	-9.32523
▁arecanut	-9.32917
▁cowdung	-9.33208
panivaragu	-9.33328
▁By	-9.33414
sugarbeet	-9.34156
▁transplanting	-9.34322
▁spot	-9.34331
▁fertilizers	-9.34362
▁boro	-9.34495
bengalgram	-9.3496
cereals	-9.34993
redgram	-9.35
-45	-9.3526
▁millet	-9.35321
▁surface	-9.35353
▁castor	-9.35584
lt	-9.358
tinda	-9.3584
fibre	-9.35974
▁black	-9.36218
▁include	-9.36316
▁To	-9.36562
▁tab	-9.36587
▁all	-9.36615
1°	-9.36875
▁under	-9.37106
sugar	-9.37269
runachal	-9.37826
earl	-9.37927
▁around	-9.3802
▁any	-9.38256
▁dust	-9.38793
ribbe	-9.38838
▁increase	-9.39127
▁8.5	-9.3913
▁yam	-9.39277
▁potash	-9.39306
▁micronutrient	-9.39372
urea	-9.3962
▁16	-9.39674
▁0.8	-9.39755
▁5.0	-9.3985
▁early	-9.39934
▁poultry	-9.40007
▁nursery	-9.40314
kudiraivali	-9.40744
▁harvest	-9.40877
▁fixed	-9.40895
▁litres	-9.40923
crops	-9.41031
cole	-9.41164
5°	-9.41446
▁affected	-9.41457
▁kashmir	-9.41487
3	-9.41903
▁tripura	-9.41936
horsegram	-9.41978
▁t	-9.42026
▁3.	-9.42101
2°	-9.42132
samai	-9.42236
▁ensur	-9.42261
▁there	-9.42449
▁between	-9.42546
▁evening	-9.42603
▁hills	-9.42902
▁appropriate	-9.42912
▁damage	-9.43176
▁row	-9.4324
@2	-9.43282
▁installment	-9.43293
▁100.0	-9.43403
6°	-9.43422
▁moisture	-9.4375
▁S	-9.43823
▁enhance	-9.43931
▁9.0	-9.44106
▁ginger	-9.44209
▁flower	-9.44371
▁0.6	-9.44642
▁base	-9.44726
0°	-9.44778
▁avoid	-9.45376
29).	-9.45419
▁n	-9.45499
▁planofix	-9.45602
▁promote	-9.45614
▁mix	-9.45751
varagu	-9.45908
▁bajra	-9.46065
▁sprays	-9.46149
▁38	-9.46201
▁papaya	-9.46221
▁garlic	-9.46222
3°	-9.46249
▁45)	-9.46263
▁directed	-9.46385
▁turmeric	-9.46702
▁weed	-9.46717
▁cost	-9.46751
▁process	-9.46777
▁done	-9.4749
▁impact	-9.47536
▁regularly	-9.47567
en	-9.47601
▁sprinkler	-9.47712
▁4.0	-9.4801
7°	-9.48163
5	-9.48168
▁cultural	-9.48277
▁curl	-9.48567
▁benefits	-9.48658
▁oil	-9.49131
4°	-9.49144
lay	-9.49176
▁M	-9.49523
▁inject	-9.49549
▁helps	-9.50502
▁nearest	-9.50535
▁pig	-9.50985
8°	-9.51063
▁gold	-9.51441
▁42	-9.5299
▁drip	-9.53182
es	-9.53533
▁old	-9.5391
lluvi	-9.54023
▁teak	-9.54033
▁digester	-9.54507
▁seedling	-9.54517
▁fertilization	-9.54895
▁spraying	-9.5491
▁his	-9.54951
▁vegetable	-9.55129
▁laser	-9.55556
▁vine	-9.5573
=25.8	-9.56073
▁once	-9.56567
▁rainfall	-9.56766
▁31	-9.56886
▁half	-9.57036
4	-9.57138
red	-9.57492
▁treat	-9.5779
▁long	-9.58217
▁ridomil	-9.5836
9°	-9.58376
▁required	-9.58473
▁make	-9.58696
▁streptomycin	-9.58755
▁three	-9.58873
▁0.7	-9.58959
▁need	-9.59065
P	-9.59512
▁B	-9.59553
▁type	-9.59667
▁For	-9.59769
▁litr	-9.59795
litres	-9.6008
-2	-9.60192
▁them	-9.60245
▁weeds	-9.60253
▁symptoms	-9.60653
▁distance	-9.60845
=25.1	-9.61025
=25.5	-9.61025
cm	-9.61128
▁advise	-9.61159
▁neem	-9.61263
▁sali	-9.614
▁effective	-9.6152
ion	-9.6168
▁specific	-9.61781
k	-9.6179
=60.0	-9.6194
=24.9	-9.62486
=26.8	-9.62486
▁ant	-9.62795
Red	-9.62999
▁size	-9.63334
▁registration	-9.63415
▁aphid	-9.63686
▁requirement	-9.63687
▁clean	-9.63935
▁maso	-9.64158
▁necessary	-9.64166
▁47	-9.64181
▁french	-9.64232
▁pressure	-9.64323
▁millets	-9.64597
▁than	-9.64729
▁block	-9.64729
▁betel	-9.65096
=26.3	-9.65096
=26.0	-9.65099
▁reduc	-9.65236
▁timely	-9.65354
▁micro	-9.65384
▁basal	-9.65668
▁65	-9.65677
ous	-9.65964
▁5%	-9.65985
▁source	-9.65997
=26.7	-9.66236
ordeaux	-9.66237
▁compost	-9.66469
=25.3	-9.66619
=26.2	-9.66619
=26.1	-9.67003
▁breed	-9.67163
▁crucial	-9.67196
▁ash	-9.67214
▁aphids	-9.67295
=26.9	-9.67388
▁citrus	-9.67583
▁hybrid	-9.67603
lint	-9.67756
=26.5	-9.67776
▁pepper	-9.6792
9.	-9.67927
▁55	-9.68148
=25.6	-9.68164
▁capsicum	-9.68272
on	-9.68389
▁coriander	-9.68555
▁main	-9.68691
▁service	-9.68943
▁go	-9.69083
▁p	-9.69088
▁every	-9.69145
=25.4	-9.6934
▁documents	-9.69442
▁credit	-9.69504
▁2-3	-9.69726
=26.6	-9.70131
▁taking	-9.70132
▁29	-9.70399
▁out	-9.70518
=24.6	-9.70529
▁radish	-9.70596
cotton	-9.70833
=25.2	-9.70929
▁white	-9.7105
50.0	-9.71176
=24.2	-9.7133
=26.4	-9.7133
10.0	-9.71627
▁nidhi	-9.71733
▁important	-9.71733
45	-9.71848
▁agent	-9.71929
▁manipur	-9.71935
=24.5	-9.72543
▁SRI	-9.72566
▁please	-9.72606
▁barley	-9.72747
▁productivity	-9.72747
▁samman	-9.72747
▁needs	-9.72915
=5.5	-9.72951
▁shoot	-9.72957
▁linseed	-9.73155
▁18)	-9.73387
▁querry	-9.73566
le	-9.7377
▁get	-9.7407
▁steps	-9.74177
=22.8	-9.74184
▁levelling	-9.746
▁dressing	-9.74757
▁south	-9.74807
▁first	-9.74831
▁rs	-9.74932
=24.1	-9.75015
heavy	-9.75015
▁growing	-9.75176
▁different	-9.7542
=24.4	-9.75433
=25.0	-9.75436
▁state	-9.75459
▁nitrogen	-9.75649
▁making	-9.7566
=23.3	-9.75853
▁potential	-9.75853
90.0	-9.75968
▁efficient	-9.75992
ul	-9.76204
=25.9	-9.76274
▁storage	-9.76497
▁copper	-9.76507
80.0	-9.77186
▁33	-9.77284
▁check	-9.77303
u	-9.77418
▁chemical	-9.77428
=24.8	-9.77978
▁overall	-9.7798
▁bhindi	-9.78207
ive	-9.78449
▁mixed	-9.78691
=21.1	-9.78841
h	-9.79009
▁body	-9.79068
▁distribution	-9.79276
st	-9.79563
/10	-9.79624
▁clay	-9.79641
=25.7	-9.79712
▁fym	-9.79727
▁cover	-9.79794
▁Black	-9.79955
▁operation	-9.80032
▁multiplex	-9.80059
=24.3	-9.8015
▁each	-9.80151
▁27	-9.8023
▁sulphate	-9.8037
▁same	-9.80371
▁period	-9.80471
▁pea	-9.80477
=22.9	-9.8059
able	-9.80982
▁gun	-9.81031
▁training	-9.81042
▁81	-9.81137
▁98	-9.81226
▁captan	-9.81285
▁@1	-9.81347
▁horse	-9.81412
=65.0	-9.8148
▁manage	-9.81537
▁trunk	-9.81587
=90.0	-9.81704
▁mango	-9.81914
=23.2	-9.81922
30	-9.82145
▁diarrhoea	-9.8237
▁watermelon	-9.82467
▁benefit	-9.8251
ha	-9.82586
▁bamboo	-9.8282
▁related	-9.82902
▁e	-9.82906
▁0.1	-9.82946
▁technology	-9.83056
=21.3	-9.83272
=21.5	-9.83272
▁cut	-9.83423
▁loan	-9.83643
=21.9	-9.83726
=22.3	-9.83726
=22.7	-9.83726
▁materials	-9.83744
/5	-9.83863
▁750	-9.83868
▁flowering	-9.84004
▁according	-9.84044
▁10.0	-9.84221
30.0	-9.84416
▁carrot	-9.8443
▁condition	-9.84574
=24.0	-9.84643
70.0	-9.84703
▁insects	-9.84737
▁expert	-9.84808
▁annual	-9.85037
▁higher	-9.85134
▁-----	-9.85333
▁powdery	-9.85452
▁cause	-9.8557
-50	-9.85639
=7.8	-9.86027
▁4.	-9.86362
=23.8	-9.86494
▁off	-9.86502
▁ants	-9.86647
▁essential	-9.86728
▁wilting	-9.86963
▁floating	-9.86972
▁optimal	-9.87218
▁booster	-9.87676
=7.6	-9.87907
▁govt	-9.87907
▁but	-9.88066
▁remove	-9.88243
▁manure	-9.88359
=23.5	-9.88383
¿	-9.88383
=27.0	-9.88386
▁material	-9.88602
=22.2	-9.88861
=7.7	-9.88861
60.0	-9.88872
400.0	-9.89025
20.0	-9.89243
out	-9.89272
=7.9	-9.89341
=	-9.89383
▁controlling	-9.8947
=22.5	-9.89582
▁status	-9.89607
=22.1	-9.89824
=28.5	-9.89824
▁23	-9.90062
▁while	-9.9032
▁moist	-9.90551
▁environmental	-9.90593
▁natural	-9.90752
=20.9	-9.90796
=23.6	-9.90796
▁drum	-9.9083
▁require	-9.91111
▁Regularly	-9.91117
▁enhanc	-9.91265
=21.6	-9.91285
rich	-9.91531
=20.8	-9.91777
=24.7	-9.91777
=22.6	-9.91777
=28.1	-9.91777
▁feeding	-9.91779
=23.0	-9.91781
▁split	-9.91843
▁research	-9.92022
ent	-9.92131
▁bug	-9.92631
75	-9.92664
▁caused	-9.92736
▁0.0	-9.92749
=23.7	-9.92769
=28.2	-9.92769
=29.6	-9.92769
▁nut	-9.92839
▁remain	-9.93048
▁role	-9.93048
▁less	-9.93162
=22.4	-9.93268
=23.4	-9.93268
▁sorghum	-9.93387
▁pit	-9.93423
▁weeding	-9.93567
▁construction	-9.93579
-20	-9.93614
▁practice	-9.93632
▁involves	-9.93706
=20.7	-9.9377
=27.7	-9.9377
=28.4	-9.9377
=29.2	-9.93771
▁180	-9.9392
=21.2	-9.94274
=21.8	-9.94274
▁away	-9.94276
▁classic	-9.94361
▁1.3	-9.94584
333333333333333	-9.9463
=1	-9.94684
=23.1	-9.94781
=27.5	-9.94781
dome	-9.94793
▁signs	-9.94851
33	-9.95212
=28.6	-9.95291
▁sri	-9.95294
▁roots	-9.95314
▁layer	-9.95416
aro	-9.95496
ation	-9.95523
▁availability	-9.95553
=27.4	-9.95803
=28.9	-9.95803
▁march	-9.95958
▁0.9	-9.96021
▁captaf	-9.9638
▁equal	-9.96435
▁7.8	-9.96559
▁absence	-9.96576
▁vaccine	-9.96588
▁21	-9.96614
▁depend	-9.96682
▁low	-9.96812
=21.7	-9.96835
ash	-9.96854
▁vari	-9.96942
▁drainage	-9.97095
us	-9.97139
▁worm	-9.97293
▁yojana	-9.97355
▁slurry	-9.97387
wheat	-9.97443
onion	-9.97453
▁keep	-9.97473
6	-9.97495
▁drench	-9.97691
rice	-9.97769
▁blackgram	-9.97775
=21.4	-9.97878
=29.7	-9.97879
▁structure	-9.98011
▁allow	-9.98058
▁because	-9.98142
▁krishi	-9.98158
=28.7	-9.98404
▁available	-9.98407
▁sow	-9.98499
▁content	-9.98668
▁environment	-9.98722
▁canker	-9.99038
▁problems	-9.99083
10	-9.99107
vegetable	-9.99156
▁?????	-9.99191
▁milk	-9.99273
annual	-9.993
=20.6	-9.99464
=28.8	-9.99464
=21.0	-9.99467
pusa	-9.99569
▁8.2	-9.99685
by	-9.99687
▁????	-9.99895
bulb	-9.9999
▁deep	-10.001
▁terms	-10.0018
▁okra	-10.003
▁compare	-10.0038
=23.9	-10.0053
=27.2	-10.0053
▁kendra	-10.0053
light	-10.0065
▁duck	-10.0068
▁contribute	-10.0073
▁f	-10.0081
=27.8	-10.0107
=29.3	-10.0108
▁laterit	-10.011
▁snake	-10.0118
▁fruits	-10.013
▁mixing	-10.014
▁including	-10.0141
▁cluster	-10.0145
=27.3	-10.0162
▁20.0	-10.0163
▁maintenance	-10.0163
capsicum	-10.0174
small	-10.0174
▁level	-10.0185
▁improved	-10.0189
▁500	-10.0209
=20.3	-10.0216
=27.9	-10.0216
25	-10.0236
86.0	-10.0241
brinjal	-10.0257
cowpea	-10.0257
▁north	-10.0271
=22.0	-10.0271
▁breeding	-10.0298
cucumber	-10.0312
=27.6	-10.0326
▁protection	-10.0328
blackgram	-10.0341
▁occurrence	-10.0354
▁borers	-10.0368
=28.3	-10.0382
▁package	-10.0382
▁36	-10.0396
▁model	-10.0399
resistant	-10.0416
96.0	-10.0417
=27.1	-10.0438
▁vigyan	-10.0438
▁broiler	-10.0439
▁Cabbage	-10.0451
pumpkin	-10.0452
un	-10.0465
▁significant	-10.0469
sorghum	-10.048
▁depth	-10.0495
▁re	-10.0498
▁potassium	-10.0499
▁mu	-10.0507
Cabbage	-10.0509
chowchow	-10.0509
carrot	-10.0509
sunflower	-10.0509
=13.	-10.0517
78.0	-10.0517
jute	-10.0537
=20.5	-10.055
bottle	-10.0566
▁blast	-10.0578
▁zone	-10.0579
tomato	-10.0594
▁support	-10.0596
▁found	-10.0596
▁india	-10.0606
▁yellow	-10.0616
7	-10.0618
▁chowchow	-10.062
▁followed	-10.0638
watermelon	-10.0651
▁sp	-10.0661
▁When	-10.0665
▁pathogens	-10.0668
ragi	-10.0688
▁parts	-10.0702
64.0	-10.0712
▁T	-10.0715
▁bhendi	-10.0758
74.0	-10.0759
▁rust	-10.0761
snake	-10.0767
french	-10.0767
maize	-10.0767
groundnut	-10.0767
lease	-10.0774
=29.8	-10.0779
▁npk	-10.0779
▁plus	-10.0785
▁eating	-10.0786
▁elephant	-10.079
79.0	-10.0792
▁full	-10.0811
elephant	-10.0826
soyabean	-10.0826
▁(2	-10.0828
▁mahaphal	-10.0837
=28.0	-10.0837
peas	-10.0852
83.0	-10.0865
9	-10.0874
70	-10.0894
=29.1	-10.0896
▁hours	-10.0901
▁lower	-10.0904
97.0	-10.0905
▁dress	-10.0906
cluster	-10.0914
chillies	-10.0914
▁select	-10.092
friable	-10.0943
beetroot	-10.0943
sugarcane	-10.0944
▁pipes	-10.0948
bitter	-10.0973
▁dist	-10.0983
▁veterinary	-10.0984
▁weight	-10.0986
▁mr	-10.1005
87.0	-10.1007
=20.2	-10.1013
▁contaf	-10.1014
59.0	-10.1024
▁beetroot	-10.1024
▁near	-10.1044
radish	-10.1063
40.0	-10.1066
▁virus	-10.1072
=29.4	-10.1073
▁inj	-10.1079
mm	-10.1079
▁so	-10.1086
600.0	-10.1092
ng	-10.1109
▁mg	-10.1129
▁both	-10.1133
▁w	-10.1151
loamy	-10.1153
65.0	-10.1154
89.0	-10.1168
▁zinc	-10.1173
100.0	-10.119
ate	-10.1191
▁large	-10.1229
▁factors	-10.1237
▁32)	-10.1265
▁greengram	-10.1265
greengram	-10.128
▁he	-10.1295
oram	-10.1303
bhendi	-10.1305
=29.5	-10.1314
=12.	-10.132
53	-10.1327
15	-10.1335
▁officer	-10.1336
muskmelon	-10.1336
borax	-10.1367
52	-10.1396
▁fungicide	-10.1408
▁muskmelon	-10.1415
=20.1	-10.1437
50	-10.1443
▁acre	-10.1447
66	-10.1451
miz	-10.1459
▁species	-10.1468
▁leveling	-10.1489
40	-10.1491
▁mancozeb	-10.1501
castor	-10.1523
▁consult	-10.153
▁culture	-10.1538
91.0	-10.1568
93.0	-10.1573
▁respectively	-10.1573
▁kamrup	-10.1624
▁rural	-10.1624
▁caterpillar	-10.1629
▁curling	-10.163
▁28	-10.1636
▁design	-10.1637
cauliflower	-10.1649
sweet	-10.1649
▁1.2	-10.1659
min	-10.1668
=29.9	-10.1687
▁dosage	-10.1692
▁dhan	-10.1705
x	-10.1717
▁supply	-10.1719
v	-10.172
▁F	-10.172
an	-10.1725
▁test	-10.1769
▁dung	-10.1783
▁assistance	-10.1815
▁severe	-10.1817
▁eggplant	-10.1823
▁milli	-10.1838
▁traditional	-10.1879
▁wood	-10.1885
▁kcc	-10.1915
▁12.0	-10.1936
drum	-10.1977
▁loss	-10.198
66.0	-10.1981
▁months	-10.1986
▁11.0	-10.2029
61.0	-10.2035
▁payment	-10.2042
▁dropping	-10.2042
▁decis	-10.2045
20	-10.2052
▁brown	-10.208
44.0	-10.2095
▁types	-10.2101
72	-10.2107
▁1250	-10.2118
▁3-4	-10.2119
▁manag	-10.2122
▁1.8	-10.2129
0	-10.213
=29.0	-10.2142
▁phosphate	-10.2144
▁%	-10.2164
▁describe	-10.2168
▁lits	-10.221
▁taken	-10.2246
▁anthracnose	-10.2275
▁deficiency	-10.2275
13.0	-10.2277
8	-10.2288
19	-10.2294
▁dap	-10.2299
▁liv	-10.2304
▁resistance	-10.231
62.0	-10.2312
▁needed	-10.2315
85	-10.2329
51.0	-10.2331
80	-10.2332
▁garden	-10.2336
▁regular	-10.236
▁requirements	-10.236
to	-10.2366
▁tank	-10.2376
▁address	-10.2377
▁space	-10.2404
19.0	-10.2412
25.0	-10.2412
,2	-10.2412
76.0	-10.2422
▁???	-10.2426
▁matter	-10.2444
23.0	-10.2449
48.0	-10.2451
▁250	-10.2458
=14.	-10.2484
▁dome	-10.2504
11.0	-10.2516
84.0	-10.2529
=20.4	-10.2547
▁tobacco	-10.2547
▁air	-10.2564
63	-10.2565
▁october	-10.2583
▁fertility	-10.2584
92.0	-10.2593
▁form	-10.261
75.0	-10.2633
▁yellowing	-10.264
18.0	-10.2663
▁13.0	-10.2669
59	-10.2683
▁furadon	-10.2687
▁improv	-10.2701
▁procedure	-10.2705
▁de	-10.2716
▁economic	-10.2718
54	-10.2719
24.0	-10.2721
▁sustainable	-10.2722
▁primar	-10.2722
▁five	-10.2722
99.0	-10.2725
▁dr	-10.2728
23	-10.273
▁hydra	-10.2731
ve	-10.2744
▁reduced	-10.2749
=11.	-10.2768
95.0	-10.2785
ar	-10.2791
april	-10.2793
▁showing	-10.2807
▁result	-10.2813
ary	-10.2822
▁tr	-10.2824
43	-10.2825
▁cattle	-10.2828
58.0	-10.283
▁adequate	-10.2852
▁department	-10.2863
▁damping	-10.2864
▁pre	-10.2867
▁prevention	-10.2868
▁32	-10.2868
▁uniform	-10.2884
▁last	-10.2902
▁dried	-10.2903
81.0	-10.2911
37.0	-10.2913
▁levels	-10.2951
12.0	-10.2958
55.0	-10.2967
45.0	-10.2973
▁market	-10.2979
73.0	-10.2981
12	-10.299
16.0	-10.2999
▁advantages	-10.3007
ical	-10.301
69.0	-10.3025
1%	-10.3035
▁minimize	-10.3038
▁requirment	-10.3043
black	-10.3045
▁spots	-10.307
it	-10.308
72.0	-10.3082
▁manager	-10.3091
15.0	-10.3092
▁part	-10.3096
▁tractor	-10.3103
▁carp	-10.3106
ould	-10.3111
▁me	-10.3112
month	-10.312
46.0	-10.3121
▁profex	-10.3123
▁must	-10.3129
▁case	-10.3141
▁Choos	-10.3153
▁din	-10.3158
▁planter	-10.3183
36.0	-10.3195
▁infections	-10.3222
alty	-10.3241
▁ne	-10.3241
14.0	-10.3255
▁nuts	-10.3258
=31.8	-10.3263
▁activity	-10.3263
▁food	-10.3266
82.0	-10.3275
▁remedy	-10.33
▁play	-10.3302
38.0	-10.3313
21).	-10.3316
-1	-10.3328
▁risk	-10.3328
▁champaran	-10.3338
▁light	-10.3361
▁purpose	-10.3366
▁chilly	-10.3375
26.0	-10.3377
▁plantation	-10.3377
▁pesticides	-10.3381
▁15.0	-10.3398
▁bucket	-10.3403
2%	-10.341
ajpur	-10.3413
ight	-10.3417
▁14.0	-10.3419
▁wind	-10.3421
85.0	-10.3433
▁E	-10.3435
▁end	-10.3436
27	-10.344
▁drying	-10.344
ant	-10.3444
▁issues	-10.3452
34.0	-10.3457
▁th	-10.3469
05.0	-10.3472
49.0	-10.3474
▁new	-10.3476
68.0	-10.3477
▁again	-10.3478
▁drenching	-10.3478
▁termite	-10.3481
05	-10.3485
▁1.4	-10.3486
57.0	-10.3514
▁climate	-10.3521
▁april	-10.3525
39.0	-10.3527
▁21.0	-10.3541
21.0	-10.3558
▁kilo	-10.3563
▁godavari	-10.3565
▁niger	-10.3565
▁causes	-10.3574
17.0	-10.3574
31.0	-10.3582
=56.6	-10.3603
▁single	-10.3603
ne	-10.3613
▁v	-10.3616
▁liters	-10.3625
71.0	-10.363
▁germination	-10.3641
▁yojona	-10.3641
▁1.1	-10.3661
▁72	-10.3671
▁discuss	-10.3677
▁attention	-10.368
▁respective	-10.3705
▁morning	-10.3719
=40.6	-10.3719
▁mosaic	-10.3719
=30.2	-10.3719
▁man	-10.3741
=33.8	-10.3797
=30.4	-10.3797
▁calf	-10.3797
▁fishery	-10.38
37	-10.3809
56.0	-10.3818
▁applying	-10.3825
S	-10.3829
3%	-10.3837
▁provided	-10.3843
▁influence	-10.3851
42.0	-10.3853
▁kufri	-10.3855
▁regions	-10.3855
800.0	-10.3861
41.0	-10.3864
=34.4	-10.3875
=30.7	-10.3875
▁costs	-10.3904
▁metre	-10.3915
▁medicine	-10.3918
32	-10.3931
60	-10.3931
5%	-10.3942
▁collect	-10.395
=31.2	-10.3955
=45.5	-10.3955
=30.3	-10.3955
32.0	-10.3955
▁potatoes	-10.3969
54.0	-10.3971
▁provid	-10.3973
▁free	-10.3987
=10.	-10.3989
29.0	-10.3995
▁17.0	-10.3997
▁un	-10.3998
▁meter	-10.3999
▁resources	-10.4
▁harvesting	-10.4005
27.0	-10.4016
74	-10.4017
▁Regular	-10.4022
=33.6	-10.4034
=54.5	-10.4034
▁purb	-10.4037
63.0	-10.406
nce	-10.4074
▁account	-10.4075
▁digesters	-10.4081
36	-10.4103
=41.9	-10.4115
▁chicken	-10.4116
▁rates	-10.4133
8%	-10.4139
22.0	-10.4139
▁maan	-10.4156
hamp	-10.4194
▁effect	-10.4195
=52.0	-10.4196
▁tell	-10.4199
33.0	-10.4202
▁september	-10.4206
▁place	-10.4215
▁oxygen	-10.4236
88.0	-10.4272
52.0	-10.4273
▁animal	-10.4279
▁who	-10.4299
47.0	-10.4312
ature	-10.4315
▁acid	-10.4317
▁attain	-10.4319
▁stop	-10.4319
▁oxychloride	-10.4321
▁imm	-10.4328
▁add	-10.4331
▁??????	-10.4359
=57.7	-10.436
▁date	-10.4361
▁50%	-10.4381
14	-10.4389
▁significantly	-10.4397
▁Keep	-10.4402
▁fungi	-10.4402
▁hispa	-10.4402
▁rotting	-10.4403
ilty	-10.4409
=33.5	-10.4443
=31.0	-10.4444
666666666666666	-10.4471
0%	-10.4477
▁performance	-10.4485
▁birds	-10.4486
53.0	-10.4487
67.0	-10.4499
▁approach	-10.4508
=32.6	-10.4527
=32.7	-10.4527
▁trench	-10.4527
▁poor	-10.4528
46	-10.454
02.0	-10.4559
▁even	-10.4563
▁fertiliser	-10.4569
▁financial	-10.4569
▁results	-10.4587
7%	-10.46
sann	-10.4609
=33.9	-10.4612
=34.8	-10.4612
▁Spray	-10.4612
▁passbook	-10.4613
▁ku	-10.4618
35	-10.4642
▁ratio	-10.4653
35.0	-10.4655
▁nagaon	-10.4659
▁quintal	-10.4662
500.0	-10.4675
row	-10.469
▁properly	-10.469
▁beetle	-10.4693
=51.9	-10.4697
▁stomach	-10.4697
▁often	-10.4697
=30.0	-10.4698
▁peppers	-10.4708
=52.4	-10.474
▁mortality	-10.474
95	-10.4771
=57.6	-10.4783
=58.6	-10.4783
▁carbendazim	-10.4791
▁downy	-10.4795
▁30.0	-10.4796
03.0	-10.4802
▁above	-10.4826
▁centre	-10.4826
700.0	-10.4833
▁Us	-10.4834
=31.5	-10.487
=32.5	-10.487
=53.3	-10.487
▁fever	-10.487
▁considered	-10.4872
▁pipe	-10.4882
▁34	-10.4885
▁show	-10.4894
▁agri	-10.4909
04.0	-10.4913
=50.4	-10.4914
▁tetracycline	-10.4918
▁contain	-10.4925
▁India	-10.4956
=31.3	-10.4957
=32.1	-10.4957
=33.2	-10.4957
=33.3	-10.4957
=34.5	-10.4957
=34.7	-10.4957
=34.9	-10.4957
=40.9	-10.4957
65	-10.496
▁post	-10.4965
▁substrate	-10.4967
apply	-10.4976
=54.4	-10.5001
=55.5	-10.5001
=58.4	-10.5001
▁normal	-10.5002
▁vary	-10.5017
28.0	-10.5018
▁EC	-10.5032
▁vegetables	-10.5038
=44.2	-10.5046
=34.0	-10.5046
6%	-10.5048
▁week	-10.5051
▁18.0	-10.5052
▁jorhat	-10.5055
▁concentration	-10.5057
▁pay	-10.5064
49	-10.5081
47	-10.5083
▁suffering	-10.5092
=33.4	-10.5135
=43.7	-10.5135
=45.1	-10.5135
=46.7	-10.5135
=47.4	-10.5135
▁bilaspur	-10.5135
▁labor	-10.5135
=30.9	-10.5135
▁eye	-10.5137
▁flow	-10.5138
09.0	-10.5152
=51.8	-10.518
=52.5	-10.518
=55.7	-10.518
▁replied	-10.518
▁chloropyriphos	-10.5182
=31.7	-10.5225
=41.6	-10.5225
=44.4	-10.5225
=47.7	-10.5225
=48.3	-10.5225
=40.2	-10.5225
=40.1	-10.5225
=8.0	-10.5225
=32.0	-10.5225
43.0	-10.5228
-12	-10.5232
▁portion	-10.5237
▁initial	-10.5262
▁general	-10.5262
at	-10.5267
=51.1	-10.527
=55.1	-10.527
=56.5	-10.527
▁aeration	-10.527
▁create	-10.5276
▁??	-10.5289
▁900	-10.5296
▁arka	-10.5301
▁Raise	-10.5308
▁vet	-10.5309
=32.2	-10.5315
=34.6	-10.5315
=41.1	-10.5315
=43.2	-10.5315
=47.8	-10.5315
=48.9	-10.5315
=55.4	-10.5315
=59.5	-10.5315
▁establishment	-10.5316
▁dibrugarh	-10.5317
▁avail	-10.5336
▁explained	-10.5344
=57.8	-10.5361
=59.1	-10.5361
▁branches	-10.5362
▁forte	-10.5363
▁calcium	-10.5367
ol	-10.5368
la	-10.5372
▁sub	-10.5383
=34.1	-10.5407
=42.7	-10.5407
=43.9	-10.5407
=44.8	-10.5407
=49.9	-10.5407
=53.9	-10.5407
=30.8	-10.5407
▁promot	-10.5407
=57.0	-10.5408
=51.6	-10.5453
=53.1	-10.5453
▁repeat	-10.5461
as	-10.5496
=31.9	-10.5499
=33.7	-10.5499
=43.1	-10.5499
=53.8	-10.5499
=59.3	-10.5499
▁mushroom	-10.5499
▁dairy	-10.5499
▁liquid	-10.5499
=30.1	-10.55
▁upon	-10.5502
08.0	-10.5513
9%	-10.5544
▁death	-10.5546
▁much	-10.5551
▁made	-10.5551
98.0	-10.5562
▁rotation	-10.5563
=31.4	-10.5593
=41.4	-10.5593
=45.9	-10.5593
=53.6	-10.5593
=59.8	-10.5593
▁sissoo	-10.5593
w	-10.5611
▁controlled	-10.5612
77.0	-10.5635
91	-10.5636
▁Proper	-10.564
=50.8	-10.564
▁another	-10.5644
▁16.0	-10.5645
=48.8	-10.5687
=54.1	-10.5687
▁nurseries	-10.5687
▁significance	-10.5687
▁steel	-10.5687
=30.5	-10.5687
▁litchi	-10.5687
=43.0	-10.5687
▁grass	-10.569
▁22.0	-10.5694
18	-10.57
special	-10.5712
97	-10.5734
=57.5	-10.5734
▁Apply	-10.5734
=50.7	-10.5734
▁sufficient	-10.5734
=50.5	-10.5734
=55.0	-10.5735
90	-10.5735
▁mz	-10.5737
▁moth	-10.5752
=31.1	-10.5782
=33.1	-10.5782
=41.8	-10.5782
=42.1	-10.5782
=44.1	-10.5782
=49.6	-10.5782
=51.7	-10.5782
=58.1	-10.5782
anpur	-10.5784
▁melon	-10.5829
=51.2	-10.583
=58.8	-10.583
▁chloride	-10.583
▁cleaning	-10.583
upper	-10.5857
▁increased	-10.5871
=34.3	-10.5878
=41.5	-10.5878
=46.4	-10.5878
=52.7	-10.5878
=58.2	-10.5878
=59.6	-10.5878
▁udder	-10.5878
=40.4	-10.5878
=41.0	-10.5878
=58.0	-10.5878
▁way	-10.5901
▁total	-10.5911
=58.3	-10.5926
▁acacia	-10.5926
cherry	-10.5926
=59.0	-10.5927
=50.0	-10.5927
▁center	-10.595
▁Wh	-10.5964
▁directly	-10.5967
=44.6	-10.5974
=45.3	-10.5974
=46.1	-10.5974
=52.1	-10.5974
=54.2	-10.5974
=30.6	-10.5975
▁removal	-10.5976
▁key	-10.5977
▁region	-10.5995
ro	-10.5996
▁worms	-10.6007
=51.3	-10.6023
=51.4	-10.6023
=52.3	-10.6023
=50.9	-10.6023
▁hassan	-10.6024
▁below	-10.6025
▁stems	-10.6033
▁46	-10.6039
and	-10.6046
01.0	-10.6057
=42.4	-10.6072
=43.8	-10.6072
=48.2	-10.6072
=55.9	-10.6072
=57.3	-10.6072
angalore	-10.6072
▁dharwad	-10.6072
=47.0	-10.6073
=51.0	-10.6073
▁injection	-10.6074
▁Water	-10.6075
▁39	-10.6079
▁vaccination	-10.6079
il	-10.6109
um	-10.611
=54.7	-10.6122
=55.6	-10.6122
=56.2	-10.6122
▁1.7	-10.6138
▁300	-10.6151
▁25.0	-10.616
▁caus	-10.6168
=34.2	-10.6171
=42.8	-10.6171
=45.2	-10.6171
=47.1	-10.6171
=48.1	-10.6171
=49.8	-10.6171
▁dakshin	-10.6171
▁pudu	-10.6171
▁branch	-10.6179
▁non	-10.618
▁medi	-10.6191
deep	-10.6201
anas	-10.6212
-5	-10.6213
▁stress	-10.622
=52.6	-10.6221
=84.4	-10.6221
▁chlorpyriphos	-10.6229
▁sant	-10.624
34	-10.6259
ta	-10.6261
=32.3	-10.6271
=42.6	-10.6271
=43.6	-10.6271
=45.4	-10.6271
=45.7	-10.6271
=48.7	-10.6271
=49.7	-10.6271
▁tumkur	-10.6271
=33.0	-10.6271
▁government	-10.6272
▁vimeral	-10.628
▁4.5	-10.6283
=57.1	-10.6321
▁empty	-10.6321
06.0	-10.6329
▁19.0	-10.6336
▁insecticide	-10.6352
=43.4	-10.6372
=44.9	-10.6372
=48.5	-10.6372
=49.1	-10.6372
=54.6	-10.6372
▁next	-10.6372
▁biological	-10.6372
=42.0	-10.6372
100	-10.6374
▁store	-10.638
▁37	-10.6402
78	-10.6406
=53.7	-10.6422
=56.9	-10.6422
=59.7	-10.6422
▁sludge	-10.6422
=54.0	-10.6423
ment	-10.6424
▁covered	-10.643
▁diseased	-10.6456
▁develop	-10.647
▁manual	-10.6471
=31.6	-10.6473
=47.9	-10.6473
▁strategies	-10.6473
▁tapioca	-10.6473
=45.0	-10.6474
▁lakhimpur	-10.6474
▁losses	-10.6475
▁physical	-10.6475
▁bellary	-10.6475
▁dexona	-10.6477
64	-10.6478
very	-10.6481
nd	-10.6482
▁piglet	-10.6505
=53.4	-10.6525
=56.8	-10.6525
▁Reasonabl	-10.6525
▁parag	-10.6525
▁flood	-10.6554
▁schemes	-10.6569
▁supplement	-10.6576
=42.2	-10.6576
=44.7	-10.6576
=46.9	-10.6576
=49.3	-10.6576
=54.9	-10.6576
▁structural	-10.6576
▁width	-10.6576
▁consistent	-10.6576
=46.0	-10.6577
▁oku	-10.6587
07.0	-10.6609
=57.4	-10.6628
=78.6	-10.6628
=83.1	-10.6628
=50.3	-10.6628
▁ventilation	-10.6628
=79.0	-10.6629
mg	-10.6631
▁most	-10.6636
▁48	-10.664
▁operations	-10.6656
▁valve	-10.6662
▁recommend	-10.6674
=35.3	-10.668
=40.3	-10.668
=42.5	-10.668
=48.6	-10.668
▁chamarajanagar	-10.668
▁order	-10.668
=39.0	-10.6681
24	-10.6695
▁indicate	-10.6698
▁29.0	-10.6698
73	-10.6724
28	-10.6726
▁bud	-10.6728
=58.7	-10.6732
=59.4	-10.6732
▁carrie	-10.6732
=50.6	-10.6732
▁meet	-10.6733
▁offer	-10.6748
▁challenges	-10.6759
▁ask	-10.6759
M	-10.6766
▁40.0	-10.6769
along	-10.6769
▁mid	-10.6774
▁techniques	-10.6775
92	-10.6776
=32.4	-10.6785
=36.3	-10.6785
=37.7	-10.6785
=43.3	-10.6785
=52.2	-10.6785
▁davangere	-10.6785
▁safety	-10.6785
▁Indian	-10.6787
▁pointed	-10.6787
soil	-10.6787
medium	-10.6821
=56.1	-10.6838
▁Check	-10.6838
=82.0	-10.6839
▁4-5	-10.6844
▁head	-10.6846
▁43	-10.6868
▁salt	-10.6873
-4	-10.6887
=32.8	-10.6891
=32.9	-10.6891
=53.5	-10.6891
=57.2	-10.6891
▁kannad	-10.6891
▁mandya	-10.6891
▁properties	-10.6891
=56.0	-10.6892
nipur	-10.6903
41	-10.6904
▁fruiting	-10.6919
am	-10.6921
wa	-10.6924
▁adjust	-10.6941
▁1.6	-10.6942
=56.7	-10.6945
=79.8	-10.6945
▁volume	-10.6945
=50.2	-10.6945
▁precision	-10.6945
▁Rain	-10.6947
▁2.4	-10.6966
▁testing	-10.6976
▁23.0	-10.6978
77	-10.6988
=40.7	-10.6998
=47.5	-10.6998
=59.9	-10.6998
▁consecutive	-10.6998
▁mysore	-10.6998
▁paste	-10.6998
=35.0	-10.6999
=49.0	-10.6999
▁power	-10.7005
z	-10.7005
▁krishna	-10.7006
94.0	-10.7011
▁achieve	-10.7015
▁planted	-10.705
=52.8	-10.7052
=84.2	-10.7052
▁debris	-10.7052
▁mastitis	-10.7052
▁initiation	-10.7052
na	-10.7057
ish	-10.7057
el	-10.7075
▁ja	-10.7102
=47.3	-10.7107
=49.4	-10.7107
=51.5	-10.7107
=52.9	-10.7107
▁erosion	-10.7107
=40.5	-10.7107
=50.1	-10.7107
▁conservation	-10.7107
▁wide	-10.7108
▁bark	-10.7109
▁pan	-10.7109
▁right	-10.7114
▁being	-10.712
▁hand	-10.7132
▁ha	-10.7136
4%	-10.7143
▁range	-10.7151
-10	-10.7153
▁mesta	-10.7161
▁preventive	-10.7167
▁10-12	-10.7168
▁mm	-10.7172
31	-10.7173
▁follow	-10.7182
=38.3	-10.7216
=41.3	-10.7216
=48.4	-10.7216
=55.8	-10.7216
=80.9	-10.7216
=83.7	-10.7216
▁company	-10.7216
▁kantha	-10.7216
▁44	-10.7217
▁0.25	-10.7218
84	-10.722
▁7.5	-10.723
▁26.0	-10.7233
79	-10.7237
malathion	-10.7259
▁life	-10.7272
▁sprayed	-10.7281
▁khas	-10.7286
ia	-10.7299
▁wound	-10.7317
▁pump	-10.7326
=39.7	-10.7327
=42.3	-10.7327
=42.9	-10.7327
=44.5	-10.7327
=53.0	-10.7328
▁ooze	-10.7328
▁dressed	-10.7333
for	-10.7335
fertilizer	-10.7369
alabar	-10.7371
5.0	-10.7371
=58.5	-10.7383
=80.5	-10.7383
=84.1	-10.7383
=84.7	-10.7383
▁centimeter	-10.7383
▁melonex	-10.7383
▁52	-10.7386
▁cake	-10.7389
▁They	-10.7392
▁agrimin	-10.7395
▁plantations	-10.7397
17	-10.7404
hal	-10.7411
1.0	-10.7431
▁41	-10.7435
▁effects	-10.7438
▁pow	-10.7438
=36.5	-10.7439
=45.6	-10.7439
=45.8	-10.7439
=49.5	-10.7439
=77.7	-10.7439
=79.1	-10.7439
=80.1	-10.7439
▁become	-10.7439
ti	-10.744
▁drinking	-10.744
▁1.25	-10.7451
▁49	-10.7463
06	-10.7481
▁detail	-10.7485
=58.9	-10.7496
=77.6	-10.7496
▁drought	-10.7496
▁adhar	-10.7496
▁bio	-10.7497
▁pesticide	-10.7497
▁fert	-10.7501
chim	-10.7502
▁waste	-10.7507
▁50.0	-10.7508
▁guar	-10.7513
ers	-10.7532
▁pathogen	-10.7543
▁resource	-10.7545
har	-10.7552
=35.2	-10.7553
=37.5	-10.7553
=46.6	-10.7553
=47.6	-10.7553
=55.3	-10.7553
=77.9	-10.7553
▁sivasagar	-10.7556
81	-10.7578
3.0	-10.7603
▁final	-10.761
▁spine	-10.761
▁selection	-10.7611
▁mature	-10.7614
▁urban	-10.7617
▁2.8	-10.763
▁andaman	-10.766
▁nutrition	-10.7664
ur	-10.7664
=38.6	-10.7667
=38.9	-10.7667
=46.8	-10.7667
=54.3	-10.7667
=55.2	-10.7667
=56.4	-10.7667
▁aurangabad	-10.7667
▁beneficial	-10.7667
▁chitradurga	-10.7667
▁density	-10.7671
-52	-10.7685
▁jan	-10.7695
▁wash	-10.7703
compost	-10.7713
▁ka	-10.7715
▁deal	-10.7723
=77.3	-10.7725
=82.4	-10.7725
▁feet	-10.7725
▁gandhi	-10.7725
▁thrice	-10.7726
▁meters	-10.7728
▁nutritional	-10.7729
9.0	-10.7744
42	-10.7777
▁grain	-10.7778
▁soi	-10.7781
▁fresh	-10.7783
=35.1	-10.7783
=36.7	-10.7783
=37.6	-10.7783
=37.9	-10.7783
=39.2	-10.7783
=41.2	-10.7783
=46.3	-10.7783
=46.5	-10.7783
=49.2	-10.7783
=76.6	-10.7783
=78.1	-10.7783
=78.3	-10.7783
=81.5	-10.7783
=84.9	-10.7783
▁bijapur	-10.7783
▁radius	-10.7783
grained	-10.7783
▁garhwal	-10.7785
▁orange	-10.7788
▁rows	-10.7843
▁golaghat	-10.7844
08	-10.7845
the	-10.7845
▁flies	-10.7846
▁particularly	-10.7846
▁egg	-10.785
▁ostovet	-10.785
▁monitoring	-10.7852
▁0.75	-10.7873
▁fed	-10.7876
▁promoter	-10.7893
▁1%	-10.7897
=36.9	-10.79
=38.5	-10.79
=41.7	-10.79
=47.2	-10.79
▁chikmagalur	-10.79
▁critical	-10.79
▁gadag	-10.79
=38.0	-10.7901
▁capacity	-10.7902
▁excessive	-10.7906
▁produce	-10.7917
▁fall	-10.7951
=83.6	-10.796
▁khesari	-10.796
▁uneven	-10.796
▁issue	-10.7961
▁z	-10.7981
▁minutes	-10.7988
▁24.0	-10.799
=77.4	-10.8019
=79.5	-10.8019
=81.2	-10.8019
▁belgaum	-10.8019
▁coochbehar	-10.8019
▁Maintain	-10.8019
▁streptocyclin	-10.802
=48.0	-10.802
is	-10.802
▁evenly	-10.8034
▁increasing	-10.8035
▁stages	-10.8046
▁heat	-10.8064
39	-10.8069
=76.7	-10.8079
=79.2	-10.8079
=80.8	-10.8079
▁ideal	-10.8079
▁appearance	-10.8079
▁mineral	-10.808
▁bird	-10.8081
▁boron	-10.8085
ba	-10.8098
▁wanted	-10.8108
▁28.0	-10.8135
▁advantage	-10.8138
=37.4	-10.8139
=54.8	-10.8139
=59.2	-10.8139
=75.5	-10.8139
=82.9	-10.8139
▁hamirpur	-10.8139
▁oilseeds	-10.8139
▁panacur	-10.8139
=36.0	-10.814
=84.0	-10.814
et	-10.8161
▁addition	-10.8196
ri	-10.8199
=76.4	-10.82
▁equipment	-10.82
▁safflower	-10.82
▁betelvine	-10.82
500	-10.8202
▁second	-10.8214
=37.2	-10.8261
=37.8	-10.8261
=39.6	-10.8261
=57.9	-10.8261
=76.1	-10.8261
=83.4	-10.8261
▁balrampur	-10.8261
▁poplar	-10.8261
▁precise	-10.8261
▁thin	-10.8264
ra	-10.8266
▁prevents	-10.8281
16	-10.8287
no	-10.8315
=53.2	-10.8322
=79.6	-10.8322
=81.4	-10.8322
=82.8	-10.8322
tion	-10.8341
▁L	-10.8354
▁facilitate	-10.8358
▁set	-10.8376
=46.2	-10.8384
=79.7	-10.8384
▁veterinarian	-10.8384
▁foliar	-10.8384
=40.0	-10.8385
▁haveri	-10.8386
▁aadhar	-10.8388
=65.1	-10.8446
=81.7	-10.8446
=82.6	-10.8446
=84.6	-10.8446
▁castration	-10.8446
▁presence	-10.8446
▁tillage	-10.8454
▁alternate	-10.846
▁names	-10.8475
▁co	-10.8482
58	-10.8483
▁impacts	-10.8488
▁stock	-10.849
Black	-10.8502
spray	-10.8502
=43.5	-10.8508
=98.9	-10.8508
▁importance	-10.8508
▁pratapgarh	-10.8508
▁shimoga	-10.8508
▁energy	-10.8509
▁bidar	-10.8509
▁major	-10.8509
▁plastic	-10.851
▁symptom	-10.8513
co	-10.8515
▁value	-10.8518
▁direct	-10.8527
▁prepare	-10.853
99	-10.8536
-3	-10.8565
▁ebi	-10.857
▁answer	-10.8571
=78.7	-10.8571
=83.5	-10.8571
▁bevistin	-10.8572
▁young	-10.8578
▁20-25	-10.858
▁tomatoes	-10.8582
▁holding	-10.8584
▁eliminate	-10.8587
25.	-10.8597
09	-10.8607
=56.3	-10.8635
=75.4	-10.8635
=76.9	-10.8635
=78.2	-10.8635
=82.7	-10.8635
▁gulbarga	-10.8635
▁kadapa	-10.8635
=40.8	-10.8635
=77.0	-10.8635
▁imp	-10.8639
▁height	-10.864
▁outlet	-10.8643
ter	-10.8646
▁1/2	-10.8657
88	-10.8657
▁my	-10.8663
▁caterpillars	-10.8689
▁32.0	-10.8691
=81.9	-10.8698
▁thus	-10.8699
▁amister	-10.8703
▁H	-10.8709
re	-10.8722
▁dog	-10.8723
75.	-10.8725
68	-10.8726
▁products	-10.8726
26	-10.8727
▁pa	-10.8746
▁ph	-10.8759
=35.4	-10.8762
=35.9	-10.8762
=36.2	-10.8762
=38.1	-10.8762
=39.1	-10.8762
=44.3	-10.8762
=78.9	-10.8762
▁anantapur	-10.8762
▁hormone	-10.8764
▁barpeta	-10.8764
▁Bordeaux	-10.8765
▁treated	-10.8774
▁waiting	-10.8776
▁60.0	-10.8776
▁bi	-10.878
▁pro	-10.8791
▁straw	-10.8827
▁Additional	-10.8827
=60.9	-10.8827
=82.3	-10.8827
▁healthier	-10.8827
87	-10.8829
rough	-10.8829
▁june	-10.8843
fym	-10.8888
=63.6	-10.8892
=68.6	-10.8892
=69.5	-10.8892
=75.9	-10.8892
=76.8	-10.8892
▁Acacia	-10.8892
▁insurance	-10.8892
▁kurnool	-10.8892
▁raichur	-10.8892
▁recomende	-10.8892
▁usage	-10.8892
▁fertigation	-10.8892
▁contribution	-10.8892
=44.0	-10.8893
▁bl	-10.8894
▁herbicide	-10.8901
uri	-10.8903
▁guide	-10.8917
▁includes	-10.893
▁stored	-10.8946
▁sure	-10.8955
=67.1	-10.8957
=76.2	-10.8957
▁duration	-10.8957
=81.0	-10.8958
▁dhemaji	-10.8959
▁cropping	-10.8964
▁vill	-10.8964
ity	-10.8974
▁yard	-10.8993
▁integrate	-10.8996
62	-10.9016
cross	-10.902
▁sponge	-10.9023
=77.8	-10.9023
▁bardhaman	-10.9023
▁chittoor	-10.9023
▁nellore	-10.9023
▁prakasam	-10.9023
▁Irrigation	-10.9023
▁cream	-10.9023
▁borux	-10.9023
▁detailed	-10.9027
714285714285714	-10.9029
▁3.5	-10.9036
j	-10.9053
67	-10.9064
east	-10.9069
ak	-10.9074
89	-10.9075
▁excess	-10.9089
=75.1	-10.9089
=82.1	-10.9089
=99.4	-10.9089
▁raising	-10.9089
▁18-40	-10.909
▁durg	-10.9092
▁nos	-10.9095
holders	-10.9115
▁33.0	-10.9151
L	-10.9153
=36.6	-10.9156
=37.1	-10.9156
=39.8	-10.9156
=67.8	-10.9156
=77.5	-10.9156
=81.3	-10.9156
▁mahbubnagar	-10.9156
▁siang	-10.9156
▁warangal	-10.9156
=8.6	-10.9156
▁station	-10.9156
=83.0	-10.9157
▁climat	-10.9161
▁1.75	-10.9161
▁2.1	-10.9163
▁influen	-10.9163
▁Th	-10.9165
▁ground	-10.9167
▁dithane	-10.9171
400	-10.9178
▁work	-10.9184
▁characteristics	-10.9196
=68.4	-10.9223
=75.3	-10.9223
=81.6	-10.9223
▁varities	-10.9223
▁manner	-10.9223
=89.0	-10.9224
▁pash	-10.9229
▁promptly	-10.923
▁1.9	-10.9231
ap	-10.924
▁35.0	-10.9244
48	-10.9257
days	-10.9275
tic	-10.9284
▁bagalkot	-10.9287
=36.1	-10.9291
=39.9	-10.9291
=77.2	-10.9291
=79.3	-10.9291
=80.6	-10.9291
=83.8	-10.9291
=95.1	-10.9291
=98.7	-10.9291
▁hailakandi	-10.9291
▁schedule	-10.9291
▁surguja	-10.9291
▁solve	-10.9291
=85.0	-10.9292
▁machine	-10.9304
▁correct	-10.9309
▁falling	-10.9312
▁consider	-10.9355
october	-10.9358
=80.7	-10.9359
=86.9	-10.9359
▁weather	-10.9359
▁34.0	-10.936
=73.0	-10.936
▁now	-10.9361
▁spp	-10.9363
▁27.0	-10.9369
▁R	-10.9371
▁ranjit	-10.9371
▁sand	-10.9372
▁hole	-10.9384
▁back	-10.939
▁Clean	-10.9408
obia	-10.9409
=36.4	-10.9427
=62.4	-10.9427
=81.1	-10.9427
=87.9	-10.9427
▁jalpaiguri	-10.9427
▁shisham	-10.9427
▁tata	-10.9428
▁come	-10.9429
-15	-10.9432
▁plantomycin	-10.9434
▁2.6	-10.944
▁khanapara	-10.9449
▁@10	-10.9486
▁access	-10.9496
=65.4	-10.9496
=72.7	-10.9496
=73.2	-10.9496
=83.3	-10.9496
=85.6	-10.9496
▁dhubri	-10.9496
▁entire	-10.9496
▁maturity	-10.9496
▁thrips	-10.9496
▁choose	-10.9497
=80.0	-10.9498
▁tablet	-10.9513
▁cutting	-10.9513
▁bacteria	-10.9561
=35.5	-10.9566
=35.7	-10.9566
=36.8	-10.9566
=38.2	-10.9566
=38.4	-10.9566
=71.5	-10.9566
=75.7	-10.9566
=77.1	-10.9566
=78.5	-10.9566
=79.9	-10.9566
=87.5	-10.9566
▁enough	-10.9566
▁enrocin	-10.9566
▁retention	-10.9566
=8.9	-10.9566
▁pure	-10.9566
=78.0	-10.9567
▁her	-10.9568
▁nationalise	-10.9569
kar	-10.9572
▁either	-10.9572
▁temp	-10.9591
▁na	-10.9605
▁start	-10.9613
=66.7	-10.9636
=76.5	-10.9636
=80.3	-10.9636
=80.4	-10.9636
=81.8	-10.9636
=83.2	-10.9636
=83.9	-10.9636
=84.8	-10.9636
▁maximum	-10.9636
▁nalbari	-10.9636
▁panicle	-10.9636
▁timber	-10.9636
lixen	-10.9636
certain	-10.9636
phthora	-10.9637
▁31.0	-10.9637
▁phosphorus	-10.9638
▁Dur	-10.9639
▁5-6	-10.9652
▁ppm	-10.9655
U	-10.9655
86	-10.9658
28.	-10.968
=76.3	-10.9706
=79.4	-10.9706
=84.3	-10.9706
=84.5	-10.9706
=88.1	-10.9706
=98.4	-10.9706
▁bahraich	-10.9706
▁katihar	-10.9706
▁kaushambi	-10.9706
▁medak	-10.9706
▁pumkin	-10.9706
▁rajnandgaon	-10.9706
▁shivpuri	-10.9706
▁villupuram	-10.9706
▁durability	-10.9706
▁raipur	-10.9706
▁sunlight	-10.9706
▁agrimycin	-10.971
▁house	-10.9712
id	-10.9736
69	-10.974
29	-10.9745
▁At	-10.975
34.	-10.9766
▁id	-10.9776
=73.6	-10.9777
=75.6	-10.9777
=91.8	-10.9777
▁request	-10.9777
▁saline	-10.9778
-30	-10.9779
▁shade	-10.9779
▁manures	-10.9784
▁pmkisan	-10.9785
▁components	-10.9796
11	-10.9796
▁populations	-10.9799
▁kill	-10.9824
=16.4	-10.9842
=35.6	-10.9848
=35.8	-10.9848
=67.6	-10.9848
=75.8	-10.9848
=78.8	-10.9848
▁chittorgarh	-10.9848
▁competition	-10.9848
▁easy	-10.9848
▁karbi	-10.9848
▁kolar	-10.9848
▁visakhapatanam	-10.9848
▁tonk	-10.9849
▁cristocycline	-10.9849
▁semi	-10.9849
=37.0	-10.9849
▁receive	-10.9852
▁Planting	-10.9866
▁continuous	-10.9869
▁dadr	-10.9884
57	-10.9914
56	-10.9917
=67.2	-10.992
=74.2	-10.992
=95.7	-10.992
▁agroforestry	-10.992
38	-10.9929
▁avoiding	-10.9935
▁cereals	-10.9946
blon	-10.997
07	-10.997
▁mite	-10.9974
etting	-10.9991
=8.7	-10.9993
=86.2	-10.9993
=87.1	-10.9993
=87.6	-10.9993
▁goalpara	-10.9993
▁jashpur	-10.9993
▁muzaffarpur	-10.9993
▁srikakulam	-10.9993
▁vizianagaram	-10.9993
▁formation	-10.9994
=76.0	-10.9994
▁Add	-10.9994
▁goa	-11.0028
-9	-11.003
uru	-11.0031
▁optimiz	-11.004
=86.3	-11.0066
▁activities	-11.0066
▁tinsukia	-11.0066
/4.5	-11.0073
@2.5	-11.0087
▁immediately	-11.009
▁unit	-11.0095
os	-11.0099
▁56	-11.013
=39.4	-11.0139
=39.5	-11.0139
=62.7	-11.0139
=68.3	-11.0139
=78.4	-11.0139
▁khargone	-11.0139
▁koraput	-11.0139
▁rayagada	-11.0139
▁sustainability	-11.0139
▁inlet	-11.014
=75.0	-11.014
▁2.2	-11.0141
▁concrete	-11.0141
▁round	-11.0152
▁10-15	-11.0153
▁66	-11.0162
▁nicobar	-11.0164
holder	-11.0166
▁skin	-11.0176
▁vety	-11.0187
=65.7	-11.0213
▁stability	-11.0213
▁islands	-11.0215
▁rae	-11.0215
▁panch	-11.0216
▁darrang	-11.0217
@50	-11.022
▁phone	-11.022
▁implement	-11.0235
▁we	-11.0253
ma	-11.0264
▁tuber	-11.0269
▁present	-11.0285
=63.9	-11.0288
=69.9	-11.0288
=71.6	-11.0288
=72.1	-11.0288
=74.3	-11.0288
=80.2	-11.0288
=87.4	-11.0288
▁kokrajhar	-11.0288
▁koppal	-11.0288
▁bareli	-11.0288
=5.1	-11.0288
▁62	-11.0288
=8.8	-11.0288
▁haveli	-11.0289
▁anglong	-11.0292
▁guntur	-11.0292
▁reason	-11.0297
▁agril	-11.03
ltr	-11.03
▁remov	-11.0308
▁monthly	-11.0313
▁smooth	-11.0341
▁sa	-11.0356
▁min	-11.0357
=61.8	-11.0363
=61.9	-11.0363
=73.9	-11.0363
=89.8	-11.0363
=98.1	-11.0363
=98.5	-11.0363
▁vaishali	-11.0363
▁Remov	-11.0363
▁clear	-11.0363
▁masonry	-11.0364
▁sun	-11.0365
soaked	-11.0379
za	-11.038
▁effectiveness	-11.0382
▁wet	-11.0407
rd	-11.0418
▁sever	-11.0434
=37.3	-11.0439
=60.2	-11.0439
=60.4	-11.0439
=86.7	-11.0439
=97.9	-11.0439
▁bhilwara	-11.0439
▁murshidabad	-11.0439
▁patna	-11.0439
▁siwan	-11.0439
▁mahals	-11.0439
▁mechanical	-11.0439
▁36.0	-11.044
22	-11.0445
▁function	-11.0446
▁59	-11.0448
▁Plant	-11.0456
▁vitamins	-11.0477
ies	-11.0505
=65.6	-11.0515
=65.9	-11.0515
=66.2	-11.0515
=66.5	-11.0515
=74.6	-11.0515
=87.7	-11.0515
=96.2	-11.0515
=99.3	-11.0515
▁bongaigaon	-11.0515
▁liming	-11.0515
▁38.0	-11.0519
champa	-11.052
▁Fusarium	-11.0526
▁earth	-11.0527
7.0	-11.0535
▁cycle	-11.0546
▁fire	-11.0546
▁sprinklers	-11.0566
ine	-11.0574
600	-11.0579
▁too	-11.0584
=63.8	-11.0592
=66.9	-11.0592
=69.1	-11.0592
=69.4	-11.0592
=71.1	-11.0592
=86.5	-11.0592
=96.6	-11.0592
=99.9	-11.0592
▁kanker	-11.0592
▁etah	-11.0592
▁fatehpur	-11.0592
▁beneficiary	-11.0592
▁bundi	-11.0592
=99.0	-11.0593
▁vira	-11.06
▁nationalize	-11.0603
ling	-11.0613
▁Implement	-11.0627
▁burn	-11.0628
▁site	-11.0633
83	-11.0634
▁controll	-11.064
=61.7	-11.067
=67.4	-11.067
=73.5	-11.067
=96.3	-11.067
▁expected	-11.067
=71.0	-11.0671
▁infiltration	-11.0676
▁lesions	-11.0695
4.0	-11.0713
tight	-11.0721
▁mites	-11.0723
▁creat	-11.0738
=64.2	-11.0748
=64.4	-11.0748
=72.9	-11.0748
=82.2	-11.0748
=86.8	-11.0748
=88.8	-11.0748
=90.2	-11.0748
=99.2	-11.0748
▁Eucalyptus	-11.0748
▁azamgarh	-11.0748
▁bhagalpur	-11.0748
▁commercial	-11.0748
▁kishanganj	-11.0748
▁mayurbhanj	-11.0748
▁purulia	-11.0748
▁sundargarh	-11.0748
=75.2	-11.0748
▁korea	-11.0748
▁predicted	-11.0748
▁kind	-11.0748
▁bran	-11.0756
▁di	-11.0758
▁supports	-11.077
▁guwahati	-11.0772
▁ga	-11.0784
▁carbon	-11.079
up	-11.0794
▁prepared	-11.08
▁warm	-11.0806
▁break	-11.0807
▁optimize	-11.0808
▁600	-11.0817
▁drag	-11.0826
=64.7	-11.0826
=72.4	-11.0826
=99.5	-11.0826
▁coimbatore	-11.0826
▁mycelium	-11.0827
▁2.3	-11.0828
=87.0	-11.0828
of	-11.0828
▁minimum	-11.0828
▁sagar	-11.0833
▁De	-11.0853
▁53	-11.0886
▁flowers	-11.0901
=38.7	-11.0906
=38.8	-11.0906
=61.4	-11.0906
=88.2	-11.0906
=89.1	-11.0906
=90.3	-11.0906
▁adilabad	-11.0906
▁firozabad	-11.0906
▁kranti	-11.0906
▁mahasamund	-11.0906
▁sitapur	-11.0906
▁diameter	-11.0906
▁salem	-11.0906
▁latur	-11.0907
=98.0	-11.0907
=69.0	-11.0907
▁1-1.75	-11.0908
▁price	-11.0908
61	-11.092
▁3000	-11.0922
▁mon	-11.0926
▁dip	-11.0935
▁miner	-11.0956
▁sc	-11.0969
=66.3	-11.0986
=70.3	-11.0986
=70.4	-11.0986
=85.4	-11.0986
=88.3	-11.0986
=89.6	-11.0986
=97.2	-11.0986
▁cashewnut	-11.0986
▁caterpiller	-11.0986
TI	-11.0986
▁jyoti	-11.099
adhaar	-11.0996
.55	-11.1002
▁frequent	-11.1013
▁holders	-11.1018
▁demand	-11.1029
ccording	-11.1034
=15.7	-11.1038
=5.3	-11.1067
=62.9	-11.1067
=64.1	-11.1067
=72.6	-11.1067
=82.5	-11.1067
=90.7	-11.1067
=94.3	-11.1067
=96.1	-11.1067
=98.3	-11.1067
▁accurate	-11.1067
▁barwani	-11.1067
▁birbhum	-11.1067
▁cachar	-11.1067
▁dindigul	-11.1067
▁external	-11.1067
▁farrukhabad	-11.1067
▁karur	-11.1067
▁katni	-11.1067
▁korba	-11.1067
▁madhubani	-11.1067
▁raigarh	-11.1067
▁udaipur	-11.1067
▁parbhani	-11.1067
▁dewas	-11.1067
▁phyto	-11.1067
=68.0	-11.1068
=96.0	-11.1068
▁subsidy	-11.107
ex	-11.1071
300	-11.1084
▁safe	-11.1099
96	-11.1104
=69.2	-11.1148
=69.7	-11.1148
=72.2	-11.1148
=74.8	-11.1148
=91.6	-11.1148
=97.4	-11.1148
▁marigaon	-11.1148
▁mastile	-11.1148
microbial	-11.1148
▁dehradun	-11.1148
▁agra	-11.1148
▁digested	-11.1148
▁clogging	-11.1148
=62.0	-11.1149
▁However	-11.1149
▁favor	-11.1152
▁generally	-11.1164
▁dima	-11.1166
▁furrows	-11.1169
ness	-11.1171
21	-11.1184
▁document	-11.119
▁change	-11.1229
jgir	-11.123
=61.6	-11.123
=62.1	-11.123
=63.3	-11.123
=65.2	-11.123
=73.1	-11.123
=90.1	-11.123
=99.6	-11.123
▁bharatpur	-11.123
▁dhamtari	-11.123
▁vadodara	-11.123
.5	-11.1232
▁transplanted	-11.1233
▁rocket	-11.1239
▁minimiz	-11.1241
@1.5	-11.1244
▁retain	-11.1271
▁determine	-11.1278
mong	-11.1278
▁weeks	-11.1291
▁till	-11.1292
=63.2	-11.1312
=68.2	-11.1312
=73.7	-11.1312
=74.9	-11.1312
=85.1	-11.1312
=93.8	-11.1312
=95.2	-11.1312
▁udalguri	-11.1312
▁knol	-11.1313
=61.0	-11.1314
▁sonitpur	-11.1314
=74.0	-11.1314
K	-11.1326
▁var	-11.1328
if	-11.1338
▁increases	-11.1342
term	-11.135
▁theni	-11.135
29.	-11.1361
est	-11.137
=60.6	-11.1396
=65.3	-11.1396
=85.8	-11.1396
=95.5	-11.1396
=97.8	-11.1396
▁hoshangabad	-11.1396
▁jehanabad	-11.1396
▁namakkal	-11.1396
▁purple	-11.1396
▁rangareddi	-11.1396
▁seoni	-11.1396
▁ustad	-11.1396
▁Avoid	-11.1396
=5.4	-11.1396
▁banda	-11.1396
▁registered	-11.1397
▁48.0	-11.1403
▁waterlogging	-11.1403
▁liver	-11.1408
1.5	-11.1408
▁stocking	-11.1424
▁offers	-11.1424
▁diet	-11.1438
ig	-11.1446
▁removed	-11.1463
▁larger	-11.1474
=64.6	-11.148
=66.6	-11.148
=69.8	-11.148
=72.3	-11.148
=87.8	-11.148
=95.6	-11.148
=97.3	-11.148
▁response	-11.148
▁position	-11.148
▁fungus	-11.148
▁redomil	-11.148
te	-11.148
=72.0	-11.1481
=66.0	-11.1481
▁fluton	-11.1486
▁dwarf	-11.1489
coming	-11.1492
▁70.0	-11.15
ure	-11.1513
▁63	-11.1524
▁product	-11.1533
▁chemicals	-11.1539
di	-11.1541
li	-11.1543
fter	-11.1543
▁adopt	-11.1561
▁short	-11.1564
=66.1	-11.1565
=68.1	-11.1565
=71.4	-11.1565
=71.7	-11.1565
=72.5	-11.1565
=74.7	-11.1565
=8.5	-11.1565
=88.6	-11.1565
▁begusarai	-11.1565
▁happen	-11.1565
▁mokokchung	-11.1565
▁spider	-11.1565
▁sidhi	-11.1565
▁transfer	-11.1565
▁almora	-11.1565
▁morena	-11.1567
▁singh	-11.1567
▁digestion	-11.1569
▁line	-11.1576
▁wounds	-11.158
like	-11.158
▁bor	-11.1595
iding	-11.1597
ther	-11.1599
▁@5	-11.1604
▁mau	-11.1636
▁???????	-11.1647
albergia	-11.165
=70.1	-11.165
=70.2	-11.165
=85.2	-11.165
=85.5	-11.165
=91.4	-11.165
=94.9	-11.165
=97.5	-11.165
=99.8	-11.165
▁identify	-11.165
▁eucalyptus	-11.165
▁panna	-11.165
▁save	-11.1651
▁box	-11.1651
=95.0	-11.1651
▁nga	-11.1652
▁cracking	-11.1657
om	-11.1683
-8	-11.1708
▁5-7	-11.1714
=39.3	-11.1736
=60.5	-11.1736
=62.6	-11.1736
=65.5	-11.1736
=68.5	-11.1736
=72.8	-11.1736
=85.9	-11.1736
=99.7	-11.1736
▁barabanki	-11.1736
▁buldhana	-11.1736
▁champawat	-11.1736
▁chhindwara	-11.1736
▁chitrakoot	-11.1736
▁jalgaon	-11.1736
▁kannauj	-11.1736
▁karimnagar	-11.1736
▁khagaria	-11.1736
▁samastipur	-11.1736
▁sultanpur	-11.1736
▁leveller	-11.1736
▁deoria	-11.1736
▁gonda	-11.1736
ver	-11.1737
▁appliances	-11.1752
age	-11.1757
▁55.0	-11.1776
▁Pest	-11.1788
▁occur	-11.1788
nutrient	-11.1794
▁managed	-11.1822
=67.7	-11.1823
=70.9	-11.1823
=71.2	-11.1823
=71.3	-11.1823
=73.8	-11.1823
=93.4	-11.1823
▁baksa	-11.1823
▁dimensions	-11.1823
▁located	-11.1823
▁robust	-11.1823
▁technologies	-11.1823
▁uptake	-11.1823
▁kabe	-11.1824
▁45.0	-11.1824
=92.0	-11.1824
▁leaching	-11.1825
▁gaya	-11.1831
▁57	-11.1858
▁die	-11.1867
many	-11.1887
▁46.0	-11.1907
=5.2	-11.1911
=71.8	-11.1911
=90.9	-11.1911
=91.2	-11.1911
=99.1	-11.1911
▁balaghat	-11.1911
▁darjeeling	-11.1911
▁diarrhea	-11.1911
▁gorakhpur	-11.1911
▁karimganj	-11.1911
▁investment	-11.1911
▁jalaun	-11.1911
▁topicure	-11.1911
=94.0	-11.1912
▁spary	-11.1912
=88.0	-11.1912
▁ecological	-11.1912
▁additional	-11.1916
▁artificial	-11.1916
94	-11.1921
▁implications	-11.1923
one	-11.1927
▁irrigate	-11.1928
▁receiver	-11.1946
▁bananas	-11.195
▁78	-11.1951
700	-11.1969
2.0	-11.1975
ac	-11.1983
=64.9	-11.1999
=89.2	-11.1999
=91.3	-11.1999
=96.5	-11.1999
=98.2	-11.1999
▁Which	-11.1999
▁sandalwood	-11.1999
▁dark	-11.1999
▁runoff	-11.1999
▁dhar	-11.2
▁pali	-11.2
▁interest	-11.2003
▁areca	-11.2006
ide	-11.2007
▁filling	-11.2014
▁avoided	-11.2018
▁wp	-11.2027
▁ability	-11.2033
▁80.0	-11.2036
7000.0	-11.2045
▁700.0	-11.2046
▁operat	-11.2047
▁en	-11.2059
26.	-11.2064
▁42.0	-11.2073
▁41.0	-11.2075
=70.8	-11.2089
=86.1	-11.2089
=93.1	-11.2089
=94.6	-11.2089
▁bhojpur	-11.2089
▁bikaner	-11.2089
▁chhatarpur	-11.2089
▁ganjam	-11.2089
▁jhunjhunu	-11.2089
▁kolhapur	-11.2089
▁madhopur	-11.2089
▁narsinghpur	-11.2089
▁purnia	-11.2089
▁quantity	-11.2089
▁sehore	-11.2089
▁tiruvannamalai	-11.2089
▁extension	-11.2089
▁khandwa	-11.2089
▁alwar	-11.2089
▁gundhi	-11.2089
▁kota	-11.2089
▁operator	-11.209
im	-11.2094
bi	-11.2095
free	-11.2109
▁proof	-11.2111
ge	-11.2128
▁yrs	-11.2141
16.	-11.2153
▁kush	-11.2156
▁inform	-11.2168
▁al	-11.217
▁watering	-11.2173
-6	-11.2173
▁inhibit	-11.2177
=64.5	-11.2179
=73.4	-11.2179
▁Laser	-11.2179
▁hydroponic	-11.2179
▁lucknow	-11.2179
▁vle	-11.218
▁nearby	-11.218
▁mandi	-11.218
▁39.0	-11.2183
▁High	-11.2183
▁january	-11.2188
▁care	-11.219
me	-11.2193
▁cold	-11.2198
▁streptomycine	-11.2199
44.	-11.2199
08.	-11.2202
▁risks	-11.2202
▁holder	-11.2233
56.	-11.2244
▁vermicompost	-11.2251
▁wait	-11.2251
▁hav	-11.2263
▁appear	-11.227
=60.1	-11.227
=92.3	-11.227
=93.6	-11.227
=98.8	-11.227
▁damoh	-11.227
▁khammam	-11.227
▁madhepura	-11.227
▁pondicherry	-11.227
▁pruning	-11.227
▁syrup	-11.227
▁tikamgarh	-11.227
▁satara	-11.227
▁hingoli	-11.227
▁satna	-11.227
▁bastar	-11.227
▁lack	-11.227
▁7-10	-11.2274
▁highly	-11.2276
▁W	-11.2279
88.	-11.2279
=18	-11.2298
▁125	-11.2304
@1	-11.2304
mly	-11.2306
▁sawa	-11.2316
▁centers	-11.2316
▁ton	-11.2336
800	-11.2337
▁47.0	-11.2338
▁52.0	-11.2348
ut	-11.235
▁ulcer	-11.2361
=66.4	-11.2361
=67.5	-11.2361
=70.5	-11.2361
=70.7	-11.2361
▁allahabad	-11.2361
▁countries	-11.2361
▁crown	-11.2361
▁instructions	-11.2362
▁floor	-11.2362
▁mahafal	-11.2363
▁associat	-11.2364
▁tools	-11.2364
▁(1	-11.2365
04.	-11.2375
▁analyze	-11.239
▁elements	-11.2408
▁decrease	-11.2411
6.0	-11.2415
36.	-11.2419
02	-11.242
@10	-11.2423
▁population	-11.2425
▁call	-11.2426
de	-11.2438
=60.7	-11.2454
=60.8	-11.2454
=63.7	-11.2454
=89.7	-11.2454
=92.8	-11.2454
=96.9	-11.2454
▁ahmednagar	-11.2454
▁cuttack	-11.2454
▁dantewada	-11.2454
▁desease	-11.2454
▁erode	-11.2454
▁hardoi	-11.2454
▁jaipur	-11.2454
▁maldah	-11.2454
▁mandla	-11.2454
▁nawada	-11.2454
▁sanitation	-11.2454
▁shahjahanpur	-11.2454
▁splitting	-11.2454
▁possible	-11.2455
▁raisen	-11.2455
=86.0	-11.2456
▁chili	-11.2457
▁bw	-11.246
▁67	-11.2478
▁anti	-11.2487
ily	-11.2489
per	-11.25
▁july	-11.25
▁ado	-11.2508
▁con	-11.2508
mu	-11.252
▁liq	-11.2521
ally	-11.2521
376	-11.2532
44	-11.2536
.200	-11.2537
D	-11.2543
▁68	-11.2545
=68.8	-11.2547
=90.5	-11.2547
=93.9	-11.2547
▁surat	-11.2547
=67.0	-11.2549
=91.0	-11.2549
▁side	-11.2554
64.	-11.2554
▁gap	-11.2554
▁ambiplex	-11.256
▁6.	-11.2565
▁fertilize	-11.2571
also	-11.2574
▁83	-11.2575
▁aid	-11.2581
▁tonic	-11.2592
▁0.6.	-11.2597
quality	-11.2624
▁operate	-11.2625
▁rewa	-11.2634
▁transplant	-11.2637
▁limit	-11.2638
▁text	-11.2642
=62.3	-11.2642
=68.9	-11.2642
=71.9	-11.2642
▁ajmer	-11.2642
▁budaun	-11.2642
▁dehat	-11.2642
▁dholpur	-11.2642
▁enquiry	-11.2642
▁fisheries	-11.2642
▁ganganagar	-11.2642
▁kabirdham	-11.2642
▁khordha	-11.2642
▁nainital	-11.2642
▁nizamabad	-11.2642
▁pilibhit	-11.2642
▁pomegranate	-11.2642
▁ramanathapuram	-11.2642
▁solapur	-11.2642
▁suppliment	-11.2642
▁zunheboto	-11.2642
▁ballia	-11.2642
▁fertlizer	-11.2642
=97.0	-11.2643
▁sown	-11.2647
▁districts	-11.2671
▁november	-11.268
▁careful	-11.2684
po	-11.2695
76.	-11.2702
ab	-11.2704
▁regulator	-11.2709
▁ahu	-11.2718
▁400	-11.2718
=15.9	-11.2729
▁reasonabl	-11.273
-72	-11.2732
=62.8	-11.2737
=74.4	-11.2737
=89.3	-11.2737
=90.6	-11.2737
=92.5	-11.2737
=96.4	-11.2737
=98.6	-11.2737
▁nadia	-11.2737
▁rajgarh	-11.2737
▁piping	-11.2737
▁reproduction	-11.2737
▁programme	-11.2737
▁sikkim	-11.2737
=63.0	-11.2738
water	-11.2744
24.	-11.2746
▁ch	-11.2763
brown	-11.2763
▁chicks	-11.2772
▁successful	-11.278
▁ways	-11.2787
▁mitigate	-11.2793
▁mulch	-11.2814
enba	-11.2815
994	-11.2825
anoderma	-11.2827
=63.1	-11.2833
=69.6	-11.2833
=89.9	-11.2833
=90.8	-11.2833
=93.2	-11.2833
=96.7	-11.2833
=97.6	-11.2833
▁anugul	-11.2833
▁chandauli	-11.2833
▁cuddalore	-11.2833
▁gajapati	-11.2833
▁jajapur	-11.2833
▁jamnagar	-11.2833
▁junagadh	-11.2833
▁kanchipuram	-11.2833
▁kohima	-11.2833
▁madurai	-11.2833
▁nuapada	-11.2833
▁pithoragarh	-11.2833
▁saharsa	-11.2833
▁supaul	-11.2833
▁consistency	-11.2833
mbed	-11.2833
▁mahoba	-11.2833
▁nagaur	-11.2833
▁livestock	-11.2833
93	-11.2836
▁fertilizing	-11.2837
▁furrow	-11.2838
▁permanent	-11.2842
▁central	-11.2844
▁tillering	-11.2849
▁gur	-11.2856
▁800	-11.287
=19	-11.2871
▁intra	-11.2872
ko	-11.2897
▁weevil	-11.2904
▁parasites	-11.2909
18.	-11.2911
▁herbicides	-11.2918
▁destroy	-11.2927
ci	-11.2929
▁places	-11.2929
=61.2	-11.293
=63.5	-11.293
=64.3	-11.293
=67.3	-11.293
=91.1	-11.293
▁evaporation	-11.293
▁faizabad	-11.293
ndhu	-11.293
▁easier	-11.2932
▁complex	-11.2938
▁37.0	-11.294
▁multi	-11.2941
▁ri	-11.2942
▁csc	-11.2943
▁strong	-11.2944
▁infested	-11.2944
▁@3	-11.2944
ph	-11.2952
ce	-11.2955
▁rose	-11.2956
▁involved	-11.2957
▁pra	-11.2977
▁points	-11.2979
ka	-11.2984
E	-11.3
intia	-11.3002
55	-11.3016
=64.8	-11.3028
=67.9	-11.3028
=87.2	-11.3028
=96.8	-11.3028
=97.7	-11.3028
▁bareilly	-11.3028
▁bhopal	-11.3028
▁consumption	-11.3028
▁kalahandi	-11.3028
▁krishnagiri	-11.3028
▁monocrotophos	-11.3028
▁sambalpur	-11.3028
▁sonepur	-11.3028
▁betul	-11.3028
▁pending	-11.3028
▁jhabua	-11.3028
▁Teak	-11.3028
▁guava	-11.3029
▁basis	-11.3029
▁pregnant	-11.303
=70.0	-11.3031
ad	-11.3038
.3000	-11.3041
▁tall	-11.3042
▁tsf	-11.3048
▁termites	-11.3049
▁goats	-11.3063
▁65.0	-11.3065
,30	-11.3088
▁110	-11.309
-25	-11.309
ty	-11.3093
82	-11.3104
llowing	-11.3106
▁sept	-11.3107
▁An	-11.3112
▁kilograms	-11.3115
198	-11.3127
=62.2	-11.3127
=68.7	-11.3127
=69.3	-11.3127
=88.9	-11.3127
=97.1	-11.3127
▁valley	-11.3127
▁bordeux	-11.3127
▁handling	-11.3128
▁deka	-11.3128
▁stable	-11.3128
▁dis	-11.3129
▁trace	-11.313
▁69	-11.3131
51	-11.3175
@1.75	-11.3186
▁cuttings	-11.3203
▁holes	-11.3206
▁53.0	-11.321
▁beed	-11.3218
▁130	-11.3218
▁fas	-11.3224
=73.3	-11.3227
=94.7	-11.3227
▁dausa	-11.3227
▁dhalai	-11.3227
▁mirzapur	-11.3227
▁phek	-11.3227
▁sheohar	-11.3227
▁shravasti	-11.3227
▁sirmaur	-11.3227
▁standard	-11.3227
▁thoothukudi	-11.3227
▁aligarh	-11.3227
▁establish	-11.3228
da	-11.3231
▁cifax	-11.3233
▁pose	-11.325
▁solar	-11.3259
68.	-11.3262
307	-11.3273
▁quickly	-11.3277
283	-11.3279
65.	-11.3279
ca	-11.3282
va	-11.3299
▁antibiotic	-11.3313
ku	-11.3325
ni	-11.3328
=95.4	-11.3328
▁amistar	-11.3328
▁breadth	-11.3328
▁basti	-11.3328
▁technical	-11.3328
▁dead	-11.3329
udam	-11.3329
▁scum	-11.3329
standing	-11.3331
▁uprooting	-11.3334
▁54	-11.3334
▁15-20	-11.3342
▁44.0	-11.3347
▁load	-11.3352
▁dissolved	-11.3352
-1.5	-11.3387
▁43.0	-11.3392
▁mainly	-11.34
66666666666666	-11.3403
▁64	-11.3416
▁2.7	-11.3423
▁fungicides	-11.3426
▁dalbergia	-11.3427
ES	-11.3428
=86.6	-11.343
▁halves	-11.343
▁hooghly	-11.343
▁internal	-11.343
▁kendujhar	-11.343
▁mahesana	-11.343
▁nashik	-11.343
▁rubber	-11.343
▁sirohi	-11.343
▁sonbhadra	-11.343
▁tirunelveli	-11.343
▁ujjain	-11.343
▁virudhunagar	-11.343
▁sheath	-11.343
▁frame	-11.343
▁adaptability	-11.343
▁araria	-11.343
▁dimapur	-11.343
78.	-11.3431
▁protein	-11.3434
▁cross	-11.3436
▁close	-11.3437
▁active	-11.3441
▁portable	-11.3442
▁emergence	-11.3447
ts	-11.345
▁follows	-11.3453
flox	-11.3462
▁features	-11.3479
nt	-11.3489
▁lt	-11.3495
▁point	-11.3498
wo	-11.3527
▁adapt	-11.3533
=61.1	-11.3533
=89.5	-11.3533
=93.3	-11.3533
=95.9	-11.3533
▁Dissolv	-11.3533
▁lettuce	-11.3533
▁nagpur	-11.3533
▁adoption	-11.3534
▁hour	-11.3535
▁fertile	-11.3538
less	-11.3576
arka	-11.3578
▁gp	-11.3578
▁residues	-11.3588
)@	-11.3592
▁3.2	-11.3594
ow	-11.3599
▁marketing	-11.3603
▁loam	-11.3609
43.	-11.3609
▁uses	-11.3612
12.	-11.3617
ose	-11.3618
▁monitor	-11.3619
▁bana	-11.3624
▁76	-11.3626
▁infuse	-11.363
▁attract	-11.3637
=85.3	-11.3638
=85.7	-11.3638
=87.3	-11.3638
=90.4	-11.3638
=92.2	-11.3638
=92.7	-11.3638
=94.8	-11.3638
=95.3	-11.3638
▁bharuch	-11.3638
▁bodies	-11.3638
▁bulandshahr	-11.3638
▁dharmapuri	-11.3638
▁dhenkanal	-11.3638
▁ghazipur	-11.3638
▁hathras	-11.3638
▁integrity	-11.3638
▁muzaffarnagar	-11.3638
▁osmanabad	-11.3638
▁perambalur	-11.3638
▁ramanagara	-11.3638
▁tiruchirappalli	-11.3638
=8.1	-11.3638
▁dhule	-11.3638
▁jhansi	-11.3638
▁relative	-11.3638
▁difference	-11.3638
▁methane	-11.3638
▁datia	-11.3638
▁pune	-11.3638
▁baran	-11.3638
▁bankura	-11.3638
▁laying	-11.3639
▁harda	-11.3639
▁vidisha	-11.364
900	-11.364
▁boost	-11.3642
▁update	-11.3648
ile	-11.3654
▁repellent	-11.3654
▁suck	-11.3662
53.	-11.3663
8.0	-11.3681
udra	-11.3688
▁separate	-11.3696
▁rich	-11.3728
▁@50	-11.3737
▁extend	-11.374
=61.3	-11.3743
=74.5	-11.3743
=86.4	-11.3743
=91.9	-11.3743
=92.1	-11.3743
▁visual	-11.3743
▁pseudostem	-11.3743
▁speed	-11.3743
▁tissue	-11.3743
▁self	-11.3743
▁preferred	-11.3743
▁varity	-11.3744
▁vital	-11.3746
▁ostocalcium	-11.3757
576	-11.3767
▁aspects	-11.3767
▁3-5	-11.3769
▁cows	-11.3771
▁shed	-11.3775
▁adding	-11.3792
oc	-11.3798
▁quick	-11.3799
118	-11.3816
▁ram	-11.3817
▁plan	-11.3817
▁wt	-11.3827
▁enhanced	-11.3836
▁tetracyclin	-11.3845
=88.4	-11.3849
=94.1	-11.3849
=94.2	-11.3849
▁hanumangarh	-11.3849
▁jagatsinghapur	-11.3849
▁kheri	-11.3849
▁lodging	-11.3849
▁marigold	-11.3849
▁nayagarh	-11.3849
▁rajkot	-11.3849
▁recommanded	-11.3849
▁sangli	-11.3849
▁cough	-11.3849
▁utilization	-11.385
▁58	-11.385
▁direction	-11.385
=93.0	-11.3851
▁Monitor	-11.3851
▁79	-11.3868
▁7.	-11.3869
be	-11.3875
▁forest	-11.3891
oba	-11.3912
▁vessels	-11.3915
/30	-11.3921
ist	-11.394
hi	-11.3941
▁South	-11.3957
▁fusarium	-11.3957
▁kullu	-11.3957
▁timing	-11.3957
ehri	-11.3957
▁broad	-11.3957
▁setup	-11.3957
ga	-11.3963
▁shape	-11.3964
▁logging	-11.3968
▁king	-11.3973
200	-11.398
▁applications	-11.3987
446	-11.3996
784	-11.4018
mic	-11.4026
98	-11.4031
▁down	-11.4036
▁bhu	-11.4037
▁try	-11.4047
▁palm	-11.4057
▁stick	-11.4062
=60.3	-11.4066
=65.8	-11.4066
=88.7	-11.4066
=93.7	-11.4066
▁deltoides	-11.4066
▁dungarpur	-11.4066
▁jhalawar	-11.4066
▁karauli	-11.4066
▁prayag	-11.4066
▁rajsamand	-11.4066
▁ratlam	-11.4066
▁hasao	-11.4066
▁Sprinkler	-11.4066
▁gwalior	-11.4066
▁WP	-11.4066
▁pink	-11.4072
▁infestations	-11.4074
▁february	-11.4081
▁st	-11.4085
▁66.0	-11.4085
▁climates	-11.4089
45.	-11.4107
730	-11.4123
05.	-11.4139
▁q	-11.4141
2.5	-11.4144
▁eggplants	-11.4153
▁hopper	-11.4163
▁focus	-11.4167
▁success	-11.4175
=88.5	-11.4175
=92.9	-11.4175
▁Leaf	-11.4175
▁chirang	-11.4175
▁iron	-11.4176
▁Provide	-11.4176
▁rhizome	-11.4176
▁diba	-11.4176
=64.0	-11.4177
69.	-11.418
▁bipul	-11.418
▁mohaphol	-11.4181
▁syngenta	-11.4182
imur	-11.4183
48.	-11.4184
▁refer	-11.4187
=100.0	-11.4192
▁mono	-11.4194
750	-11.4195
▁ease	-11.4197
71	-11.4197
▁contribut	-11.4205
▁micronutrients	-11.4213
H	-11.4216
B	-11.4217
▁raise	-11.4244
▁ma	-11.4245
▁release	-11.4249
op	-11.4251
-100	-11.4251
598	-11.4255
▁concern	-11.4264
q	-11.4266
▁open	-11.427
abar	-11.428
498	-11.4282
▁detect	-11.4282
=70.6	-11.4287
=94.5	-11.4287
=95.8	-11.4287
▁banswara	-11.4287
▁bijnor	-11.4287
▁boudh	-11.4287
▁kachchh	-11.4287
▁kangra	-11.4287
▁kheda	-11.4287
▁nalanda	-11.4287
▁optimum	-11.4287
▁shimla	-11.4287
▁sitamarhi	-11.4287
▁unnao	-11.4287
▁varanasi	-11.4287
▁jalna	-11.4287
▁necrotic	-11.4287
▁sms	-11.4287
▁churu	-11.4287
▁august	-11.4293
▁repair	-11.4294
▁eligible	-11.4307
199	-11.4316
▁ft	-11.4326
226	-11.4337
vi	-11.4373
-78	-11.4373
year	-11.4381
▁const	-11.4387
296	-11.4387
▁report	-11.4396
▁Select	-11.4398
=66.8	-11.4399
=92.6	-11.4399
▁easily	-11.4399
▁Bacterial	-11.4399
▁wastage	-11.4399
▁Management	-11.4399
▁income	-11.4399
▁sikar	-11.4399
▁Rice	-11.4399
▁coverage	-11.44
▁leg	-11.4407
84.	-11.441
▁recovery	-11.4412
▁dursban	-11.4413
▁arize	-11.4414
▁amounts	-11.4415
▁thoroughly	-11.4427
▁3.3	-11.4445
ru	-11.4449
rip	-11.4451
▁muri	-11.4451
das	-11.4456
▁rapid	-11.4459
23.	-11.4475
▁facilitat	-11.4478
792	-11.4483
4000.0	-11.4485
▁metro	-11.4491
▁spreading	-11.4504
276	-11.4508
habua	-11.4512
=89.4	-11.4513
=91.5	-11.4513
▁auraiya	-11.4513
▁broccoli	-11.4513
▁corrosion	-11.4513
▁darbhanga	-11.4513
▁etawah	-11.4513
▁gopalganj	-11.4513
▁maharajganj	-11.4513
▁mainpuri	-11.4513
▁meerut	-11.4513
▁nalgonda	-11.4513
▁pudukkottai	-11.4513
▁subansiri	-11.4513
=61.5	-11.4513
▁fmd	-11.4513
▁scientific	-11.4513
▁movement	-11.4513
▁comprehensive	-11.4513
483	-11.4513
▁fully	-11.4513
968	-11.4521
▁rat	-11.4531
uch	-11.4531
T	-11.4537
▁banka	-11.454
▁soft	-11.4543
ata	-11.4544
55.	-11.4546
oom	-11.4546
oct	-11.4547
▁pod	-11.4548
effective	-11.4558
619	-11.4582
▁apr	-11.4585
▁96	-11.4602
360	-11.4609
alathion	-11.4622
▁inspect	-11.4627
=94.4	-11.4627
▁enemies	-11.4627
▁foliage	-11.4627
▁kashi	-11.4627
▁nuvacron	-11.4627
▁sector	-11.4628
▁sidd	-11.4628
440	-11.4628
▁were	-11.4628
em	-11.4632
▁continue	-11.4633
▁anand	-11.4634
▁cement	-11.464
220	-11.4653
▁51.0	-11.4654
▁channels	-11.4657
997	-11.4663
505	-11.4665
▁j	-11.4666
▁fill	-11.4722
▁remains	-11.473
032	-11.474
▁person	-11.4742
=74.1	-11.4744
▁amravati	-11.4744
▁jabalpur	-11.4744
▁kathua	-11.4744
▁lalitpur	-11.4744
▁shajapur	-11.4744
▁urine	-11.4744
▁vellore	-11.4744
=62.5	-11.4744
▁bargarh	-11.4744
▁group	-11.4744
▁Africa	-11.4744
▁saran	-11.4744
275	-11.4744
▁pole	-11.4745
▁toria	-11.4745
▁perform	-11.4745
▁bitterness	-11.4745
▁gape	-11.4749
▁puri	-11.4752
148	-11.476
166	-11.4765
ior	-11.4777
elief	-11.4784
▁efforts	-11.4785
▁hot	-11.4786
rogor	-11.4792
march	-11.4792
67.	-11.4796
▁ready	-11.4799
ram	-11.4802
797	-11.4804
423	-11.4809
150	-11.4817
sed	-11.4818
▁practic	-11.4822
,000	-11.4824
lo	-11.4847
▁tropical	-11.4861
▁intercropping	-11.4861
▁exposure	-11.4861
▁knowledge	-11.4862
▁panama	-11.4862
▁college	-11.4864
▁suspected	-11.4864
▁slope	-11.4866
▁deworming	-11.4867
▁simple	-11.4875
298	-11.489
multiplex	-11.4911
,3	-11.4915
▁87	-11.4922
▁global	-11.4927
▁pass	-11.4943
▁54.0	-11.4967
▁49.0	-11.4974
52.	-11.4975
▁link	-11.4977
▁transport	-11.498
-1,	-11.498
▁megha	-11.498
=63.4	-11.498
=92.4	-11.498
▁ghaziabad	-11.498
▁moradabad	-11.498
▁shahdol	-11.498
▁surendranagar	-11.498
▁tuensang	-11.498
▁yavatmal	-11.498
▁facility	-11.498
▁little	-11.498
▁transmitter	-11.498
▁wokha	-11.498
▁guidelines	-11.4981
▁uniformity	-11.4981
▁container	-11.4981
▁mouth	-11.4984
▁guna	-11.4991
▁62.0	-11.4999
▁stand	-11.4999
▁introduced	-11.5003
▁mulching	-11.5004
▁mililitre	-11.5008
▁br	-11.5008
sa	-11.5012
tightness	-11.5031
og	-11.5033
▁cracks	-11.5042
▁350	-11.5051
▁suppress	-11.5053
369	-11.506
▁oct	-11.5063
02.	-11.5065
37.	-11.5074
32.	-11.5077
14.	-11.509
285714285714285	-11.5098
▁reach	-11.5101
=91.7	-11.5101
=93.5	-11.5101
▁insemination	-11.5101
▁synthetic	-11.5101
▁human	-11.5101
▁conventional	-11.5101
▁Seed	-11.5105
▁58.0	-11.5107
ee	-11.5125
79.	-11.513
ali	-11.5136
▁balanced	-11.5143
ena	-11.515
tracel	-11.5154
016	-11.5158
▁90.0	-11.5159
417	-11.516
R	-11.5162
planting	-11.5168
▁dense	-11.5169
▁balance	-11.5183
▁Harvest	-11.5204
733	-11.5207
▁mint	-11.5211
▁82	-11.5211
▁construct	-11.5219
▁obtain	-11.522
▁percent	-11.5223
▁collar	-11.5223
▁gandhinagar	-11.5223
▁mukta	-11.5223
▁nandurbar	-11.5223
▁sivaganga	-11.5223
▁succin	-11.5223
▁thiruvallur	-11.5223
▁umaria	-11.5223
▁bearing	-11.5223
▁nanded	-11.5223
▁spring	-11.5223
▁inspection	-11.5224
▁setting	-11.5225
gricultural	-11.5231
▁Fertilizer	-11.5231
157	-11.5234
▁regional	-11.5234
▁mt	-11.5239
47.	-11.5243
021	-11.5245
017	-11.5246
unny	-11.5253
303	-11.5255
so	-11.5264
ging	-11.5286
▁whe	-11.5299
449	-11.5308
▁jaunpur	-11.5311
979	-11.532
399	-11.5327
▁sheet	-11.5328
74.	-11.5328
▁turn	-11.533
▁73	-11.5334
59.	-11.534
▁procurement	-11.5346
▁together	-11.5346
ascular	-11.5347
▁six	-11.5347
▁mentioned	-11.5347
▁useful	-11.5349
▁corn	-11.5354
▁dig	-11.5357
▁Yes	-11.5358
▁94	-11.5366
after	-11.5368
▁56.0	-11.5368
490	-11.5372
584	-11.5373
▁processing	-11.538
▁few	-11.538
03.	-11.538
▁khol	-11.5385
184	-11.5394
879	-11.5394
gun	-11.5399
344	-11.5401
streptomycin	-11.5402
▁93	-11.5402
half	-11.5404
92.	-11.5408
▁orchards	-11.5409
▁pressures	-11.541
▁efficiently	-11.541
299	-11.5411
874	-11.5412
967	-11.5423
▁u	-11.543
393	-11.5431
04	-11.5431
/200	-11.5436
▁Rs	-11.5447
▁chillis	-11.5451
secondary	-11.5453
ari	-11.5454
▁ba	-11.546
782	-11.5465
▁ahmadabad	-11.5471
▁dilute	-11.5471
▁dindori	-11.5471
▁kandhamal	-11.5471
▁mathura	-11.5471
▁micronuitri	-11.5471
▁pension	-11.5471
▁recent	-11.5471
▁thanjavur	-11.5471
▁university	-11.5471
▁amreli	-11.5471
▁chandrapur	-11.5471
▁overflow	-11.5472
▁aplly	-11.5472
77.	-11.5473
▁upto	-11.5475
031	-11.5475
▁processes	-11.5477
▁6444	-11.5484
▁cultivars	-11.5486
dhan	-11.5491
era	-11.5492
▁61.0	-11.5493
996	-11.5494
▁leaks	-11.5497
▁step	-11.5497
mantri	-11.5501
250	-11.5502
▁face	-11.5505
▁protected	-11.5513
▁hexaconazole	-11.5522
▁insecticides	-11.5524
jacket	-11.5527
line	-11.5534
efore	-11.5536
316	-11.5538
bima	-11.5542
I	-11.5547
aflon	-11.5549
180	-11.5551
54.	-11.557
▁63.0	-11.5571
▁weak	-11.5585
pro	-11.5585
▁solutions	-11.5593
209	-11.5595
▁Common	-11.5598
▁lifespan	-11.5598
▁molasses	-11.5598
▁debility	-11.5598
▁correction	-11.5599
▁evaluate	-11.5602
▁ravi	-11.5603
land	-11.5609
▁transplantation	-11.5609
2000.0	-11.5632
ola	-11.5639
▁loans	-11.5644
ill	-11.5652
scale	-11.5656
▁Re	-11.5664
473	-11.5699
998	-11.57
▁color	-11.5711
▁animals	-11.5722
=8.2	-11.5726
▁With	-11.5726
▁amroha	-11.5726
▁bhoi	-11.5726
▁buxar	-11.5726
▁choice	-11.5726
▁deogarh	-11.5726
▁haridwar	-11.5726
▁howrah	-11.5726
▁nabarangpur	-11.5726
▁science	-11.5726
▁sheopur	-11.5726
▁udupi	-11.5726
eroga	-11.5726
▁rampur	-11.5726
▁just	-11.5726
utam	-11.5726
▁1/3	-11.5735
922	-11.574
▁observed	-11.5752
▁inter	-11.5752
125	-11.5754
875	-11.5755
F	-11.5756
▁solan	-11.5757
▁mud	-11.5765
000	-11.5772
oo	-11.5775
▁0.40	-11.5777
ted	-11.5779
▁inactive	-11.5781
biovita	-11.5785
borne	-11.5786
286	-11.5795
ect	-11.5799
yard	-11.5806
-18	-11.5809
878	-11.5818
▁keeping	-11.582
-22	-11.5823
inza	-11.583
107	-11.583
ial	-11.5839
63.	-11.5846
ative	-11.5846
338	-11.585
▁requir	-11.5852
▁vegetati	-11.5856
▁moderate	-11.5856
▁portal	-11.5856
dap	-11.5856
▁chamba	-11.5856
▁lady	-11.5856
▁monsoon	-11.5856
▁output	-11.5856
▁da	-11.5862
▁project	-11.5863
▁installation	-11.5864
904	-11.5864
▁streptocycline	-11.5864
▁agro	-11.5869
▁po	-11.5875
027	-11.5882
999	-11.5884
▁buddh	-11.5886
163	-11.5914
040	-11.5915
▁uniformly	-11.5919
▁periods	-11.5925
▁das	-11.593
▁bag	-11.5931
426	-11.5941
off	-11.5959
▁savings	-11.5966
▁0.45	-11.5968
ated	-11.5969
429	-11.597
pur	-11.5971
57.	-11.5972
▁tra	-11.5972
oshan	-11.5975
▁bags	-11.5978
▁72.0	-11.5981
▁dept	-11.5983
190	-11.5985
▁69.0	-11.5986
▁System	-11.5988
▁baleshwar	-11.5988
▁chikballapur	-11.5988
▁drilling	-11.5988
▁facilities	-11.5988
▁indore	-11.5988
▁jamui	-11.5988
▁munger	-11.5988
▁relevant	-11.5988
▁sheikhpura	-11.5988
▁subsequent	-11.5988
▁desired	-11.5988
▁opportunities	-11.5988
899	-11.5988
-2020	-11.599
▁topdressing	-11.6001
▁vit	-11.6006
▁ducklings	-11.6028
▁2.9	-11.6045
554	-11.6061
876	-11.6064
ery	-11.6067
683	-11.6079
898	-11.6085
▁aau	-11.6095
iv	-11.6098
oku	-11.6108
ized	-11.611
▁put	-11.6113
▁86	-11.6116
iogas	-11.6119
▁multiple	-11.6121
▁miligram	-11.6121
▁squash	-11.6121
▁diammonium	-11.6121
▁formalin	-11.6121
▁constructed	-11.6124
▁apple	-11.6125
780	-11.6127
▁kahikuchi	-11.6131
▁ploughing	-11.6132
▁thrive	-11.6134
▁sird	-11.6135
▁harm	-11.6137
73.	-11.6137
225	-11.6139
ara	-11.6139
▁limited	-11.6141
524	-11.6143
▁84	-11.6145
▁0.52	-11.6152
768	-11.6159
89.	-11.6163
644	-11.6171
470	-11.6176
398	-11.6183
▁texture	-11.6185
▁la	-11.6217
▁trap	-11.6223
ere	-11.6234
974	-11.6236
ct	-11.6238
857142857142857	-11.624
we	-11.6252
558	-11.6254
▁anuppur	-11.6256
▁balangir	-11.6256
▁gadchiroli	-11.6256
▁kameng	-11.6256
▁kodagu	-11.6256
▁minimal	-11.6256
▁premium	-11.6256
▁professional	-11.6256
▁saharanpur	-11.6256
▁deposit	-11.6256
▁mobile	-11.6256
▁vector	-11.6256
▁Farmers	-11.6256
▁greenhouse	-11.6256
▁collection	-11.6258
ox	-11.6262
▁road	-11.627
39.	-11.6273
▁added	-11.6278
472	-11.6279
154	-11.6286
616	-11.6295
826	-11.6304
ious	-11.6306
798	-11.6317
▁tri	-11.6322
▁programs	-11.6329
ach	-11.6349
057	-11.6352
anta	-11.6357
140	-11.6362
527	-11.6363
274	-11.6369
mi	-11.6376
▁ws	-11.6379
▁poly	-11.6381
66.	-11.6382
▁move	-11.6383
▁57.0	-11.6387
▁great	-11.6391
ymptoms	-11.6392
▁coffee	-11.6393
▁industries	-11.6393
▁pigeon	-11.6393
▁stunted	-11.6394
▁frequency	-11.6394
▁housing	-11.6407
▁example	-11.6407
491	-11.6413
▁beam	-11.6418
667	-11.6423
565	-11.6423
▁cases	-11.6439
▁8.	-11.6442
▁lines	-11.6454
▁mi	-11.6459
205	-11.6459
▁bar	-11.6461
62.	-11.647
110	-11.6474
▁160	-11.6476
▁2.75	-11.6476
182	-11.6477
11.	-11.6486
695	-11.6497
698	-11.6502
seed	-11.6505
▁Co	-11.6509
▁71.0	-11.6513
▁pits	-11.6514
▁68.0	-11.6514
204	-11.6517
-19	-11.652
▁composting	-11.653
▁advance	-11.6532
▁average	-11.6532
▁bageshwar	-11.6532
▁bhiwani	-11.6532
▁bottom	-11.6532
▁context	-11.6532
▁idukki	-11.6532
▁jalore	-11.6532
▁jodhpur	-11.6532
▁kolasib	-11.6532
▁mandsaur	-11.6532
▁patan	-11.6532
▁sirsa	-11.6532
▁thrissur	-11.6532
▁ultimately	-11.6532
▁valsad	-11.6532
▁valuable	-11.6532
▁flexibility	-11.6532
377	-11.6532
▁machinery	-11.6532
▁employment	-11.6532
▁arise	-11.6532
▁Make	-11.6533
▁advantageous	-11.6533
▁anistamin	-11.6535
ot	-11.6539
▁75.0	-11.654
▁filled	-11.6541
▁fine	-11.6545
727272727272727	-11.6546
892	-11.656
058	-11.6568
▁pin	-11.6577
sh	-11.6582
13.	-11.6586
ea	-11.6588
008	-11.6602
▁guns	-11.6604
42.	-11.6606
447	-11.6613
pical	-11.6621
ax	-11.6627
▁bu	-11.663
▁1-2	-11.6639
ana	-11.6639
-27	-11.6652
973	-11.6656
ue	-11.6658
272	-11.6658
▁four	-11.6672
▁fluctuations	-11.6673
▁industry	-11.6673
▁insightful	-11.6673
▁longevity	-11.6673
▁Research	-11.6673
▁resilience	-11.6673
▁swine	-11.6673
▁dipped	-11.6673
▁square	-11.6673
▁Time	-11.6673
▁since	-11.6673
990	-11.6674
▁Sowing	-11.6675
007	-11.6676
▁quintle	-11.6679
ake	-11.6681
321	-11.6681
▁december	-11.6683
886	-11.6689
▁failure	-11.6691
309	-11.6691
▁kw	-11.6692
▁adjustments	-11.6705
▁described	-11.671
▁coat	-11.6719
cal	-11.6721
gold	-11.6724
625.	-11.6725
693	-11.6731
378	-11.6731
976	-11.6735
▁approaching	-11.6737
17.	-11.6739
103	-11.674
712	-11.6741
▁cap	-11.6742
▁una	-11.6744
389	-11.6746
kufri	-11.6746
sp	-11.6746
244	-11.6749
623	-11.6749
248	-11.6752
▁cankers	-11.6759
557	-11.6764
@4	-11.677
▁0.55	-11.6773
169	-11.6775
893	-11.6777
▁fe	-11.6779
867	-11.679
265	-11.6791
72.	-11.6792
▁dosages	-11.6794
▁reg	-11.6796
988	-11.6798
597	-11.6803
889	-11.6806
297	-11.6813
▁serious	-11.6816
=8.4	-11.6816
▁biodiversity	-11.6816
▁chamoli	-11.6816
▁lameness	-11.6816
▁patches	-11.6816
▁respiratory	-11.6816
▁barmer	-11.6816
▁ridgegourd	-11.6816
▁bunch	-11.6816
812	-11.6818
▁1:1	-11.6823
▁76.0	-11.6827
▁parasitic	-11.6827
▁Un	-11.683
▁kept	-11.683
866	-11.6832
120	-11.6832
▁fishes	-11.6833
▁oxy	-11.6834
▁degree	-11.6837
883	-11.684
494	-11.6842
823	-11.6847
795	-11.686
804	-11.6866
168	-11.687
2-3	-11.6871
cin	-11.6887
295	-11.689
ettaka	-11.689
386	-11.6903
963	-11.6905
▁units	-11.6911
In	-11.6914
104	-11.6914
▁0.35	-11.6921
▁midd	-11.6922
984	-11.6925
▁sig	-11.6929
▁aim	-11.693
eb	-11.6932
937	-11.6933
35.	-11.6934
▁eggs	-11.6935
ki	-11.6937
567	-11.6942
▁sugar	-11.6945
324	-11.6954
rganic	-11.6955
685	-11.6956
pe	-11.6957
434	-11.6959
▁devices	-11.6961
▁guidance	-11.6961
▁particles	-11.6961
▁responsible	-11.6961
▁susceptible	-11.6961
▁wrong	-11.6961
▁yojna	-11.6961
▁relationship	-11.6961
▁difficult	-11.6961
167	-11.6961
▁approximately	-11.6967
▁village	-11.697
io	-11.6977
114	-11.6977
▁board	-11.698
▁fermentation	-11.6982
51.	-11.6982
▁night	-11.6982
231	-11.6985
112	-11.6986
▁run	-11.6986
▁20-30	-11.699
707	-11.6994
▁saving	-11.6997
▁scar	-11.7002
tre	-11.7018
▁Control	-11.7032
227	-11.7039
258	-11.7039
571428571428571	-11.7043
▁700	-11.7045
▁eat	-11.7061
465	-11.7067
▁paints	-11.7068
85.	-11.7069
ded	-11.7071
phos	-11.7082
536	-11.7086
▁85.0	-11.7091
946	-11.7096
009	-11.7105
428571428571428	-11.7107
▁anamika	-11.7108
▁Fertilization	-11.7108
▁akola	-11.7108
▁algae	-11.7108
▁approval	-11.7108
▁burhanpur	-11.7108
▁cardamom	-11.7108
▁chandel	-11.7108
▁diverse	-11.7108
▁female	-11.7108
▁hazaribagh	-11.7108
▁narmada	-11.7108
▁palakkad	-11.7108
▁singhbum	-11.7108
▁swarming	-11.7108
▁combination	-11.7108
▁kendrapara	-11.7108
▁neemuch	-11.7109
▁security	-11.7112
com	-11.7114
@3	-11.7114
▁0.67	-11.7126
677	-11.7129
▁technique	-11.7135
028	-11.714
509	-11.714
▁harvested	-11.7141
▁saplings	-11.7142
196	-11.7152
832	-11.7155
224	-11.7156
947	-11.7159
939	-11.7159
▁850	-11.7162
368	-11.7169
▁cal	-11.7169
▁considerations	-11.7169
493	-11.7179
▁colour	-11.7183
849	-11.7188
do	-11.719
978	-11.7193
532	-11.7198
▁conduct	-11.7199
340	-11.7201
880	-11.7215
▁There	-11.7216
▁layers	-11.7223
▁ex	-11.7242
▁0.78	-11.7247
▁Effective	-11.7249
▁act	-11.7251
▁target	-11.7254
▁knife	-11.7257
▁streak	-11.7257
▁elevation	-11.7257
▁trichoderma	-11.7257
▁ibd	-11.7257
▁bottlegourd	-11.7257
251	-11.7258
▁code	-11.7258
▁submit	-11.7259
▁nath	-11.726
▁later	-11.7264
▁tafgor	-11.7268
▁li	-11.7272
▁building	-11.7277
▁delivery	-11.728
▁weedicide	-11.7284
014	-11.7302
9000.0	-11.7303
497	-11.7306
▁88	-11.7315
▁metal	-11.7316
528	-11.7317
651	-11.7331
▁saw	-11.7333
694	-11.7345
111	-11.7346
012	-11.7347
183	-11.7354
191	-11.7359
fer	-11.7365
▁0.43	-11.7366
06.	-11.7375
@200	-11.738
▁damaged	-11.7384
788	-11.739
355	-11.7392
▁eki	-11.7394
724	-11.7396
635	-11.7398
538	-11.7399
▁splits	-11.7401
▁anorexia	-11.7408
▁baghpat	-11.7408
▁lavender	-11.7408
▁piggery	-11.7408
▁tapi	-11.7408
▁extensive	-11.7408
▁spike	-11.7408
▁lucidum	-11.7408
▁carry	-11.7408
▁khaki	-11.7408
▁bloat	-11.7408
▁defoliation	-11.7408
▁community	-11.7409
▁underground	-11.7409
▁meat	-11.7409
▁hi	-11.741
▁eus	-11.7412
▁gently	-11.7412
962	-11.7418
hu	-11.7422
▁ventilated	-11.7422
▁sap	-11.7425
▁soaking	-11.7425
▁1500	-11.7426
▁joint	-11.7438
649	-11.744
▁forests	-11.7441
189	-11.7448
▁suggestion	-11.7451
176	-11.7457
38.	-11.7462
257	-11.7464
291	-11.7469
▁precautions	-11.7479
▁101.0	-11.7481
zi	-11.7486
330	-11.7492
▁drain	-11.7505
302	-11.7507
835	-11.7507
850	-11.7512
▁1200	-11.7513
back	-11.7515
58.	-11.7518
940	-11.752
▁tubers	-11.7533
ance	-11.7541
ization	-11.7544
152	-11.7545
476	-11.7547
que	-11.7553
109	-11.7557
▁inspections	-11.7562
▁popular	-11.7562
▁correspond	-11.7562
▁dolich	-11.7562
▁hygiene	-11.7562
▁premature	-11.7562
▁rigid	-11.7562
▁routine	-11.7562
▁bloom	-11.7562
▁paper	-11.7563
▁prior	-11.7563
▁master	-11.7563
▁cercospor	-11.7564
684	-11.7566
▁vlew	-11.7569
357	-11.7569
▁bazar	-11.757
▁25-30	-11.7572
692	-11.7572
121	-11.7573
260	-11.7573
▁0.48	-11.7574
▁book	-11.7575
▁soybean	-11.7576
652	-11.7577
▁numbers	-11.7579
▁113	-11.758
950	-11.7586
ll	-11.7587
135	-11.7588
27.	-11.7589
ese	-11.7596
▁lateral	-11.7598
ium	-11.76
▁parasite	-11.7604
332	-11.7604
333	-11.7609
709	-11.7612
▁U	-11.7613
▁medium	-11.7613
106	-11.7617
49.	-11.7622
pa	-11.7622
294	-11.7623
773	-11.7623
▁solids	-11.7625
155	-11.7635
212	-11.7635
023	-11.7639
▁online	-11.7643
ib	-11.7647
shallow	-11.7648
tra	-11.7648
ping	-11.765
▁0.85	-11.7651
▁era	-11.7652
▁105	-11.7657
108	-11.7657
445	-11.7659
▁immediate	-11.7666
▁drops	-11.767
282	-11.7674
▁67.0	-11.7675
▁handle	-11.7677
01.	-11.7678
▁achieved	-11.7687
▁national	-11.7689
▁0.84	-11.7702
925	-11.7702
705	-11.7708
115	-11.7708
679	-11.771
703	-11.7713
▁shoots	-11.7715
175	-11.7715
--------------	-11.7718
▁jack	-11.7718
▁advisable	-11.7718
▁colocasia	-11.7718
▁floraboost	-11.7718
▁jhajjar	-11.7718
▁jharsuguda	-11.7718
▁kasaragod	-11.7718
▁kollam	-11.7718
▁malkangiri	-11.7718
▁pathanamthitta	-11.7718
▁pepsid	-11.7718
▁proportion	-11.7718
▁serve	-11.7718
▁ranchi	-11.7718
▁275	-11.7723
▁0.80	-11.7725
▁indian	-11.7727
882	-11.7727
▁washim	-11.7728
▁feb	-11.7736
572	-11.7739
026	-11.7744
387	-11.7752
131	-11.7752
▁services	-11.7754
▁Disease	-11.7754
▁tip	-11.7755
▁burning	-11.7757
ft	-11.7766
594	-11.7781
774	-11.7781
217	-11.7786
ke	-11.7792
▁changes	-11.7795
ik	-11.78
▁77.0	-11.7801
313	-11.7805
indofil	-11.7808
743	-11.7808
678	-11.781
846	-11.7812
173	-11.7825
-40	-11.7826
239	-11.7837
206	-11.7842
82.	-11.7849
280	-11.7852
203	-11.7853
ora	-11.7857
▁alternat	-11.7863
870	-11.7872
▁cool	-11.7876
▁Cassava	-11.7877
▁doctor	-11.7877
▁imidacloprid	-11.7877
▁gurgaon	-11.7877
▁pradhan	-11.7877
▁ifsc	-11.7877
▁Here	-11.7878
▁current	-11.7878
▁surrounding	-11.7879
777	-11.7879
▁dual	-11.788
▁6-7	-11.788
▁Pay	-11.7881
▁divide	-11.7881
▁0.91	-11.7882
▁decomposed	-11.7886
all	-11.7886
▁enrox	-11.7887
▁injuries	-11.7892
▁developed	-11.7893
▁vines	-11.7893
954	-11.7896
▁61	-11.7911
▁piece	-11.7914
▁habitat	-11.7915
@5	-11.7919
796	-11.7923
848	-11.7931
1.8	-11.7939
▁fo	-11.7939
▁steril	-11.7946
▁Root	-11.7956
424	-11.7956
715	-11.796
▁5.5	-11.7964
610	-11.7967
visit	-11.7971
▁structures	-11.7982
▁produced	-11.7992
629	-11.7995
139	-11.7997
▁pai	-11.8001
▁substrates	-11.8002
▁mo	-11.803
13	-11.803
▁89	-11.8031
▁horticultur	-11.8035
270	-11.8038
▁hemispheric	-11.8038
▁ashoknagar	-11.8038
▁bulletin	-11.8038
▁molases	-11.8038
=8.3	-11.8038
▁surajpur	-11.8038
▁dohad	-11.8039
▁circulation	-11.8039
▁rejected	-11.8039
▁insulation	-11.8039
▁hinder	-11.804
▁Ensure	-11.8042
▁absorb	-11.8042
▁stands	-11.8043
▁cloudy	-11.8044
▁sh	-11.8048
▁Can	-11.8048
266	-11.8053
▁sos	-11.8056
15.	-11.8056
323	-11.8057
615	-11.8058
tr	-11.8058
▁dimecron	-11.8062
▁pott	-11.8063
▁checked	-11.8064
ting	-11.8075
165	-11.8076
▁bas	-11.8076
666	-11.8077
540	-11.8077
wi	-11.809
801	-11.8097
907	-11.8101
717	-11.8104
-2.5	-11.8106
mid	-11.8107
689	-11.8113
760	-11.8117
-750	-11.8119
▁3.1	-11.8119
▁103	-11.8125
522	-11.813
789	-11.8131
Y	-11.8131
ready	-11.8132
ok	-11.8135
▁0.30	-11.8138
ira	-11.814
▁0.86	-11.8148
▁mar	-11.8153
▁0.76	-11.8164
▁le	-11.8166
185	-11.8169
▁involve	-11.817
560	-11.8174
▁0.65	-11.8175
▁meal	-11.8186
986	-11.8186
rob	-11.8193
056	-11.8194
19.	-11.8194
▁81.0	-11.82
▁loose	-11.8201
ran	-11.8201
▁bhind	-11.8201
▁ragor	-11.8202
▁Fungal	-11.8202
▁Pradesh	-11.8202
▁exhibit	-11.8202
▁fodder	-11.8202
▁institute	-11.8202
▁situation	-11.8202
▁discoloration	-11.8202
▁sulfate	-11.8203
▁fruitfly	-11.8203
350	-11.8203
▁giv	-11.8205
mo	-11.8205
▁roller	-11.8205
▁male	-11.8206
▁hisar	-11.8206
▁92.0	-11.8209
454	-11.821
▁grains	-11.8218
▁glass	-11.8223
▁112	-11.8235
704	-11.824
▁77	-11.824
▁location	-11.8244
▁length	-11.8253
▁dec	-11.8257
▁paint	-11.8261
win	-11.8263
fen	-11.8264
646	-11.8265
▁apart	-11.8266
▁piglets	-11.8266
590	-11.8269
915	-11.8272
407	-11.8276
▁pigs	-11.8277
ob	-11.8284
pr	-11.8298
bavistin	-11.8299
▁inputs	-11.83
▁74	-11.8302
779	-11.8303
22.	-11.8303
456	-11.8317
929	-11.8317
116	-11.8333
▁vi	-11.8334
ating	-11.8334
739	-11.8338
▁blue	-11.8346
▁don	-11.8347
▁traps	-11.8351
306	-11.8356
047	-11.8357
438	-11.836
038	-11.8361
992	-11.8364
▁garhwa	-11.8364
=106.5	-11.8369
▁Stem	-11.8369
▁alappuzha	-11.8369
▁fatehabad	-11.8369
▁kurukshetra	-11.8369
▁lohardaga	-11.8369
▁nagapattinam	-11.8369
▁oxysporum	-11.8369
▁rohtas	-11.8369
▁pulp	-11.8369
▁widespread	-11.8369
▁hairy	-11.8369
▁scraper	-11.837
▁irrigating	-11.8372
▁sulcoprim	-11.8372
▁soon	-11.8373
827	-11.8374
recision	-11.8381
208	-11.8382
lime	-11.8383
036	-11.8386
tu	-11.8387
170	-11.8392
881	-11.8395
216	-11.8397
495	-11.8399
855	-11.84
▁Populus	-11.8401
193	-11.8412
@12	-11.8419
▁sides	-11.8421
▁thane	-11.8423
96.	-11.8425
419	-11.8428
man	-11.8432
147	-11.8436
▁hard	-11.8438
▁pu	-11.844
/1	-11.844
ug	-11.8443
603	-11.8448
old	-11.8459
714	-11.8462
720	-11.8462
worm	-11.8468
blitox	-11.8469
042	-11.8473
ame	-11.8475
269	-11.8476
005	-11.8479
▁ki	-11.848
851	-11.848
159	-11.8482
▁0.37	-11.8484
▁Do	-11.8485
122	-11.8488
▁73.0	-11.8491
▁Diseases	-11.85
▁140	-11.8504
07.	-11.8507
001	-11.8508
957	-11.851
160	-11.8525
▁achiev	-11.853
463	-11.8531
▁0.60	-11.8536
▁afanil	-11.8539
▁composite	-11.8539
▁delhi	-11.8539
▁mascularly	-11.8539
▁website	-11.8539
▁heavi	-11.8539
▁earthworm	-11.8539
▁95.0	-11.8541
935	-11.8542
▁manually	-11.8545
▁agents	-11.8546
240	-11.8546
138	-11.8546
938	-11.8546
▁spouse	-11.8548
793	-11.855
123	-11.8553
969	-11.8558
han	-11.856
▁ng	-11.8562
▁115	-11.8571
450	-11.8572
▁gum	-11.8577
134	-11.8577
153	-11.8578
▁0.49	-11.8581
086	-11.8594
933	-11.8599
▁offering	-11.8601
019	-11.8603
▁occurs	-11.8608
145	-11.8609
ian	-11.8617
▁102	-11.8628
214	-11.8629
november	-11.8641
181	-11.8649
▁sl	-11.8653
▁pumps	-11.8656
133	-11.866
▁surfaces	-11.866
650	-11.8662
156	-11.8666
ust	-11.8666
132	-11.867
87.	-11.8675
578	-11.868
894	-11.8687
170.0	-11.8691
▁mode	-11.8706
fi	-11.8706
=103.7	-11.8711
=109.4	-11.8711
▁CAMARTEC	-11.8711
▁bemetara	-11.8711
▁contrast	-11.8711
▁entry	-11.8711
▁folder	-11.8711
▁gariyaband	-11.8711
▁germs	-11.8711
▁incidence	-11.8711
▁jaisalmer	-11.8711
▁kozhikode	-11.8711
▁lunglei	-11.8711
▁nilgiris	-11.8711
▁preperation	-11.8711
▁senapati	-11.8711
▁tiruppur	-11.8711
▁udhampur	-11.8711
▁prevail	-11.8711
▁prune	-11.8711
▁outbreaks	-11.8711
▁percentage	-11.8711
alway	-11.8711
487	-11.8711
▁vigorous	-11.8712
▁discovered	-11.8712
▁greater	-11.8713
▁solani	-11.8713
=9.0	-11.8718
▁rd	-11.8721
▁ganoderma	-11.8723
484	-11.8726
738	-11.8732
▁ganga	-11.8739
▁133	-11.874
▁cloth	-11.8744
▁0.70	-11.8751
▁.5	-11.8751
▁pattern	-11.8762
▁image	-11.8763
▁improvement	-11.8767
▁pride	-11.8769
▁bee	-11.877
290	-11.8774
▁0.93	-11.8776
869	-11.8789
▁0.38	-11.8794
351	-11.8795
568	-11.8802
228	-11.8806
▁99	-11.8811
▁visib	-11.8816
hexaconazole	-11.8816
pressure	-11.8817
579	-11.8818
ful	-11.8818
▁0.73	-11.8818
375.	-11.883
46.	-11.8837
593	-11.8837
▁88.0	-11.8839
mix	-11.8848
dry	-11.8856
83.	-11.8863
▁butt	-11.8865
▁inside	-11.8869
991	-11.8872
▁bite	-11.888
▁5000.0	-11.8882
▁subsidi	-11.8885
▁disrupt	-11.8886
▁employ	-11.8886
▁absorption	-11.8886
▁karnal	-11.8886
▁polythene	-11.8886
▁salinity	-11.8886
▁vipul	-11.8886
▁quinalphos	-11.8886
▁seedbed	-11.8886
▁whitefly	-11.8886
▁functionality	-11.8886
▁sugget	-11.8887
▁discharge	-11.8887
▁pox	-11.8888
897	-11.8893
amycin	-11.8897
▁avil	-11.8898
263	-11.89
▁ber	-11.8901
015	-11.8905
▁forestry	-11.8905
918	-11.8909
772	-11.891
ton	-11.8911
337	-11.8911
▁97	-11.8913
▁encourage	-11.8921
▁im	-11.8928
151	-11.8932
▁soak	-11.8935
586	-11.8936
613	-11.8937
▁plot	-11.8942
▁experts	-11.8942
▁94.0	-11.8948
039	-11.8953
▁cum	-11.8955
▁11.	-11.8964
413	-11.8988
718	-11.8991
▁term	-11.8995
guide	-11.8995
011	-11.9005
▁slow	-11.9011
142	-11.9012
sobo	-11.9016
ice	-11.9022
146	-11.9027
▁action	-11.9028
825	-11.9042
▁utiliz	-11.9042
665	-11.9046
09.	-11.9048
088	-11.9056
▁Micro	-11.9062
▁differ	-11.9064
▁flexib	-11.9065
=101.4	-11.9065
=109.1	-11.9065
=111.7	-11.9065
=118.1	-11.9065
▁Agriculture	-11.9065
▁America	-11.9065
▁arwal	-11.9065
▁bhavnagar	-11.9065
▁chandan	-11.9065
▁ernakulam	-11.9065
▁gondia	-11.9065
▁intensity	-11.9065
▁kalita	-11.9065
▁kiphire	-11.9065
▁radiation	-11.9065
▁sonipat	-11.9065
▁spoon	-11.9065
▁tamenglong	-11.9065
▁thiruvarur	-11.9065
▁ustaad	-11.9065
▁wayanad	-11.9065
▁yamunanagar	-11.9065
▁coordinator	-11.9065
▁feroliv	-11.9065
▁palamu	-11.9065
▁blood	-11.9065
▁foster	-11.9065
▁carbofuran	-11.9065
▁saff	-11.9065
▁outside	-11.9066
▁baloda	-11.9066
▁methyl	-11.9066
▁30-40	-11.9069
▁8-10	-11.9071
▁Rogor	-11.9072
▁adjusted	-11.9076
▁sukr	-11.9076
▁grade	-11.9076
838	-11.9077
▁ekalux	-11.9077
86.	-11.908
▁109	-11.9093
727	-11.9095
948	-11.9105
ja	-11.9108
▁conserve	-11.9114
740	-11.9116
▁inorganic	-11.9117
▁returns	-11.9127
time	-11.9131
ze	-11.9143
736	-11.9143
tri	-11.9144
▁procedures	-11.9153
▁98.0	-11.9159
▁104	-11.9161
▁gardening	-11.9166
628	-11.9168
829	-11.9168
bari	-11.917
ability	-11.9172
▁0.33	-11.9174
harvest	-11.9177
93.	-11.9178
287	-11.9184
98.	-11.9189
328	-11.9191
172	-11.9194
608	-11.9195
839	-11.9195
long	-11.9202
▁concentrations	-11.9202
ene	-11.9216
▁dissolve	-11.9218
▁list	-11.9219
▁1400.0	-11.922
▁genetic	-11.9222
▁roles	-11.9228
725	-11.9232
--	-11.9235
▁nov	-11.9237
▁pumpkins	-11.9243
▁extract	-11.9243
ibwa	-11.9245
▁19:19:19	-11.9247
▁Discuss	-11.9247
▁communities	-11.9247
▁fertilzer	-11.9247
▁chandramukhi	-11.9247
▁film	-11.9247
▁strawberry	-11.9247
▁native	-11.9248
▁0.50	-11.925
▁pmfby	-11.9253
▁84.0	-11.9257
489	-11.9258
234	-11.9258
▁rest	-11.9261
479	-11.9261
▁longer	-11.9263
fa	-11.9265
▁fix	-11.927
885	-11.9271
▁consequences	-11.9273
ai	-11.9274
▁batch	-11.9275
ification	-11.9276
pl	-11.928
▁smaller	-11.9284
▁experience	-11.929
▁0.27	-11.929
908	-11.9301
442	-11.9303
▁suckers	-11.9303
▁dimethoate	-11.9305
178	-11.9305
▁nematode	-11.9308
▁section	-11.9308
391	-11.9311
▁875	-11.9312
▁fingerling	-11.9312
00	-11.9314
▁10%	-11.9321
664	-11.9326
▁220.0	-11.9327
242	-11.9329
▁conduc	-11.9339
448	-11.9345
▁carefully	-11.935
ban	-11.935
dra	-11.9351
425	-11.9352
/100	-11.9357
anaa	-11.936
345	-11.9361
controlled	-11.9362
Thi	-11.9362
based	-11.9363
▁0.24	-11.9366
told	-11.9367
896	-11.9367
942	-11.9369
tv	-11.9371
842	-11.9382
075	-11.9389
▁attacks	-11.9392
▁laterals	-11.9392
966	-11.9395
▁conserv	-11.9409
▁0.26	-11.9409
sel	-11.9413
235	-11.9428
037	-11.9429
fected	-11.9432
▁app	-11.9432
=102.2	-11.9432
=109.2	-11.9432
▁alirajpur	-11.9432
▁anigest	-11.9432
▁bhadrak	-11.9432
▁composition	-11.9432
▁depletion	-11.9432
▁dumka	-11.9432
▁lentil	-11.9432
▁longleng	-11.9432
▁napier	-11.9432
▁narayanpur	-11.9432
▁navsari	-11.9432
▁quail	-11.9432
▁wardha	-11.9432
▁ambala	-11.9432
▁mansa	-11.9433
▁yellowish	-11.9433
▁horizontal	-11.9434
=106.0	-11.9434
lic	-11.9434
=119.0	-11.9435
▁rock	-11.9437
ood	-11.9437
▁nuvan	-11.9438
▁practical	-11.944
569	-11.944
anjan	-11.9441
▁plantomycine	-11.9443
444	-11.9452
ept	-11.9459
551	-11.9462
lab	-11.9465
414	-11.9465
▁mealy	-11.9465
▁cam	-11.9469
▁trib	-11.9469
▁functioning	-11.9478
253	-11.9485
▁143	-11.9492
▁maintained	-11.9496
▁tonne	-11.9499
ux	-11.9506
375	-11.9506
▁0.68	-11.953
.666666666666666	-11.9536
334	-11.9537
▁tightness	-11.9541
460	-11.9554
096	-11.9554
tree	-11.9558
king	-11.957
382	-11.957
518	-11.9575
tin	-11.9581
uk	-11.9585
▁0.81	-11.9587
▁nd	-11.9588
416	-11.959
▁deliver	-11.9591
▁beetles	-11.9593
▁topdress	-11.9602
936	-11.9602
▁Utiliz	-11.9604
-35	-11.9605
348	-11.9609
▁bo	-11.9613
▁benzoate	-11.9621
▁penetration	-11.9621
▁jwala	-11.9621
▁profitability	-11.9621
▁weakness	-11.9621
699	-11.9622
▁anae	-11.9623
▁Traditional	-11.9623
▁preferabl	-11.9623
▁electrical	-11.9623
▁infect	-11.9624
640	-11.9625
▁ttaka	-11.9631
mote	-11.9632
ix	-11.9634
454545454545454	-11.9639
▁third	-11.9639
604	-11.9641
▁until	-11.9642
595	-11.9644
ence	-11.9651
▁questions	-11.9651
.166666666666666	-11.9651
657	-11.9654
607	-11.966
▁0.36	-11.966
▁maximize	-11.9664
▁0.57	-11.9666
cu	-11.9671
▁0.74	-11.9671
680	-11.9674
048	-11.9674
477	-11.9675
ili	-11.9677
▁dev	-11.9686
0.5	-11.9686
063	-11.97
550	-11.9715
ern	-11.9717
245	-11.9721
▁si	-11.9723
▁Ant	-11.9732
748	-11.9733
aking	-11.9737
▁Improve	-11.974
113	-11.9748
▁aqua	-11.9752
▁123	-11.9756
▁prefer	-11.976
▁0.54	-11.976
ell	-11.9768
▁suggestions	-11.9774
cl	-11.979
▁scale	-11.9794
▁te	-11.9802
71.	-11.9804
our	-11.981
▁dang	-11.9812
▁consist	-11.9812
▁settings	-11.9813
=114.3	-11.9813
=115.1	-11.9813
▁amritsar	-11.9813
▁chickpea	-11.9813
▁fentas	-11.9813
▁forwarded	-11.9813
▁intamox	-11.9813
▁porbandar	-11.9813
▁purchase	-11.9813
▁raigad	-11.9813
▁thread	-11.9813
▁tirap	-11.9813
▁ukhrul	-11.9813
▁yadgir	-11.9813
▁godda	-11.9813
▁permanganate	-11.9813
=101.2	-11.9813
▁canopy	-11.9813
-45@2.5	-11.9815
▁nature	-11.9817
▁buy	-11.9833
EC	-11.9836
043	-11.9842
▁1000	-11.9843
817	-11.9843
▁automatic	-11.9845
451	-11.9848
▁Bo	-11.9852
side	-11.9853
811	-11.9858
▁pare	-11.9858
▁tin	-11.9861
488	-11.9868
124	-11.9876
tious	-11.9879
cast	-11.9888
▁104.0	-11.989
821	-11.9891
210	-11.9891
▁foundation	-11.9891
▁equi	-11.9901
uka	-11.9917
117	-11.992
03	-11.9922
0.83333333333333	-11.993
▁tillers	-11.9931
contact	-11.9939
861	-11.9942
-14	-11.9945
301	-11.9947
ond	-11.9947
010	-11.9952
▁@25	-11.9956
▁alternative	-11.9956
126	-11.9957
▁71	-11.9958
ock	-11.9961
▁habitats	-11.9962
charge	-11.9965
764	-11.9971
482	-11.9976
▁determin	-11.9977
621	-11.9978
083	-11.9987
820	-11.9991
▁82.0	-11.9991
▁atmospher	-11.9993
▁incorporat	-11.9996
▁industrial	-12.0003
/4	-12.0004
fu	-12.0004
boro	-12.0004
▁agromycin	-12.0005
▁install	-12.0006
lternaria	-12.0009
ylindr	-12.0009
▁policy	-12.0009
▁survival	-12.0009
▁unique	-12.0009
▁dioxide	-12.0009
▁concentrate	-12.001
▁0.92	-12.0011
▁characterize	-12.0013
ectin	-12.0015
▁poisoning	-12.0017
▁studies	-12.0018
▁thiram	-12.0018
▁centi	-12.0018
▁decay	-12.0022
▁katha	-12.0025
pit	-12.0036
▁home	-12.0037
956	-12.0044
ika	-12.005
074	-12.0052
▁0.69	-12.0054
▁9435	-12.006
▁Con	-12.0073
▁0.96	-12.0076
port	-12.008
▁applicant	-12.0085
▁ecosystem	-12.0085
▁vessel	-12.0086
515	-12.0087
158	-12.0093
643	-12.0095
▁0.46	-12.0098
647	-12.01
676	-12.0115
▁successfully	-12.0119
046	-12.0124
630	-12.0125
955	-12.0126
073	-12.0131
641	-12.0132
intensive	-12.0139
▁safely	-12.0139
33.	-12.0144
441	-12.015
uc	-12.0152
▁ponds	-12.0155
▁layering	-12.0156
▁du	-12.0157
▁tablets	-12.0162
amu	-12.0171
gov	-12.0175
367	-12.0176
310	-12.0178
▁0.41	-12.0186
tab	-12.0187
fuse	-12.0194
315	-12.0194
-7	-12.0196
▁medicin	-12.0203
▁Ensur	-12.0204
379	-12.0208
anama	-12.0209
▁hrs	-12.0209
=101.1	-12.0209
=107.9	-12.0209
=110.4	-12.0209
=110.8	-12.0209
=113.1	-12.0209
=116.5	-12.0209
▁circle	-12.0209
▁crystocyclin	-12.0209
▁fibro	-12.0209
▁sesame	-12.0209
▁singhbhum	-12.0209
▁Early	-12.0209
▁humid	-12.0209
▁panchkula	-12.0209
▁placenta	-12.0209
▁define	-12.0209
▁puddling	-12.0209
▁whiteflies	-12.0209
▁bhandara	-12.0209
▁lost	-12.0209
▁papu	-12.021
▁tailored	-12.021
▁helpline	-12.0211
gu	-12.0211
▁99.0	-12.0215
▁ration	-12.0215
▁seek	-12.0219
▁cu	-12.0222
he	-12.0223
▁selected	-12.0232
▁1.10	-12.0233
▁ghy	-12.024
356	-12.0241
120.0	-12.0241
▁involv	-12.0246
tm	-12.0248
▁0.32	-12.0252
809	-12.0253
221	-12.0254
▁@1.5	-12.0259
▁mains	-12.0261
air	-12.0264
▁Ma	-12.0266
99.	-12.0266
▁3.7	-12.0267
▁slowly	-12.0269
8125.	-12.0273
▁0.90	-12.0274
▁tiller	-12.0275
▁0.58	-12.0276
▁breeds	-12.0279
385	-12.0286
▁characteristic	-12.0291
-36,	-12.0295
▁san	-12.0301
421	-12.0303
ational	-12.0303
923	-12.0306
502	-12.0316
quin	-12.0317
549	-12.032
949	-12.0326
@25	-12.0331
ima	-12.0331
▁119	-12.034
ove	-12.034
836	-12.0341
mililiter	-12.0343
classic	-12.0343
hectare	-12.0343
517	-12.0348
583	-12.0356
140.0	-12.0371
▁ko	-12.0381
▁alternately	-12.0383
824	-12.039
▁0.51	-12.0393
ammonium	-12.0395
758	-12.0396
762	-12.04
006	-12.04
741	-12.0402
285	-12.041
tone	-12.0411
▁vigor	-12.0412
▁buffalo	-12.0413
▁jalakia	-12.0413
▁compensat	-12.0413
▁deficiencies	-12.0413
▁diversity	-12.0413
▁downey	-12.0413
▁decline	-12.0413
394	-12.0414
▁record	-12.0414
▁moving	-12.0414
▁reduction	-12.0415
▁raw	-12.0416
▁trade	-12.0417
529	-12.0418
556	-12.0419
▁reported	-12.0419
▁ruby	-12.0421
▁0.1%	-12.0422
-36	-12.0425
588	-12.0429
▁privat	-12.0431
▁1.2.	-12.0433
gh	-12.0439
▁0.72	-12.0444
▁utilized	-12.0451
ear	-12.0464
080	-12.0467
host	-12.0471
003	-12.0482
hose	-12.0495
▁leakage	-12.0497
▁signal	-12.0499
@20	-12.0501
▁0.63	-12.0502
018	-12.0503
▁????????	-12.0504
▁wall	-12.0505
089	-12.0508
41.	-12.0509
war	-12.0514
909	-12.0515
215	-12.0515
▁complete	-12.0526
055	-12.053
▁0.29	-12.0543
731	-12.0547
981	-12.0547
zinc	-12.0552
002	-12.056
▁0.44	-12.0564
813	-12.0574
con	-12.0575
713	-12.0577
▁observe	-12.0581
day	-12.059
▁Integrate	-12.059
034	-12.06
▁understand	-12.0603
067	-12.061
▁pe	-12.0612
▁rains	-12.0614
▁widely	-12.0616
444444444444444	-12.0617
phan	-12.0618
▁0.62	-12.0618
anth	-12.0619
hisham	-12.0621
owdery	-12.0621
=103.1	-12.0621
=103.9	-12.0621
=107.6	-12.0621
=109.8	-12.0621
=110.6	-12.0621
=112.4	-12.0621
=114.2	-12.0621
=114.8	-12.0621
=117.2	-12.0621
=117.6	-12.0621
=118.4	-12.0621
=118.7	-12.0621
=119.1	-12.0621
=119.4	-12.0621
=119.7	-12.0621
=119.9	-12.0621
iruvananthapuram	-12.0621
▁anthalmintic	-12.0621
▁bishnupur	-12.0621
▁bokaro	-12.0621
▁churachandpur	-12.0621
▁hoshiarpur	-12.0621
▁kannur	-12.0621
▁kondagaon	-12.0621
▁lohit	-12.0621
▁malappuram	-12.0621
▁mohafol	-12.0621
▁pkt	-12.0621
▁unakoti	-12.0621
=106.6	-12.0621
▁fiber	-12.0621
▁storing	-12.0621
▁sky	-12.0621
▁magnesium	-12.0622
▁introduction	-12.0622
▁North	-12.0622
▁harmful	-12.0622
▁Indofil	-12.0622
▁rewari	-12.0622
▁potion	-12.0622
raft	-12.0623
=116.0	-12.0624
▁peren	-12.0628
ina	-12.0633
256	-12.0635
▁performed	-12.0636
▁No	-12.0639
▁collected	-12.0639
▁send	-12.0641
▁allowed	-12.0648
▁input	-12.0659
914	-12.0661
55555555555555	-12.0663
▁@15	-12.0676
▁Asia	-12.0676
624	-12.0677
rop	-12.069
562	-12.0691
val	-12.0693
292	-12.0696
▁135	-12.07
▁555	-12.07
▁cuts	-12.0705
▁128.0	-12.0714
ck	-12.0715
▁highlight	-12.0716
▁0.61	-12.0716
688	-12.0721
omu	-12.0725
▁114.0	-12.0729
▁Ba	-12.0743
459	-12.0752
▁gardens	-12.0753
▁136	-12.0759
july	-12.0764
related	-12.0764
pride	-12.0766
aau	-12.0768
903	-12.0773
144	-12.0778
▁thorough	-12.0781
▁greens	-12.0784
710	-12.0787
539	-12.0796
143	-12.0804
ibility	-12.0807
ertigation	-12.0834
▁heart	-12.0834
▁Apple	-12.0834
▁flavor	-12.0834
▁individual	-12.0834
▁necrosis	-12.0834
▁ornamental	-12.0834
▁spinach	-12.0834
▁cricket	-12.0834
▁restrict	-12.0834
▁jackpot	-12.0834
▁fittings	-12.0834
▁phase	-12.0834
▁seven	-12.0835
▁medication	-12.0835
▁seen	-12.0835
▁delay	-12.0836
▁pour	-12.0836
▁corm	-12.0836
▁growers	-12.0839
763	-12.0839
▁zi	-12.0846
830	-12.0854
table	-12.086
211	-12.0861
ied	-12.0872
▁naturally	-12.0872
▁weekly	-12.0877
▁designed	-12.088
1000	-12.0881
▁web	-12.0881
*	-12.0883
▁cart	-12.0887
vit	-12.0891
▁enable	-12.0892
▁0.21	-12.0894
▁pumping	-12.0907
▁mililiter	-12.0908
alv	-12.0914
▁blades	-12.0919
177	-12.0922
013	-12.093
early	-12.093
lox	-12.0943
▁did	-12.0952
129	-12.0953
then	-12.096
▁droping	-12.0976
ope	-12.0978
sagorika	-12.0981
khanapara	-12.0982
kvk	-12.0982
assam	-12.0982
▁rear	-12.0986
▁col	-12.0986
▁eri	-12.099
▁3.4	-12.0996
▁0.47	-12.1012
ever	-12.102
▁0.23	-12.1022
▁tube	-12.1026
171	-12.1028
255	-12.1029
▁116	-12.103
062	-12.1047
=102.7	-12.1052
=102.9	-12.1052
=104.6	-12.1052
=104.7	-12.1052
=105.5	-12.1052
=106.4	-12.1052
=107.1	-12.1052
=109.6	-12.1052
=111.3	-12.1052
=112.2	-12.1052
=112.3	-12.1052
=112.6	-12.1052
=114.4	-12.1052
=114.7	-12.1052
=116.8	-12.1052
▁antracnose	-12.1052
▁disposa	-12.1052
▁fuel	-12.1052
▁grandis	-12.1052
▁kasganj	-12.1052
▁lakhisarai	-12.1052
▁modern	-12.1052
▁neomec	-12.1052
▁patiala	-12.1052
▁photosynthesis	-12.1052
▁rupnagar	-12.1052
▁sangareddy	-12.1052
▁singrauli	-12.1052
▁susceptibility	-12.1052
▁configuration	-12.1052
=102.4	-12.1052
=107.5	-12.1052
▁indicators	-12.1052
kisaan	-12.1052
▁physiolog	-12.1052
▁education	-12.1052
▁packet	-12.1052
▁sawani	-12.1052
▁neck	-12.1052
▁viz	-12.1052
▁obu	-12.1053
=117.0	-12.1055
▁consultation	-12.1055
▁dk	-12.1055
▁0.64	-12.1056
▁122	-12.1058
▁chickens	-12.1059
▁askin	-12.106
▁chines	-12.1064
▁hydrogen	-12.1065
31.	-12.1069
▁0.20	-12.1073
▁weaken	-12.1075
▁hoppers	-12.1076
▁hold	-12.1079
▁grading	-12.1079
▁gall	-12.1085
ale	-12.1087
461	-12.109
▁finances	-12.1091
▁amendments	-12.1094
▁plane	-12.1095
▁1-1.5	-12.1095
▁own	-12.1098
▁0.31	-12.1099
▁FYM	-12.1101
▁nozzle	-12.1106
1.2	-12.1113
tal	-12.1116
33333333333333	-12.112
▁compromise	-12.1121
▁stabilize	-12.1126
▁tractors	-12.113
618	-12.113
▁barriers	-12.1132
put	-12.1134
nov	-12.1142
▁skills	-12.1146
▁---	-12.1147
ew	-12.1148
▁ripe	-12.1153
▁fac	-12.1158
▁114	-12.1163
act	-12.1166
known	-12.117
601	-12.1171
222222222222222	-12.1178
▁Di	-12.118
437	-12.1182
gaon	-12.1183
501	-12.1185
▁qu	-12.1185
▁generate	-12.1187
42857142857142	-12.1188
18181818181818	-12.1192
ase	-12.1193
267	-12.1195
▁frequently	-12.1198
dimethoate	-12.1203
-60	-12.1204
furrow	-12.1204
▁0.95	-12.1205
mala	-12.1207
@18	-12.1209
004	-12.1211
776	-12.1212
▁@100	-12.1213
ati	-12.1214
pra	-12.1222
▁lot	-12.1241
▁necessitat	-12.1242
555	-12.1244
▁par	-12.1244
▁designs	-12.1248
687	-12.1248
▁plough	-12.1252
▁enter	-12.1256
▁1.05	-12.1259
acre	-12.1265
▁register	-12.1271
ala	-12.1274
▁accumulation	-12.1274
▁children	-12.1274
▁circular	-12.1274
▁degradation	-12.1274
▁germinate	-12.1274
▁looper	-12.1274
▁reliable	-12.1274
▁trouble	-12.1274
▁country	-12.1274
▁diagnosis	-12.1274
▁sulfex	-12.1274
▁actual	-12.1274
▁Poor	-12.1274
▁chance	-12.1274
▁deepali	-12.1275
▁placement	-12.1275
▁Bavistin	-12.1275
amba	-12.1276
▁Fig	-12.1277
▁engineering	-12.1278
may	-12.1279
▁activate	-12.1289
▁distributed	-12.1289
▁280	-12.1297
-17	-12.1297
090	-12.1298
▁going	-12.1298
790	-12.13
iti	-12.1303
▁4.3	-12.1304
▁others	-12.1312
320	-12.1315
neem	-12.1318
▁desis	-12.1322
▁feeds	-12.1327
▁Reduc	-12.1328
▁attachments	-12.1328
top	-12.133
thion	-12.1335
ens	-12.1339
▁moved	-12.1343
▁117	-12.1344
843	-12.1346
262	-12.1351
▁Be	-12.1354
▁chi	-12.1356
▁flooding	-12.1357
▁233	-12.1358
▁coatings	-12.1365
▁our	-12.1372
535	-12.1379
▁program	-12.1383
▁appropriately	-12.139
▁3.8	-12.1408
---	-12.1413
▁reasons	-12.1419
inj	-12.1424
▁0.71	-12.1427
241	-12.1429
khol	-12.143
guwahati	-12.1431
her	-12.1432
oph	-12.144
▁enabl	-12.1442
▁eliminat	-12.1445
▁cent	-12.1451
cel	-12.1459
bor	-12.1468
654	-12.147
513	-12.1473
545	-12.1483
264	-12.149
035	-12.1493
cron	-12.1499
bhani	-12.1501
=100.4	-12.1501
=104.3	-12.1501
=106.2	-12.1501
=106.3	-12.1501
=112.9	-12.1501
=113.3	-12.1501
=113.6	-12.1501
=116.4	-12.1501
=118.3	-12.1501
=118.8	-12.1501
=118.9	-12.1501
▁Scheme	-12.1501
▁ariyalur	-12.1501
▁carbaryl	-12.1501
▁kanniyakumari	-12.1501
▁karaikal	-12.1501
▁kottayam	-12.1501
▁loofah	-12.1501
▁pustules	-12.1501
▁ratnagiri	-12.1501
▁srinagar	-12.1501
▁fund	-12.1501
=101.5	-12.1501
▁Urea	-12.1501
▁sample	-12.1501
▁besides	-12.1501
▁honey	-12.1501
▁propagation	-12.1501
▁Increase	-12.1501
▁Chin	-12.1501
▁gumla	-12.1501
▁compaction	-12.1502
▁pipeline	-12.1502
▁Some	-12.1502
▁implementation	-12.1503
=107.0	-12.1503
▁incorporate	-12.1504
=9.	-12.1504
aerated	-12.1504
▁doda	-12.1505
▁ltr	-12.1505
▁alter	-12.1506
▁find	-12.1514
▁picking	-12.1515
omycin	-12.1523
▁0.28	-12.1523
▁-2	-12.1526
▁106	-12.1527
▁dob	-12.153
▁Pole	-12.1533
▁em	-12.1537
ava	-12.1548
020	-12.1569
▁lid	-12.1571
▁1.24	-12.1582
▁carps	-12.1583
▁118	-12.1585
▁0.94	-12.159
868	-12.1596
671	-12.1598
not	-12.16
▁165	-12.1602
872	-12.1603
-13	-12.1606
▁107.0	-12.1607
▁141.0	-12.1608
▁pull	-12.1613
rawn	-12.1614
▁residue	-12.1614
▁trunks	-12.1617
▁112.0	-12.1618
▁sep	-12.1628
384	-12.1636
636363636363636	-12.1651
222	-12.1658
920	-12.166
inal	-12.1664
▁improvements	-12.1664
measure	-12.1664
treatment	-12.1664
farm	-12.1665
cum	-12.1674
/2	-12.1684
162	-12.1686
ction	-12.1686
▁introduce	-12.1701
617	-12.1704
▁naga	-12.1706
▁sprayer	-12.1709
769230769230769	-12.171
▁cop	-12.171
kha	-12.1717
▁Weed	-12.1717
093	-12.1721
▁bora	-12.1729
▁attach	-12.1733
▁NPK	-12.1734
▁biomass	-12.1734
▁contamination	-12.1734
▁heifer	-12.1734
▁positive	-12.1734
▁sammanidhi	-12.1734
▁spawn	-12.1734
▁suitability	-12.1734
▁heartwood	-12.1734
▁trifos	-12.1734
▁people	-12.1734
▁immunity	-12.1734
▁substantial	-12.1734
&#23	-12.1734
▁luffa	-12.1734
▁alok	-12.1734
▁bush	-12.1735
▁0.82	-12.1735
▁flubendiamide	-12.1736
affected	-12.1742
▁Central	-12.1745
▁210	-12.1745
▁rid	-12.1746
ack	-12.1748
▁hoeing	-12.175
▁treating	-12.1752
▁rearing	-12.1754
ff	-12.1757
602	-12.1757
au	-12.1766
150.0	-12.1769
▁bring	-12.1772
▁organisms	-12.1776
▁128	-12.1789
▁litter	-12.1791
▁reasonably	-12.1806
512	-12.1814
▁ammonium	-12.1814
▁valves	-12.1817
▁142.0	-12.182
▁Bed	-12.1822
▁crack	-12.183
142857142857142	-12.1832
ita	-12.1834
▁che	-12.1841
065	-12.1843
ino	-12.1844
go	-12.1847
▁cutworm	-12.1848
636	-12.1851
bar	-12.1853
▁0.56	-12.1858
▁determined	-12.1858
▁0.18	-12.186
072	-12.1863
oma	-12.1871
▁borne	-12.1873
▁sizes	-12.1877
▁enrich	-12.1896
▁plots	-12.1897
818181818181818	-12.1899
▁51	-12.1904
stand	-12.1906
180.0	-12.1908
392	-12.1908
▁0.66	-12.1913
▁0.77	-12.1913
▁machines	-12.1925
mp	-12.1928
▁235.0	-12.1934
use	-12.1935
281	-12.1944
▁tilt	-12.1952
▁seal	-12.1954
307692307692307	-12.1965
surface	-12.1969
garh	-12.1972
▁katki	-12.1972
=100.7	-12.1972
=106.9	-12.1972
=107.4	-12.1972
=109.5	-12.1972
=109.9	-12.1972
=111.4	-12.1972
=111.8	-12.1972
=115.2	-12.1972
=117.5	-12.1972
=118.6	-12.1972
▁Australia	-12.1972
▁amethi	-12.1972
▁criteria	-12.1972
▁mahisagar	-12.1972
▁muktsar	-12.1972
▁panipat	-12.1972
▁preserve	-12.1972
▁study	-12.1972
▁thoubal	-12.1972
▁convert	-12.1972
▁planning	-12.1972
=100.5	-12.1972
=105.8	-12.1972
=102.5	-12.1972
▁examine	-12.1972
▁flat	-12.1972
▁moga	-12.1972
▁shedding	-12.1972
▁insufficient	-12.1972
▁ussd	-12.1972
▁bittergourd	-12.1972
076	-12.1972
▁advi	-12.1973
▁reinforced	-12.1973
▁gypsum	-12.1973
-1250	-12.1975
=108.0	-12.1975
▁failed	-12.1975
▁cypermethrin	-12.1978
=110.0	-12.1978
▁concerned	-12.1979
▁deptt	-12.1979
▁slight	-12.198
381	-12.1982
157.0	-12.1984
▁stimulate	-12.1985
▁pods	-12.199
961	-12.199
1.3	-12.1993
pan	-12.1993
jan	-12.1994
▁toximer	-12.1998
▁chl	-12.1999
911	-12.2001
▁substances	-12.2006
371	-12.201
-150	-12.2013
76	-12.2014
137.0	-12.2017
▁0.16	-12.202
stance	-12.2029
▁amazzi	-12.2031
941	-12.2041
631	-12.2055
pi	-12.2055
ong	-12.2064
▁means	-12.2079
refore	-12.2087
gene	-12.2088
▁rodent	-12.2092
mer	-12.2092
▁element	-12.2093
▁challenge	-12.2093
▁orchard	-12.2094
3125.	-12.2098
▁ducks	-12.2105
▁farms	-12.2127
▁lowering	-12.2129
▁note	-12.2138
▁0.59	-12.2143
130.0	-12.2145
137	-12.2162
342	-12.217
nda	-12.2173
▁0.79	-12.2181
▁recover	-12.2187
▁almo	-12.2202
▁eby	-12.2205
▁kid	-12.2209
enerally	-12.2209
▁choos	-12.2212
833333333333333	-12.2213
▁sustain	-12.2215
▁assist	-12.2215
▁State	-12.2216
▁emptied	-12.2216
▁floriculture	-12.2216
▁kaithal	-12.2216
▁kissan	-12.2216
▁mantle	-12.2216
▁rupees	-12.2216
▁sequence	-12.2216
▁versatile	-12.2216
IPM	-12.2216
▁figure	-12.2216
▁preservation	-12.2216
▁luke	-12.2216
▁decreasing	-12.2216
▁rotten	-12.2216
▁dipping	-12.2216
▁kumar	-12.2216
▁laid	-12.2216
▁gummosis	-12.2216
▁kmph	-12.2216
▁Mix	-12.2217
▁transportation	-12.2217
▁steptomycine	-12.2217
▁soap	-12.2217
▁0.34	-12.2222
▁230	-12.2222
▁destroyed	-12.2224
▁patholog	-12.2225
▁Farm	-12.2229
▁1.14	-12.2235
▁dealer	-12.2242
np	-12.2243
▁suryamukhi	-12.2245
▁01	-12.2253
▁user	-12.2256
jo	-12.2259
▁negatively	-12.2259
▁producing	-12.2259
▁rang	-12.2269
▁stones	-12.2276
ise	-12.2279
83333333333333	-12.2281
▁cells	-12.2285
▁sol	-12.2287
wp	-12.2294
▁0.87	-12.2294
▁disadvantages	-12.2294
-16	-12.2306
▁grapes	-12.231
▁globally	-12.2327
125.0	-12.233
▁supplie	-12.2341
ark	-12.2341
▁separately	-12.2341
▁1.19	-12.2342
▁mechanism	-12.2342
▁predator	-12.2342
▁drug	-12.2342
▁Controll	-12.2342
▁demands	-12.2345
clo	-12.2347
▁net	-12.2347
▁0.89	-12.2359
▁walls	-12.2362
4375.	-12.2364
136	-12.2365
049	-12.2381
▁nematodes	-12.2381
olo	-12.2387
The	-12.2396
ppm	-12.2396
▁107	-12.2398
▁indi	-12.2399
129.0	-12.2404
rea	-12.2428
star	-12.2431
▁Lo	-12.2437
845	-12.244
662	-12.2444
watering	-12.2445
108.0	-12.2451
▁rod	-12.2462
▁electric	-12.2462
▁fail	-12.2462
ement	-12.2463
▁lactat	-12.2465
=104.1	-12.2466
=107.8	-12.2466
=108.6	-12.2466
=114.5	-12.2466
=114.6	-12.2466
=116.1	-12.2466
=116.2	-12.2466
=116.3	-12.2466
=116.6	-12.2466
=117.1	-12.2466
=119.3	-12.2466
▁Tomato	-12.2466
▁alipurduar	-12.2466
▁champhai	-12.2466
▁faridabad	-12.2466
▁firozepur	-12.2466
▁future	-12.2466
▁helopeltis	-12.2466
▁mewat	-12.2466
▁solarisation	-12.2466
▁sprinkling	-12.2466
▁survive	-12.2466
=105.4	-12.2466
=106.7	-12.2466
=107.7	-12.2466
▁jind	-12.2466
▁swelling	-12.2466
▁ekka	-12.2466
▁automatically	-12.2466
▁minfa	-12.2466
▁taste	-12.2466
▁habit	-12.2466
▁persist	-12.2466
artec	-12.2466
ert	-12.2466
103.0	-12.2467
▁koma	-12.2468
=105.0	-12.2469
=118.0	-12.247
▁blite	-12.2472
846153846153846	-12.2475
110.0	-12.248
rot	-12.2482
▁andamans	-12.2499
▁via	-12.2503
▁0.19	-12.2503
▁blockages	-12.2515
iri	-12.2516
▁incorporated	-12.2517
▁identified	-12.2517
▁inadequate	-12.2521
IC	-12.2531
▁buckets	-12.2532
▁@4	-12.2532
gur	-12.2543
▁lu	-12.2543
▁intake	-12.2543
spher	-12.2551
▁cat	-12.2558
141	-12.2558
▁132.0	-12.2559
▁friable	-12.2565
▁forces	-12.2565
▁malathione	-12.2569
▁threat	-12.2585
ather	-12.2595
▁minute	-12.26
▁factor	-12.26
▁feature	-12.2601
▁moths	-12.2613
▁sites	-12.2615
▁124	-12.2637
▁systemic	-12.2638
▁0.39	-12.2643
irrigation	-12.2652
punjab	-12.2653
sowing	-12.2653
please	-12.2661
690	-12.2662
14285714285714	-12.2663
ities	-12.267
▁degrees	-12.2684
▁cultiv	-12.2685
ook	-12.2693
▁sprinkle	-12.2695
▁recom	-12.2705
▁utilize	-12.2707
▁3.6	-12.2713
▁regard	-12.2713
-11	-12.2718
ultural	-12.2718
ropyriphos	-12.2722
▁beekeeping	-12.2722
▁bheem	-12.2722
▁capsule	-12.2722
▁diversification	-12.2722
▁insecticidal	-12.2722
▁jolokia	-12.2722
▁miracle	-12.2722
▁straight	-12.2722
▁stuck	-12.2722
▁stumps	-12.2722
▁sulphur	-12.2722
▁129	-12.2722
▁Depend	-12.2722
▁specifications	-12.2722
▁frost	-12.2722
▁improper	-12.2722
▁groundwater	-12.2723
▁sarai	-12.2723
▁pile	-12.2724
▁maggoted	-12.2724
stead	-12.2725
818	-12.2725
▁throw	-12.273
▁pathogenic	-12.2731
▁shell	-12.2731
▁electricity	-12.2732
ome	-12.2734
▁mahyco	-12.2738
-200	-12.2742
....	-12.2745
▁jun	-12.2751
AR	-12.2758
vet	-12.2777
▁bath	-12.2779
▁240	-12.278
▁ensured	-12.2783
▁teaspoon	-12.2788
▁alternatively	-12.2793
136.0	-12.2804
▁Y	-12.281
1875.	-12.2817
▁released	-12.2824
▁vitamine	-12.283
▁emitt	-12.2837
lus	-12.2849
▁rodents	-12.2854
▁estimate	-12.2857
▁option	-12.2861
▁pl	-12.2861
▁precaution	-12.2862
91.	-12.287
▁1.23	-12.287
▁2-4	-12.287
rup	-12.2889
▁03	-12.2893
▁70%	-12.2899
3.5	-12.2904
friendly	-12.2914
killer	-12.2914
857	-12.2918
926	-12.2919
862	-12.292
81.	-12.292
▁magur	-12.2924
ua	-12.2925
tz	-12.2931
opulus	-12.2935
▁0.97	-12.2943
▁ban	-12.2948
▁0.53	-12.2953
oli	-12.2953
iz	-12.2971
ening	-12.2976
gan	-12.2976
@13	-12.2977
genous	-12.2982
▁align	-12.2985
=102.1	-12.2985
=103.2	-12.2985
=104.8	-12.2985
=107.2	-12.2985
=108.5	-12.2985
=110.1	-12.2985
=110.2	-12.2985
=110.5	-12.2985
=112.1	-12.2985
=113.8	-12.2985
=114.1	-12.2985
=114.9	-12.2985
=115.9	-12.2985
=116.7	-12.2985
▁Agroforestry	-12.2985
▁aizawl	-12.2985
▁alcohol	-12.2985
▁analysis	-12.2985
▁asifabad	-12.2985
▁badgam	-12.2985
▁colonies	-12.2985
▁family	-12.2985
▁giridih	-12.2985
▁hospital	-12.2985
▁intalyte	-12.2985
▁intercropped	-12.2985
▁kinnaur	-12.2985
▁message	-12.2985
▁preparing	-12.2985
▁reasi	-12.2985
▁sambhal	-12.2985
▁simdega	-12.2985
▁sukma	-12.2985
▁rhinocero	-12.2985
▁koderma	-12.2985
▁completion	-12.2985
▁knolkhol	-12.2985
▁displacement	-12.2985
▁ointment	-12.2985
▁observation	-12.2986
▁basil	-12.2986
kela	-12.2986
▁confidence	-12.2986
▁toward	-12.2986
▁vaccinate	-12.2986
▁suited	-12.2987
hoot	-12.2988
▁mold	-12.299
▁horticulture	-12.2992
▁prime	-12.2992
▁established	-12.2994
▁So	-12.3005
ier	-12.3011
▁fr	-12.3019
▁He	-12.3024
even	-12.3027
061	-12.3029
▁kiy	-12.303
16666666666666	-12.3031
▁5-10	-12.3031
▁91	-12.3033
▁hazards	-12.3036
▁108	-12.304
RP	-12.3055
2019	-12.3062
▁limitations	-12.3074
115.0	-12.3075
▁heating	-12.3084
▁carrots	-12.3088
ries	-12.3094
▁pi	-12.3103
▁rapidly	-12.3111
▁ettaka	-12.3116
▁158	-12.3116
▁133.0	-12.3117
▁0.15	-12.313
▁danger	-12.3132
ire	-12.3136
▁offed	-12.3142
raja	-12.3147
low	-12.3148
▁covers	-12.3149
culture	-12.3153
▁@30	-12.3153
▁environments	-12.3158
ffic	-12.3175
97.	-12.3185
repeat	-12.3186
variety	-12.3186
▁@200	-12.3191
-6444,	-12.3191
-250	-12.3193
anized	-12.3203
-500	-12.3216
sia	-12.3228
lan	-12.3229
cro	-12.3231
▁og	-12.3234
▁hoe	-12.3238
overnment	-12.3249
▁cane	-12.325
▁residu	-12.3251
ecause	-12.3254
pivot	-12.3255
▁Adjust	-12.3256
▁Bamboo	-12.3256
▁adult	-12.3256
▁eligibility	-12.3256
▁enquire	-12.3256
▁exceed	-12.3256
▁fipronil	-12.3256
▁illustrate	-12.3256
▁invasion	-12.3256
▁labour	-12.3256
▁phosphide	-12.3256
▁recommandation	-12.3256
▁sequester	-12.3256
▁snowball	-12.3256
▁strategic	-12.3256
▁automation	-12.3256
▁clove	-12.3256
▁rubi	-12.3256
▁lamp	-12.3256
▁partial	-12.3256
▁chlorothalonil	-12.3256
▁agar	-12.3257
▁farmland	-12.3258
▁bacteri	-12.3262
▁shown	-12.3264
▁containers	-12.3264
▁antracol	-12.3264
▁0.375	-12.3265
▁cage	-12.3269
122.0	-12.3277
▁understanding	-12.3283
▁@40	-12.3284
▁gaskets	-12.3288
▁148	-12.3299
7.5	-12.3304
tail	-12.331
ave	-12.331
▁processed	-12.3313
▁06	-12.3314
▁antibiotics	-12.3314
▁oral	-12.3323
▁aks	-12.3337
ble	-12.3346
▁rotate	-12.3348
▁economical	-12.3351
▁225	-12.336
anded	-12.3369
94.	-12.337
▁mean	-12.3381
taf	-12.3391
kin	-12.3404
111111111111111	-12.3405
▁disorder	-12.3408
ule	-12.3408
llary	-12.3414
▁Su	-12.3416
105.0	-12.3417
022	-12.3418
126.0	-12.342
▁seeding	-12.3429
▁leave	-12.3432
▁25%	-12.3439
▁drained	-12.3443
▁?????????	-12.3453
8.9	-12.3457
mar	-12.3458
▁0.42	-12.3459
ebimera	-12.3462
productive	-12.3463
type	-12.3468
▁149	-12.347
▁sil	-12.3483
▁ca	-12.3494
suggested	-12.3503
▁heights	-12.3515
stem	-12.3518
▁agitat	-12.3529
▁extra	-12.3531
▁thick	-12.3532
▁HDPE	-12.3533
=100.1	-12.3533
=100.6	-12.3533
=102.3	-12.3533
=104.9	-12.3533
=105.6	-12.3533
=108.1	-12.3533
=108.3	-12.3533
=113.5	-12.3533
=115.3	-12.3533
=115.6	-12.3533
=116.9	-12.3533
=117.3	-12.3533
=117.9	-12.3533
zoxystrobin	-12.3533
▁aravalli	-12.3533
▁baramulla	-12.3533
▁bleeding	-12.3533
▁kharsawan	-12.3533
▁mahafol	-12.3533
▁mungeli	-12.3533
▁psuedoste	-12.3533
▁reliability	-12.3533
▁resolve	-12.3533
▁rohtak	-12.3533
▁sevak	-12.3533
▁transaction	-12.3533
▁tridemorph	-12.3533
▁voter	-12.3533
▁norflox	-12.3533
=100.2	-12.3533
=101.6	-12.3533
=102.8	-12.3533
=105.9	-12.3533
▁balloon	-12.3533
▁grafting	-12.3533
=101.8	-12.3533
▁classification	-12.3533
▁Prune	-12.3533
▁viability	-12.3533
▁export	-12.3533
▁bitum	-12.3534
▁pullet	-12.3534
▁chlorosis	-12.3534
▁subsidies	-12.3535
▁cater	-12.3536
▁138	-12.3536
▁uprooted	-12.3536
=102.0	-12.3537
=111.0	-12.3538
▁minor	-12.3538
▁30-35	-12.3538
▁ek	-12.3539
▁microorganisms	-12.3539
▁Tracel	-12.3542
▁rootex	-12.3542
easterly	-12.3542
ah	-12.3545
▁sandal	-12.3545
▁Key	-12.3546
▁belong	-12.3549
▁pf	-12.355
chlor	-12.355
▁ir	-12.3554
SE	-12.3555
▁Kerala	-12.3556
▁We	-12.3568
▁ebiwuka	-12.3572
▁tend	-12.3578
▁adversely	-12.3586
▁Fur	-12.3586
148.0	-12.3588
▁enriche	-12.359
▁injected	-12.3591
▁0.83	-12.3591
▁productive	-12.3606
hor	-12.3631
lin	-12.3633
21.	-12.3634
359	-12.3648
▁gain	-12.3655
▁diar	-12.3657
▁143.0	-12.3661
▁bull	-12.3661
▁0.98	-12.3668
▁106.0	-12.3673
▁intensive	-12.368
proof	-12.3686
▁filter	-12.3695
▁skill	-12.3696
▁cucumbers	-12.3696
▁163	-12.3702
can	-12.3708
▁calculate	-12.3713
4.5	-12.3724
▁1.5-2	-12.3731
▁ob	-12.3738
functional	-12.3747
captaf	-12.3749
economic	-12.3749
effectiveness	-12.3749
asking	-12.375
ual	-12.3751
are	-12.3756
nia	-12.376
▁adverse	-12.3766
▁rusting	-12.3772
▁0.88	-12.3776
AS	-12.3778
▁198	-12.3785
dip	-12.3792
8.8	-12.3797
▁sprout	-12.38
▁broadcast	-12.38
▁weigh	-12.3815
615384615384615	-12.3816
▁cip	-12.3819
marcozyl	-12.3819
▁Assam	-12.3819
▁Differen	-12.3819
▁colony	-12.3819
▁corporation	-12.3819
▁nutreint	-12.3819
▁penicle	-12.3819
▁plague	-12.3819
▁similar	-12.3819
▁vertical	-12.3819
omonas	-12.3819
▁Feed	-12.3819
▁steclin	-12.3819
▁homogeniz	-12.3819
static	-12.3819
▁reply	-12.3819
▁explosion	-12.3819
▁capture	-12.3819
▁accessible	-12.3819
▁shop	-12.382
▁viable	-12.382
▁exap	-12.382
▁connected	-12.3821
▁subsidiz	-12.3821
▁Pusa	-12.3821
▁capital	-12.3821
repare	-12.3821
▁rainwater	-12.3823
▁stresses	-12.3823
▁enhancement	-12.3824
▁rotating	-12.3825
▁intacef	-12.3826
▁01123381092	-12.383
▁Nitrogen	-12.383
510	-12.3831
▁started	-12.3833
▁ferro	-12.3837
▁disinfect	-12.3838
with	-12.3838
▁rats	-12.3841
▁En	-12.3842
ama	-12.3849
▁tolerant	-12.3853
▁mange	-12.3856
▁0.625	-12.3864
611	-12.3868
▁550	-12.3876
▁big	-12.3887
▁pos	-12.3888
iga	-12.3892
sible	-12.3894
▁culms	-12.3907
▁144	-12.3907
▁0.5%	-12.3911
771	-12.3918
▁cor	-12.3921
▁live	-12.3923
041	-12.3938
▁closed	-12.3939
part	-12.3943
▁5.8	-12.3953
▁shallow	-12.3954
iphos	-12.3971
lon	-12.3973
▁139	-12.3983
▁steriliz	-12.3987
▁browning	-12.3988
mita	-12.399
▁consideration	-12.3992
722.0	-12.3994
156.0	-12.3995
▁ten	-12.4002
▁indicat	-12.4012
ii	-12.4016
▁137	-12.4019
124.0	-12.403
▁(10	-12.4038
-72@2	-12.4043
september	-12.4043
june	-12.4043
▁cha	-12.4044
goat	-12.4048
▁correctly	-12.4049
▁joints	-12.4055
▁145	-12.4064
▁coats	-12.4073
iological	-12.4076
own	-12.4082
▁resist	-12.4091
168.0	-12.4099
▁strength	-12.4099
▁2,2	-12.4112
cial	-12.4112
▁fateh	-12.4113
=101.7	-12.4113
=104.2	-12.4113
=108.2	-12.4113
=110.3	-12.4113
=110.7	-12.4113
=110.9	-12.4113
=113.2	-12.4113
=113.7	-12.4113
=115.4	-12.4113
=115.5	-12.4113
=117.4	-12.4113
=117.7	-12.4113
=118.5	-12.4113
▁Adopt	-12.4113
▁Fruit	-12.4113
▁Pruning	-12.4113
▁appetite	-12.4113
▁catterpiller	-12.4113
▁continously	-12.4113
▁convenient	-12.4113
▁gestation	-12.4113
▁gurdaspur	-12.4113
▁muwogo	-12.4113
▁rajauri	-12.4113
▁sahib	-12.4113
▁sindhudurg	-12.4113
▁yanam	-12.4113
=100.3	-12.4113
=101.9	-12.4113
=102.6	-12.4113
=103.5	-12.4113
=103.6	-12.4113
=104.5	-12.4113
=105.1	-12.4113
▁birth	-12.4113
▁learn	-12.4113
▁vein	-12.4113
20-21	-12.4113
betadine	-12.4113
▁Well	-12.4113
▁dhiren	-12.4113
▁infrastructure	-12.4114
ebwa	-12.4114
▁West	-12.4114
▁wetting	-12.4115
=114.0	-12.4117
=115.0	-12.4118
▁latehar	-12.4118
▁meri	-12.4119
):0	-12.4121
▁ezi	-12.4121
▁japanese	-12.4127
aria	-12.4127
▁minerals	-12.4128
0.2	-12.4129
▁varif	-12.4132
▁pain	-12.4135
ief	-12.4137
▁mother	-12.4146
ducing	-12.415
121.0	-12.4156
▁mounted	-12.4157
▁450	-12.4158
119.0	-12.4159
▁bahadur	-12.4161
▁credited	-12.4163
▁cleaned	-12.4166
acting	-12.4174
▁242	-12.4176
▁ab	-12.4179
503	-12.4181
▁tower	-12.4184
▁ranges	-12.4188
ible	-12.4197
▁today	-12.4202
-900	-12.4204
1.9	-12.4213
pm	-12.4218
▁bh	-12.4234
▁models	-12.4237
▁nu	-12.4237
8000	-12.4254
871	-12.4254
▁134	-12.4257
fto	-12.4258
0.8	-12.4268
mple	-12.4269
▁1.33	-12.4271
6666666666666	-12.4272
▁jacket	-12.4281
▁compound	-12.4292
▁ju	-12.4292
▁solid	-12.4293
▁fires	-12.4294
▁220	-12.4297
▁ecosystems	-12.4299
▁fitt	-12.4299
@9	-12.4299
810	-12.43
▁coc	-12.4304
▁ro	-12.4308
161.0	-12.4313
▁cont	-12.4313
769	-12.4323
▁126	-12.4331
▁0.2%	-12.4331
▁coating	-12.4334
▁travel	-12.4337
rient	-12.4341
mililitre	-12.4346
load	-12.4347
tricel	-12.4347
▁maximiz	-12.4347
▁tips	-12.4348
bo	-12.4351
-33	-12.4356
dithane	-12.4362
▁negative	-12.4363
162.0	-12.4366
▁146	-12.4366
dex	-12.4372
▁5.2	-12.4373
520	-12.4375
▁132	-12.4382
▁let	-12.439
pped	-12.4391
▁1.16	-12.4396
)0	-12.4407
#	-12.4415
▁oint	-12.4416
▁Phyto	-12.4416
▁Blitox	-12.4416
▁Eggplant	-12.4416
▁Nutrient	-12.4416
▁expensive	-12.4416
▁false	-12.4416
▁represent	-12.4416
▁sunken	-12.4416
▁versatility	-12.4416
▁calving	-12.4416
▁thinning	-12.4416
▁toxic	-12.4416
Uttar	-12.4416
▁assess	-12.4416
▁money	-12.4416
▁pollution	-12.4416
▁job	-12.4416
▁dirt	-12.4416
▁confirmation	-12.4416
▁emam	-12.4416
▁Rose	-12.4417
▁cheaper	-12.4417
▁tilth	-12.4417
▁abha	-12.4417
▁midge	-12.4417
▁sugested	-12.4417
▁detection	-12.4418
▁bact	-12.4418
▁faster	-12.4418
▁sunny	-12.4418
▁raingun	-12.4419
▁combat	-12.4421
▁blb	-12.4421
▁locality	-12.4421
▁Environmental	-12.4422
▁RE	-12.4425
▁varies	-12.4426
▁carboxin	-12.4426
▁grazing	-12.4428
▁slopes	-12.4429
▁2,4-	-12.443
▁implemented	-12.443
▁broadcasting	-12.4436
▁9435044574	-12.4439
▁deb	-12.444
▁nir	-12.4446
ree	-12.4453
▁leveled	-12.4454
set	-12.4455
▁initiate	-12.446
134.0	-12.4467
▁sulfur	-12.4472
▁see	-12.4474
▁hence	-12.4477
inous	-12.4482
▁Sp	-12.4485
▁hill	-12.4491
▁spaced	-12.4492
ula	-12.4499
▁starting	-12.45
dhi	-12.4503
▁killer	-12.4505
▁sagorika	-12.4516
9435	-12.4522
▁emphasiz	-12.4525
138.0	-12.4534
▁/10	-12.4544
09090909090909	-12.4546
.33333333333333	-12.4546
▁whit	-12.4554
▁str	-12.4562
380.0	-12.4566
▁mechanisms	-12.4569
▁dh	-12.457
▁potas	-12.4571
▁adequately	-12.4571
149.0	-12.4576
nic	-12.458
▁ear	-12.4594
nth	-12.4598
▁signals	-12.46
▁breath	-12.4606
▁blade	-12.4606
ump	-12.461
pac	-12.4612
▁/200	-12.4614
▁4.8	-12.4619
▁sections	-12.4624
-46,	-12.4625
364	-12.4629
pen	-12.4639
rom	-12.464
▁portions	-12.4641
923076923076923	-12.4647
ae	-12.465
rum	-12.465
FYM	-12.4658
total	-12.4659
891	-12.4665
imi	-12.4673
▁162	-12.4674
174.0	-12.4683
571	-12.4689
ger	-12.4691
▁displace	-12.4694
▁conc	-12.4705
▁induce	-12.4712
▁bit	-12.4713
167.0	-12.4713
▁1.17	-12.4714
▁155	-12.4721
▁Develop	-12.4728
▁grey	-12.4729
▁plug	-12.4729
▁nagamruta	-12.4729
▁finger	-12.4729
=103.8	-12.4729
=105.2	-12.4729
=109.7	-12.4729
=111.1	-12.4729
=111.2	-12.4729
=111.6	-12.4729
=112.5	-12.4729
=113.4	-12.4729
=119.6	-12.4729
=119.8	-12.4729
pankaj	-12.4729
▁blossom	-12.4729
▁chandigarh	-12.4729
▁chhotaudepur	-12.4729
▁exchange	-12.4729
▁furniture	-12.4729
▁gogoi	-12.4729
▁jogulamba	-12.4729
▁ladybugs	-12.4729
▁ludhiana	-12.4729
▁mahendragarh	-12.4729
▁nagarkurnool	-12.4729
▁parameters	-12.4729
▁sequestration	-12.4729
=103.4	-12.4729
=108.4	-12.4729
=101.3	-12.4729
▁spices	-12.4729
▁chatra	-12.4729
▁Remember	-12.4729
▁sindhuri	-12.4729
▁algal	-12.4729
▁reference	-12.4729
▁exist	-12.4729
▁pick	-12.4729
▁gomati	-12.4729
▁caseworm	-12.4729
▁viridi	-12.4729
▁gardeners	-12.4731
▁suction	-12.4731
=109.0	-12.4733
▁aminose	-12.4733
=112.0	-12.4733
▁0.99	-12.4733
tilizer	-12.4734
▁Potassium	-12.4734
▁garm	-12.4735
▁selective	-12.4735
▁targeted	-12.4736
▁topsoil	-12.4738
▁fast	-12.474
biotic	-12.4741
▁himani	-12.4741
/20	-12.4748
▁1/4	-12.4752
bala	-12.4758
▁older	-12.4758
▁rani	-12.4772
etr	-12.4774
minerax	-12.4774
attle	-12.4785
add	-12.4792
▁sheeting	-12.4792
▁mala	-12.4796
147.0	-12.4801
▁strips	-12.4806
427.0	-12.4808
▁weevils	-12.4813
▁weeders	-12.4815
117.0	-12.4825
▁0.22	-12.4842
▁army	-12.4847
????	-12.4848
135.0	-12.4853
▁inefficient	-12.4867
▁replac	-12.487
▁Top	-12.4876
▁179	-12.4886
round	-12.489
▁ali	-12.4899
▁-40	-12.4902
▁206	-12.4903
-24	-12.4909
tox	-12.4909
▁grape	-12.4915
▁153	-12.4919
▁et	-12.4919
yrs	-12.4921
▁force	-12.4922
▁Plants	-12.4927
-80	-12.4936
▁fat	-12.4947
777777777777777	-12.495
461538461538461	-12.4951
111.0	-12.4953
▁milking	-12.4958
▁facilitated	-12.4958
rry	-12.4963
▁continuously	-12.4968
potash	-12.4982
nu	-12.4984
640.0	-12.4985
198.0	-12.4989
direct	-12.4994
118.0	-12.4995
7142857142857	-12.5002
uma	-12.5005
▁Introduc	-12.5016
▁4.7	-12.5021
5000.0	-12.5024
▁leav	-12.5026
▁uproot	-12.503
▁char	-12.5046
▁0361	-12.5047
▁touch	-12.5049
▁respect	-12.5051
uestions	-12.5051
▁certifi	-12.5051
endwadde	-12.5051
▁Uganda	-12.5051
▁certificate	-12.5051
▁challenging	-12.5051
▁defoliators	-12.5051
▁depict	-12.5051
▁double	-12.5051
▁hygienic	-12.5051
▁iffco	-12.5051
▁oestrous	-12.5051
▁organization	-12.5051
▁phorate	-12.5051
▁reccomended	-12.5051
▁steroid	-12.5051
▁stopped	-12.5051
▁Continu	-12.5051
▁borrer	-12.5051
▁reddish	-12.5051
▁fumigation	-12.5051
▁layout	-12.5051
▁sulf	-12.5051
,1250	-12.5051
▁prolong	-12.5052
▁catla	-12.5052
▁integration	-12.5052
▁Pepper	-12.5052
▁East	-12.5053
lizer	-12.5053
▁China	-12.5054
▁??????????	-12.5056
▁lose	-12.5057
▁director	-12.5058
▁Healthy	-12.5059
ign	-12.5064
▁alkali	-12.5064
▁My	-12.5065
▁2.25	-12.5067
3333333333333	-12.5068
▁flour	-12.5074
izing	-12.5075
▁Weeding	-12.5078
606	-12.5079
931	-12.508
▁189	-12.5083
▁tasks	-12.509
▁intercultur	-12.509
▁kya	-12.5099
-22.	-12.5105
▁concerning	-12.5107
▁initially	-12.511
/300	-12.5112
▁pac	-12.513
▁Pre	-12.5131
▁sw	-12.5132
6-8	-12.5137
anate	-12.514
6875.	-12.5142
▁(3	-12.5145
▁sales	-12.5148
▁Phan	-12.5148
152.0	-12.515
vu	-12.5151
▁thi	-12.516
▁here	-12.5161
▁tar	-12.5161
-06	-12.5165
▁194.0	-12.5167
▁lo	-12.5174
▁vikas	-12.5185
647058823529411	-12.5196
kwa	-12.5203
36363636363636	-12.5205
irac	-12.5209
cide	-12.5212
▁drugs	-12.5214
▁predators	-12.5214
177.0	-12.5216
▁plac	-12.5231
▁1.00	-12.5232
net	-12.524
▁fol	-12.5246
▁cycles	-12.5251
▁yr	-12.5254
▁barrier	-12.5261
▁cereal	-12.5262
ngeri	-12.5263
▁emphasize	-12.5266
1/2	-12.5276
ition	-12.5278
res	-12.5278
▁op	-12.528
▁images	-12.5285
▁landhold	-12.5288
ella	-12.5294
▁chick	-12.5296
▁Rot	-12.5297
ised	-12.5304
▁pieces	-12.5306
▁aug	-12.5309
kisan	-12.5313
service	-12.5315
application	-12.5315
▁metals	-12.5322
▁weedicides	-12.5323
bic	-12.5333
▁1.29	-12.5336
▁tie	-12.5336
▁states	-12.5342
▁adhaar	-12.5343
uli	-12.5346
ort	-12.5346
dur	-12.5348
litter	-12.5351
oat	-12.5357
,13	-12.536
▁installations	-12.5365
▁Dry	-12.5372
▁specifi	-12.538
▁schem	-12.538
▁pot	-12.5381
▁appl	-12.5381
▁mosquito	-12.5384
=106.1	-12.5385
=115.7	-12.5385
=119.2	-12.5385
=139.8	-12.5385
uterine	-12.5385
▁Bengal	-12.5385
▁anantnag	-12.5385
▁bathinda	-12.5385
▁burden	-12.5385
▁faridkot	-12.5385
▁fluctuat	-12.5385
▁germplasm	-12.5385
▁inappitance	-12.5385
▁jamtara	-12.5385
▁khunti	-12.5385
▁lawngtlai	-12.5385
▁mahabubabad	-12.5385
▁mamit	-12.5385
▁nawanshahr	-12.5385
▁nirmal	-12.5385
▁rhizoctonia	-12.5385
▁sepahijala	-12.5385
▁9435066297	-12.5385
▁systematic	-12.5385
=100.9	-12.5385
=105.7	-12.5385
=108.8	-12.5385
=109.3	-12.5385
▁malwa	-12.5385
▁showcas	-12.5385
=104.4	-12.5385
▁sapota	-12.5385
▁distinct	-12.5385
▁51969	-12.5385
▁cultivating	-12.5385
▁kuwari	-12.5385
▁ramgarh	-12.5385
propelle	-12.5385
▁numerous	-12.5385
ophil	-12.5385
tono	-12.5386
▁Sub	-12.5386
▁adaptation	-12.5386
▁bind	-12.5386
▁look	-12.5386
=104.0	-12.5388
▁husbandry	-12.5389
▁regenerat	-12.5389
▁collective	-12.5389
▁tufgor	-12.5391
emmwaanyi	-12.5391
▁kale	-12.5391
▁saturated	-12.5391
▁million	-12.5392
▁defici	-12.5392
=120.0	-12.5392
▁eventual	-12.5394
▁measur	-12.5397
mno	-12.5397
▁Saaf	-12.5398
▁coalesce	-12.54
-45@2	-12.5404
reen	-12.5406
▁pas	-12.5412
▁receiv	-12.5413
umb	-12.5416
▁traits	-12.5416
▁okukula	-12.5423
▁left	-12.5425
@6	-12.5431
▁175	-12.5449
▁wea	-12.5456
▁goal	-12.5457
ological	-12.5463
145.0	-12.5465
909090909090909	-12.5468
▁stalks	-12.5472
▁aminos	-12.5472
▁completely	-12.5472
pre	-12.5483
▁real	-12.5484
▁0.875	-12.5487
ahi	-12.5493
▁bees	-12.5496
428	-12.5497
▁far	-12.5507
ung	-12.5511
▁newly	-12.5525
▁filters	-12.5532
184.0	-12.5538
bl	-12.5542
▁238	-12.5542
▁kh	-12.5542
▁1.26	-12.5543
trol	-12.5546
▁threats	-12.5549
vised	-12.5562
▁us	-12.5567
▁Fi	-12.557
▁bol	-12.5574
rina	-12.5576
beera	-12.5583
pat	-12.5588
▁1.04	-12.5599
▁intervention	-12.5605
▁legume	-12.5606
▁effort	-12.5607
▁implements	-12.5609
shaped	-12.5616
▁lah	-12.5618
5.9	-12.5645
▁05	-12.5649
web	-12.5652
▁plaster	-12.5655
▁185	-12.5655
identified	-12.5659
jorhat	-12.566
super	-12.566
tsf	-12.5664
28571428571428	-12.5665
but	-12.5678
aw	-12.5681
▁245.0	-12.5684
ank	-12.5691
▁Ex	-12.5692
0.9	-12.5693
drive	-12.5698
▁5.3	-12.57
▁combine	-12.5706
▁utr	-12.5707
▁bugs	-12.5713
▁loosen	-12.5714
▁specialize	-12.5719
▁3.9	-12.5721
▁para	-12.5722
▁roll	-12.5724
▁compact	-12.5726
▁profit	-12.5729
▁bordeu	-12.5729
▁category	-12.5729
▁Evaluat	-12.5729
▁Floating	-12.5729
▁Propiconazole	-12.5729
▁Ready	-12.5729
▁aesthetic	-12.5729
▁beginning	-12.5729
▁chamber	-12.5729
▁depression	-12.5729
▁obulungi	-12.5729
▁pineapple	-12.5729
▁raddish	-12.5729
▁sheep	-12.5729
▁sigatoka	-12.5729
▁supervision	-12.5729
▁syndrom	-12.5729
▁termeric	-12.5729
▁manifest	-12.5729
▁starch	-12.5729
▁meloxicam	-12.5729
ethylene	-12.5729
▁hoof	-12.5729
▁exact	-12.573
▁actara	-12.573
▁iodine	-12.573
▁steady	-12.573
▁varification	-12.573
▁Development	-12.573
▁dieback	-12.573
▁emulsion	-12.573
▁connection	-12.573
▁inches	-12.573
▁terrain	-12.573
▁overwatering	-12.5731
▁firm	-12.5731
▁signed	-12.5732
▁Chemical	-12.5736
-90	-12.5738
▁resilien	-12.5738
▁Tea	-12.5739
▁obtained	-12.5739
▁extended	-12.574
▁presented	-12.5745
SP	-12.5748
plus	-12.5751
▁rational	-12.5757
▁sealing	-12.5757
▁aauc	-12.5758
▁valid	-12.5761
fil	-12.5762
humi	-12.5768
▁palms	-12.5775
▁institutions	-12.5798
▁lowers	-12.5805
aba	-12.5806
183.0	-12.581
▁custom	-12.5819
▁spores	-12.5824
▁1.13	-12.5829
▁friendly	-12.5832
102.0	-12.5838
rid	-12.584
▁washing	-12.5847
▁Ho	-12.5848
▁interventions	-12.5855
▁working	-12.5856
para	-12.5859
ber	-12.5861
▁142	-12.5868
▁pron	-12.5869
182.0	-12.5872
▁Improv	-12.5874
ona	-12.5875
▁170	-12.588
860.0	-12.5884
▁156	-12.5886
▁chillie	-12.5889
unch	-12.5901
oliv	-12.5905
acc	-12.5906
▁nozzles	-12.5927
▁termina	-12.5928
mag	-12.5943
▁prevented	-12.5946
naa	-12.595
▁cob	-12.596
▁formulation	-12.5962
▁return	-12.5963
▁nicobars	-12.5966
▁fingerlings	-12.5967
▁1.97	-12.5972
nalyze	-12.5973
▁bid	-12.5977
888888888888888	-12.5978
▁patterns	-12.598
2000	-12.5988
▁compete	-12.5991
▁6.6	-12.6004
▁Ch	-12.6013
ophos	-12.6016
vimeral	-12.6017
profex	-12.6017
coconut	-12.6017
more	-12.6017
▁sea	-12.6026
▁share	-12.6044
▁notice	-12.6047
kra	-12.6048
bh	-12.6052
▁gro	-12.6058
▁mitigat	-12.6072
164.0	-12.6074
▁4.1	-12.6078
▁balod	-12.6085
=107.3	-12.6087
=111.9	-12.6087
=112.7	-12.6087
=112.8	-12.6087
=119.5	-12.6087
=143.3	-12.6087
▁Application	-12.6087
▁Appropriate	-12.6087
▁Canker	-12.6087
▁administrat	-12.6087
▁campbell	-12.6087
▁conveyance	-12.6087
▁ethrel	-12.6087
▁excavation	-12.6087
▁fazilka	-12.6087
▁gilvus	-12.6087
▁gravity	-12.6087
▁likelihood	-12.6087
▁subtropical	-12.6087
▁tympanitis	-12.6087
▁yadadri	-12.6087
STR	-12.6087
▁calves	-12.6087
▁transmission	-12.6087
▁domestic	-12.6087
▁jaggery	-12.6087
▁fluid	-12.6087
▁(10%)	-12.6087
▁invest	-12.6087
▁durable	-12.6087
▁emerg	-12.6087
▁Protect	-12.6087
▁rhizobi	-12.6087
▁disinfection	-12.6087
▁she	-12.6087
▁butox	-12.6088
▁elevated	-12.6088
▁Pick	-12.6089
▁led	-12.6092
▁vers	-12.6092
▁installed	-12.6093
▁variation	-12.6093
ifo	-12.6096
▁rh	-12.61
▁1.18	-12.6102
▁room	-12.6103
▁waterlogged	-12.6106
▁press	-12.6106
▁bordo	-12.6109
oj	-12.6113
▁Anthracnose	-12.6114
109.0	-12.6116
▁pr	-12.6119
449.0	-12.612
mox	-12.6121
▁crd	-12.6121
arm	-12.6132
▁combined	-12.6133
▁ebiriisa	-12.6137
▁aloe	-12.6147
hoo	-12.615
resh	-12.615
172.0	-12.615
▁mah	-12.6152
▁burnihat	-12.6155
ease	-12.6161
reventive	-12.6175
▁authors	-12.6189
NS	-12.6191
▁purposes	-12.6193
▁clones	-12.6194
tric	-12.6194
revention	-12.6195
▁wat	-12.6195
ple	-12.6197
▁armyworms	-12.6199
▁bred	-12.6201
...5	-12.6205
▁12000.0	-12.6205
▁officials	-12.6208
188.0	-12.6232
▁markets	-12.624
azine	-12.6245
▁prop	-12.625
▁1.47	-12.625
▁options	-12.6258
emi	-12.6268
pari	-12.627
▁cul	-12.6273
etc	-12.6275
▁192	-12.6284
761	-12.6294
▁ra	-12.6299
▁ebiri	-12.6306
608.0	-12.6312
▁applicants	-12.6314
▁fertili	-12.6315
tundu	-12.6321
1200	-12.6328
▁Tra	-12.6329
▁scientist	-12.6332
▁official	-12.6333
▁11.1	-12.6334
▁lesion	-12.6334
▁limitation	-12.6335
late	-12.6341
940.0	-12.6344
aga	-12.6349
ole	-12.6352
pon	-12.6356
906	-12.6357
▁cup	-12.6375
324.0	-12.638
though	-12.6383
0.3	-12.6384
burnihat	-12.6386
eligible	-12.6387
ranjit	-12.6387
inactive	-12.6387
point	-12.639
althion	-12.6393
ete	-12.6397
about	-12.64
bred	-12.6408
▁ez	-12.6414
▁mark	-12.6424
▁build	-12.6438
▁deworm	-12.6439
▁releas	-12.6444
▁shel	-12.6451
ctober	-12.6452
▁maggot	-12.6454
asonry	-12.6454
ology	-12.6455
▁sarma	-12.6456
▁socio	-12.6457
▁First	-12.6457
▁course	-12.6457
▁deppt	-12.6457
▁granules	-12.6457
▁intended	-12.6457
▁juggery	-12.6457
▁kunwari	-12.6457
▁nmmi	-12.6457
▁percolation	-12.6457
▁policies	-12.6457
▁pregnancy	-12.6457
▁prolific	-12.6457
▁reaction	-12.6457
▁renewable	-12.6457
▁spatial	-12.6457
▁spoilage	-12.6457
▁sunshine	-12.6457
▁tolerance	-12.6457
▁worldwide	-12.6457
▁photosynthetic	-12.6457
▁title	-12.6457
▁bedrock	-12.6457
▁built	-12.6457
▁decomposition	-12.6457
▁calshakti	-12.6457
▁stubble	-12.6457
▁Maize	-12.6457
▁basins	-12.6457
▁celphos	-12.6457
▁forecast	-12.6457
▁Inject	-12.6457
▁Mono	-12.6457
▁shelter	-12.6457
▁thickness	-12.6457
▁prevalent	-12.6457
▁aauj	-12.6457
achna	-12.6458
▁nano	-12.6458
▁tines	-12.6459
▁marginal	-12.6459
▁silk	-12.6461
▁floral	-12.6462
▁bait	-12.6463
▁sbi	-12.6464
▁mostly	-12.6469
▁7-8	-12.6469
▁moc	-12.647
▁sensitiv	-12.6472
▁glyphosate	-12.6472
▁minister	-12.6474
▁strengthen	-12.6475
irimu	-12.6477
▁330	-12.6478
▁riser	-12.6485
▁193	-12.6485
▁2/3	-12.6486
352941176470588	-12.649
▁176	-12.6501
▁1.125	-12.6501
9090909090909	-12.6504
▁brac	-12.6505
tta	-12.6514
▁isolate	-12.6515
▁rationally	-12.6515
▁households	-12.6516
tment	-12.6522
637.0	-12.6524
102	-12.6525
07692307692307	-12.6526
▁Enhance	-12.6527
(2	-12.6528
tar	-12.6532
▁gasholders	-12.6533
▁necessitate	-12.6535
-6444	-12.6546
▁08	-12.6556
▁02	-12.6558
▁1.45	-12.6562
over	-12.6562
▁202	-12.657
ura	-12.6574
▁dusting	-12.6576
3478	-12.6583
▁650	-12.6602
bul	-12.6603
▁beet	-12.6632
▁dat	-12.6634
anti	-12.6643
▁drive	-12.6653
▁biovita	-12.6665
▁ava	-12.6668
▁bani	-12.6671
139.0	-12.6677
2.6	-12.6679
ova	-12.6685
▁influenc	-12.6695
▁1.12	-12.6699
▁wheel	-12.6717
▁disadvantage	-12.6718
▁dial	-12.6721
116.0	-12.6727
▁hose	-12.6728
UC	-12.6732
154.0	-12.6733
pyr	-12.6739
▁bya	-12.6747
44444444444444	-12.6752
thi	-12.6758
@30	-12.6762
eri	-12.6764
rusting	-12.6767
sulfur	-12.6771
transplant	-12.6771
wood	-12.6772
potassium	-12.6772
spacing	-12.6772
zim	-12.6778
▁04	-12.6781
▁-1	-12.6788
olus	-12.679
9.3	-12.6795
flower	-12.6799
tation	-12.6799
▁trans	-12.6799
▁tu	-12.6815
▁plow	-12.6823
▁rise	-12.6827
▁plastics	-12.683
▁La	-12.6832
▁flora	-12.6837
ercospor	-12.6838
▁mention	-12.6838
iplex	-12.6841
seudomonas	-12.6841
▁saikia	-12.6842
=105.3	-12.6842
=122.4	-12.6842
=133.8	-12.6842
=133.9	-12.6842
▁Field	-12.6842
▁Identify	-12.6842
▁Poplar	-12.6842
▁Reckoner	-12.6842
▁September	-12.6842
▁allocation	-12.6842
▁anjaw	-12.6842
▁applicable	-12.6842
▁butachlor	-12.6842
▁changlang	-12.6842
▁deterioration	-12.6842
▁diversify	-12.6842
▁dwarka	-12.6842
▁estrus	-12.6842
▁framework	-12.6842
▁frenchbean	-12.6842
▁jayashankar	-12.6842
▁kishtwar	-12.6842
▁kumey	-12.6842
▁ladakh	-12.6842
▁neurobion	-12.6842
▁paralgin	-12.6842
▁pulwama	-12.6842
▁queries	-12.6842
▁saiha	-12.6842
▁sangrur	-12.6842
▁shamli	-12.6842
▁snail	-12.6842
▁swarna	-12.6842
▁toximar	-12.6842
▁utensil	-12.6842
▁varrietes	-12.6842
▁smell	-12.6842
=103.3	-12.6842
=106.8	-12.6842
=132.9	-12.6842
▁March	-12.6842
▁deploy	-12.6842
▁suryapet	-12.6842
=133.4	-12.6842
=135.4	-12.6842
▁Missi	-12.6842
▁levelled	-12.6842
▁washington	-12.6842
▁photo	-12.6842
▁laboratory	-12.6842
▁mild	-12.6842
▁relieve	-12.6842
▁shock	-12.6842
▁trycel	-12.6842
▁homogeneous	-12.6842
▁Wood	-12.6842
corrosi	-12.6842
▁quary	-12.6842
▁hapur	-12.6842
▁Stee	-12.6842
▁counter	-12.6843
▁Sandal	-12.6843
▁still	-12.6843
atural	-12.6843
▁withered	-12.6843
▁azad	-12.6844
▁reaches	-12.6844
enka	-12.6848
▁broken	-12.6849
imalaya	-12.6849
▁Rhizoctonia	-12.6851
▁duaprim	-12.6851
▁streptcycline	-12.6851
▁Specific	-12.6854
▁expose	-12.6855
▁buri	-12.6855
163.0	-12.6858
▁sevin	-12.686
guri	-12.6861
▁dew	-12.6863
▁meb	-12.6863
cul	-12.6864
fall	-12.6865
3.7	-12.6866
▁FIRB	-12.6868
▁100-150	-12.6872
▁entering	-12.6875
▁kuru	-12.6876
▁Seedlings	-12.6878
▁carb	-12.6882
ties	-12.6884
amine	-12.6888
▁shoulders	-12.6892
▁innovat	-12.69
▁decisions	-12.6918
rive	-12.6923
7.7	-12.6929
grow	-12.6929
1.4	-12.693
▁breaking	-12.6937
formed	-12.6937
eza	-12.6939
▁0.10	-12.6941
▁bricks	-12.6943
ngular	-12.6943
oa	-12.6946
▁ey	-12.6956
127.0	-12.6957
inch	-12.6965
▁gran	-12.6967
▁@12	-12.6968
▁440.0	-12.6969
▁1750	-12.6971
▁scientists	-12.6972
▁wasp	-12.6984
▁0.17	-12.6988
▁212	-12.6989
▁@20	-12.6993
2.4	-12.6994
▁-10	-12.6995
efficient	-12.6997
rowing	-12.6999
171.0	-12.7
▁availing	-12.7007
till	-12.7012
inate	-12.7013
▁ltd	-12.7014
▁219	-12.7019
kuba	-12.702
gal	-12.7025
▁fi	-12.7031
▁159	-12.7034
nded	-12.7034
fed	-12.7034
osis	-12.7035
▁war	-12.7042
oid	-12.7046
768.0	-12.7047
▁1.65	-12.7055
bout	-12.7061
▁forming	-12.7071
▁highlights	-12.7073
▁ev	-12.7073
▁functions	-12.7089
▁127	-12.7102
osa	-12.7114
428.0	-12.7115
tera	-12.7115
▁armyworm	-12.7117
enoi	-12.7118
▁duckling	-12.7121
▁driv	-12.7122
▁trim	-12.7122
W	-12.7123
▁sucker	-12.7124
most	-12.7128
rang	-12.7132
live	-12.7133
nna	-12.7136
rew	-12.7143
mulate	-12.7148
eel	-12.7165
▁though	-12.7169
ebinyeebwa	-12.717
krh	-12.717
producing	-12.7171
keep	-12.7172
carbendazim	-12.7172
chi	-12.7175
545454545454545	-12.7176
oster	-12.7178
ado	-12.7192
▁stw	-12.7196
▁train	-12.7203
imu	-12.7204
vitamin	-12.7208
1600	-12.7213
▁Fertilize	-12.7213
▁culm	-12.7214
▁shift	-12.7219
▁1.03	-12.7221
form	-12.7222
▁Hav	-12.7225
▁152	-12.7235
▁cristocyclin	-12.7238
echanical	-12.7238
▁arrange	-12.7241
nkola	-12.7241
▁stream	-12.7241
▁irregular	-12.7241
▁recommne	-12.7242
sinziira	-12.7242
▁Celsius	-12.7242
▁Conduct	-12.7242
▁Design	-12.7242
▁Dilute	-12.7242
▁Hypo	-12.7242
▁Manure	-12.7242
▁abundan	-12.7242
▁accuracy	-12.7242
▁chronic	-12.7242
▁conjunctivitis	-12.7242
▁crystal	-12.7242
▁display	-12.7242
▁extreme	-12.7242
▁ferilizer	-12.7242
▁groviplex	-12.7242
▁mortar	-12.7242
▁nasdar	-12.7242
▁possess	-12.7242
▁previous	-12.7242
▁receipt	-12.7242
▁simplifie	-12.7242
▁sudden	-12.7242
▁suspension	-12.7242
▁universal	-12.7242
▁verification	-12.7242
▁vigour	-12.7242
▁wildlife	-12.7242
▁Banana	-12.7242
▁provision	-12.7242
▁ripening	-12.7242
▁saddle	-12.7242
▁cooking	-12.7242
▁coupler	-12.7242
▁delicious	-12.7242
▁flame	-12.7242
▁angle	-12.7242
pactus	-12.7242
▁Bihar	-12.7242
▁arrangement	-12.7242
▁replacement	-12.7242
▁findings	-12.7242
▁submer	-12.7242
▁dipali	-12.7242
▁okutu	-12.7242
▁scab	-12.7242
▁Row	-12.7242
▁Spot	-12.7242
▁fixation	-12.7243
activator	-12.7244
▁tax	-12.7244
▁things	-12.7244
▁helpful	-12.7244
purifie	-12.7245
▁strain	-12.7245
435.0	-12.7246
kuchi	-12.7249
▁viruses	-12.7252
▁40-50	-12.7254
▁2.5-3	-12.726
hind	-12.7262
▁101	-12.7266
▁availed	-12.7271
▁focuse	-12.7274
▁4.4	-12.7276
▁fry	-12.7287
▁shared	-12.729
▁jrc	-12.7292
ime	-12.7297
▁ecto	-12.7298
=13	-12.7299
dde	-12.7302
▁turning	-12.7304
@19	-12.7308
qui	-12.7308
3000	-12.7314
ection	-12.7321
▁1.35	-12.7332
6.7	-12.7334
▁tray	-12.7334
▁bro	-12.7335
414.0	-12.7336
▁onset	-12.7337
▁warming	-12.7341
▁1400	-12.7347
▁@2.5	-12.7358
▁workers	-12.7359
▁hydro	-12.736
▁spreader	-12.7363
▁def	-12.7364
▁mos	-12.7371
cer	-12.7374
▁14000.0	-12.7374
inash	-12.7375
123.0	-12.738
uitable	-12.7381
529411764705882	-12.7384
ele	-12.739
5625.	-12.7393
▁works	-12.7393
▁1.27	-12.7394
153.0	-12.7403
▁met	-12.7418
vol	-12.7428
38461538461538	-12.7441
847.0	-12.7446
▁retains	-12.7446
▁pots	-12.7461
jaya	-12.7462
▁leakages	-12.7487
▁received	-12.7491
(100	-12.7491
▁designing	-12.7492
pig	-12.7499
146.0	-12.7499
▁diu	-12.7502
684210526315789	-12.7502
/08	-12.7502
6.6	-12.7512
apr	-12.7528
▁Crops	-12.7531
▁clone	-12.7534
▁sale	-12.7537
394.0	-12.7545
▁5.1	-12.755
@15	-12.7551
ace	-12.7558
▁2000	-12.7568
705882352941176	-12.7573
▁meta	-12.7582
777777777777	-12.7587
quintal	-12.7588
pesticide	-12.7589
again	-12.759
▁147	-12.7592
▁263.0	-12.7596
▁247.0	-12.76
shed	-12.7614
mati	-12.7615
ute	-12.7617
▁9854	-12.7618
US	-12.7621
▁...	-12.7624
583333333333333	-12.7627
▁9.8	-12.7635
1995	-12.7637
▁introduc	-12.7637
▁1.15	-12.7641
uit	-12.7645
▁Are	-12.7658
▁transmit	-12.7658
▁pseudo	-12.7658
▁brahma	-12.7658
=113.9	-12.7658
=115.8	-12.7658
=121.8	-12.7658
=124.7	-12.7658
=125.5	-12.7658
=131.1	-12.7658
=141.4	-12.7658
=149.6	-12.7658
enjawulo	-12.7658
exploitation	-12.7658
judicious	-12.7658
poinsette	-12.7658
▁NMMI	-12.7658
▁aluminium	-12.7658
▁amaranth	-12.7658
▁anoestrous	-12.7658
▁caterpilar	-12.7658
▁clamps	-12.7658
▁compatibility	-12.7658
▁coragen	-12.7658
▁deoghar	-12.7658
▁discipline	-12.7658
▁dispensary	-12.7658
▁dormancy	-12.7658
▁downward	-12.7658
▁emissions	-12.7658
▁fowl	-12.7658
▁gerbera	-12.7658
▁inefficiencies	-12.7658
▁infusion	-12.7658
▁ketki	-12.7658
▁khowai	-12.7658
▁network	-12.7658
▁outcomes	-12.7658
▁palwal	-12.7658
▁parturation	-12.7658
▁petiole	-12.7658
▁reliance	-12.7658
▁scheduling	-12.7658
▁serchhip	-12.7658
▁siddipet	-12.7658
▁unsuitable	-12.7658
▁verified	-12.7658
▁vitaplex	-12.7658
▁women	-12.7658
=100.8	-12.7658
=137.2	-12.7658
hosphomidon	-12.7658
▁karate	-12.7658
▁tick	-12.7658
▁drippers	-12.7658
▁jackfruit	-12.7658
mferon	-12.7658
▁juice	-12.7658
▁sapwood	-12.7658
▁rohu	-12.7658
▁infra	-12.7658
▁buildup	-12.7658
894736842105263	-12.7658
▁toxicity	-12.7658
▁label	-12.7659
▁islam	-12.766
▁restore	-12.7661
/2021	-12.7661
gmail	-12.7661
pot	-12.7662
=5.0	-12.7662
▁*491*103#	-12.7663
▁nti	-12.7664
=129.0	-12.7664
=113.0	-12.7665
▁inner	-12.7665
tia	-12.7665
▁agromycine	-12.7667
jyotiprasad	-12.7668
zole	-12.767
▁gentamycin	-12.7672
▁rft	-12.7672
▁@18	-12.7673
▁mangoes	-12.7673
▁wor	-12.7675
▁adopted	-12.7675
▁April	-12.7675
▁damaging	-12.7675
▁sulphide	-12.7675
▁flash	-12.7675
omite	-12.7677
▁ranikhet	-12.7678
▁shifting	-12.7678
)@2	-12.7682
/3	-12.7685
▁Regard	-12.7689
nol	-12.7691
superphosphate	-12.7694
▁immun	-12.7695
▁chloropyriphose	-12.7696
▁mission	-12.7697
ened	-12.7699
▁constraints	-12.7704
▁ebikoola	-12.7706
▁1.07	-12.7707
mbula	-12.771
▁pgr	-12.7715
▁wart	-12.7717
meter	-12.7728
▁anci	-12.7733
▁twigs	-12.7736
pet	-12.7738
▁initiatives	-12.7741
▁casings	-12.7747
166.0	-12.775
85714285714	-12.7751
▁bay	-12.7765
▁push	-12.7766
▁cure	-12.777
▁slugs	-12.7774
-120	-12.7779
kh	-12.7781
anga	-12.7784
rding	-12.7785
▁75%	-12.7785
▁???????????	-12.7785
▁regulators	-12.7785
416666666666666	-12.7787
tali	-12.7803
▁wasps	-12.7807
endo	-12.7808
▁fer	-12.781
868.0	-12.7817
pine	-12.7826
▁integrat	-12.7833
▁14.3	-12.7856
▁1.21	-12.7865
erox	-12.7871
131.0	-12.7871
▁Liv	-12.7878
958	-12.7879
▁eco	-12.788
617.0	-12.7881
-38,	-12.7885
▁replace	-12.7898
▁galls	-12.79
▁pant	-12.7907
vice	-12.7908
▁1.02	-12.7908
ldin	-12.7943
▁author	-12.7963
7692307692307	-12.7963
urface	-12.7969
▁mast	-12.797
▁lam	-12.797
144.0	-12.7972
▁166	-12.7978
▁worker	-12.7979
▁cell	-12.7983
3.3	-12.799
dependence	-12.8001
▁recomme	-12.8015
kulu	-12.8022
bahadur	-12.8022
emergence	-12.8023
repellent	-12.8023
Plant	-12.8023
chlorpyriphos	-12.8023
value	-12.8023
local	-12.8024
440.0	-12.8029
sted	-12.8033
Re	-12.8034
▁197	-12.8036
▁failures	-12.8036
pil	-12.8037
29411764705882	-12.8037
395.	-12.8039
▁2800.0	-12.8042
eti	-12.8044
▁Reduce	-12.8064
▁poison	-12.8074
788.0	-12.8077
▁1.30	-12.8077
ender	-12.8078
▁07	-12.8078
173.0	-12.8078
767.0	-12.808
▁subven	-12.8091
ustainable	-12.8092
ectona	-12.8092
▁progress	-12.8092
▁tonophosph	-12.8093
cterial	-12.8093
▁ferment	-12.8093
▁tract	-12.8093
▁albom	-12.8093
bishnuprasad	-12.8093
▁categories	-12.8093
▁phytoplasma	-12.8093
▁01123382401	-12.8093
▁Brazil	-12.8093
▁Center	-12.8093
▁Fixed	-12.8093
▁Initial	-12.8093
▁additive	-12.8093
▁aeroponic	-12.8093
▁aggregation	-12.8093
▁ahmed	-12.8093
▁approx	-12.8093
▁beneficiery	-12.8093
▁bracket	-12.8093
▁classified	-12.8093
▁drooping	-12.8093
▁escape	-12.8093
▁excell	-12.8093
▁incubation	-12.8093
▁inelegibility	-12.8093
▁malformation	-12.8093
▁nectar	-12.8093
▁penetrate	-12.8093
▁repayment	-12.8093
▁scenarios	-12.8093
▁sodium	-12.8093
▁topography	-12.8093
▁utility	-12.8093
▁vapor	-12.8093
Manual	-12.8093
▁geographic	-12.8093
▁splash	-12.8093
▁Raja	-12.8093
▁world	-12.8093
iddwa	-12.8093
▁microbes	-12.8093
▁narrow	-12.8093
▁reinforcement	-12.8093
▁trecel	-12.8093
▁bactericide	-12.8093
▁streamline	-12.8093
▁relation	-12.8093
▁route	-12.8093
▁trauma	-12.8093
▁icar	-12.8093
▁speak	-12.8093
▁greyish	-12.8093
▁cyst	-12.8093
▁moment	-12.8094
▁severity	-12.8094
▁setts	-12.8094
▁borah	-12.8094
▁Severe	-12.8095
175.0	-12.8097
615384615384	-12.8097
vent	-12.8097
▁cumin	-12.8097
▁vermi	-12.8098
▁dia	-12.8098
▁bettle	-12.8098
▁sign	-12.8099
PS	-12.8101
▁Cap	-12.8101
▁castrated	-12.8103
ceae	-12.8104
▁35-40	-12.8105
▁linked	-12.8105
▁assamese	-12.8106
▁horsepower	-12.8108
▁selling	-12.8109
▁media	-12.811
▁Sali	-12.8113
▁ebiramu	-12.8114
106.0	-12.8117
▁Soak	-12.8118
mail	-12.8122
▁flooded	-12.8122
▁sprouting	-12.8122
▁ruminants	-12.8124
pol	-12.8126
▁maturing	-12.8126
▁okukendee	-12.8126
▁4.9	-12.8127
▁345	-12.8128
▁luit	-12.8131
▁pack	-12.8137
▁Introduce	-12.8141
▁hatch	-12.8143
/2019	-12.8145
colored	-12.8147
-46	-12.8148
▁nodes	-12.8151
gest	-12.8155
@1250	-12.8155
▁May	-12.8159
9934	-12.8159
5.8	-12.8161
▁1.46	-12.8164
▁223	-12.8171
SSP	-12.8173
hac	-12.8179
size	-12.8188
▁begins	-12.8191
1500	-12.8194
arn	-12.82
▁sometimes	-12.8202
▁169	-12.8204
cular	-12.8206
22222222222222	-12.8206
▁183	-12.8207
ride	-12.821
▁smallholder	-12.8211
▁Irrigate	-12.8218
113.0	-12.8219
head	-12.8234
mx	-12.8239
jib	-12.8245
▁dam	-12.8248
phen	-12.8254
▁0.14	-12.8255
wer	-12.8256
aff	-12.8258
46153846153846	-12.8258
▁783	-12.8265
thought	-12.8269
nan	-12.8272
1.6	-12.8273
▁232	-12.8291
▁2500	-12.8294
23076923076923	-12.8294
▁Prevent	-12.8299
xyl	-12.8305
77777777777777	-12.8308
1111111111111	-12.8312
▁bou	-12.8317
▁nets	-12.8319
▁fit	-12.8324
▁cutworms	-12.8327
induce	-12.8334
movable	-12.8336
▁-5	-12.8353
▁0.12	-12.8354
ori	-12.8359
enta	-12.8363
▁1.61	-12.8363
banga	-12.8367
▁9864	-12.8372
▁11.4	-12.8396
ghy	-12.8397
...10	-12.8406
▁243.0	-12.8411
▁178	-12.8417
▁slug	-12.8423
▁spore	-12.8423
▁component	-12.8425
▁lengths	-12.8431
▁locations	-12.8431
=50	-12.8432
oria	-12.844
serving	-12.844
ush	-12.8446
ency	-12.845
▁pal	-12.8452
▁amino	-12.8456
19354838709	-12.8458
▁11.5	-12.846
▁kha	-12.8462
marketing	-12.8477
chloropyriphos	-12.8478
kilogram	-12.8478
you	-12.8479
batch	-12.8479
▁325	-12.8479
sured	-12.848
ground	-12.8481
weed	-12.8483
▁examples	-12.85
bri	-12.8505
▁excessively	-12.8506
▁Under	-12.8509
raj	-12.851
ema	-12.8513
breed	-12.8513
inject	-12.8516
▁mamm	-12.8521
▁projects	-12.8523
185.0	-12.8526
yielding	-12.8527
▁1.28	-12.8528
730.0	-12.8529
lium	-12.8533
626.0	-12.8533
otic	-12.8542
pest	-12.8543
ptimiz	-12.8544
▁mount	-12.8544
▁tannin	-12.8544
▁clog	-12.8545
tesh	-12.8546
anuary	-12.8547
▁Hand	-12.8547
▁abnormal	-12.8547
▁phytopth	-12.8547
=111.5	-12.8548
=118.2	-12.8548
=120.3	-12.8548
=122.9	-12.8548
=125.7	-12.8548
=128.3	-12.8548
=134.8	-12.8548
=138.6	-12.8548
=138.7	-12.8548
=142.4	-12.8548
=145.5	-12.8548
conspicuous	-12.8548
kyusa	-12.8548
soluble	-12.8548
▁Captan	-12.8548
▁Coconut	-12.8548
▁Consider	-12.8548
▁MKP	-12.8548
▁Small	-12.8548
▁accessories	-12.8548
▁accommodat	-12.8548
▁asafoetida	-12.8548
▁changing	-12.8548
▁chhuhara	-12.8548
▁cowdang	-12.8548
▁dhanbad	-12.8548
▁hampshire	-12.8548
▁inaccurate	-12.8548
▁jalandhar	-12.8548
▁manuring	-12.8548
▁packaging	-12.8548
▁piller	-12.8548
▁planthoppers	-12.8548
▁practise	-12.8548
▁rajanna	-12.8548
▁sahebganj	-12.8548
▁sanyog	-12.8548
▁shillongani	-12.8548
▁sustainably	-12.8548
▁tawang	-12.8548
▁turbidity	-12.8548
▁welded	-12.8548
▁metador	-12.8548
▁series	-12.8548
=133.6	-12.8548
▁bulk	-12.8548
=108.9	-12.8548
=130.3	-12.8548
=136.7	-12.8548
=137.7	-12.8548
=138.8	-12.8548
cnose	-12.8548
▁Insect	-12.8548
▁healing	-12.8548
▁Ashajyothi	-12.8548
▁neglect	-12.8548
▁proliferation	-12.8548
▁capability	-12.8548
▁screen	-12.8548
▁darkening	-12.8548
▁radioactive	-12.8548
▁horn	-12.8548
▁electro	-12.8548
▁tridomorph	-12.8548
▁Creat	-12.8548
▁daman	-12.8548
▁regulation	-12.8548
▁spiti	-12.8548
bolus	-12.8548
▁rars	-12.8549
▁annum	-12.8549
▁replanting	-12.8549
▁association	-12.8551
▁Incorporate	-12.8551
▁tender	-12.8551
▁identi	-12.8552
▁ball	-12.8552
=101.0	-12.8553
Phase	-12.8553
=142.0	-12.8553
▁5.4	-12.8554
▁silver	-12.8554
=139.0	-12.8554
=126.0	-12.8554
=134.0	-12.8554
sajuli	-12.8555
▁grasses	-12.8555
▁catch	-12.8557
▁228	-12.8558
=130.0	-12.8559
▁Blight	-12.856
▁gradually	-12.8561
▁Tricel	-12.8563
▁mrigal	-12.8566
htin	-12.8568
▁shakti	-12.8569
▁40-50%	-12.8574
▁sen	-12.8576
3.1	-12.8581
▁corner	-12.8584
lining	-12.8584
▁tensi	-12.8586
▁Classic	-12.8586
7.1	-12.8587
▁wear	-12.859
irus	-12.8593
aan	-12.8595
▁sim	-12.8595
▁7.4	-12.8602
▁indigestion	-12.861
702.0	-12.8614
▁hind	-12.8616
6.8	-12.862
▁Harvesting	-12.862
0383	-12.8622
▁had	-12.8622
▁band	-12.8639
▁bend	-12.8642
epil	-12.8646
6000	-12.8647
▁waterproof	-12.8649
▁formula	-12.8656
rajan	-12.8661
▁errors	-12.8668
39130434782608	-12.8669
8719	-12.8671
2105	-12.8677
▁gu	-12.8681
▁formed	-12.8681
▁2,4	-12.8688
▁1.32	-12.8693
▁1.96	-12.8697
▁234	-12.8698
umi	-12.8699
▁gaon	-12.8701
▁formulations	-12.871
▁np	-12.871
▁legumes	-12.8716
burnt	-12.8718
48148148148148	-12.8718
▁bore	-12.872
▁177	-12.8729
▁suppresse	-12.8733
soiling	-12.8733
9706	-12.875
rought	-12.8752
▁0.25%	-12.8752
▁complicate	-12.8754
cation	-12.8754
▁disorders	-12.8757
756.0	-12.876
▁fertilized	-12.8761
0944	-12.8764
▁caf	-12.8765
▁And	-12.8766
50,000	-12.8768
▁@6	-12.8769
▁cats	-12.8778
▁1.39	-12.8783
ility	-12.8783
4.4	-12.8791
aka	-12.8793
▁closely	-12.8794
▁gir	-12.8799
▁9957	-12.8808
▁okul	-12.8813
2002	-12.8829
▁ste	-12.8837
RI	-12.8843
38095238095238	-12.8849
▁1.01	-12.885
▁scales	-12.8853
▁bao	-12.8868
duced	-12.8869
kozesa	-12.8881
emp	-12.8881
▁Up	-12.8888
▁pri	-12.8899
▁error	-12.8899
▁brick	-12.8899
▁stalk	-12.89
▁channel	-12.8901
going	-12.8906
▁regulat	-12.8911
▁guard	-12.8923
▁histor	-12.8929
▁5.6	-12.8934
oxy	-12.8938
▁1.74	-12.8939
▁213	-12.894
▁Enhanc	-12.8943
anka	-12.8944
structured	-12.8946
▁abo	-12.8949
dimecron	-12.8953
blue	-12.8954
Fusarium	-12.8954
large	-12.8954
ostovet	-12.8954
branch	-12.8954
climat	-12.8954
captan	-12.8954
management	-12.8954
ganga	-12.8957
west	-12.8962
@17	-12.8963
adu	-12.8968
▁1.08	-12.8971
▁1.68	-12.8976
▁1.20	-12.8978
▁1.31	-12.898
▁190	-12.8995
▁weeder	-12.9002
157894736842105	-12.9003
▁1.51	-12.9005
187.0	-12.9007
bom	-12.9009
5.7	-12.901
047619047619047	-12.9014
▁stag	-12.9014
▁ooz	-12.9015
nsigo	-12.9019
inistry	-12.9021
▁margin	-12.9021
095238095238095	-12.9021
enomyl	-12.9022
▁opportunit	-12.9024
rofloxacin	-12.9024
obutonde	-12.9024
▁Arunachalam	-12.9024
▁Copper	-12.9024
▁Planofix	-12.9024
▁aquaponic	-12.9024
▁broiller	-12.9024
▁bulungi	-12.9024
▁capabilities	-12.9024
▁chetki	-12.9024
▁exacerbate	-12.9024
▁excreta	-12.9024
▁inflammation	-12.9024
▁permeability	-12.9024
▁prominent	-12.9024
▁suhara	-12.9024
▁transpiration	-12.9024
▁wakati	-12.9024
continent	-12.9024
▁attribute	-12.9024
▁deshi	-12.9024
▁certification	-12.9024
▁suugest	-12.9024
▁abnormalities	-12.9024
▁contour	-12.9024
▁spind	-12.9024
▁internet	-12.9024
▁synerg	-12.9024
otrim	-12.9024
▁botle	-12.9024
▁nitrate	-12.9024
▁wetted	-12.9024
▁variability	-12.9025
▁desp	-12.9025
▁Handa	-12.9026
▁ridf	-12.9026
▁ulceration	-12.9026
▁suppression	-12.9026
▁wine	-12.9026
▁lakh	-12.9027
▁tectonae	-12.9027
▁Fish	-12.9028
lade	-12.9028
▁chow	-12.9028
▁flo	-12.9029
mt	-12.9029
▁simultaneously	-12.903
▁assembly	-12.9032
▁mahe	-12.9032
▁propiconazole	-12.9033
▁craft	-12.9034
▁Transplanting	-12.9038
▁sticker	-12.9038
▁9.1	-12.9038
▁windbreaks	-12.9039
176470588235294	-12.9039
▁flushing	-12.904
▁fence	-12.9041
▁chain	-12.9041
▁intramuscularly	-12.9044
▁recommende	-12.9044
▁rounded	-12.9046
▁polish	-12.9046
▁plowing	-12.9048
3.6	-12.905
(1	-12.905
▁suit	-12.9051
4285714285714	-12.9052
▁wit	-12.9053
▁qtl	-12.9057
▁settle	-12.9064
esh	-12.9066
▁comm	-12.9069
▁174	-12.9076
rained	-12.9077
28571428571	-12.9079
▁1.38	-12.908
af	-12.9082
▁propagat	-12.9083
fermentation	-12.9086
poru	-12.9087
▁ago	-12.9087
994.0	-12.9088
singa	-12.909
fix	-12.9102
thio	-12.9103
▁ekiy	-12.912
▁intercrop	-12.9139
5862	-12.9154
▁killing	-12.9155
736842105263157	-12.9163
▁0.05	-12.9166
otatoes	-12.9167
195.	-12.9179
▁fl	-12.9191
▁6.2	-12.92
615.0	-12.9202
▁bwa	-12.9214
pid	-12.9217
cit	-12.9233
1304	-12.9233
▁168	-12.9237
▁2.50	-12.9249
@250	-12.9264
151.0	-12.9266
▁supplies	-12.9269
tall	-12.9274
▁kids	-12.9274
31578947368421	-12.9277
▁changed	-12.928
▁vita	-12.9289
oni	-12.9296
270.0	-12.931
▁users	-12.9326
hya	-12.9327
fos	-12.933
crop	-12.9336
▁pen	-12.9337
MI	-12.9352
▁SA	-12.9353
▁gw	-12.9368
▁actions	-12.937
9898	-12.9384
mentation	-12.9391
▁ke	-12.9399
▁finishe	-12.94
▁attachment	-12.9401
zin	-12.9403
▁stone	-12.9403
▁sometime	-12.9404
▁222.0	-12.941
▁windy	-12.9416
▁strip	-12.9419
feed	-12.9435
gourd	-12.9449
352.0	-12.9451
ebiriisa	-12.9453
mounted	-12.9453
february	-12.9454
ostocalcium	-12.9454
infested	-12.9454
strong	-12.9454
wanted	-12.9454
krishna	-12.9454
ebiwuka	-12.9454
specific	-12.9454
fertilization	-12.9454
outlet	-12.9454
cultivation	-12.9454
▁fewe	-12.9456
borer	-12.9457
155.0	-12.9468
referred	-12.9469
itter	-12.9471
▁1.34	-12.9475
▁consume	-12.948
▁1.09	-12.9482
▁slop	-12.9483
-21	-12.9489
okufu	-12.9492
octa	-12.9502
▁13.5	-12.9506
hil	-12.9509
▁born	-12.951
▁stunt	-12.952
ethyl	-12.9521
▁discard	-12.9521
▁class	-12.9522
actors	-12.9523
eterinary	-12.9523
=117.8	-12.9524
=120.4	-12.9524
=120.7	-12.9524
=121.3	-12.9524
=121.7	-12.9524
=122.5	-12.9524
=125.1	-12.9524
=126.9	-12.9524
=127.8	-12.9524
=127.9	-12.9524
=129.1	-12.9524
=129.3	-12.9524
=129.5	-12.9524
=129.6	-12.9524
=129.9	-12.9524
=132.1	-12.9524
=136.1	-12.9524
=138.2	-12.9524
=139.2	-12.9524
=141.5	-12.9524
=144.9	-12.9524
=146.9	-12.9524
=147.3	-12.9524
=147.7	-12.9524
=149.8	-12.9524
Uniform	-12.9524
consuming	-12.9524
spectrum	-12.9524
▁Establish	-12.9524
▁Recent	-12.9524
▁album	-12.9524
▁antioxidant	-12.9524
▁barnala	-12.9524
▁believe	-12.9524
▁brooding	-12.9524
▁butterfly	-12.9524
▁byrnihut	-12.9524
▁circumstances	-12.9524
▁efficiencies	-12.9524
▁endosulfan	-12.9524
▁examination	-12.9524
▁expansion	-12.9524
▁fountain	-12.9524
▁hinosan	-12.9524
▁kalaigaon	-12.9524
▁kapurthala	-12.9524
▁okuyamba	-12.9524
▁pakur	-12.9524
▁peddapalli	-12.9524
▁recognize	-12.9524
▁recycling	-12.9524
▁rhidomil	-12.9524
▁sivsagar	-12.9524
▁uneconomical	-12.9524
▁uterus	-12.9524
▁wireworms	-12.9524
=126.4	-12.9524
=138.4	-12.9524
=143.4	-12.9524
=144.4	-12.9524
▁Institute	-12.9524
▁Limit	-12.9524
▁Plastic	-12.9524
▁expand	-12.9524
▁principles	-12.9524
=139.1	-12.9524
▁crumbl	-12.9524
▁suspend	-12.9524
▁wild	-12.9524
▁Large	-12.9524
▁dispers	-12.9524
▁sound	-12.9524
▁contender	-12.9524
▁updation	-12.9524
▁Region	-12.9524
▁botad	-12.9524
▁syp	-12.9524
▁bullock	-12.9524
▁transmitted	-12.9524
▁bordau	-12.9524
▁manhole	-12.9524
▁tyre	-12.9524
▁Super	-12.9524
lokia	-12.9524
▁Armillaria	-12.9524
▁nutritious	-12.9524
▁publication	-12.9524
▁catter	-12.9524
▁generation	-12.9524
▁mimic	-12.9524
TE	-12.9524
▁Post	-12.9524
▁complexity	-12.9525
▁fame	-12.9525
▁duckery	-12.9526
▁Land	-12.9526
▁vegetation	-12.9526
▁succession	-12.9527
▁shifted	-12.9528
=143.0	-12.953
=128.0	-12.953
▁pv	-12.953
▁9.2	-12.953
▁approaches	-12.9533
▁float	-12.9535
▁25-35	-12.9536
▁Promote	-12.9536
▁peak	-12.954
▁filtration	-12.9541
▁Yellowing	-12.9541
▁nest	-12.9541
▁dinanath	-12.9544
▁Dig	-12.9544
▁5.7	-12.9546
asure	-12.9547
▁4-6	-12.9548
-48	-12.9549
▁loosening	-12.9552
▁Drying	-12.9553
▁boot	-12.9554
▁malbhog	-12.9555
phon	-12.9557
▁Dam	-12.9563
▁secure	-12.9564
wool	-12.9568
▁discussed	-12.9568
169.0	-12.9568
15384615384615	-12.9569
3846	-12.9575
▁kotha	-12.9581
▁260	-12.9584
▁displaced	-12.9595
muli	-12.9601
rani	-12.9606
▁cash	-12.9608
▁154	-12.9611
▁188	-12.9612
▁opening	-12.9612
▁hens	-12.9623
▁mob	-12.9636
prid	-12.9649
▁1.44	-12.9658
▁okw	-12.9659
@850	-12.9659
▁lice	-12.9659
▁249	-12.9663
▁handled	-12.9665
kalu	-12.9668
▁got	-12.967
▁8.4	-12.9672
▁gel	-12.9672
je	-12.968
une	-12.9682
4146	-12.9706
▁@9	-12.9711
0.4	-12.9714
816.0	-12.9715
9986	-12.9719
oko	-12.972
cop	-12.9727
eki	-12.9733
▁table	-12.9734
treat	-12.9735
▁compounds	-12.9736
aruna	-12.9743
regent	-12.9744
▁Tri	-12.9745
▁okukozes	-12.9746
▁cel	-12.9747
▁densely	-12.9753
57142857142857	-12.9753
▁gra	-12.9757
▁phos	-12.9759
4800.0	-12.9759
atch	-12.9762
▁dangers	-12.9763
▁decreased	-12.9764
ane	-12.9771
oti	-12.9774
▁bitt	-12.9774
78260869565217	-12.9777
9803	-12.9805
▁1.60	-12.9808
arize	-12.9814
▁203	-12.9815
240.0	-12.9818
ural	-12.9819
embe	-12.982
▁optimized	-12.983
ffected	-12.9841
▁Not	-12.9843
▁disc	-12.9846
▁procure	-12.9848
▁Z	-12.9849
760.0	-12.9858
@33	-12.9869
710.0	-12.9872
5-6	-12.9878
*45	-12.9879
▁compromis	-12.9882
nj	-12.9889
▁Potato	-12.9893
▁267	-12.9894
▁cri	-12.9903
iammonium	-12.9914
▁11.7	-12.9917
▁sapling	-12.9928
▁adjustment	-12.993
▁aspect	-12.9932
2024	-12.9933
7.8	-12.9934
(4	-12.9936
@100	-12.9938
▁axi	-12.9944
▁320	-12.9947
▁232.0	-12.9972
azo	-12.9975
9668	-12.9977
66666666666	-12.9977
96551724137931	-12.9978
pgr	-12.9979
235.0	-12.998
ambiplex	-12.998
chemical	-12.998
efficiency	-12.998
vaccination	-12.998
agrimin	-12.9981
▁sent	-12.9981
calcium	-12.9981
plantomycin	-12.9985
@2-3	-12.9989
facet	-12.9994
▁sugg	-12.9995
▁prompt	-12.9997
feeding	-13.0001
▁Compos	-13.0002
000/-	-13.0007
▁measu	-13.0021
4552	-13.0024
▁sell	-13.0034
cover	-13.0035
common	-13.0037
▁Promot	-13.0037
▁balanc	-13.0039
@11	-13.0039
prasad	-13.0039
drying	-13.0039
▁pleas	-13.0042
▁1.41	-13.0045
▁complain	-13.0046
▁possibl	-13.0046
how	-13.0046
plication	-13.0049
echnical	-13.0049
▁confirm	-13.005
▁vulgaris	-13.005
/2021/02	-13.005
rtemisinin	-13.005
zeronac	-13.005
▁Amaranth	-13.005
▁Educat	-13.005
▁Indonesia	-13.005
▁Intensification	-13.005
▁Mancozeb	-13.005
▁Method	-13.005
▁Support	-13.005
▁affordable	-13.005
▁bordue	-13.005
▁carbohydrates	-13.005
▁chlorophyll	-13.005
▁drawback	-13.005
▁enrol	-13.005
▁furadan	-13.005
▁guarantee	-13.005
▁incubate	-13.005
▁intensification	-13.005
▁mohafal	-13.005
▁moxel	-13.005
▁neuroxin	-13.005
▁nnyo	-13.005
▁otherwise	-13.005
▁puddle	-13.005
▁punching	-13.005
▁rabbit	-13.005
▁seepage	-13.005
▁sinduri	-13.005
▁strategy	-13.005
▁thoughtful	-13.005
▁vulnerable	-13.005
▁budget	-13.005
▁contract	-13.005
▁genus	-13.005
▁subject	-13.005
▁volatilization	-13.005
▁Many	-13.005
balimi	-13.005
▁Wheat	-13.005
▁Eureka	-13.005
▁firewood	-13.005
▁meghabor	-13.005
▁sathi	-13.005
▁airflow	-13.005
ebisolo	-13.005
▁Neem	-13.005
okusiig	-13.005
▁calculation	-13.005
▁interaction	-13.0051
▁Rust	-13.0051
▁leafhoppers	-13.0051
▁Deep	-13.0051
▁openers	-13.0051
▁fallow	-13.0051
▁chew	-13.0051
▁river	-13.0051
▁agitator	-13.0052
▁quintol	-13.0053
▁fertiz	-13.0054
beetal	-13.0055
▁creation	-13.0055
▁supplementation	-13.0055
▁0.13	-13.0055
▁bump	-13.0055
▁picked	-13.0056
▁statement	-13.0056
pin	-13.0057
909090909090908	-13.0059
▁warmer	-13.0061
▁09	-13.0061
▁aero	-13.0062
▁addresses	-13.0062
ebintu	-13.0067
▁feel	-13.0069
▁dalbergiae	-13.0071
▁taro	-13.0071
▁disposed	-13.0074
▁morigaon	-13.0075
▁(50%)	-13.0075
5.5	-13.0076
tine	-13.0077
5261	-13.0077
▁mating	-13.0079
190476190476	-13.0079
▁Impact	-13.0079
▁instruments	-13.0081
▁White	-13.0082
▁washed	-13.0082
▁217	-13.0085
▁noon	-13.0086
▁Compost	-13.0098
your	-13.0098
▁Construct	-13.0103
▁acow	-13.0104
2781	-13.0121
▁ectoparasites	-13.0122
▁1.36	-13.0123
8888888888888	-13.0124
lut	-13.0129
ean	-13.0129
▁expenses	-13.0136
▁feeder	-13.0136
-70	-13.0138
27272727272727	-13.014
mukhi	-13.0144
▁krh	-13.0146
hot	-13.015
▁ray	-13.0166
ij	-13.0168
▁upwards	-13.017
9.1	-13.017
AF	-13.0174
-34	-13.0181
▁186	-13.0182
88235294117647	-13.0187
▁ebimera	-13.0189
▁tre	-13.0191
8620689655172	-13.0192
▁cli	-13.0199
▁9954	-13.0199
133.0	-13.02
night	-13.0205
▁Inter	-13.0205
▁Mal	-13.0209
▁786	-13.0211
wala	-13.0223
rative	-13.0223
▁wheels	-13.0225
▁intact	-13.0237
▁decid	-13.0238
▁aroma	-13.0244
▁@750	-13.0253
0975	-13.0255
ubic	-13.0265
0376	-13.0273
lina	-13.028
1050	-13.0285
1347	-13.0299
8627	-13.03
▁polyb	-13.0322
▁nt	-13.0339
2022	-13.0343
rium	-13.0348
mari	-13.0354
ray	-13.0375
35714285714285	-13.0377
▁prob	-13.0386
▁ror	-13.0392
217391304347826	-13.0395
0625	-13.0396
▁okuku	-13.0398
micron	-13.041
114.0	-13.0424
rapping	-13.0425
▁4.6	-13.0445
588235294117647	-13.0451
full	-13.0452
jit	-13.0457
take	-13.0458
8709	-13.0466
adon	-13.0466
13043478260869	-13.0471
▁1800	-13.0478
▁upward	-13.048
▁begin	-13.0481
9806	-13.0491
101.0	-13.0493
▁6.1	-13.0494
334.0	-13.0495
grading	-13.0502
cture	-13.0505
▁bwe	-13.051
arden	-13.051
▁164	-13.0513
2783	-13.0514
ulation	-13.0519
dressing	-13.0526
ini	-13.0534
glass	-13.0535
dursban	-13.0535
multi	-13.0535
slurry	-13.0536
cowdung	-13.0536
tillage	-13.0536
agri	-13.0536
csc	-13.0536
including	-13.0536
143.0	-13.0536
▁prohibit	-13.0537
dress	-13.0537
▁1.50	-13.054
000000000002	-13.0541
▁1.85	-13.0544
6.3	-13.0547
dot	-13.0548
▁1.48	-13.055
▁fur	-13.0554
loss	-13.056
▁halo	-13.0561
jrc	-13.0572
▁combin	-13.0572
▁Mu	-13.0578
194.	-13.0579
2.8	-13.0583
▁Yellow	-13.0586
▁suffer	-13.0587
▁flush	-13.059
9658	-13.0599
▁infest	-13.0602
▁emerge	-13.0604
iquid	-13.0605
▁obstruct	-13.0605
▁rega	-13.0605
▁chandra	-13.0605
▁Carr	-13.0606
=108.7	-13.0606
=121.2	-13.0606
=121.4	-13.0606
=122.1	-13.0606
=122.6	-13.0606
=124.3	-13.0606
=124.6	-13.0606
=125.9	-13.0606
=126.6	-13.0606
=127.1	-13.0606
=127.6	-13.0606
=128.9	-13.0606
=130.6	-13.0606
=132.2	-13.0606
=135.3	-13.0606
=136.2	-13.0606
=140.3	-13.0606
=140.5	-13.0606
=141.6	-13.0606
=142.5	-13.0606
=144.3	-13.0606
=144.6	-13.0606
=146.5	-13.0606
=147.2	-13.0606
=147.6	-13.0606
=148.5	-13.0606
=148.8	-13.0606
=149.3	-13.0606
deltamethrin	-13.0606
okulongoosa	-13.0606
▁Caribbean	-13.0606
▁Heart	-13.0606
▁Spread	-13.0606
▁approve	-13.0606
▁bandipora	-13.0606
▁chosen	-13.0606
▁coarse	-13.0606
▁companies	-13.0606
▁conidia	-13.0606
▁cycling	-13.0606
▁deteriorate	-13.0606
▁efficacy	-13.0606
▁encounter	-13.0606
▁fosetyl	-13.0606
▁fungicidal	-13.0606
▁identification	-13.0606
▁ingredient	-13.0606
▁international	-13.0606
▁jangoan	-13.0606
▁jersey	-13.0606
▁kamareddy	-13.0606
▁kargil	-13.0606
▁kulgam	-13.0606
▁kupwara	-13.0606
▁lawn	-13.0606
▁mahaphol	-13.0606
▁overfilling	-13.0606
▁quarter	-13.0606
▁rahman	-13.0606
▁somnath	-13.0606
▁suffocation	-13.0606
▁vigilan	-13.0606
=145.4	-13.0606
▁Moder	-13.0606
▁occasion	-13.0606
▁pollinator	-13.0606
▁reflect	-13.0606
▁replenish	-13.0606
=130.1	-13.0606
▁reqd	-13.0606
▁tolerate	-13.0606
▁farrowing	-13.0606
▁friction	-13.0606
=134.5	-13.0606
eclips	-13.0606
▁leftover	-13.0606
▁lamina	-13.0606
=131.8	-13.0606
▁prajana	-13.0606
▁aquaculture	-13.0606
▁stool	-13.0606
▁preference	-13.0606
▁neozoid	-13.0606
kembel	-13.0606
▁consumers	-13.0606
▁beneficiaries	-13.0606
▁sagarika	-13.0606
▁objective	-13.0606
▁enkola	-13.0606
▁wire	-13.0606
valent	-13.0607
▁invade	-13.0607
▁incorporation	-13.0608
lakhimi	-13.0608
▁biofertilizer	-13.0608
▁ppr	-13.0608
-38	-13.0608
-163,	-13.0608
▁ministry	-13.0609
▁tanning	-13.0609
▁subvened	-13.061
idum	-13.061
▁dys	-13.0611
▁perennial	-13.0611
▁scav	-13.0611
▁goatery	-13.0611
▁yet	-13.0612
minamil	-13.0612
▁oxygenation	-13.0612
cess	-13.0613
▁buli	-13.0613
=103.0	-13.0613
=146.0	-13.0614
mahako	-13.0614
▁@1:1	-13.0615
4716	-13.0615
▁spre	-13.0615
▁listed	-13.0616
▁mice	-13.0617
▁zn	-13.0619
043478260869565	-13.0621
489.0	-13.0624
▁premises	-13.0631
give	-13.0632
▁ions	-13.0633
8333333333333	-13.0635
▁bagalkote	-13.0639
▁fro	-13.0641
▁acet	-13.0648
ship	-13.065
botanical	-13.0666
urban	-13.0666
iate	-13.0667
▁jhargram	-13.0669
hould	-13.0671
▁New	-13.0673
▁riverbanks	-13.0674
▁1.55	-13.0675
holding	-13.0682
eath	-13.0682
▁desi	-13.0692
▁0.09	-13.0692
▁ebinyeebwa	-13.0707
-03	-13.0711
ago	-13.0715
3-4	-13.0718
64516129032258	-13.0728
794.	-13.0732
▁10-20	-13.0734
7637	-13.0736
▁regulate	-13.0737
37037037037037	-13.0737
▁sup	-13.0738
445.0	-13.0743
5.1	-13.0743
864.0	-13.0755
197.	-13.0767
▁functional	-13.077
▁187	-13.0785
8095	-13.0788
ested	-13.0793
▁11.6	-13.0794
▁1.42	-13.0807
▁obuta	-13.0809
▁12.5	-13.0818
▁Bi	-13.0819
606.0	-13.083
4998	-13.0837
3604	-13.0838
▁ye	-13.0839
2843	-13.084
ota	-13.0842
941176470588	-13.085
axyl	-13.0851
genta	-13.0861
▁????????????	-13.0862
kushal	-13.0864
▁mitigated	-13.0869
2015	-13.087
▁infla	-13.0873
▁car	-13.0882
999999999999	-13.0883
9172	-13.0898
▁abou	-13.0901
▁inflam	-13.0918
92592592592592	-13.0941
lace	-13.0942
7.2	-13.0942
organic	-13.0956
8518518518518	-13.0962
gimusa	-13.0963
bug	-13.0964
▁0.11	-13.0972
▁mat	-13.0974
rowth	-13.0978
@45	-13.0979
nut	-13.0981
emo	-13.0985
1.75	-13.0987
52631578947368	-13.0992
iramu	-13.0996
(20	-13.0998
ulat	-13.0998
istic	-13.1008
▁1.22	-13.1022
mart	-13.1026
plain	-13.105
reli	-13.1053
▁9.5	-13.1055
1648	-13.1069
6734	-13.107
▁casing	-13.107
4478	-13.1071
amil	-13.1072
2.9	-13.1082
▁@17	-13.1084
2464	-13.1099
655.0	-13.1103
uwa	-13.1108
6470588235294	-13.1116
2013	-13.1119
2017	-13.112
tolerant	-13.1123
suryamukhi	-13.1123
source	-13.1124
limited	-13.1124
rocket	-13.1124
first	-13.1124
summer	-13.1124
agriculture	-13.1124
left	-13.1125
▁regar	-13.1136
▁plent	-13.1143
263157894736842	-13.1145
107.0	-13.1145
rab	-13.1153
▁3,00,00	-13.1154
▁necessit	-13.1154
56521739130434	-13.1159
growing	-13.1159
ize	-13.1162
▁technolog	-13.1165
▁leak	-13.1172
▁accident	-13.1175
▁7.1	-13.1179
=30	-13.1185
adine	-13.1188
▁digest	-13.1189
▁connect	-13.119
oringa	-13.1191
▁tectona	-13.1191
richoderma	-13.1193
▁participat	-13.1193
▁rajma	-13.1193
arieties	-13.1193
34146341463	-13.1194
▁princip	-13.1194
bloatosil	-13.1194
▁demethon	-13.1194
comfortable	-13.1194
olstein	-13.1194
ouncil	-13.1194
▁Carp	-13.1194
▁Clear	-13.1194
▁Europe	-13.1194
▁Most	-13.1194
▁Rogol	-13.1194
▁Wilt	-13.1194
▁alpco	-13.1194
▁anestrous	-13.1194
▁beginner	-13.1194
▁breakdown	-13.1194
▁brijal	-13.1194
▁demeton	-13.1194
▁homogenous	-13.1194
▁inoculum	-13.1194
▁larvae	-13.1194
▁manganese	-13.1194
▁obuwuka	-13.1194
▁parasitoids	-13.1194
▁pollen	-13.1194
▁predominant	-13.1194
▁profile	-13.1194
▁puppy	-13.1194
▁quantities	-13.1194
▁reservoir	-13.1194
▁ruchamax	-13.1194
▁shaping	-13.1194
▁shredding	-13.1194
▁tabaci	-13.1194
▁written	-13.1194
▁Myrothe	-13.1194
▁barsati	-13.1194
▁distinguish	-13.1194
▁livelihood	-13.1194
▁separators	-13.1194
▁zanide	-13.1194
ythium	-13.1194
▁glue	-13.1194
▁nanha	-13.1194
▁tidy	-13.1194
▁multiply	-13.1194
▁pivotal	-13.1194
▁quinolphos	-13.1194
▁scaling	-13.1194
mukhya	-13.1194
▁stay	-13.1194
▁crush	-13.1194
▁Prize	-13.1194
▁adhere	-13.1194
▁worsen	-13.1194
▁border	-13.1194
eaux	-13.1194
▁transformation	-13.1194
hellin	-13.1194
▁Aspergillus	-13.1194
▁enemy	-13.1194
▁varuna	-13.1194
▁Stor	-13.1194
▁peanut	-13.1194
▁Heav	-13.1194
▁patta	-13.1194
▁obstruction	-13.1195
▁taran	-13.1195
▁chopper	-13.1195
fiable	-13.1196
▁benomyl	-13.1196
▁baby	-13.1196
▁Test	-13.1197
aroda	-13.1197
,2500	-13.1198
▁mesh	-13.1199
▁pop	-13.1201
▁sealed	-13.1202
▁healthily	-13.1203
▁eight	-13.1203
▁customer	-13.1204
▁peeling	-13.1204
▁attact	-13.1205
▁bone	-13.1206
▁basket	-13.1209
eeta	-13.1212
▁sym	-13.1216
▁Bolu	-13.1218
▁Economic	-13.1218
*1	-13.1218
▁acidic	-13.1222
▁15-30	-13.1224
▁1.43	-13.1225
▁bracing	-13.1225
▁triazophos	-13.1227
0103	-13.1229
▁nerv	-13.123
atment	-13.1237
▁repeated	-13.1238
surekha	-13.124
▁scrap	-13.1241
▁tilting	-13.1242
▁kanaklata	-13.1244
▁1.58	-13.125
▁Benefits	-13.1253
▁panel	-13.1254
▁KCl	-13.1256
▁lesser	-13.1257
actic	-13.1263
▁vial	-13.1263
▁okuvaa	-13.1265
pani	-13.1265
7641	-13.1276
-850	-13.1279
▁accelerates	-13.1282
▁Beans	-13.1282
▁metron	-13.1293
498.0	-13.1307
725.0	-13.1309
▁derma	-13.1311
1397	-13.1313
-29	-13.1319
▁498.0	-13.1323
▁vermicomposting	-13.1323
ww	-13.1328
▁bout	-13.1352
fan	-13.1358
3076923076923	-13.1364
▁Cleaning	-13.1366
climbing	-13.1367
▁atlea	-13.1375
▁axil	-13.138
ommended	-13.1392
tact	-13.1395
▁path	-13.1395
▁compet	-13.1397
45454545454545	-13.1403
▁6.3	-13.1405
▁indication	-13.1407
▁bad	-13.1418
▁@2-3	-13.1435
▁5500.0	-13.1444
00000000000001	-13.1448
ffice	-13.1453
829.0	-13.1455
thane	-13.1457
▁charg	-13.1464
=10	-13.1466
▁781	-13.147
▁7.9	-13.1477
363636363636	-13.1487
cium	-13.1501
▁1.76	-13.1508
▁antha	-13.1513
402.0	-13.1523
▁rog	-13.1534
mod	-13.1534
9514	-13.1537
0728	-13.1538
▁8.3	-13.1545
uddin	-13.1561
▁divi	-13.1571
8079	-13.16
eather	-13.1604
▁Mad	-13.1617
hic	-13.1638
8798	-13.164
creasing	-13.1647
▁sq	-13.1649
kula	-13.1654
▁eattin	-13.167
▁kit	-13.1674
@40	-13.1674
▁1.06	-13.1681
emisi	-13.1688
▁initiative	-13.1694
▁institution	-13.1695
▁amendment	-13.1696
▁hazard	-13.1696
kyc	-13.1699
▁blockage	-13.17
▁nose	-13.1702
▁decision	-13.1708
▁4.2	-13.1713
112.0	-13.1721
▁6.4	-13.1722
857142857142856	-13.1723
yield	-13.173
▁cipro	-13.1733
0.7	-13.1739
5468	-13.174
81818181818	-13.1743
flow	-13.1747
kotha	-13.1747
toximer	-13.1748
designed	-13.1748
okukula	-13.1749
conduct	-13.1749
mph	-13.1749
central	-13.1749
dwarf	-13.1749
duck	-13.1749
hybrid	-13.1749
level	-13.1749
SRI	-13.1749
dried	-13.1749
bacterial	-13.175
mono	-13.175
portable	-13.1751
ebikoola	-13.1752
weeder	-13.1764
▁comp	-13.1764
▁particular	-13.1766
him	-13.1767
vine	-13.1771
icin	-13.1782
▁distribute	-13.1783
2105263157894	-13.1785
▁emit	-13.1786
WC	-13.1787
▁194	-13.1789
▁expo	-13.1798
▁Transplant	-13.18
ridomil	-13.1801
▁shad	-13.1801
enerate	-13.1805
pus	-13.1807
▁dissolv	-13.1807
▁comb	-13.1812
▁12.8	-13.1813
arlic	-13.1814
bikoola	-13.1814
bserve	-13.1815
itrus	-13.1817
ivestock	-13.1817
▁emulsi	-13.1818
▁agronomi	-13.1818
@27	-13.1818
igorous	-13.1818
emember	-13.1819
▁Treat	-13.1819
▁roshon	-13.1819
=120.5	-13.1819
=120.9	-13.1819
=122.2	-13.1819
=125.8	-13.1819
=127.5	-13.1819
=128.2	-13.1819
=128.7	-13.1819
=129.8	-13.1819
=134.3	-13.1819
=136.5	-13.1819
=139.9	-13.1819
=140.2	-13.1819
=140.4	-13.1819
=140.9	-13.1819
=142.1	-13.1819
=142.9	-13.1819
=143.2	-13.1819
=143.5	-13.1819
=145.1	-13.1819
=145.8	-13.1819
=146.1	-13.1819
=146.6	-13.1819
=149.1	-13.1819
=149.5	-13.1819
=149.7	-13.1819
Phosphorus	-13.1819
bunnyogovu	-13.1819
fauna	-13.1819
▁Ebinyeebwa	-13.1819
▁Efficien	-13.1819
▁Science	-13.1819
▁Termite	-13.1819
▁advisory	-13.1819
▁bundle	-13.1819
▁carbendezim	-13.1819
▁comparison	-13.1819
▁cutirose	-13.1819
▁deplete	-13.1819
▁detach	-13.1819
▁disturbance	-13.1819
▁emmamecti	-13.1819
▁encrustation	-13.1819
▁evidence	-13.1819
▁fentus	-13.1819
▁handique	-13.1819
▁hepawin	-13.1819
▁illustrating	-13.1819
▁kerosene	-13.1819
▁maneuver	-13.1819
▁nazira	-13.1819
▁reforestation	-13.1819
▁smut	-13.1819
▁solanacearum	-13.1819
▁strangers	-13.1819
▁tikkil	-13.1819
▁tomorrow	-13.1819
▁tridermorph	-13.1819
▁velvety	-13.1819
▁vienna	-13.1819
▁vikarabad	-13.1819
▁wanaparthy	-13.1819
=146.4	-13.1819
=149.4	-13.1819
▁Botryo	-13.1819
▁behavior	-13.1819
▁business	-13.1819
▁firb	-13.1819
▁guord	-13.1819
▁kvic	-13.1819
▁manufacture	-13.1819
▁milch	-13.1819
▁sealants	-13.1819
▁wonder	-13.1819
=135.6	-13.1819
raksha	-13.1819
▁Agitati	-13.1819
▁More	-13.1819
▁nabard	-13.1819
▁diathane	-13.1819
▁drrh	-13.1819
▁queen	-13.1819
=133.1	-13.1819
=133.3	-13.1819
=135.1	-13.1819
=135.7	-13.1819
=136.3	-13.1819
▁turbine	-13.1819
=130.2	-13.1819
▁orchid	-13.1819
=131.2	-13.1819
=131.3	-13.1819
=137.5	-13.1819
▁qualities	-13.1819
▁resum	-13.1819
▁seventies	-13.1819
▁miraculan	-13.1819
▁aerial	-13.1819
▁hatchery	-13.1819
▁scarring	-13.1819
▁Excessive	-13.1819
▁prediction	-13.1819
▁insights	-13.1819
azacel	-13.1819
▁Infectio	-13.1819
▁masons	-13.1819
▁bury	-13.1819
▁Lack	-13.1819
search	-13.1819
ustification	-13.182
▁linkage	-13.182
▁tarun	-13.182
▁hamper	-13.182
▁Tree	-13.182
▁subside	-13.182
▁innovation	-13.182
▁capra	-13.182
▁Food	-13.182
▁true	-13.182
▁deactivated	-13.1821
evolution	-13.1821
teeka	-13.1821
▁airtight	-13.1822
▁bardo	-13.1822
▁boiled	-13.1822
▁adaptable	-13.1822
▁pluck	-13.1823
twice	-13.1824
wash	-13.1824
▁penc	-13.1826
rosin	-13.1827
brotone	-13.1827
=132.0	-13.1827
▁Climate	-13.1827
=133.0	-13.1827
▁AI	-13.1828
=121.0	-13.1828
=131.0	-13.1828
-1.75	-13.1829
=125.0	-13.1829
▁extracted	-13.1831
=140.0	-13.1831
▁owner	-13.1833
ecial	-13.1834
▁anistamine	-13.1837
▁latex	-13.1838
▁technicians	-13.1839
▁sat	-13.184
▁temporar	-13.1842
▁All	-13.1846
▁boar	-13.1848
▁coorg	-13.1849
uery	-13.185
▁12.2	-13.185
▁diagnose	-13.1851
▁threaten	-13.1851
▁Melia	-13.1854
▁availab	-13.1856
▁kernels	-13.1856
arbor	-13.1856
▁ebb	-13.1862
0304	-13.187
▁micronu	-13.1872
made	-13.1873
▁ebirime	-13.1873
▁consumed	-13.1873
▁cleaner	-13.1874
▁Plac	-13.1876
▁80,000	-13.1876
etry	-13.1886
▁pollination	-13.1887
uce	-13.189
▁13.6	-13.1891
folia	-13.1892
▁1.95	-13.1911
▁Unit	-13.1914
▁mann	-13.1915
lister	-13.1917
▁measurement	-13.1919
3105	-13.1919
▁12.9	-13.193
0856	-13.1936
▁nozzled	-13.1945
-110	-13.1946
▁demonstrate	-13.1946
equi	-13.1952
▁completed	-13.1955
▁boil	-13.1959
▁9.7	-13.1963
▁recommen	-13.1964
4845	-13.1994
41176470588235	-13.1999
2463	-13.2003
62068965517241	-13.201
ngo	-13.2013
▁0.825	-13.2016
6254	-13.2019
3960	-13.204
▁dur	-13.2051
▁1.66	-13.2056
ade	-13.2057
enda	-13.2061
-1.7	-13.2071
2959	-13.2073
▁14.5	-13.2073
9836	-13.2077
▁jala	-13.2083
@8	-13.2092
▁415	-13.2096
8571428571428	-13.2099
▁Manage	-13.2103
585.	-13.2105
1387	-13.2105
748.0	-13.2109
312.	-13.2113
1964	-13.2113
lem	-13.2116
813.0	-13.2118
carbonate	-13.2124
vani	-13.2129
▁7.2	-13.2139
5462	-13.2147
bn	-13.2149
ngi	-13.2153
berry	-13.2159
▁Ebi	-13.2165
▁13.9	-13.2168
▁son	-13.2178
6887	-13.218
bur	-13.2196
mida	-13.2201
▁2.19	-13.2215
...2	-13.2223
uj	-13.2228
race	-13.224
0711	-13.2266
▁fri	-13.2273
▁1.93	-13.2273
235294117647058	-13.2288
775.0	-13.2304
tech	-13.232
▁del	-13.2327
▁9.6	-13.2332
akh	-13.2334
▁1.375	-13.2338
2564102564102	-13.2349
logging	-13.2349
4128	-13.2351
olk	-13.2351
bigh	-13.2353
4863	-13.2359
9759	-13.236
▁twig	-13.2361
▁finance	-13.2362
▁organism	-13.2363
7.4	-13.2363
okra	-13.2385
9026	-13.2388
▁micr	-13.2403
▁1.11	-13.2406
▁okuva	-13.2407
9756	-13.241
garding	-13.2412
pollination	-13.2414
chick	-13.2414
copper	-13.2415
agro	-13.2415
road	-13.2415
pmkisan	-13.2416
kcc	-13.2416
status	-13.2416
january	-13.2416
disease	-13.2416
leaf	-13.2417
usual	-13.2417
ensigo	-13.2419
feb	-13.242
cost	-13.2422
pass	-13.2423
695652173913043	-13.2426
10-15	-13.2442
3395	-13.2448
cine	-13.2448
▁america	-13.2449
sird	-13.2457
176470588235	-13.2458
128.0	-13.2459
516.	-13.246
mega	-13.2461
4800	-13.2463
0.1	-13.2475
694.0	-13.2476
210526315789473	-13.2476
7000	-13.2477
▁log	-13.2479
6437	-13.2479
0689	-13.2482
▁discover	-13.2482
▁argul	-13.2483
lot	-13.2484
▁0.125	-13.2484
▁cheap	-13.2484
▁applicat	-13.2485
nergy	-13.2485
▁undulati	-13.2485
14285714	-13.2485
▁Brown	-13.2485
Renewable	-13.2485
Yield	-13.2485
cubating	-13.2485
luvannyuma	-13.2485
tuufu	-13.2485
▁Also	-13.2485
▁Cifax	-13.2485
▁English	-13.2485
▁Hybrid	-13.2485
▁Pacific	-13.2485
▁Phyllostict	-13.2485
▁Practices	-13.2485
▁Sapota	-13.2485
▁Tip	-13.2485
▁accumulate	-13.2485
▁acephate	-13.2485
▁buffer	-13.2485
▁chikni	-13.2485
▁dilution	-13.2485
▁drudgery	-13.2485
▁economies	-13.2485
▁elaborate	-13.2485
▁expenditure	-13.2485
▁girdling	-13.2485
▁hircus	-13.2485
▁hussain	-13.2485
▁incentives	-13.2485
▁inexpensive	-13.2485
▁mistakes	-13.2485
▁modifie	-13.2485
▁nnimiro	-13.2485
▁precipitate	-13.2485
▁prednisolon	-13.2485
▁saathi	-13.2485
▁salivation	-13.2485
▁salmonicolor	-13.2485
▁scorching	-13.2485
▁semen	-13.2485
▁snow	-13.2485
▁tezpur	-13.2485
▁threshing	-13.2485
▁trainning	-13.2485
▁trends	-13.2485
▁waether	-13.2485
▁zineb	-13.2485
▁Scab	-13.2485
▁centimetr	-13.2485
▁onwards	-13.2485
▁pallidoroseum	-13.2485
▁pasture	-13.2485
emmere	-13.2485
▁humus	-13.2485
▁terrace	-13.2485
sphaer	-13.2486
kalinga	-13.2486
▁afterward	-13.2486
▁grapevines	-13.2486
▁oppos	-13.2486
NFT	-13.2486
▁Determin	-13.2486
▁bheti	-13.2486
▁cashew	-13.2486
▁seperate	-13.2486
▁signifi	-13.2486
▁pabadin	-13.2486
▁mealybug	-13.2486
▁Program	-13.2486
▁Nigeria	-13.2486
▁herbs	-13.2486
▁Storage	-13.2486
▁palnt	-13.2486
▁chiili	-13.2486
▁biopower	-13.2486
▁Direct	-13.2486
▁switches	-13.2486
▁secretion	-13.2486
▁toilet	-13.2486
▁barman	-13.2486
▁smoking	-13.2486
▁beetel	-13.2486
gohain	-13.2486
▁families	-13.2486
▁bivin	-13.2486
▁preserving	-13.2486
▁digestive	-13.2486
▁assistant	-13.2486
rocin	-13.2487
▁breast	-13.2487
▁dyas	-13.2487
ddala	-13.2487
652173913043478	-13.2488
ontex	-13.2488
▁town	-13.2488
▁halflong	-13.2488
▁okukola	-13.2489
▁slime	-13.2489
▁attractive	-13.2489
▁hydration	-13.249
▁discarded	-13.249
▁hiring	-13.2491
▁specialist	-13.2491
▁prize	-13.2492
▁mixure	-13.2492
▁researchers	-13.2492
▁compacted	-13.2492
Temperature	-13.2492
384615384615384	-13.2493
▁boli	-13.2494
▁delayed	-13.2496
▁cona	-13.2497
▁dicrysticin	-13.2498
▁oval	-13.2499
▁phn	-13.25
▁insert	-13.2501
▁variable	-13.2501
▁groove	-13.2502
▁preferable	-13.2502
▁personal	-13.2502
▁albomar	-13.2504
▁787	-13.2505
▁09435	-13.2507
▁dryers	-13.2508
▁called	-13.2511
▁qt	-13.2511
nap	-13.2512
▁goes	-13.2513
▁1.92	-13.2514
▁alleviate	-13.2514
▁extent	-13.2517
▁pratap	-13.2518
▁mahsuri	-13.2518
▁0.08	-13.252
▁omuddo	-13.2523
zisobo	-13.2536
▁atmosphere	-13.2541
6126	-13.2543
1305	-13.2546
▁mould	-13.2546
▁bula	-13.2547
Lower	-13.2548
jana	-13.2549
▁@1/2	-13.2555
571428571428	-13.2558
▁ensigo	-13.2559
▁quil	-13.2564
▁2.22	-13.2567
▁noticed	-13.2568
6531	-13.257
5384615384615	-13.2572
71428571428571	-13.2582
▁agre	-13.2586
minal	-13.2588
▁30-50	-13.2588
40425531914893	-13.2588
lex	-13.2602
88888888888888	-13.2602
5474	-13.2617
5.6	-13.2619
5.4	-13.2625
41666666666666	-13.2627
26315789473684	-13.2638
erate	-13.2638
9213	-13.2639
1383	-13.2645
mental	-13.2651
2775	-13.2653
iness	-13.2668
7996	-13.2683
▁catlo	-13.2687
▁virid	-13.2692
ower	-13.2696
sonali	-13.27
612.	-13.2718
genic	-13.2722
1192	-13.273
▁read	-13.2758
4950	-13.2767
pk	-13.2774
ansi	-13.2781
3.4	-13.2782
1320	-13.279
7894736842105	-13.2802
7964	-13.2817
1854	-13.282
325.	-13.2822
8085	-13.2826
nion	-13.2844
▁1.67	-13.2845
2686	-13.2847
▁17.8	-13.2865
6888	-13.2879
▁readi	-13.2891
@500	-13.2893
ille	-13.2908
▁plat	-13.2908
607.0	-13.2915
4990	-13.2918
▁22.8	-13.2925
-1000	-13.293
3973	-13.294
FA	-13.2943
▁chloro	-13.2956
active	-13.2957
7815	-13.2986
427.	-13.299
▁1.250	-13.3012
▁8.1	-13.3019
▁fee	-13.3021
ltre	-13.3027
1755	-13.3037
4059	-13.3037
8901	-13.3044
141.0	-13.3054
▁jal	-13.3054
▁fin	-13.3056
▁encourag	-13.3057
▁dependenc	-13.3058
typ	-13.3063
endra	-13.3076
mazzi	-13.3083
893.0	-13.3084
3500	-13.3086
heat	-13.3092
▁gasholder	-13.3097
elling	-13.3104
oto	-13.3107
977.0	-13.3112
▁mill	-13.3119
3965	-13.3119
housing	-13.313
update	-13.313
fruit	-13.313
foot	-13.313
decis	-13.313
season	-13.313
power	-13.313
third	-13.313
nagaon	-13.3131
control	-13.3131
daily	-13.3132
caus	-13.3133
Yes	-13.3133
either	-13.3134
phone	-13.3137
▁ethe	-13.3139
mixed	-13.3144
7795	-13.3144
eating	-13.3145
fish	-13.3147
aryana	-13.3166
▁compli	-13.3166
▁leach	-13.3181
▁damp	-13.3183
347826086956521	-13.3187
uava	-13.3195
▁elevat	-13.3196
▁deg	-13.3196
▁reinforc	-13.3196
▁expect	-13.3197
68181818181818	-13.3198
▁regardin	-13.3199
leafhopper	-13.3199
ikkim	-13.3199
ospora	-13.3199
▁renovat	-13.3199
▁public	-13.3199
▁numer	-13.3199
▁interact	-13.3199
▁populi	-13.32
87096774193	-13.32
fabricat	-13.32
▁Horticultur	-13.32
▁accompan	-13.32
2156862745098	-13.32
▁complement	-13.32
9435340387	-13.32
=121.5	-13.32
=121.9	-13.32
=122.7	-13.32
=123.1	-13.32
=123.2	-13.32
=123.3	-13.32
=123.6	-13.32
=124.8	-13.32
=124.9	-13.32
=125.6	-13.32
=126.5	-13.32
=126.8	-13.32
=127.3	-13.32
=127.7	-13.32
=129.7	-13.32
=131.7	-13.32
=134.1	-13.32
=134.6	-13.32
=137.3	-13.32
=138.1	-13.32
=138.5	-13.32
=139.7	-13.32
=140.8	-13.32
=141.2	-13.32
=141.9	-13.32
=142.6	-13.32
=142.7	-13.32
=143.1	-13.32
=143.8	-13.32
=144.5	-13.32
=145.9	-13.32
=147.5	-13.32
=149.2	-13.32
CMD	-13.32
alifornia	-13.32
ilambur	-13.32
kukulugguka	-13.32
▁Moisture	-13.32
▁appeal	-13.32
▁archetype	-13.32
▁bhadradri	-13.32
▁chikkaballapura	-13.32
▁chocking	-13.32
▁cholera	-13.32
▁correlat	-13.32
▁cucurbits	-13.32
▁diarrohoea	-13.32
▁dynamic	-13.32
▁favour	-13.32
▁feasibility	-13.32
▁feasible	-13.32
▁harzianum	-13.32
▁jeuti	-13.32
▁kalaburagi	-13.32
▁kesri	-13.32
▁livozyme	-13.32
▁orifice	-13.32
▁palghar	-13.32
▁pregnency	-13.32
▁published	-13.32
▁reckoner	-13.32
▁romai	-13.32
▁rubbing	-13.32
▁sexual	-13.32
▁smear	-13.32
▁subscribe	-13.32
▁titabor	-13.32
▁vicinity	-13.32
=123.4	-13.32
=148.4	-13.32
▁dermatitis	-13.32
▁trimming	-13.32
▁zink	-13.32
=136.4	-13.32
▁Corn	-13.32
▁injury	-13.32
▁exudati	-13.32
▁collaborat	-13.32
=132.6	-13.32
=137.4	-13.32
▁Sandalwood	-13.32
▁safeguard	-13.32
▁watwer	-13.32
=132.4	-13.32
▁Mango	-13.32
▁transition	-13.32
=131.9	-13.32
▁polyester	-13.32
=130.5	-13.32
amakungula	-13.32
▁Colle	-13.32
▁Cultivation	-13.32
▁repel	-13.32
▁Pink	-13.32
▁sensing	-13.32
▁Plantae	-13.32
▁thimat	-13.32
▁ramban	-13.32
vacron	-13.32
▁saturation	-13.3201
▁feather	-13.3201
▁email	-13.3201
▁drier	-13.3201
▁progression	-13.3201
TL	-13.3201
▁shortage	-13.3201
▁wise	-13.3201
▁List	-13.3201
▁linings	-13.3201
63636363636363	-13.3201
▁overnight	-13.3201
▁spell	-13.3201
▁Semi	-13.3201
▁freshness	-13.3202
▁exclude	-13.3202
INM	-13.3202
▁vera	-13.3202
▁boha	-13.3202
▁Fire	-13.3202
▁distorted	-13.3202
▁automated	-13.3202
tillate	-13.3204
▁imidachlorp	-13.3204
▁Selection	-13.3204
▁byrnihat	-13.3205
▁managment	-13.3205
okulima	-13.3206
▁paan	-13.3206
▁belts	-13.3206
▁40-60	-13.3207
▁stagna	-13.3207
▁Strategi	-13.3207
▁fig	-13.3208
=122.0	-13.321
▁maxima	-13.3211
▁ploughed	-13.3211
▁gender	-13.3211
=123.0	-13.3211
=136.0	-13.3211
=148.0	-13.3212
▁Bavistine	-13.3213
▁original	-13.3213
▁impli	-13.3213
8229	-13.3216
▁,50	-13.3216
▁cancer	-13.3217
▁rope	-13.3218
▁stain	-13.3218
▁Policy	-13.3219
prim	-13.3222
gress	-13.3222
▁boiling	-13.3222
yster	-13.3222
▁Poly	-13.3225
▁Area	-13.3228
▁okuziyiza	-13.323
8713	-13.3232
▁deco	-13.3233
▁60-70	-13.3233
granate	-13.3235
▁1.57	-13.3238
96153846153846	-13.3241
▁mammit	-13.3245
tonia	-13.3245
▁kamrupa	-13.3245
ude	-13.3246
bat	-13.3248
▁underscor	-13.3249
1233	-13.3253
hok	-13.3253
421052631578947	-13.3254
domil	-13.3263
9455	-13.3263
ntiful	-13.3264
▁Utilize	-13.3266
▁strict	-13.3271
▁upf	-13.3272
928571428571428	-13.3274
▁buying	-13.3274
7477	-13.3279
andhi	-13.329
0119	-13.3291
1447	-13.3313
6187	-13.3317
vate	-13.3329
alog	-13.3334
rtici	-13.3343
692307692307692	-13.3343
▁agric	-13.3344
4044	-13.335
3684210526315	-13.3351
▁bot	-13.336
3803	-13.3366
5046	-13.3367
▁1.69	-13.3372
vill	-13.3374
▁10.1	-13.339
220.0	-13.3392
velling	-13.3394
▁Rotat	-13.3394
6757	-13.3401
4782608695652	-13.3402
14000.0	-13.3402
▁ext	-13.3406
▁squ	-13.3407
utritional	-13.3412
2776	-13.3413
506.0	-13.342
5932	-13.3422
▁fus	-13.3433
2298	-13.345
9099	-13.3452
1958	-13.3458
mpro	-13.3458
▁lw	-13.3465
ected	-13.347
▁calculat	-13.3476
pect	-13.3478
cement	-13.3496
▁jc	-13.3496
amol	-13.3497
▁generat	-13.3497
3916	-13.3499
0243	-13.3504
666666666666	-13.3509
▁3000/	-13.3513
▁2.27	-13.3514
▁suge	-13.3516
5492	-13.3529
enge	-13.3532
▁Zi	-13.3534
1285	-13.3536
▁7.6	-13.3554
esis	-13.3571
.882352941176470	-13.3572
3666	-13.358
aug	-13.358
arding	-13.3583
8718	-13.3583
0693	-13.359
5087	-13.36
0022	-13.3612
1750	-13.3613
8906	-13.3613
fac	-13.3627
7495	-13.3628
▁2.14	-13.3631
2018	-13.3632
▁insulat	-13.3636
1340	-13.3642
6539	-13.3647
947368421052	-13.3652
260869565217391	-13.3657
4186	-13.3662
ought	-13.3664
▁eky	-13.3675
▁mass	-13.3687
omatic	-13.369
▁equitabl	-13.3699
2756	-13.37
4098	-13.3715
micro	-13.3723
adequate	-13.3727
247.0	-13.3743
8600.0	-13.3743
1228	-13.3759
handi	-13.3766
9599	-13.3771
avo	-13.3774
1208	-13.3778
3600	-13.379
crease	-13.3798
.11111111111111	-13.3803
7272727272727	-13.3812
1352	-13.3813
99999999999	-13.3817
▁blow	-13.3818
3953	-13.3819
5049	-13.3822
9000	-13.3829
hyb	-13.3843
▁10,000	-13.3843
▁expense	-13.3844
▁household	-13.3845
hou	-13.3845
infected	-13.3851
utomatic	-13.3855
lower	-13.3856
7206	-13.386
6974	-13.3867
last	-13.3876
▁14.6	-13.3881
88888888888	-13.3888
117647058823529	-13.3888
▁Cha	-13.3893
root	-13.3897
soybean	-13.3899
valid	-13.3899
ventilated	-13.3899
permanent	-13.3899
contain	-13.3899
clean	-13.3899
90909090909	-13.3899
mission	-13.3899
nursery	-13.39
sagar	-13.39
amazzi	-13.3901
kept	-13.3902
infuse	-13.3905
▁miss	-13.3906
▁Low	-13.3911
9999	-13.3912
5116279069767	-13.3916
▁brief	-13.3917
1738	-13.3918
▁rub	-13.3928
3814	-13.393
907.0	-13.3932
2807	-13.395
▁applie	-13.3956
▁ef	-13.3958
abula	-13.396
444444444444	-13.396
▁sugges	-13.3961
▁bavi	-13.3962
rnihat	-13.3963
▁9.9	-13.3965
▁reject	-13.3966
▁Sprinkl	-13.3967
ridomorph	-13.3968
▁Sever	-13.3968
itrate	-13.3968
ponsor	-13.3968
2222222222	-13.3969
7833	-13.3969
kungula	-13.3969
tejaswini	-13.3969
▁experiment	-13.3969
▁keshri	-13.3969
/02/2019	-13.3969
0000000000006	-13.3969
6.4-2.1-6.4	-13.3969
9954411012	-13.3969
HRT	-13.3969
Sahara	-13.3969
apotranspiration	-13.3969
bulwadde	-13.3969
coastal	-13.3969
lxbxh	-13.3969
oestrus	-13.3969
okakhat	-13.3969
pyretic	-13.3969
▁9435564391	-13.3969
▁Challenges	-13.3969
▁Compare	-13.3969
▁Examples	-13.3969
▁Karnataka	-13.3969
▁Mobile	-13.3969
▁Phytoplasma	-13.3969
▁Resources	-13.3969
▁Ridomil	-13.3969
▁Spacing	-13.3969
▁Species	-13.3969
▁antihistaminic	-13.3969
▁arthritis	-13.3969
▁azithr	-13.3969
▁bleaching	-13.3969
▁capillarity	-13.3969
▁catterpillar	-13.3969
▁charcoal	-13.3969
▁citrous	-13.3969
▁closure	-13.3969
▁convenience	-13.3969
▁deforestation	-13.3969
▁demarcat	-13.3969
▁desirable	-13.3969
▁dissemination	-13.3969
▁engine	-13.3969
▁explanation	-13.3969
▁express	-13.3969
▁hdfc	-13.3969
▁inconsistent	-13.3969
▁inseminate	-13.3969
▁instalment	-13.3969
▁invasive	-13.3969
▁irreversible	-13.3969
▁kapili	-13.3969
▁majesti	-13.3969
▁meausre	-13.3969
▁neglig	-13.3969
▁pellet	-13.3969
▁personnel	-13.3969
▁plaque	-13.3969
▁plugged	-13.3969
▁purchasing	-13.3969
▁pyrexia	-13.3969
▁reccom	-13.3969
▁survey	-13.3969
▁swollen	-13.3969
▁undercarriages	-13.3969
▁wateer	-13.3969
▁wife	-13.3969
387096774193548	-13.3969
▁Facilitat	-13.3969
▁Tanzania	-13.3969
▁acaricid	-13.3969
▁caugh	-13.3969
▁harrowing	-13.3969
▁prophylactic	-13.3969
▁verify	-13.3969
chlorpyrifos	-13.3969
ciloc	-13.3969
rijus	-13.3969
▁Minimiz	-13.3969
▁ditch	-13.3969
▁runner	-13.3969
▁quarry	-13.3969
▁18:27:	-13.3969
▁expir	-13.3969
▁mesure	-13.3969
mangala	-13.3969
hactare	-13.3969
milil	-13.3969
▁Technology	-13.3969
▁empower	-13.3969
tropine	-13.3969
▁filed	-13.3969
▁1-1.3	-13.3969
▁Less	-13.3969
▁Conservation	-13.3969
▁inspire	-13.3969
▁flea	-13.3969
▁Treatment	-13.3969
▁summarize	-13.3969
▁eddagala	-13.3969
▁demonstration	-13.3969
▁copies	-13.397
▁MZ	-13.397
▁ebigimusa	-13.397
▁Bird	-13.397
▁agroecolog	-13.397
▁undulation	-13.397
▁diphu	-13.397
abwe	-13.397
▁recurr	-13.397
▁watre	-13.397
▁ivy	-13.397
▁slant	-13.3971
▁wok	-13.3971
▁Cover	-13.3971
▁mosquitoes	-13.3971
▁lactation	-13.3971
▁agromin	-13.3971
▁spra	-13.3972
anistan	-13.3972
▁held	-13.3972
▁okusimba	-13.3972
▁disruption	-13.3972
▁Malay	-13.3972
▁delic	-13.3973
▁thicker	-13.3974
ortable	-13.3974
▁shot	-13.3975
▁pvt	-13.3976
▁fourth	-13.3977
▁cooler	-13.3977
okufukirira	-13.3977
▁Mulching	-13.3978
▁kesar	-13.3978
▁render	-13.3978
▁okuba	-13.398
▁inhibitor	-13.398
oblem	-13.3981
▁however	-13.3981
ydrochlori	-13.3987
abe	-13.3991
▁30,000	-13.3993
▁detected	-13.3993
▁aski	-13.3994
▁50-60	-13.3994
atio	-13.3996
2280	-13.4
4753	-13.4004
okulwa	-13.4004
onil	-13.4007
1745	-13.4009
idium	-13.4015
ode	-13.4016
7992	-13.4021
24324324324324	-13.4034
▁Longe	-13.4037
▁nutri	-13.4039
ahu	-13.404
5964	-13.4044
601.0	-13.4045
anesh	-13.4046
locat	-13.4048
▁capita	-13.405
105-11	-13.4059
5751	-13.4059
▁refill	-13.4061
9769	-13.4062
6064	-13.4062
▁dictate	-13.4064
496.	-13.4068
▁genetical	-13.4077
allel	-13.4078
▁shi	-13.4084
▁flu	-13.409
3824	-13.4097
▁1.875	-13.4105
99999999999999	-13.411
4398	-13.4118
3474	-13.412
▁maha	-13.4123
carp	-13.4126
2293	-13.4133
1362	-13.4144
wari	-13.4148
4992	-13.4151
187.	-13.4153
7159	-13.4154
▁metaboli	-13.4156
91666666666666	-13.4159
▁decompose	-13.4165
1066	-13.4171
252.	-13.4178
▁erect	-13.4181
4390	-13.4182
27906976744186	-13.4195
kash	-13.4195
5454545454545	-13.4201
3485	-13.4206
▁0.01	-13.421
amyl	-13.4214
▁music	-13.4242
1037	-13.4246
19047619047619	-13.4253
▁dim	-13.4255
575.	-13.4261
zol	-13.4268
▁obw	-13.428
6115	-13.4282
ithane	-13.4303
5507	-13.4309
▁supervise	-13.4321
▁12.4	-13.4325
195121951219512	-13.4329
hina	-13.4329
9130434782608	-13.4343
7282	-13.4343
9629629629629	-13.4343
6612	-13.4347
▁spry	-13.4371
4329	-13.4374
1659	-13.438
4105	-13.439
1924	-13.4392
6699	-13.4394
obusa	-13.4394
▁13.4	-13.4402
@7	-13.4409
916666666666666	-13.4417
ullet	-13.4419
5172413793103	-13.4425
▁ven	-13.4429
▁Manag	-13.4432
estry	-13.4433
6129	-13.4437
▁12.7	-13.444
4729	-13.4447
ttle	-13.4459
knot	-13.4463
5737	-13.4465
nci	-13.4476
9808	-13.4479
076923076923	-13.4496
908.0	-13.4506
938.0	-13.4514
▁dai	-13.4519
▁temperat	-13.4521
▁relie	-13.4521
illar	-13.4536
105.	-13.4537
oxide	-13.4539
hydrate	-13.454
▁reco	-13.4557
psor	-13.4558
iseera	-13.456
aste	-13.4577
1632	-13.4585
254.0	-13.4587
bank	-13.4588
onia	-13.4589
ugimu	-13.4594
193548387096774	-13.4611
1400	-13.4614
...1	-13.4621
6049	-13.4635
8457	-13.4638
1119	-13.4638
232.0	-13.4647
2380952380952	-13.4647
8841	-13.465
2006	-13.467
cmx	-13.467
5648	-13.4671
5591	-13.4671
▁accelerate	-13.4677
0956	-13.4678
▁consequence	-13.4679
▁Bean	-13.4679
▁substance	-13.468
▁implication	-13.468
▁appliance	-13.468
▁Exp	-13.4691
care	-13.4692
▁agricu	-13.4693
▁propagate	-13.4696
3719	-13.4705
2803	-13.4707
undi	-13.4712
once	-13.4712
9958	-13.4713
7327	-13.4717
ebirime	-13.473
kanaklata	-13.4731
Classic	-13.4731
katha	-13.4732
flies	-13.4732
building	-13.4732
saving	-13.4732
complex	-13.4732
parasitic	-13.4732
orange	-13.4732
improve	-13.4733
details	-13.4733
house	-13.4733
optimal	-13.4733
transplantation	-13.4733
loe	-13.4734
from	-13.4738
avin	-13.4739
4435	-13.474
1972	-13.4744
derma	-13.4751
▁Set	-13.4755
476190476190476	-13.4769
058823529411764	-13.4772
▁landholder	-13.4772
▁cloud	-13.4773
▁leverag	-13.478
2173913043	-13.4788
▁origin	-13.4788
moni	-13.4791
▁Climat	-13.4791
44827586206896	-13.4797
urrent	-13.4797
thrin	-13.4798
▁pressur	-13.4798
areful	-13.4798
kukola	-13.4799
versely	-13.4799
▁steptomycin	-13.4799
▁strepto	-13.4799
▁fung	-13.4799
2927	-13.4801
▁Mitigat	-13.4802
▁Inspect	-13.4802
oultry	-13.4802
uddling	-13.4802
irungi	-13.4802
▁myceli	-13.4802
21951219512	-13.4802
▁Auto	-13.4802
fective	-13.4802
joymoti	-13.4802
8484848484	-13.4802
ICRISAT	-13.4802
▁Breeding	-13.4802
▁Broccoli	-13.4802
▁Leaves	-13.4802
▁manohar	-13.4802
▁meticulous	-13.4802
▁napam	-13.4802
▁nasder	-13.4802
▁qualif	-13.4802
=120.2	-13.4802
=122.3	-13.4802
=124.1	-13.4802
=125.2	-13.4802
=127.2	-13.4802
=135.2	-13.4802
=136.9	-13.4802
=137.6	-13.4802
=138.3	-13.4802
=139.5	-13.4802
=139.6	-13.4802
=140.7	-13.4802
=143.9	-13.4802
=144.8	-13.4802
=146.7	-13.4802
=148.3	-13.4802
=148.6	-13.4802
=148.7	-13.4802
=148.9	-13.4802
=149.9	-13.4802
ICFRE	-13.4802
Profex	-13.4802
Tracheophytes	-13.4802
baruah	-13.4802
onsequently	-13.4802
ospores	-13.4802
pollinated	-13.4802
▁7896028773	-13.4802
▁Borax	-13.4802
▁CBB	-13.4802
▁Cucumber	-13.4802
▁Flood	-13.4802
▁November	-13.4802
▁Pathogen	-13.4802
▁Rhizo	-13.4802
▁Ridge	-13.4802
▁Strengthen	-13.4802
▁anthelmintic	-13.4802
▁anthracknose	-13.4802
▁bilasipara	-13.4802
▁caution	-13.4802
▁charmil	-13.4802
▁clasic	-13.4802
▁collapse	-13.4802
▁contaminate	-13.4802
▁croiler	-13.4802
▁cyanide	-13.4802
▁cyclone	-13.4802
▁defense	-13.4802
▁detergents	-13.4802
▁dormant	-13.4802
▁dvo	-13.4802
▁electrolyte	-13.4802
▁evolve	-13.4802
▁funag	-13.4802
▁hypertrophy	-13.4802
▁incubator	-13.4802
▁ivermectin	-13.4802
▁jagitial	-13.4802
▁justified	-13.4802
▁keteki	-13.4802
▁kitchen	-13.4802
▁language	-13.4802
▁leafcurl	-13.4802
▁lignosus	-13.4802
▁lychee	-13.4802
▁muscle	-13.4802
▁nayitrojeni	-13.4802
▁pathankot	-13.4802
▁pharmaceutical	-13.4802
▁plenofix	-13.4802
▁pokhraj	-13.4802
▁poutry	-13.4802
▁precipitation	-13.4802
▁premier	-13.4802
▁protocols	-13.4802
▁rachis	-13.4802
▁ratoon	-13.4802
▁resembl	-13.4802
▁respond	-13.4802
▁reveal	-13.4802
▁sampling	-13.4802
▁scarcity	-13.4802
▁sporophores	-13.4802
▁subtitle	-13.4802
▁sweep	-13.4802
▁synzenta	-13.4802
▁tripod	-13.4802
▁varrieties	-13.4802
▁yadagiri	-13.4802
9056603773	-13.4802
eckle	-13.4802
▁execut	-13.4802
▁nasdur	-13.4802
▁disturbed	-13.4802
▁woodlands	-13.4802
▁engagement	-13.4802
▁inherent	-13.4802
▁intacal	-13.4802
▁salad	-13.4802
=132.8	-13.4802
▁Pipe	-13.4802
▁ghare	-13.4802
aturation	-13.4802
ekirime	-13.4802
=133.7	-13.4802
=135.8	-13.4802
=139.3	-13.4802
=131.4	-13.4802
▁agency	-13.4802
▁bacill	-13.4802
=130.9	-13.4802
=135.9	-13.4802
▁kowari	-13.4802
=138.9	-13.4802
▁endofil	-13.4802
▁campus	-13.4802
▁hyaline	-13.4802
▁Melam	-13.4803
▁dehydration	-13.4803
▁flock	-13.4803
=131.5	-13.4803
▁slaking	-13.4803
▁recomem	-13.4803
▁monoculture	-13.4803
▁restoration	-13.4803
17073170731707	-13.4803
▁conception	-13.4803
▁submitted	-13.4803
▁ripeness	-13.4803
▁pillar	-13.4803
▁assessment	-13.4803
▁interior	-13.4803
▁rajmah	-13.4803
gitesh	-13.4803
▁Strategies	-13.4803
ureka	-13.4803
FF	-13.4803
▁motion	-13.4803
kimera	-13.4804
▁profitable	-13.4804
▁gaot	-13.4804
▁expertise	-13.4804
▁jro	-13.4804
▁pairs	-13.4805
▁alone	-13.4805
361.	-13.4805
▁Eas	-13.4805
▁coloration	-13.4806
▁naturalized	-13.4806
▁samba	-13.4806
-832,	-13.4806
▁alum	-13.4806
▁offline	-13.4806
▁sack	-13.4806
lumin	-13.4806
cute	-13.4807
fulumy	-13.4807
▁ridomilgold	-13.4807
tribu	-13.4807
▁Address	-13.4807
▁Eye	-13.4807
egion	-13.4807
▁Cyt	-13.4809
▁Mill	-13.4809
▁dragon	-13.4809
▁Instead	-13.4811
781017	-13.4811
rhiz	-13.4811
enseenene	-13.4812
▁sour	-13.4812
struct	-13.4813
▁organically	-13.4813
▁mole	-13.4813
▁Building	-13.4813
▁stir	-13.4815
=149.0	-13.4815
=145.0	-13.4815
=138.0	-13.4816
▁bq	-13.4816
atory	-13.4816
9104	-13.4816
▁periodical	-13.4816
=144.0	-13.4816
▁highlighted	-13.4816
ancy	-13.4817
▁span	-13.4818
saic	-13.482
▁regain	-13.482
▁dots	-13.4821
▁raya	-13.4823
05555555555555	-13.4824
4861	-13.4825
00000000000004	-13.4826
▁gather	-13.4828
▁metrog	-13.4829
▁drenches	-13.4829
▁abdu	-13.4829
▁bulbs	-13.4831
▁explore	-13.4836
icides	-13.4837
ambi	-13.4837
242424242424242	-13.4839
determinate	-13.4846
9317	-13.4851
▁perforat	-13.4854
2290	-13.4863
00000000001	-13.4865
▁reag	-13.4865
5856	-13.4866
925.0	-13.4867
▁terr	-13.4868
010101	-13.4872
▁Understand	-13.4875
7468	-13.4876
▁reward	-13.4878
▁Integrat	-13.4883
prop	-13.4886
388888888888888	-13.4887
9918	-13.49
0-100%	-13.4901
8060	-13.4904
1083	-13.491
new	-13.492
alpha	-13.4921
6243	-13.4921
0126	-13.4924
1337	-13.4926
▁6.9	-13.4933
▁Rais	-13.4938
619047619047619	-13.4948
000000000001	-13.4954
2222222222222	-13.4955
297297297297297	-13.4974
318181818181818	-13.4988
2384	-13.4989
plastered	-13.499
1998	-13.4997
8063	-13.4998
▁finish	-13.5017
9167	-13.5029
olen	-13.5034
0781	-13.5044
luit	-13.5044
0000000000003	-13.5047
@16	-13.5049
lai	-13.5058
5374	-13.5072
0855	-13.5079
▁musa	-13.5083
3191489361702	-13.5087
5071	-13.5088
4432	-13.5091
1834	-13.5097
3534	-13.5101
2622	-13.5103
7358	-13.5105
erization	-13.5118
jal	-13.5133
▁tape	-13.5138
42857142857	-13.5138
1298	-13.5152
9936	-13.5167
lii	-13.5168
6545	-13.518
85714285714285	-13.5194
2642	-13.5195
force	-13.5197
52941176470	-13.5207
▁mille	-13.5215
okubi	-13.5216
aso	-13.5219
▁8.7	-13.5244
▁Second	-13.5254
5208	-13.5259
icronutrient	-13.5265
ester	-13.5266
194.0	-13.5267
3589743589743	-13.5275
931.0	-13.5276
17391304347826	-13.5277
atu	-13.5282
num	-13.5287
8696	-13.5289
05263157894736	-13.5292
9781	-13.5293
▁enlarge	-13.5298
8686	-13.5309
1130	-13.5327
ube	-13.5334
3728	-13.5341
1158	-13.5342
anipulation	-13.5348
9642	-13.5364
0675	-13.5365
0716	-13.537
▁wrap	-13.5373
7164	-13.5384
▁stabiliz	-13.5395
085.	-13.541
▁rai	-13.5411
9304	-13.5421
zibu	-13.5422
0626	-13.5424
434782608695	-13.5429
7422	-13.5434
▁43.5	-13.5435
1955	-13.5441
▁climb	-13.5445
3436	-13.5449
985.0	-13.5452
9158	-13.5463
hexa	-13.5468
▁pup	-13.5474
8703	-13.549
63157894736842	-13.5493
4338	-13.5496
0373	-13.5502
578947368421052	-13.5505
1843	-13.5517
7372	-13.5525
7944	-13.5529
9346	-13.5533
5853	-13.5533
8884	-13.5536
fit	-13.5548
4053	-13.5551
7785	-13.5555
835.0	-13.5558
941176470588235	-13.5566
1177	-13.5568
8095238095238	-13.5573
1458	-13.5578
▁ectoparasite	-13.5586
▁Sand	-13.56
▁captu	-13.5606
ganesh	-13.5622
2496	-13.5624
451612903225806	-13.5628
bio	-13.5635
maturing	-13.564
okukendee	-13.564
product	-13.564
Anthracnose	-13.564
working	-13.5641
9435044574	-13.5641
tafgor	-13.5641
december	-13.5641
kahikuchi	-13.5641
processing	-13.5641
tillering	-13.5641
fluton	-13.5641
streptocyclin	-13.5642
dexona	-13.5642
jyoti	-13.5642
aauc	-13.5645
book	-13.5645
food	-13.5648
1997	-13.5648
stage	-13.5649
trace	-13.5649
cake	-13.5649
@750	-13.5649
utting	-13.5653
grass	-13.5653
space	-13.5656
3533	-13.5658
vial	-13.5667
▁dispose	-13.5668
9521	-13.567
▁alkalin	-13.5675
▁ensu	-13.5682
uaran	-13.5683
▁automat	-13.5685
▁tempora	-13.5689
▁nh	-13.5692
azole	-13.5694
▁sho	-13.5698
47368421052631	-13.57
▁Late	-13.5702
▁shall	-13.5703
263.0	-13.5703
0416666666666	-13.5706
onventional	-13.5707
rchard	-13.5707
▁tailor	-13.5708
aharashtra	-13.5708
82142857142857	-13.571
unjab	-13.571
mproper	-13.571
ubstantial	-13.5711
8288	-13.5711
electr	-13.5711
requent	-13.5711
▁eucalypt	-13.5711
▁http	-13.5711
655172413	-13.5711
▁entakon	-13.5711
608695652	-13.5711
▁dicofol	-13.5711
▁ethanol	-13.5711
▁scleroti	-13.5711
9436227984	-13.5711
9613856696	-13.5711
Advantages	-13.5711
February	-13.5711
buzaale	-13.5711
dmitted	-13.5711
ibbling	-13.5711
kawuka	-13.5711
kwatagana	-13.5711
mallika	-13.5711
nyisa	-13.5711
silapathar	-13.5711
thiamethoxam	-13.5711
▁(6-6.5	-13.5711
▁9435521447	-13.5711
▁9613472814	-13.5711
▁Approximate	-13.5711
▁Bhut	-13.5711
▁Close	-13.5711
▁Drainage	-13.5711
▁International	-13.5711
▁Lemon	-13.5711
▁Mahaphal	-13.5711
▁Mexico	-13.5711
▁Mount	-13.5711
▁Nigersu	-13.5711
▁Process	-13.5711
▁Road	-13.5711
▁Rosids	-13.5711
▁advocat	-13.5711
▁advsie	-13.5711
▁arrival	-13.5711
▁bhattacharyya	-13.5711
▁biochar	-13.5711
▁carbandazi	-13.5711
▁cavity	-13.5711
▁cholesterol	-13.5711
▁companion	-13.5711
▁competitive	-13.5711
▁corriander	-13.5711
▁cubens	-13.5711
▁detrimental	-13.5711
▁dfdo	-13.5711
▁drowsiness	-13.5711
▁ebirala	-13.5711
▁foetida	-13.5711
▁frozen	-13.5711
▁gossaigaon	-13.5711
▁gutter	-13.5711
▁hibiscus	-13.5711
▁indoors	-13.5711
▁inflorescence	-13.5711
▁inoculant	-13.5711
▁justify	-13.5711
▁license	-13.5711
▁mastamite	-13.5711
▁meghdoot	-13.5711
▁methodologies	-13.5711
▁mohini	-13.5711
▁neosporin	-13.5711
▁perfumery	-13.5711
▁phuleswar	-13.5711
▁proxim	-13.5711
▁quental	-13.5711
▁retailer	-13.5711
▁retired	-13.5711
▁rkvy	-13.5711
▁segments	-13.5711
▁signify	-13.5711
▁sleep	-13.5711
▁tocklai	-13.5711
▁urinary	-13.5711
▁wtaer	-13.5711
ensengek	-13.5711
▁ICAR	-13.5711
▁Market	-13.5711
▁bolster	-13.5711
▁expulsi	-13.5711
▁plywood	-13.5711
▁tarpaulin	-13.5711
dubia	-13.5711
▁earlier	-13.5711
▁kishan	-13.5711
boneville	-13.5711
qntl	-13.5711
▁Break	-13.5711
▁allerg	-13.5711
▁ekivaa	-13.5711
▁pkm	-13.5711
▁potao	-13.5711
▁flesh	-13.5711
▁awamu	-13.5711
46341463414634	-13.5711
▁Fund	-13.5711
▁Special	-13.5711
▁Ripe	-13.5711
▁clinic	-13.5711
6274509803921	-13.5711
▁surgery	-13.5712
ector	-13.5712
▁cocoa	-13.5712
CBS	-13.5712
▁bungi	-13.5712
▁glycel	-13.5712
disturb	-13.5712
▁aonla	-13.5712
▁dutta	-13.5712
uinea	-13.5712
▁mechanization	-13.5712
▁tackl	-13.5712
claim	-13.5712
▁propose	-13.5712
▁festival	-13.5712
▁okusinga	-13.5712
dostem	-13.5712
▁Flex	-13.5712
▁disase	-13.5712
▁employee	-13.5712
▁contro	-13.5712
▁playground	-13.5712
▁frti	-13.5712
▁dithen	-13.5712
▁mangement	-13.5712
▁1.5-2.5-1.	-13.5712
▁alignment	-13.5712
▁stove	-13.5712
▁pheromone	-13.5712
itamin	-13.5712
▁propani	-13.5712
▁impair	-13.5712
▁distributor	-13.5712
▁differentiate	-13.5712
▁participation	-13.5713
▁broom	-13.5713
▁chloropy	-13.5713
▁Free	-13.5713
▁sugesst	-13.5713
▁sugest	-13.5713
eevu	-13.5713
▁kingdom	-13.5713
▁Dead	-13.5713
running	-13.5713
▁succeed	-13.5713
▁oxytetracycline	-13.5714
▁reuse	-13.5714
▁fair	-13.5714
▁distort	-13.5714
▁degrade	-13.5714
osaic	-13.5714
▁pitting	-13.5715
▁septate	-13.5715
▁vaginal	-13.5716
intestin	-13.5716
▁anthrac	-13.5716
▁underside	-13.5716
▁eastern	-13.5716
▁deter	-13.5716
plankton	-13.5717
▁dries	-13.5717
immunize	-13.5717
▁eradicate	-13.5717
▁pore	-13.5717
rrii	-13.5718
▁neuro	-13.5718
▁complaint	-13.5719
110-120	-13.5719
▁wish	-13.5719
added	-13.572
▁sort	-13.5721
▁slower	-13.5721
▁bino	-13.5721
strial	-13.5722
▁crusting	-13.5722
▁withering	-13.5722
▁Recommendations	-13.5723
igna	-13.5723
▁agitated	-13.5723
▁alternata	-13.5723
Multiple	-13.5724
=40	-13.5725
2794	-13.5725
▁quicker	-13.5726
igyan	-13.573
▁makers	-13.573
9055	-13.5731
▁remedie	-13.5732
Alternative	-13.5732
▁hiran	-13.5732
▁raha	-13.5733
▁wk	-13.5733
7869	-13.5734
ME	-13.5735
[...]
