<pad>	0
<s>	0
</s>	0
<unk>	0
,	-3.19323
.	-3.48202
▁the	-3.67693
▁and	-3.88334
:	-3.93691
▁of	-3.95014
▁**	-3.96392
▁(	-3.96509
▁###	-4.13383
▁in	-4.16095
▁is	-4.20263
▁	-4.21767
max	-4.3637
▁crop	-4.46106
s	-4.5055
**	-4.50591
▁to	-4.59504
▁for	-4.7879
▁Response	-4.83556
▁Instruction	-4.83601
▁a	-4.87366
▁*	-5.05638
:**	-5.09096
)	-5.10841
-	-5.14465
▁This	-5.16168
▁water	-5.24696
▁soil	-5.28113
▁P	-5.30257
▁on	-5.30681
C	-5.32169
▁K	-5.35819
▁season	-5.43095
▁pH	-5.45376
▁readings	-5.46327
▁recommended	-5.52267
°	-5.62385
▁with	-5.64391
▁best	-5.73488
▁The	-5.84846
▁has	-5.86716
▁which	-5.88344
ing	-5.89359
▁2	-5.92514
▁during	-5.96735
▁this	-5.96999
▁through	-5.97161
▁N	-5.97248
▁about	-5.9846
N	-5.9994
▁asking	-6.03966
▁well	-6.043
▁Soil	-6.06374
▁your	-6.06769
▁@	-6.08072
▁from	-6.08469
▁temperature	-6.08563
▁grown	-6.10635
▁explain	-6.13568
▁humidity	-6.13637
▁sources	-6.1386
Crop	-6.13917
▁usually	-6.14056
Farming	-6.14172
▁sensor	-6.14297
Why	-6.14518
▁Based	-6.14544
▁typically	-6.14552
▁supported	-6.14629
▁Type	-6.148
▁thrive	-6.14929
▁match	-6.1507
▁Recommend	-6.15269
▁Awareness	-6.15343
▁briefly	-6.15453
▁Your	-6.1548
▁Temp	-6.15548
▁Conditions	-6.15563
Ideal	-6.15563
?	-6.16302
?**	-6.16762
%	-6.19195
▁be	-6.19234
▁60)	-6.27207
▁was	-6.30767
▁at	-6.31384
▁are	-6.31729
/	-6.32774
▁year	-6.33748
▁1	-6.3423
▁as	-6.35337
▁by	-6.37749
▁control	-6.38632
▁production	-6.41355
▁per	-6.44641
▁spray	-6.4654
▁yield	-6.47255
e	-6.50716
),	-6.51667
▁kg	-6.53968
100),	-6.54012
▁What	-6.55001
ed	-6.56744
▁area	-6.57658
▁3	-6.61378
▁or	-6.64463
▁based	-6.68378
▁can	-6.68391
▁days	-6.68678
Loamy	-6.71647
irrigated	-6.73194
▁apply	-6.74242
▁where	-6.74885
40),	-6.7566
▁data	-6.78241
▁5	-6.80881
▁cultivated	-6.81746
▁hectare	-6.82321
▁cultivate	-6.84855
▁recommendation	-6.85899
▁tonnes	-6.86039
2	-6.87351
▁historical	-6.87552
▁that	-6.88614
▁him	-6.918
rainfed	-6.94305
▁plant	-6.95441
▁ml	-6.9688
▁suggested	-7.01758
▁should	-7.04069
vegetables	-7.04995
d	-7.05198
▁kharif	-7.05455
Zaid	-7.06521
1	-7.0762
▁80)	-7.11341
;	-7.12785
▁farmers	-7.13063
▁ICAR	-7.16282
▁10	-7.17568
ly	-7.18709
g	-7.19645
▁20	-7.1984
y	-7.2255
▁it	-7.22622
kharif	-7.22865
▁s	-7.24024
▁rice	-7.24965
▁50	-7.28671
l	-7.28687
a	-7.29228
▁A	-7.29623
▁management	-7.29879
▁gourd	-7.29891
▁fertilizer	-7.31725
▁rabi	-7.33128
▁urea	-7.33148
▁seed	-7.33468
▁-	-7.33607
▁m	-7.34854
▁g	-7.36029
▁7.0)	-7.36501
▁4	-7.37552
▁an	-7.37603
sandy	-7.39577
▁litre	-7.40005
▁ha	-7.40267
al	-7.40312
▁pradesh	-7.41302
▁also	-7.41785
120),	-7.44097
▁use	-7.45415
▁In	-7.455
▁growth	-7.45581
▁crops	-7.45622
rabi	-7.4563
▁disease	-7.46047
▁plants	-7.4617
▁regarding	-7.49358
▁85)	-7.49511
▁gram	-7.49931
▁fruit	-7.50298
▁time	-7.5095
ml	-7.51106
▁interval	-7.51694
▁gm	-7.51738
▁after	-7.53254
▁have	-7.5412
▁were	-7.56472
er	-7.56775
▁advised	-7.57668
i	-7.57999
▁India	-7.5921
▁dose	-7.59591
▁measure	-7.60592
▁query	-7.61359
▁15	-7.62058
▁used	-7.62253
m	-7.62605
▁under	-7.62814
▁S	-7.62829
▁t	-7.63269
▁7.5)	-7.63776
▁like	-7.64111
▁/	-7.64273
▁whole	-7.6438
t	-7.64455
▁irrigation	-7.65828
▁30).	-7.65867
in	-7.67317
▁seeds	-7.68319
n	-7.69518
▁system	-7.69651
▁It	-7.70223
▁leaf	-7.70687
▁B	-7.70775
c	-7.70832
▁other	-7.71147
▁been	-7.72258
▁application	-7.72695
▁30	-7.73017
▁6	-7.75721
▁Indian	-7.75868
▁cultivation	-7.76023
▁l	-7.76209
▁what	-7.76307
gm	-7.77625
▁potato	-7.77629
▁treatment	-7.7844
▁not	-7.78521
=1	-7.79865
▁varieties	-7.79873
▁27).	-7.80008
r	-7.807
▁their	-7.81323
▁high	-7.81866
kg	-7.82294
▁land	-7.83887
▁y	-7.83967
▁such	-7.84375
▁field	-7.84757
▁Research	-7.84764
▁Agricultural	-7.85314
A	-7.87292
▁more	-7.87913
▁agriculture	-7.88222
▁planting	-7.88973
▁C	-7.8914
▁agricultural	-7.89434
▁does	-7.89612
(	-7.89662
▁mop	-7.89909
▁bigha	-7.90733
▁30)	-7.91037
▁ec	-7.91291
'	-7.92441
3	-7.93284
▁7	-7.9496
es	-7.95692
▁its	-7.96762
▁variety	-7.97416
4	-7.97422
▁farming	-7.97425
▁development	-7.97554
▁ssp	-7.97701
millets	-7.97787
▁leaves	-7.98142
▁quality	-7.98656
o	-7.98741
▁one	-7.99185
lit	-7.99298
▁How	-7.99628
=6.6	-7.99719
▁150)	-8.01054
▁100	-8.01699
▁nutrient	-8.02169
▁will	-8.02529
P	-8.0302
▁all	-8.0391
b	-8.03945
).	-8.04012
▁I	-8.04015
▁25	-8.04516
th	-8.05069
=6.7	-8.05562
▁12	-8.05569
▁malathion	-8.06956
▁practices	-8.07472
▁T	-8.07802
▁uttar	-8.08097
▁etc	-8.08445
▁liter	-8.08936
▁c	-8.09274
▁M	-8.09897
▁0.00	-8.10319
▁8	-8.10516
▁up	-8.10856
▁)	-8.11262
▁these	-8.11579
▁rot	-8.12069
▁Pradesh	-8.12107
▁daily	-8.12246
▁Dr	-8.12911
▁90)	-8.13037
bigha	-8.13229
▁problem	-8.13705
▁different	-8.13815
▁may	-8.14088
S	-8.14254
pulses	-8.15361
▁pest	-8.15419
▁8.0	-8.16953
▁using	-8.16988
▁ITK	-8.17166
▁paddy	-8.17308
▁know	-8.17962
▁cm	-8.1817
=6.5	-8.1931
▁diseases	-8.19487
▁fish	-8.19681
▁9	-8.19873
▁how	-8.20323
▁conditions	-8.20437
▁sowing	-8.20482
▁root	-8.20635
▁over	-8.2093
▁told	-8.21075
▁you	-8.22079
▁times	-8.22244
▁than	-8.23602
▁tree	-8.23703
▁farm	-8.23926
▁technology	-8.24136
ation	-8.24242
=6.8	-8.24627
▁e	-8.25168
▁35).	-8.25218
▁maize	-8.25826
▁tomato	-8.25939
k	-8.26536
▁borer	-8.27138
▁millet	-8.27514
▁method	-8.28202
▁food	-8.28229
▁research	-8.28809
st	-8.29436
▁1.	-8.29986
▁due	-8.30073
well	-8.30152
▁against	-8.30357
▁small	-8.3067
▁systems	-8.30818
▁measures	-8.30839
▁F	-8.3094
▁income	-8.31355
▁i	-8.31574
▁coconut	-8.32037
drained	-8.32065
▁19	-8.32071
B	-8.32588
=6.1	-8.32792
▁health	-8.32795
▁following	-8.33115
▁areas	-8.33816
▁two	-8.33943
=6.3	-8.34054
=6.4	-8.34054
▁40	-8.34319
=6.9	-8.34555
▁ensure	-8.35381
▁bean	-8.35382
▁18	-8.35581
▁Agriculture	-8.35994
▁provide	-8.36875
tuber	-8.3704
=6.2	-8.37259
T	-8.38292
▁organic	-8.38296
▁70	-8.38537
Root	-8.39225
▁increase	-8.39514
▁blight	-8.39532
▁developed	-8.39809
▁G	-8.40097
▁district	-8.40396
▁productivity	-8.40611
▁into	-8.40681
R	-8.4097
5	-8.41138
▁wheat	-8.41174
▁Delhi	-8.41348
▁some	-8.41743
▁For	-8.41944
▁R	-8.4215
▁help	-8.42156
h	-8.42446
▁onion	-8.43494
▁brinjal	-8.43688
▁New	-8.43964
M	-8.44284
▁stem	-8.44376
▁twice	-8.44548
or	-8.44563
▁Tables	-8.44997
▁To	-8.45217
▁E	-8.45878
on	-8.45901
▁biogas	-8.46206
▁prevent	-8.46498
▁chilli	-8.4663
▁summer	-8.46867
▁day	-8.47176
▁higher	-8.47243
▁pests	-8.47298
▁years	-8.4799
▁contact	-8.48825
▁feed	-8.49204
▁effectively	-8.49494
6	-8.49888
▁wilt	-8.49918
▁gas	-8.50038
ion	-8.50256
▁D	-8.50568
▁any	-8.50753
▁Institute	-8.5081
▁reduce	-8.51808
litre	-8.51852
▁out	-8.51858
▁when	-8.51997
▁applied	-8.52066
▁p	-8.52361
▁bed	-8.52654
▁solution	-8.52762
▁no	-8.52842
us	-8.5297
f	-8.53267
I	-8.53549
adhya	-8.53683
E	-8.53715
▁before	-8.53739
p	-8.53988
▁cost	-8.54198
▁cow	-8.54211
▁1.5	-8.54507
▁but	-8.55086
um	-8.55495
▁45	-8.55727
▁dry	-8.5579
▁0	-8.56052
▁good	-8.56163
▁fruits	-8.56231
▁technologies	-8.56635
D	-8.57503
▁number	-8.57593
=7.0	-8.57678
▁green	-8.57678
liter	-8.57885
=19.	-8.58199
▁f	-8.58599
O	-8.58882
▁25).	-8.59138
▁Use	-8.59521
▁oil	-8.59526
▁trees	-8.59595
▁6.5)	-8.59698
▁11	-8.59825
▁value	-8.60221
▁do	-8.60229
▁level	-8.60253
▁better	-8.60631
▁training	-8.60634
▁need	-8.60721
▁60	-8.60932
▁Explain	-8.60995
=18.	-8.61204
oil	-8.61286
▁Describe	-8.615
▁new	-8.61698
8	-8.6184
▁important	-8.61907
▁rate	-8.61965
ur	-8.62035
ee	-8.62098
u	-8.6217
▁suitable	-8.62289
▁various	-8.62314
▁low	-8.62948
▁along	-8.63248
K	-8.63343
▁effective	-8.63829
▁L	-8.63842
=6.0	-8.63856
0	-8.64198
▁potential	-8.64246
▁13	-8.64572
▁advice	-8.64989
ic	-8.65295
G	-8.65341
▁r	-8.65359
L	-8.65594
ent	-8.65876
▁between	-8.66004
▁banana	-8.66197
▁information	-8.6707
F	-8.67072
▁lit	-8.67491
▁cotton	-8.67536
▁re	-8.67597
▁local	-8.67827
▁given	-8.68289
▁b	-8.68324
ta	-8.689
▁cowpea	-8.69009
▁16	-8.69238
ers	-8.69593
plant	-8.69954
▁improved	-8.70161
▁14	-8.70601
an	-8.70705
▁stage	-8.70805
▁powder	-8.70897
▁H	-8.70983
▁efficiency	-8.71025
▁fungal	-8.71304
▁first	-8.71388
▁if	-8.715
▁done	-8.71608
ii	-8.72016
9	-8.72151
▁including	-8.7218
▁1.0	-8.72864
▁infestation	-8.72963
▁content	-8.73136
▁These	-8.73153
▁200	-8.73378
▁insect	-8.73526
▁tthhee	-8.7362
▁moisture	-8.74071
H	-8.74096
▁No	-8.74247
▁period	-8.74582
▁sugarcane	-8.74899
▁17	-8.74904
▁available	-8.7491
▁farmer	-8.7492
▁products	-8.75004
▁methods	-8.75062
▁animals	-8.75122
▁24	-8.75221
▁healthy	-8.75284
▁take	-8.75494
▁6.7	-8.75907
▁total	-8.76048
▁karnataka	-8.76429
▁each	-8.76583
▁long	-8.76668
▁University	-8.77137
▁V	-8.77156
▁Director	-8.77679
▁only	-8.77773
▁top	-8.77824
▁rain	-8.77942
▁found	-8.78397
▁growing	-8.78649
▁bacterial	-8.78982
▁Name	-8.79051
▁mixture	-8.79081
▁natural	-8.79276
▁three	-8.79382
at	-8.79518
▁bihar	-8.79535
▁major	-8.79552
▁spacing	-8.79654
ha	-8.7985
▁early	-8.79863
▁species	-8.79887
w	-8.80198
▁vegetable	-8.80325
ri	-8.80472
▁35	-8.8059
▁ooff	-8.80631
ar	-8.8084
to	-8.80865
▁6.8)	-8.81035
▁country	-8.81091
▁climate	-8.81493
▁administer	-8.81692
▁40).	-8.81852
▁made	-8.81969
▁Management	-8.82018
▁fertilizers	-8.82031
▁Technology	-8.82236
▁region	-8.82548
V	-8.83094
▁improve	-8.83319
▁then	-8.83879
▁raised	-8.84105
ia	-8.84857
li	-8.8491
▁seedlings	-8.85094
▁aanndd	-8.85303
▁poultry	-8.85367
▁sustainable	-8.85456
▁them	-8.85565
rr	-8.85819
▁State	-8.85832
▁proper	-8.85904
▁kisan	-8.86077
▁required	-8.86131
▁2.5	-8.86145
▁borax	-8.86323
▁goat	-8.86411
▁22	-8.86455
▁milk	-8.86482
▁resources	-8.86578
▁support	-8.86592
▁spread	-8.86933
▁National	-8.8733
ir	-8.87599
▁animal	-8.87701
▁nutrients	-8.87774
▁there	-8.87927
▁n	-8.88042
able	-8.88356
▁both	-8.88544
=17.	-8.88706
▁mustard	-8.89013
▁large	-8.89149
▁they	-8.8925
▁being	-8.89256
▁Council	-8.89433
▁process	-8.89819
ll	-8.89943
▁Farmers	-8.90798
▁rogor	-8.90908
v	-8.90975
▁storage	-8.91086
▁most	-8.91316
oo	-8.91655
▁k	-8.91687
▁market	-8.91939
▁make	-8.92086
▁non	-8.92214
na	-8.92266
▁q	-8.92333
▁so	-8.9314
=7.2	-8.93148
=7.4	-8.93357
▁tamil	-8.93496
▁nadu	-8.93497
Laterit	-8.93532
▁month	-8.93551
=7.3	-8.93706
30	-8.9375
x	-8.9383
▁fields	-8.93836
▁very	-8.93883
▁around	-8.93885
▁assam	-8.93917
▁grain	-8.94046
▁protect	-8.94093
▁red	-8.9415
▁preparation	-8.94339
▁2.	-8.94382
▁followed	-8.94477
▁size	-8.94524
▁further	-8.94688
il	-8.95143
▁give	-8.95342
▁x	-8.95646
▁name	-8.95673
▁while	-8.95685
▁practice	-8.95766
=5.9	-8.96181
▁d	-8.96341
▁impact	-8.96456
▁increased	-8.9662
▁21	-8.96695
am	-8.96727
=7.1	-8.96755
▁his	-8.96817
re	-8.97046
▁groundnut	-8.97217
▁include	-8.97352
▁odisha	-8.97405
▁bottle	-8.9742
▁needs	-8.97421
▁state	-8.97777
▁weed	-8.98015
▁O	-8.98452
7	-8.99287
▁common	-8.99375
▁bank	-8.99502
▁surface	-8.9983
el	-8.99889
▁pumpkin	-8.99982
▁harvest	-9.0049
=5.8	-9.00646
▁amount	-9.0086
it	-9.00983
▁avoid	-9.00993
▁'	-9.01373
▁age	-9.01581
▁doses	-9.01757
ec	-9.01787
▁sorghum	-9.01948
▁specific	-9.01987
▁--	-9.0246
▁de	-9.02575
ate	-9.02576
le	-9.02622
▁rural	-9.02651
▁foot	-9.02846
▁orally	-9.02983
▁vegetables	-9.03358
▁making	-9.03384
=5.7	-9.03532
▁0.5	-9.03623
▁3.	-9.03861
▁pm	-9.04072
▁Total	-9.04234
▁lemon	-9.0489
▁weight	-9.0495
▁nursery	-9.04994
la	-9.05011
ma	-9.05554
▁compared	-9.05603
▁Project	-9.05635
▁breeding	-9.0599
▁affected	-9.0616
ra	-9.06173
-2	-9.06913
▁damage	-9.07416
▁less	-9.07485
ity	-9.07959
ssp	-9.0825
▁west	-9.08252
▁appropriate	-9.08635
ol	-9.08643
▁transplanting	-9.08746
▁KVK	-9.08814
▁fodder	-9.09034
▁economic	-9.09048
▁pond	-9.0905
▁loamy	-9.09172
▁benefits	-9.09221
▁significant	-9.09241
15	-9.0949
▁post	-9.09535
▁By	-9.09889
pur	-9.0996
▁adviced	-9.1037
▁material	-9.10407
▁attack	-9.10678
▁Input	-9.11118
▁resistant	-9.11178
▁cattle	-9.11426
hra	-9.11556
▁role	-9.11605
Sandy	-9.11678
▁availability	-9.11783
▁J	-9.11836
U	-9.11886
▁late	-9.1226
▁grams	-9.12305
▁Singh	-9.1252
▁same	-9.1257
▁drought	-9.12754
▁W	-9.1286
=16.	-9.13079
▁details	-9.13147
▁lime	-9.13218
▁processing	-9.13238
▁mango	-9.13285
▁micro	-9.13435
▁chemical	-9.13518
▁addition	-9.13744
▁helps	-9.138
▁infection	-9.13853
▁black	-9.13996
▁condition	-9.14194
▁All	-9.14213
▁ridge	-9.14229
▁type	-9.14232
@	-9.14647
iinngg	-9.14661
▁2022	-9.14811
▁environment	-9.1482
and	-9.14916
▁un	-9.14976
▁cropping	-9.15064
▁main	-9.15252
▁cucumber	-9.15269
=5.6	-9.15381
en	-9.15431
gg	-9.15602
ment	-9.15725
▁livestock	-9.15754
=20.0	-9.1599
▁activities	-9.1612
-1	-9.16236
▁Krishi	-9.16367
▁produce	-9.16404
mm	-9.16467
▁change	-9.16611
▁capacity	-9.16646
▁essential	-9.1669
▁neem	-9.16746
▁An	-9.1678
▁mixed	-9.16801
▁source	-9.16809
▁reducing	-9.1713
▁bavistin	-9.1719
▁23	-9.17299
▁bio	-9.17683
20	-9.18125
▁sub	-9.18683
▁taken	-9.18713
▁stress	-9.18739
▁months	-9.1911
▁maintain	-9.19217
ul	-9.1959
▁population	-9.19907
ad	-9.19973
▁Seed	-9.20063
▁rainfall	-9.20179
▁weeds	-9.20265
▁question	-9.20314
W	-9.20315
▁2019-20	-9.20409
▁bitter	-9.20625
▁harvesting	-9.20653
▁he	-9.2074
▁iinn	-9.20763
▁sector	-9.20875
▁Education	-9.20897
▁resistance	-9.20909
▁office	-9.21524
ive	-9.21538
mop	-9.21702
▁80	-9.21883
▁beds	-9.21895
=15.	-9.21898
▁every	-9.22154
▁related	-9.22164
▁millets	-9.2236
▁cabbage	-9.22433
▁grow	-9.22459
ak	-9.22468
▁hybrid	-9.22546
▁within	-9.22596
dd	-9.22615
ash	-9.22704
▁regions	-9.22943
60	-9.22986
▁white	-9.23054
▁enhance	-9.23177
▁As	-9.23233
▁many	-9.23501
▁special	-9.23517
▁Farming	-9.23778
▁fly	-9.23945
ro	-9.24013
▁Pusa	-9.24046
▁4.	-9.24062
lo	-9.24189
pp	-9.24196
▁flowering	-9.24209
▁work	-9.2421
▁kilogram	-9.24303
▁flower	-9.244
▁materials	-9.24429
▁body	-9.24599
▁drop	-9.24659
▁culture	-9.25033
▁address	-9.2504
▁increasing	-9.2517
▁Tamil	-9.25208
▁chillies	-9.25299
▁why	-9.25317
uu	-9.25545
▁nitrogen	-9.25546
▁provided	-9.25619
▁cauliflower	-9.25679
▁old	-9.2595
▁timely	-9.26228
45	-9.26297
▁agro	-9.26415
vi	-9.26561
▁conservation	-9.26712
▁Re	-9.26714
▁part	-9.26795
22	-9.27052
▁Kumar	-9.27058
▁parts	-9.27128
▁traditional	-9.27422
▁Development	-9.2769
▁efficient	-9.277
▁Code	-9.27804
▁sweet	-9.28052
▁ensur	-9.28227
▁27	-9.28277
▁mm	-9.28327
▁visit	-9.28347
▁75	-9.28422
▁co	-9.2844
▁manure	-9.28478
88	-9.28554
▁winter	-9.28575
ti	-9.28613
▁ring	-9.28707
▁Horticulture	-9.28759
▁saaf	-9.28775
▁litres	-9.28792
up	-9.28932
▁get	-9.29105
▁respectively	-9.2925
▁mildew	-9.29271
▁promote	-9.29289
▁tracel	-9.29305
▁among	-9.29371
44	-9.2952
▁infected	-9.29777
▁base	-9.2985
co	-9.29882
▁compost	-9.29895
▁cowdung	-9.30149
▁mg	-9.30185
tt	-9.30298
▁enhanc	-9.30425
ine	-9.30435
▁2018-19	-9.30526
▁would	-9.30576
▁rajasthan	-9.30625
▁2023	-9.30688
▁Nadu	-9.30829
▁spraying	-9.3089
▁However	-9.30939
▁environmental	-9.30975
ala	-9.30997
▁because	-9.3103
se	-9.31076
me	-9.31082
▁Government	-9.31115
▁resource	-9.31312
▁Animal	-9.31469
▁tricel	-9.3154
▁2.0	-9.31783
▁require	-9.3195
▁2016-17	-9.32051
▁acid	-9.32122
▁necessary	-9.32153
▁Gujarat	-9.32213
ne	-9.32539
▁village	-9.32602
▁deep	-9.32752
▁33	-9.32822
▁suggest	-9.3302
▁90	-9.33051
et	-9.33156
▁card	-9.33325
67	-9.33532
▁supply	-9.33599
ut	-9.33669
▁want	-9.33759
▁yam	-9.3378
▁requirement	-9.33875
▁High	-9.34157
▁affect	-9.34387
▁o	-9.34521
▁h	-9.34529
▁Title	-9.34541
▁26	-9.34632
▁If	-9.3464
▁Uttar	-9.34742
▁reduced	-9.34792
hhattisgarh	-9.34865
▁bolus	-9.34962
▁pre	-9.35084
▁present	-9.35312
▁Water	-9.35527
▁knowledge	-9.35544
▁drip	-9.35752
▁Answer	-9.35756
▁500	-9.35911
▁could	-9.35919
▁education	-9.36136
▁model	-9.36147
▁Plant	-9.3623
red	-9.36269
▁Co	-9.36279
▁must	-9.36317
▁form	-9.36358
cc	-9.36388
▁annual	-9.36545
▁maharashtra	-9.36557
▁case	-9.36612
▁row	-9.36676
▁sprays	-9.36801
▁check	-9.36953
0.0	-9.37096
▁improv	-9.37383
tic	-9.3745
▁off	-9.3777
▁Maharashtra	-9.37796
▁He	-9.37806
55	-9.37925
▁results	-9.37948
▁fresh	-9.38011
ya	-9.38038
▁maturity	-9.38287
▁acre	-9.38296
▁jute	-9.38336
▁half	-9.38391
▁nutritional	-9.38393
▁overall	-9.38405
▁28	-9.38448
id	-9.38457
clay	-9.3858
▁ttoo	-9.38615
▁gujarat	-9.38779
=7.5	-9.3878
▁last	-9.3881
▁tea	-9.38938
▁net	-9.38955
based	-9.3913
com	-9.39142
▁average	-9.39259
▁programmes	-9.39313
▁pulses	-9.39375
ant	-9.39412
▁Table	-9.3948
▁study	-9.39494
de	-9.39781
▁loss	-9.39925
▁security	-9.40058
▁sunflower	-9.40065
▁commercial	-9.40067
▁sp	-9.40417
▁distance	-9.4044
▁without	-9.40504
▁clean	-9.40505
▁Karnataka	-9.40527
18	-9.40689
▁fertility	-9.40775
▁31	-9.40782
▁benefit	-9.40842
▁mix	-9.40891
▁super	-9.40903
▁Unit	-9.40955
40	-9.41072
▁having	-9.41165
▁feeding	-9.41183
▁life	-9.41299
▁ratio	-9.41314
97	-9.41346
nd	-9.41371
▁fixed	-9.41462
wa	-9.4165
▁ash	-9.41859
▁approach	-9.41866
gram	-9.42227
▁regularly	-9.42235
iv	-9.42244
nn	-9.42314
▁terms	-9.42528
▁scheme	-9.42574
▁150	-9.42657
▁Science	-9.4274
▁rainfed	-9.42845
▁matter	-9.4315
▁Rs	-9.43181
▁states	-9.43206
cereals	-9.43232
▁yields	-9.4326
ag	-9.43566
▁spot	-9.43572
80	-9.43603
▁light	-9.4377
▁beans	-9.43816
▁KVKs	-9.43948
▁cut	-9.43948
▁shoot	-9.44006
▁v	-9.44038
▁2-3	-9.44133
cm	-9.44202
▁several	-9.44358
eedd	-9.44541
▁above	-9.4459
op	-9.44836
▁Central	-9.4486
▁yellow	-9.44912
▁programme	-9.4502
hu	-9.45197
▁lower	-9.45309
▁across	-9.45462
ni	-9.45529
▁human	-9.45642
▁@2	-9.45664
▁effect	-9.45715
ry	-9.45744
▁Shri	-9.45846
is	-9.45965
▁activity	-9.45972
23	-9.46044
▁leading	-9.46207
▁flowers	-9.4624
▁indofil	-9.46271
▁seedling	-9.46372
▁crucial	-9.46882
▁demand	-9.46984
▁levels	-9.47037
▁especially	-9.47106
▁moringa	-9.47179
▁protein	-9.47215
▁bengal	-9.47338
fibre	-9.47378
▁pro	-9.47436
▁evening	-9.47447
▁pig	-9.47539
▁29	-9.47547
▁U	-9.47651
▁erosion	-9.47657
▁distribution	-9.4766
▁who	-9.47728
▁vitamin	-9.47835
▁million	-9.47977
sugar	-9.47996
▁Department	-9.48101
▁problems	-9.4834
ci	-9.48622
di	-9.48802
▁status	-9.48803
per	-9.48855
ted	-9.48908
▁Sciences	-9.49053
▁conducted	-9.49131
▁structure	-9.49163
▁potash	-9.49231
▁end	-9.49358
▁Rice	-9.49421
▁zone	-9.49475
thinai	-9.4957
▁pea	-9.49594
▁performance	-9.49594
tur	-9.49623
33	-9.49645
▁providing	-9.49655
66	-9.49663
▁once	-9.49799
age	-9.49981
▁extension	-9.50053
kudiraivali	-9.50083
▁poor	-9.50384
sugarbeet	-9.50513
▁project	-9.50598
▁45).	-9.50645
samai	-9.507
▁20).	-9.50777
▁blitox	-9.50829
▁five	-9.50847
▁test	-9.50867
▁29).	-9.50875
gingely	-9.50946
▁roots	-9.50965
▁95)	-9.51131
▁significantly	-9.51184
21	-9.51192
ness	-9.51252
J	-9.51489
▁26).	-9.51503
colecrops	-9.51566
▁8.5)	-9.51593
▁factors	-9.5171
▁symptoms	-9.51724
▁pressure	-9.52043
▁92)	-9.52098
▁castor	-9.52188
▁near	-9.52219
▁II	-9.52266
tapoica	-9.52317
▁properties	-9.5232
▁fertilization	-9.52492
7°	-9.527
13	-9.52742
▁0.4	-9.52764
▁brown	-9.52771
ch	-9.52795
est	-9.53106
as	-9.53166
▁diarrhoea	-9.53199
▁tab	-9.53264
▁order	-9.53318
▁issues	-9.53512
j	-9.5367
3°	-9.53725
te	-9.53777
▁General	-9.53826
▁6.0)	-9.5388
▁techniques	-9.53937
1°	-9.54218
▁insects	-9.54231
▁taking	-9.54282
▁There	-9.54336
▁55	-9.54402
5°	-9.54433
▁challenges	-9.54472
▁set	-9.54667
▁controlling	-9.54684
▁Scientist	-9.5502
▁w	-9.55027
hi	-9.55114
rd	-9.55146
▁considered	-9.55221
▁inject	-9.55266
▁June	-9.55331
▁go	-9.55387
86	-9.55771
17	-9.55815
▁cluster	-9.55834
▁75)	-9.56008
ana	-9.56151
▁women	-9.56155
10	-9.56219
▁soils	-9.56412
90	-9.56493
▁Committee	-9.56539
▁treat	-9.56576
▁colour	-9.56603
▁waste	-9.56607
▁group	-9.56637
▁manage	-9.5683
da	-9.57062
▁Black	-9.57069
▁virus	-9.57191
▁short	-9.5729
6°	-9.5732
▁prepared	-9.5738
▁Punjab	-9.57382
▁basal	-9.57402
▁Crop	-9.57422
▁dairy	-9.57467
Y	-9.57796
urea	-9.57803
ac	-9.58011
▁mu	-9.58161
ance	-9.5839
▁pepper	-9.58508
▁breed	-9.58634
▁January	-9.58658
▁0.6	-9.58659
▁36	-9.58725
ous	-9.58761
▁peas	-9.59023
the	-9.59138
▁Centre	-9.59187
▁rust	-9.59213
▁At	-9.59248
▁dust	-9.59286
▁cause	-9.5932
▁Extension	-9.59446
▁integrated	-9.59638
lt	-9.59808
ary	-9.59936
▁laser	-9.60011
-45	-9.60016
▁unit	-9.6005
▁keep	-9.60143
▁contribute	-9.60242
▁week	-9.60272
▁Keywords	-9.60282
▁pusa	-9.60432
ali	-9.60501
ter	-9.60598
▁height	-9.60694
▁national	-9.60723
▁sprinkler	-9.60973
▁please	-9.61025
▁March	-9.61029
▁observed	-9.61192
77	-9.6123
2°	-9.61364
▁May	-9.61498
99	-9.61675
38	-9.61691
bb	-9.61913
▁cultural	-9.61948
ce	-9.62196
lluvial	-9.62203
har	-9.6234
▁allow	-9.62381
▁financial	-9.6248
▁free	-9.62548
500	-9.62579
▁established	-9.62594
min	-9.62718
-20	-9.62819
▁protection	-9.63013
▁di	-9.63042
▁Production	-9.6311
▁purpose	-9.63111
▁Rajasthan	-9.63194
▁turmeric	-9.63317
▁districts	-9.63608
▁32	-9.63655
▁service	-9.63662
16	-9.63772
no	-9.63773
▁De	-9.63868
35	-9.63972
▁anti	-9.6405
▁shall	-9.64089
▁cover	-9.64184
29	-9.64208
green	-9.64246
▁highly	-9.64276
om	-9.64298
12	-9.64322
▁energy	-9.64355
ai	-9.64364
▁develop	-9.64366
▁Zone	-9.64376
▁line	-9.64481
▁improvement	-9.6459
▁medium	-9.64639
▁weather	-9.64658
os	-9.64663
▁viz	-9.64667
▁120	-9.64703
▁block	-9.64706
25	-9.64711
Clay	-9.64906
76	-9.64911
▁bamboo	-9.64942
▁rich	-9.65001
▁asked	-9.65048
▁way	-9.65156
▁adoption	-9.65313
▁particularly	-9.65543
▁0.3	-9.65797
▁much	-9.65902
▁contain	-9.65963
▁world	-9.66231
▁heat	-9.66472
▁strategies	-9.66521
4°	-9.66594
▁ginger	-9.66667
▁product	-9.66682
ata	-9.66751
va	-9.6683
▁importance	-9.66957
▁44	-9.67008
▁j	-9.67012
ization	-9.6711
yy	-9.6711
▁global	-9.67171
▁identified	-9.67175
▁vaccine	-9.67251
▁aphids	-9.67286
▁types	-9.673
▁analysis	-9.67319
▁They	-9.67414
▁directed	-9.67575
▁had	-9.6766
▁pesticides	-9.67692
elangana	-9.678
▁Reference	-9.67834
▁often	-9.67897
ka	-9.68046
▁range	-9.68048
▁Fisheries	-9.68125
ot	-9.6814
5.00	-9.68274
▁scale	-9.68285
▁ragi	-9.68343
▁me	-9.68358
▁ex	-9.68389
ish	-9.68415
▁dried	-9.68447
Rs	-9.68457
▁maintaining	-9.68576
▁2020	-9.68617
▁selection	-9.68663
ba	-9.68835
▁250	-9.68968
0°	-9.69012
▁papaya	-9.69085
▁depth	-9.69087
q	-9.69116
65	-9.69145
rich	-9.69191
▁curl	-9.69262
▁blast	-9.69311
▁grains	-9.69319
▁capsicum	-9.69548
ling	-9.69602
▁caused	-9.69716
▁ch	-9.69753
ide	-9.69782
▁developing	-9.69897
▁released	-9.69906
▁System	-9.6994
▁3.0	-9.70141
=25.3	-9.70279
▁ant	-9.70453
73	-9.70467
▁(2	-9.7051
cotton	-9.70546
▁losses	-9.7063
▁grass	-9.70636
▁services	-9.70697
▁hours	-9.70722
▁Jammu	-9.70807
▁When	-9.7081
4.	-9.70817
11	-9.70824
-3	-9.70832
▁Fe	-9.70846
▁During	-9.70958
▁people	-9.71109
=25.1	-9.71185
▁arecanut	-9.71185
▁West	-9.7133
▁(1	-9.71463
Red	-9.71594
tra	-9.71596
ty	-9.71613
▁building	-9.71729
▁hand	-9.71798
▁Bengal	-9.71892
▁boro	-9.71908
▁Andhra	-9.71916
▁lead	-9.71962
▁copper	-9.72022
▁2017-18,	-9.72093
.7	-9.72164
▁germination	-9.72175
▁81	-9.72407
aa	-9.72558
▁maintenance	-9.72558
▁single	-9.72713
▁digester	-9.72776
▁International	-9.72827
ized	-9.72872
▁layer	-9.7292
▁marketing	-9.72946
89	-9.7295
91	-9.72978
96	-9.73079
▁key	-9.73196
▁zinc	-9.73314
▁With	-9.7333
▁countries	-9.73563
▁drainage	-9.73564
im	-9.73582
▁policy	-9.7364
▁establishment	-9.738
▁genetic	-9.73828
▁needed	-9.73841
▁trunk	-9.73873
▁regular	-9.73877
od	-9.73914
lu	-9.74001
=26.2	-9.74107
▁towards	-9.74268
▁gun	-9.74322
▁Veterinary	-9.74341
24	-9.74376
=25.8	-9.74419
▁sown	-9.74471
▁clay	-9.74486
▁potassium	-9.74498
▁ants	-9.7453
14	-9.7457
ated	-9.74597
▁After	-9.74654
▁maximum	-9.74664
▁known	-9.74709
▁additional	-9.74818
z	-9.74882
▁since	-9.74969
▁IC	-9.74971
▁mushroom	-9.75048
▁2018	-9.75062
▁place	-9.75109
▁Control	-9.75134
▁al	-9.75147
ari	-9.75246
▁2021	-9.75282
▁full	-9.753
▁Hyderabad	-9.75363
▁salt	-9.75398
▁yy	-9.75453
▁sali	-9.75463
mi	-9.75497
▁planofix	-9.75521
▁access	-9.75673
ara	-9.75758
▁even	-9.75859
▁treated	-9.75929
▁operation	-9.75935
▁produced	-9.75996
▁requirements	-9.76153
37	-9.76196
48	-9.76236
▁nutrition	-9.76286
▁efforts	-9.76304
wheat	-9.76451
▁according	-9.76675
▁optimal	-9.76716
▁reduces	-9.76748
27	-9.76803
▁semi	-9.76834
▁Pearl	-9.76909
▁garlic	-9.76956
▁installment	-9.7712
▁extract	-9.77173
85	-9.7719
▁covered	-9.77277
▁micronutrient	-9.77318
▁2015-16	-9.77359
▁agent	-9.77385
▁steps	-9.77441
▁involves	-9.77523
▁promoting	-9.77524
▁con	-9.77533
if	-9.77628
▁facilities	-9.77681
=25.6	-9.77762
▁levelling	-9.77782
▁air	-9.78006
▁basis	-9.78008
▁flood	-9.78054
ang	-9.78059
=25.9	-9.78087
▁showed	-9.78241
32	-9.78249
▁radish	-9.78267
▁Food	-9.78339
ence	-9.78354
▁bark	-9.78358
=25.2	-9.78412
34	-9.78492
ff	-9.78509
9°	-9.78731
=25.5	-9.78738
sa	-9.78929
▁sulphate	-9.79067
▁monitoring	-9.79109
▁aa	-9.79133
▁recorded	-9.79134
▁moist	-9.79147
▁credit	-9.79165
▁OF	-9.7927
nt	-9.79348
▁we	-9.79483
▁page	-9.79647
▁110	-9.79804
=26.9	-9.79889
=26.0	-9.7989
▁four	-9.79968
▁technical	-9.79972
▁design	-9.79973
▁second	-9.80048
▁hybrids	-9.80087
ist	-9.80179
▁lakh	-9.80221
tion	-9.80287
81	-9.80297
=26.6	-9.80387
▁inputs	-9.80456
=60.0	-9.80471
▁41	-9.80509
=26.5	-9.80553
▁play	-9.80581
ally	-9.80597
▁AND	-9.80654
▁pathogens	-9.80787
52	-9.80825
▁Madhya	-9.80913
▁fisheries	-9.8097
▁meet	-9.81004
▁AICRP	-9.81013
=26.3	-9.81053
=25.0	-9.81055
▁villages	-9.81068
qu	-9.81095
▁risk	-9.8122
=26.4	-9.81221
▁carrot	-9.81308
▁incidence	-9.81316
=26.8	-9.81389
▁scientific	-9.8145
▁October	-9.81467
▁deficient	-9.81473
ap	-9.81486
ip	-9.8161
ru	-9.81637
▁remove	-9.81723
=25.4	-9.81725
of	-9.81753
▁become	-9.81772
▁cassava	-9.81978
▁french	-9.81998
=24.9	-9.82062
▁power	-9.82121
▁duration	-9.82182
▁tolerant	-9.82214
▁hills	-9.82363
▁students	-9.82532
=26.7	-9.82571
▁inter	-9.82699
▁Bio	-9.82716
▁account	-9.82827
▁watermelon	-9.82997
▁6.	-9.83024
▁teak	-9.8304
=26.1	-9.83081
ose	-9.83298
▁citrus	-9.83338
▁Income	-9.8335
▁November	-9.83445
ox	-9.8348
00	-9.83483
7.	-9.8351
▁straw	-9.8351
▁Year	-9.83528
▁thereby	-9.83686
=25.7	-9.83767
▁wood	-9.83777
ies	-9.83779
▁critical	-9.83853
▁North	-9.83968
▁scientists	-9.84006
▁plan	-9.84156
▁operations	-9.84348
▁38	-9.84365
▁pit	-9.84379
▁soyabean	-9.84381
▁cent	-9.84506
mail	-9.84591
72	-9.84594
▁initial	-9.84642
ating	-9.84754
▁away	-9.84821
▁yielding	-9.84838
-4	-9.84883
▁treatments	-9.84921
▁oku	-9.84945
ja	-9.8499
▁aphid	-9.85105
=24.4	-9.85151
ill	-9.8521
▁birds	-9.85264
▁costs	-9.85272
46	-9.85277
▁paste	-9.8536
ub	-9.85364
▁2019	-9.85385
harvest	-9.85434
▁carbon	-9.85455
51	-9.85487
▁stages	-9.85526
▁34	-9.85549
70	-9.85835
▁autumn	-9.85851
▁nut	-9.85935
=5.5	-9.86027
64	-9.86053
▁weeding	-9.86164
▁2017	-9.86173
res	-9.8631
▁open	-9.86317
54	-9.86333
▁household	-9.86382
50	-9.86534
▁equal	-9.86642
ts	-9.86697
▁below	-9.86735
▁Apply	-9.86767
mo	-9.86803
63	-9.8681
▁dressing	-9.86826
▁Training	-9.86844
▁Region	-9.8691
▁37	-9.87032
ho	-9.87052
oc	-9.87067
▁success	-9.87439
ting	-9.87498
▁apple	-9.8756
▁0.2	-9.87689
▁industry	-9.87711
▁ridomil	-9.87711
▁0.8	-9.87775
▁split	-9.87833
▁48	-9.87872
▁registration	-9.8789
▁price	-9.87893
=24.1	-9.8798
▁controlled	-9.87989
36	-9.88088
man	-9.88162
▁0.0	-9.88203
▁slurry	-9.8821
mer	-9.88243
▁community	-9.88249
▁FOR	-9.88346
▁Y	-9.88377
ah	-9.88545
▁kvk	-9.88554
▁dung	-9.88712
▁ground	-9.8877
=65.0	-9.88791
▁useful	-9.88834
=24.3	-9.8888
=24.5	-9.8888
▁share	-9.88886
tu	-9.89008
ani	-9.89183
▁Integrated	-9.89202
▁multi	-9.89226
ig	-9.89256
▁branches	-9.89362
▁degree	-9.89424
▁consumption	-9.89516
▁irrigated	-9.89559
26	-9.89626
▁adopted	-9.89645
▁blackgram	-9.89662
▁July	-9.89732
▁SRI	-9.89822
▁drying	-9.8984
▁indigenous	-9.89972
▁streptomycin	-9.90008
▁bug	-9.90008
si	-9.90086
▁ly	-9.90225
▁primary	-9.90246
▁powdery	-9.90305
▁fo	-9.90427
▁wide	-9.90488
do	-9.90533
▁carried	-9.90709
▁Bihar	-9.90834
75	-9.90904
▁space	-9.91012
▁Suitable	-9.91168
▁April	-9.91354
▁2013-14	-9.91446
=27.0	-9.91446
84	-9.91599
▁Farm	-9.91603
▁centre	-9.91603
▁horticultural	-9.91631
▁Volum	-9.91725
▁greengram	-9.91762
▁documents	-9.91763
▁future	-9.91818
less	-9.91876
▁result	-9.9189
▁utilization	-9.91911
▁Post	-9.92003
=24.8	-9.92004
pl	-9.9207
▁juice	-9.92191
▁reported	-9.92308
▁750	-9.92339
light	-9.92343
=24.2	-9.92378
69	-9.92398
▁absence	-9.92472
▁deficiency	-9.92472
▁medicinal	-9.92472
▁reduction	-9.9257
▁Haryana	-9.92578
▁added	-9.9271
▁lines	-9.92718
=21.1	-9.92753
▁direct	-9.92755
-50	-9.92895
=24.6	-9.92942
82	-9.93031
=24.0	-9.93131
kk	-9.93139
=22.3	-9.93319
▁litr	-9.93421
▁300	-9.93431
▁head	-9.93485
▁transfer	-9.93501
ili	-9.93523
▁adequate	-9.93622
▁selected	-9.93636
▁construction	-9.93703
▁Maize	-9.93797
go	-9.93847
ect	-9.93853
▁few	-9.93916
un	-9.9398
ga	-9.93995
▁ffoorr	-9.94018
▁collected	-9.94132
▁units	-9.94192
▁create	-9.94217
▁possible	-9.94269
▁42	-9.9432
-5	-9.94429
▁obtained	-9.94429
▁minimize	-9.9446
one	-9.94498
▁date	-9.94549
▁government	-9.9456
▁severe	-9.94576
=22.8	-9.94652
43	-9.94667
93	-9.94705
▁One	-9.94816
▁north	-9.94842
=24.7	-9.94844
▁effects	-9.94899
▁testing	-9.94985
▁generation	-9.95069
▁sufficient	-9.95074
▁drench	-9.95145
▁thus	-9.95153
▁vine	-9.95221
for	-9.95233
▁heavy	-9.95258
=90.0	-9.95327
▁Page	-9.95576
=23.2	-9.95615
▁floating	-9.95634
▁sustainability	-9.95713
▁supplement	-9.95926
▁Secretary	-9.96
=7.6	-9.96003
▁EC	-9.9641
line	-9.96451
▁meat	-9.9651
hh	-9.96658
▁okra	-9.96685
▁release	-9.96724
ite	-9.96781
=23.4	-9.96783
▁fym	-9.96933
▁enhanced	-9.96942
=23.3	-9.96979
▁2003-04	-9.96979
▁moong	-9.9698
▁Bank	-9.97248
be	-9.97262
▁livelihood	-9.97265
uc	-9.97277
47	-9.9728
▁2014-15	-9.97373
▁adopt	-9.97606
ability	-9.9768
▁2016	-9.977
5.	-9.97863
▁beneficial	-9.97865
19	-9.98001
rice	-9.98036
▁least	-9.98075
3.	-9.98093
▁Assam	-9.98164
Table	-9.98254
▁Application	-9.98262
▁upon	-9.984
▁another	-9.98422
▁46	-9.98444
▁young	-9.98487
▁biological	-9.98664
▁signs	-9.98664
▁drum	-9.98668
57	-9.98733
he	-9.98798
28	-9.99146
▁gmail	-9.9915
=22.2	-9.9916
=22.9	-9.9916
=23.8	-9.9916
▁2011-12	-9.99163
▁cake	-9.99172
79	-9.99218
kar	-9.99225
▁Crops	-9.99283
▁Area	-9.99293
▁popular	-9.9934
▁throughout	-9.99391
▁Land	-9.9942
87	-9.99438
=23.5	-9.99562
=7.8	-9.99562
▁package	-9.99562
du	-9.9959
▁Kashmir	-9.99615
hy	-9.99672
ium	-9.99674
▁start	-9.99676
▁et	-9.99686
▁1999-00	-9.99764
▁returns	-9.99771
▁now	-9.99923
▁self	-10.0011
▁GW	-10.0017
▁mid	-10.002
▁((	-10.0025
▁horticulture	-10.0027
=21.9	-10.0037
▁equipment	-10.0047
▁Low	-10.0048
▁depending	-10.0054
=22.7	-10.0057
▁diversification	-10.0057
▁5.0	-10.0062
53	-10.0062
▁vi	-10.0066
era	-10.0072
row	-10.0073
▁ku	-10.0074
▁Odisha	-10.0075
=21.8	-10.0078
▁attention	-10.0082
▁Regularly	-10.0094
▁conventional	-10.0098
▁betel	-10.0101
▁3-4	-10.0109
▁gold	-10.0122
▁either	-10.0139
▁tools	-10.0141
▁normal	-10.0142
▁interventions	-10.0158
=21.5	-10.016
=7.7	-10.016
▁phosphate	-10.0161
ng	-10.0162
▁rotation	-10.0167
▁7.8	-10.017
po	-10.0172
uri	-10.0179
▁snake	-10.0182
▁47	-10.0185
ex	-10.0214
▁planted	-10.0224
▁our	-10.0225
▁On	-10.0225
▁2009-10	-10.0232
▁st	-10.0238
▁Ma	-10.0243
ph	-10.0245
@2	-10.025
▁Ex	-10.0253
▁cultivars	-10.0256
▁Agri	-10.0256
▁Yield	-10.0258
=22.1	-10.0263
=22.6	-10.0263
gov	-10.0265
ab	-10.0271
▁contaminated	-10.0273
▁climatic	-10.0281
=27.1	-10.0284
▁business	-10.0288
▁payment	-10.0298
▁icar	-10.0299
▁stored	-10.0301
=22.5	-10.0304
▁2002-03	-10.0304
▁Field	-10.0304
▁studies	-10.0304
ell	-10.0305
▁remaining	-10.0308
cur	-10.031
▁Sub	-10.0325
=21.6	-10.0325
=23.7	-10.0325
7.0	-10.0331
land	-10.0345
=23.1	-10.0346
=23.9	-10.0346
=28.1	-10.0346
▁occurrence	-10.0346
▁assistance	-10.0346
▁select	-10.0349
▁fibre	-10.0353
▁Cabbage	-10.0356
▁duck	-10.0356
ure	-10.0359
=23.6	-10.0367
ca	-10.0369
▁ka	-10.0372
▁mixing	-10.0377
av	-10.0377
▁Please	-10.0378
=22.4	-10.0388
▁stock	-10.0398
▁precision	-10.0399
▁Report	-10.0399
▁Knowledge	-10.0409
▁portion	-10.0409
rs	-10.0413
▁nature	-10.042
▁tank	-10.0439
▁Green	-10.0449
=27.4	-10.0451
=28.8	-10.0451
=23.0	-10.0452
▁pay	-10.0452
=21.4	-10.0473
▁length	-10.0473
▁2006-07	-10.0483
▁2012-13	-10.0483
▁0.1	-10.0497
▁sa	-10.0508
▁marginal	-10.0514
▁Specific	-10.0515
▁Institutes	-10.0524
49	-10.0526
▁medicine	-10.0526
▁agri	-10.053
ki	-10.0536
▁Agro	-10.054
lic	-10.0548
▁5%	-10.0555
92	-10.056
▁fed	-10.0579
aann	-10.0585
▁physical	-10.06
=21.2	-10.0601
=21.7	-10.0601
▁haryana	-10.0611
▁elephant	-10.0616
▁hot	-10.062
=21.3	-10.0622
▁Ministry	-10.0622
▁entire	-10.0622
fer	-10.063
▁4.0	-10.0634
▁achieve	-10.0644
▁plantation	-10.0647
za	-10.0655
▁managing	-10.0665
▁plastic	-10.0665
ud	-10.0669
pt	-10.0673
6.	-10.0674
=7.9	-10.0687
▁72	-10.069
98	-10.0693
▁8.	-10.0693
▁man	-10.0694
▁worm	-10.0696
▁February	-10.0706
▁ppm	-10.0715
71	-10.0726
eer	-10.0735
▁urine	-10.0741
▁uniform	-10.0743
eenn	-10.075
▁Member	-10.0758
▁cold	-10.076
dome	-10.0763
0000	-10.0763
▁sow	-10.0773
=27.5	-10.0774
▁Universities	-10.0774
▁density	-10.078
tha	-10.0786
▁shade	-10.0796
ok	-10.0801
bo	-10.0806
▁2000-01	-10.0807
▁those	-10.0807
▁Kerala	-10.0814
=29.6	-10.0818
▁2008-09	-10.0818
▁Su	-10.0823
▁jharkhand	-10.0829
em	-10.0833
▁flow	-10.0838
▁Promotion	-10.084
▁2010-11	-10.084
ve	-10.0853
78	-10.0856
▁garden	-10.0858
=28.2	-10.0862
▁next	-10.0862
▁urad	-10.0862
friable	-10.0862
▁tuber	-10.0865
▁goats	-10.0868
▁2020-21	-10.0873
▁round	-10.0875
▁limited	-10.0879
ge	-10.0882
▁mineral	-10.0887
▁started	-10.0888
▁Himachal	-10.0893
▁skin	-10.0894
▁successful	-10.0899
cum	-10.0904
=22.0	-10.0906
▁FYM	-10.0914
▁Net	-10.0917
II	-10.0919
▁AA	-10.0936
▁1.2	-10.0938
59	-10.0941
▁affecting	-10.0942
▁causes	-10.0945
pi	-10.0945
▁wild	-10.095
▁2004-05	-10.095
▁stakeholders	-10.095
ase	-10.0951
▁sesamum	-10.0961
▁palm	-10.0962
▁focus	-10.0976
100	-10.0976
83	-10.0981
farm	-10.0993
▁assessment	-10.0996
▁report	-10.0996
bi	-10.0998
01	-10.1001
tomato	-10.1016
▁Number	-10.1017
maize	-10.1017
▁Improved	-10.1017
▁nearest	-10.1018
dy	-10.1019
=29.3	-10.1039
▁Further	-10.1051
out	-10.1051
▁muskmelon	-10.1052
▁Con	-10.1053
▁input	-10.1054
ize	-10.1056
▁concentration	-10.1077
▁breeds	-10.1077
▁science	-10.1079
▁components	-10.1088
▁borers	-10.1091
▁bring	-10.1093
74	-10.1094
▁sugar	-10.11
▁eggs	-10.1104
39	-10.1109
▁dis	-10.1112
▁back	-10.1115
pe	-10.1116
▁facilitate	-10.1116
▁veterinary	-10.1123
▁2001-02	-10.113
=21.0	-10.113
▁cross	-10.1139
▁directly	-10.1139
▁Division	-10.1141
▁organized	-10.1142
ragi	-10.115
▁germplasm	-10.1152
▁institutions	-10.1155
▁wound	-10.1157
▁2005-06	-10.1164
ICAR	-10.1165
▁lack	-10.1171
▁india	-10.1172
▁harvested	-10.1172
▁39	-10.1174
=28.6	-10.1175
▁implementation	-10.1177
▁officer	-10.1183
ver	-10.1185
▁institutes	-10.1187
▁wind	-10.1187
200	-10.1196
=28.3	-10.1198
▁associated	-10.1204
▁highest	-10.1205
og	-10.1216
▁carp	-10.1223
▁machine	-10.1225
▁52	-10.123
groundnut	-10.1234
▁tr	-10.1238
▁calcium	-10.1243
=28.4	-10.1243
▁Programme	-10.1246
▁00.0	-10.1252
vegetable	-10.1253
ere	-10.1254
▁TThhee	-10.1255
▁enterprises	-10.1255
▁my	-10.1256
=28.7	-10.1266
▁monsoon	-10.1267
▁fungicide	-10.1272
▁east	-10.1275
▁models	-10.1283
=27.6	-10.1289
8°	-10.1307
=20.7	-10.1312
▁captan	-10.1313
▁subject	-10.1313
▁minimum	-10.1324
▁chickpea	-10.1324
▁weeks	-10.1325
vv	-10.1329
▁branch	-10.1334
small	-10.1335
▁fever	-10.1337
▁feet	-10.1338
▁1998-99	-10.1347
▁rapeseed	-10.1347
sh	-10.135
▁Zn	-10.1358
=29.7	-10.1359
▁mainly	-10.1367
▁quantity	-10.137
cauliflower	-10.1374
=28.9	-10.1382
▁response	-10.1382
▁redgram	-10.1386
ik	-10.1389
▁generally	-10.1389
▁applications	-10.1391
▁interest	-10.1392
▁7.	-10.1393
▁infrastructure	-10.1393
▁opportunities	-10.1393
▁parameters	-10.1394
62	-10.1394
▁rates	-10.1395
end	-10.1398
▁employment	-10.1399
▁chicken	-10.14
▁plus	-10.1402
=27.3	-10.1405
=28.5	-10.1405
▁central	-10.1417
▁wilting	-10.142
brinjal	-10.1422
▁Ar	-10.1422
Indian	-10.1423
▁changes	-10.1426
▁public	-10.1426
▁Telangana	-10.1433
sorghum	-10.1433
▁Under	-10.1464
▁bhendi	-10.1466
▁phosphorus	-10.1467
cowpea	-10.1469
▁Millets	-10.1473
▁2007-08	-10.1475
▁Farmer	-10.1478
onion	-10.1481
sugarcane	-10.1481
▁chain	-10.1498
▁enhances	-10.1498
=20.3	-10.1499
=20.9	-10.1499
=27.7	-10.1499
▁tillage	-10.1512
elephant	-10.1517
▁component	-10.1519
▁pipes	-10.1521
Adv	-10.1524
▁multiple	-10.1533
ors	-10.1535
cucumber	-10.1541
blackgram	-10.1541
▁action	-10.1545
=28.0	-10.1546
Pearl	-10.1553
bottle	-10.1553
▁1.3	-10.1559
▁September	-10.1562
sweet	-10.1565
=20.8	-10.1569
▁caus	-10.1577
▁bi	-10.1579
pa	-10.1583
▁Ba	-10.1585
▁mr	-10.1585
▁cases	-10.1585
bulb	-10.1589
=29.2	-10.1593
=29.5	-10.1593
▁65	-10.1595
tar	-10.1596
000	-10.1615
=20.6	-10.1617
▁egg	-10.1626
▁gene	-10.1628
ung	-10.1632
yl	-10.1634
heavy	-10.1637
sunflower	-10.1637
ful	-10.1638
und	-10.1657
▁showing	-10.1662
nu	-10.1666
▁43	-10.1668
french	-10.1673
varagu	-10.1685
=20.2	-10.1688
=27.2	-10.1688
▁samman	-10.1688
▁eye	-10.1691
chi	-10.1692
tr	-10.1692
capsicum	-10.1697
ical	-10.1699
radish	-10.171
=20.5	-10.1712
=27.8	-10.1712
=27.9	-10.1712
▁horsegram	-10.1714
mg	-10.1717
▁Asia	-10.1717
▁rows	-10.1718
annual	-10.1722
▁nidhi	-10.1724
▁pesticide	-10.1724
▁microbial	-10.1733
bhendi	-10.1734
▁bordeaux	-10.1736
sis	-10.1741
▁multiplex	-10.1743
▁groups	-10.1744
pumpkin	-10.1746
snake	-10.1746
▁December	-10.1747
▁return	-10.1747
▁Organic	-10.1748
redgram	-10.176
▁biomass	-10.176
▁author	-10.1761
▁advantages	-10.1761
▁her	-10.1764
=14.	-10.1769
▁mature	-10.1773
muskmelon	-10.1783
soyabean	-10.1783
▁ribbed	-10.1798
▁la	-10.1802
68	-10.1806
ribbed	-10.1808
tinda	-10.1814
58	-10.1818
56	-10.1822
war	-10.1828
horsegram	-10.1832
greengram	-10.1833
▁loan	-10.1834
loamy	-10.1844
▁lateritic	-10.1845
▁beetroot	-10.1846
▁8.2)	-10.1848
ions	-10.1848
▁21).	-10.185
▁42).	-10.1852
cluster	-10.1856
beetroot	-10.1857
bengalgram	-10.1857
carrot	-10.1857
▁0.9	-10.1864
▁NO	-10.1865
chillies	-10.1869
▁add	-10.1872
SS	-10.1878
▁sri	-10.188
watermelon	-10.1882
water	-10.1883
▁current	-10.1886
▁wet	-10.1892
▁finger	-10.1893
▁host	-10.1895
▁Mo	-10.1899
▁soybean	-10.1901
▁optimum	-10.1906
▁general	-10.1909
▁presented	-10.1914
▁2024	-10.1917
bitter	-10.1919
▁32).	-10.1927
ind	-10.1928
▁features	-10.1935
=13.	-10.1941
panivaragu	-10.1944
▁Head	-10.1949
peas	-10.195
▁24).	-10.1952
=29.8	-10.1955
▁iron	-10.1957
▁till	-10.1961
aarr	-10.1967
▁includes	-10.1968
castor	-10.1969
47).	-10.1981
Cabbage	-10.1981
▁safety	-10.1992
▁foliar	-10.1992
led	-10.1992
▁certain	-10.1993
chowchow	-10.1994
jute	-10.1994
tor	-10.2002
▁varagu	-10.2007
/5	-10.2011
AS	-10.2014
▁Strategies	-10.2017
▁alternative	-10.2017
▁inj	-10.203
▁pearl	-10.2033
▁Fish	-10.2033
▁trials	-10.2035
▁existing	-10.2037
▁CO	-10.204
▁SAUs	-10.2042
ow	-10.2042
▁potatoes	-10.2046
▁labour	-10.2052
ster	-10.2054
use	-10.2056
);	-10.2065
Z	-10.2076
ea	-10.209
seed	-10.2091
▁saline	-10.2093
▁Pest	-10.2095
▁canker	-10.2097
pro	-10.2102
▁south	-10.2104
▁kept	-10.2104
▁bengalgram	-10.2106
ual	-10.2111
Ry	-10.2114
▁6.0	-10.2116
ain	-10.2117
thi	-10.2119
▁organization	-10.212
▁dr	-10.2125
=20.4	-10.2129
▁mortality	-10.2129
▁ecosystem	-10.213
▁tinda	-10.2131
▁Regular	-10.2134
▁38).	-10.2136
▁tobacco	-10.2141
▁22).	-10.2149
▁zones	-10.2153
▁resulting	-10.2153
▁180)	-10.2154
act	-10.2157
▁Al	-10.2159
▁morning	-10.2179
▁deal	-10.2187
▁panivaragu	-10.2191
▁awareness	-10.2191
0,000	-10.2198
▁31)	-10.22
▁95	-10.2212
▁9.0)	-10.2214
▁18).	-10.2218
▁improves	-10.222
▁Se	-10.2228
▁view	-10.223
▁male	-10.2236
▁covering	-10.2241
▁presence	-10.2242
ina	-10.2254
bu	-10.2254
▁right	-10.2254
=29.4	-10.2255
▁oxygen	-10.2255
Iso	-10.2261
▁85	-10.227
▁technique	-10.2272
▁constraints	-10.2272
▁booster	-10.2273
▁chowchow	-10.2278
▁safe	-10.2284
▁creat	-10.23
▁site	-10.2309
▁collection	-10.232
▁fungi	-10.2331
▁400	-10.2333
▁properly	-10.2348
▁98)	-10.2355
▁prevention	-10.2355
▁tolerance	-10.2356
▁49	-10.2358
▁increases	-10.2362
▁respective	-10.2363
AD	-10.2365
▁relative	-10.2369
rraa	-10.2374
▁Spray	-10.238
=29.1	-10.2382
▁npk	-10.2382
▁Doubl	-10.2383
▁target	-10.2394
▁private	-10.2409
eerr	-10.2416
▁volume	-10.2421
▁own	-10.2433
=20.1	-10.2433
▁Me	-10.2434
▁characteristics	-10.2451
▁march	-10.2454
▁working	-10.2457
▁liquid	-10.2459
▁Agenda	-10.2472
▁relevant	-10.2485
▁diversity	-10.2485
▁66	-10.2495
iti	-10.2501
/10	-10.2501
▁th	-10.2504
▁centres	-10.2509
au	-10.2525
▁aspects	-10.2528
▁SS	-10.253
▁La	-10.2533
▁calf	-10.2538
han	-10.254
▁na	-10.2543
▁buffalo	-10.2547
▁achieved	-10.2561
▁spots	-10.2563
▁eating	-10.2564
▁involved	-10.2566
ora	-10.2575
▁uses	-10.2576
▁August	-10.2576
▁US	-10.2582
▁caterpillar	-10.2585
▁classic	-10.2589
▁bales	-10.2603
▁manner	-10.2603
▁Us	-10.2611
▁0.7	-10.2611
=12.	-10.2613
▁am	-10.2616
▁Fruit	-10.2625
▁Capital	-10.2629
▁11.	-10.2635
tan	-10.2641
▁Climate	-10.2642
=29.0	-10.2642
▁programs	-10.2644
▁traits	-10.2645
▁strong	-10.2648
▁rearing	-10.2662
▁collaboration	-10.2668
▁protected	-10.2668
▁influence	-10.2672
▁nagaland	-10.2682
▁schemes	-10.2684
ww	-10.2685
▁ba	-10.2685
▁effectiveness	-10.2694
▁Irrigation	-10.2695
▁social	-10.2708
▁app	-10.2716
▁active	-10.2718
=29.9	-10.2721
ner	-10.2731
▁international	-10.2735
▁bo	-10.2735
▁AgR	-10.2736
▁procedure	-10.2745
▁promotion	-10.2748
▁whereas	-10.2749
ice	-10.2752
▁samples	-10.2759
▁foR	-10.2766
ore	-10.2767
▁Directorate	-10.2769
iinn	-10.2778
▁South	-10.2788
▁introduced	-10.2794
▁Exclusive	-10.2801
▁might	-10.2805
▁ne	-10.2814
▁bucket	-10.2815
▁sand	-10.2836
▁Di	-10.2838
▁Man	-10.2849
drum	-10.285
▁Therefore	-10.2855
long	-10.2856
iii	-10.2867
▁dress	-10.2869
▁thin	-10.2871
▁nagar	-10.2871
▁biodiversity	-10.2876
▁2012	-10.288
▁dosage	-10.2881
▁prepare	-10.2882
rg	-10.2888
ps	-10.2889
▁CC	-10.2898
▁tropical	-10.2904
65),	-10.2905
▁cycle	-10.2908
▁projects	-10.2918
sp	-10.2919
▁quintal	-10.2922
▁guidelines	-10.2922
▁attain	-10.2923
▁Livestock	-10.2936
▁Vice	-10.2938
2.5	-10.2951
▁Additionally	-10.2952
▁prone	-10.2953
▁Be	-10.2964
▁term	-10.2965
▁preventing	-10.2972
▁milli	-10.2977
our	-10.2977
▁store	-10.2982
=	-10.2986
▁institute	-10.299
▁hydraulic	-10.299
▁melon	-10.3003
ran	-10.3003
akhand	-10.3005
▁Sh	-10.3014
▁network	-10.3018
▁respect	-10.3019
▁bacteria	-10.3025
AU	-10.3029
▁care	-10.3031
▁easy	-10.3031
▁jammu	-10.3031
term	-10.3034
▁export	-10.3039
▁2011	-10.3039
▁recent	-10.3054
▁discuss	-10.3058
▁operational	-10.3058
▁Achievements	-10.3059
▁basic	-10.3059
ian	-10.3065
▁formation	-10.3067
▁degradation	-10.3073
▁1.8	-10.3081
so	-10.3081
ach	-10.3082
cul	-10.3085
▁standard	-10.3086
▁arhar	-10.3086
▁issue	-10.3094
soil	-10.3098
ber	-10.3099
▁received	-10.3109
▁impacts	-10.3118
▁evaluation	-10.3128
ke	-10.3131
▁meeting	-10.3133
esh	-10.3137
▁1997-98	-10.3141
▁almo	-10.3149
▁example	-10.3155
▁raising	-10.3155
▁hard	-10.3156
▁Do	-10.3158
▁shape	-10.3167
▁similar	-10.3169
▁About	-10.3169
09	-10.3176
▁six	-10.3177
mal	-10.318
RI	-10.3186
▁Sp	-10.3189
ssee	-10.3191
▁technological	-10.3197
▁leveling	-10.3197
▁Cha	-10.3199
▁ingredients	-10.3203
▁po	-10.3204
-10	-10.3205
▁iiss	-10.3212
ft	-10.3215
▁rs	-10.3222
▁querry	-10.3225
gi	-10.3232
▁vary	-10.3247
▁prices	-10.3255
▁Action	-10.3256
▁down	-10.3262
94	-10.3264
▁stomach	-10.3265
▁51	-10.3267
ole	-10.3269
▁follow	-10.327
king	-10.3272
▁residues	-10.3281
▁turn	-10.3297
▁describe	-10.33
▁Sa	-10.3302
▁liters	-10.3304
▁ss	-10.3305
▁complete	-10.3305
▁Some	-10.3313
▁Plan	-10.3315
▁1250	-10.3316
▁diameter	-10.3323
05	-10.3328
▁litchi	-10.3339
mustard	-10.3346
▁suffering	-10.3349
not	-10.3352
300	-10.3371
▁wounds	-10.3374
400	-10.3374
▁kill	-10.3382
▁mo	-10.3389
▁meter	-10.3392
▁cleaning	-10.3393
▁Gandhiji	-10.3394
▁bhindi	-10.3394
▁revealed	-10.3397
▁73	-10.3398
mp	-10.34
▁MM	-10.3404
▁expected	-10.3409
shi	-10.3413
▁ii	-10.3416
▁attract	-10.3435
▁review	-10.3445
▁bbee	-10.3447
▁organizations	-10.3447
▁staff	-10.3451
form	-10.3452
In	-10.3452
▁delivery	-10.3454
ven	-10.3454
tri	-10.3455
IR	-10.3459
▁bar	-10.3461
oli	-10.3462
▁Pre	-10.3471
▁56	-10.3475
tes	-10.3476
▁100.0	-10.3479
volving	-10.3479
ula	-10.3487
ace	-10.3489
▁again	-10.3492
▁krishi	-10.3494
▁commonly	-10.3494
ative	-10.35
▁mulch	-10.3505
▁99	-10.3507
ial	-10.3507
▁Mahatma	-10.3508
▁applying	-10.3516
▁Potato	-10.3522
▁insecticide	-10.3529
▁led	-10.3534
▁remedy	-10.3537
▁-----	-10.3537
▁entrepreneurs	-10.3537
▁ability	-10.3547
▁Sustainable	-10.3551
▁broiler	-10.3551
▁dark	-10.3552
-12	-10.3557
▁100.00	-10.3565
▁We	-10.3567
▁real	-10.3572
nagar	-10.3573
▁cap	-10.3574
▁sheep	-10.358
▁combination	-10.3581
ities	-10.3595
cl	-10.3601
▁vaccination	-10.3604
ep	-10.3614
scale	-10.3616
▁64	-10.3618
time	-10.3618
▁schedule	-10.3623
tal	-10.3625
▁Developed	-10.3627
▁eggplant	-10.3633
ib	-10.3636
▁recovery	-10.364
▁infections	-10.3645
▁boost	-10.3646
▁orchards	-10.3655
▁alternate	-10.366
black	-10.3666
▁modern	-10.3667
▁mosaic	-10.3667
ees	-10.3667
▁Wheat	-10.3682
▁Hybrid	-10.3693
▁setting	-10.3697
▁pod	-10.3699
▁ideal	-10.37
ification	-10.3703
▁final	-10.3704
▁punjab	-10.3711
▁formulation	-10.3719
▁house	-10.3727
▁leads	-10.3729
▁Mal	-10.3732
▁AI	-10.3735
▁cereals	-10.3737
▁Treatment	-10.3741
▁tractor	-10.375
▁horse	-10.3754
▁Leaf	-10.3755
▁Ka	-10.3757
▁78	-10.3758
▁side	-10.3763
▁mancozeb	-10.377
▁called	-10.3777
▁drenching	-10.3782
▁industries	-10.3784
▁jowar	-10.3784
▁Day	-10.3796
▁universities	-10.3799
▁moderately	-10.3805
▁beetle	-10.3808
▁kashmir	-10.3814
▁mahaphal	-10.3814
▁initiation	-10.3814
ning	-10.3821
▁IARI	-10.384
dar	-10.3844
▁poly	-10.3851
▁resilience	-10.3859
▁skills	-10.386
▁ecological	-10.3863
=11.	-10.3867
41	-10.3873
▁College	-10.3873
rree	-10.3882
▁panicle	-10.3888
▁diverse	-10.389
▁900	-10.3893
▁par	-10.3896
▁investment	-10.3899
ology	-10.3899
▁dome	-10.3901
▁continuous	-10.3911
▁sun	-10.3913
▁maintained	-10.392
▁great	-10.392
io	-10.3921
02	-10.3922
▁indicated	-10.3924
▁learning	-10.393
▁Minister	-10.3933
▁point	-10.3941
07	-10.3943
▁li	-10.3944
ile	-10.3946
▁held	-10.3948
ise	-10.3949
▁dist	-10.395
▁damping	-10.3963
▁fruiting	-10.3964
▁Chhattisgarh	-10.3976
▁excessive	-10.3979
▁greater	-10.3983
salty	-10.3988
cid	-10.3989
▁fall	-10.3995
ju	-10.4006
▁family	-10.4008
▁forest	-10.401
ten	-10.4011
08	-10.4013
▁grant	-10.4017
▁Annual	-10.4023
▁Ga	-10.4031
▁bl	-10.4032
▁Z	-10.4033
der	-10.4037
▁180	-10.4046
04	-10.4046
▁en	-10.4055
▁media	-10.406
gu	-10.4065
▁Average	-10.4069
▁orange	-10.4069
▁z	-10.4074
Central	-10.4074
▁concept	-10.4082
▁10-15	-10.4091
late	-10.4096
03	-10.4096
ck	-10.4097
▁Refer	-10.4099
▁steel	-10.4099
ita	-10.4107
▁First	-10.4115
▁kendra	-10.4115
▁output	-10.4116
▁spp	-10.4123
▁program	-10.4128
▁experience	-10.4136
▁4-5	-10.4136
tin	-10.4144
▁Vigyan	-10.4145
▁arunachal	-10.4145
▁RABI	-10.4146
▁generated	-10.4151
▁continue	-10.4152
▁cell	-10.416
▁Uttarakhand	-10.4161
▁diet	-10.4164
▁containing	-10.417
▁1.1	-10.4172
▁solutions	-10.4173
▁According	-10.4176
▁Varieties	-10.4176
▁mean	-10.4178
▁ready	-10.4178
▁manager	-10.4181
ised	-10.4182
▁advise	-10.4182
▁resulted	-10.4184
▁Date	-10.4184
her	-10.4185
▁Dairy	-10.4191
▁allied	-10.4191
▁Principal	-10.4197
▁ebi	-10.4199
▁Technical	-10.4203
▁53	-10.4204
▁consistent	-10.4208
ral	-10.421
deep	-10.4211
ton	-10.4212
▁57	-10.4212
▁Un	-10.4215
▁female	-10.4221
▁just	-10.4222
▁genes	-10.4226
▁18)	-10.4228
wal	-10.4231
▁advantage	-10.4236
-25	-10.4238
▁dropping	-10.4238
▁offer	-10.4247
▁profit	-10.4251
▁unique	-10.4253
ding	-10.4255
▁clear	-10.4264
5%	-10.4267
▁Tomato	-10.4269
gra	-10.4275
▁tri	-10.4276
▁downy	-10.4276
▁Society	-10.4284
▁bajra	-10.4284
ARme	-10.4284
-19	-10.4289
▁NRC	-10.4291
ort	-10.4292
▁superior	-10.4298
▁Arka	-10.4299
▁significance	-10.4299
▁Ch	-10.4301
▁So	-10.4302
▁Rain	-10.4303
fi	-10.4309
7%	-10.4314
▁progress	-10.4314
▁labor	-10.4317
▁lesions	-10.4322
▁Sali	-10.4325
par	-10.4326
▁residue	-10.433
▁show	-10.4332
▁Am	-10.4332
▁bud	-10.4338
▁oilseeds	-10.4339
▁markets	-10.434
▁Raj	-10.4341
▁paper	-10.4344
▁AGRO	-10.4346
▁vigyan	-10.4346
▁cutting	-10.4348
ear	-10.4353
55),	-10.4354
▁farms	-10.4355
▁Proper	-10.4362
ct	-10.4369
▁rree	-10.4374
▁substrate	-10.4378
▁pan	-10.4386
ome	-10.4388
▁october	-10.4393
▁contribution	-10.4395
old	-10.44
▁2002	-10.4403
▁vitamins	-10.4412
▁youth	-10.4422
▁smooth	-10.4424
▁captaf	-10.4426
ay	-10.4429
ug	-10.4432
PR	-10.4432
▁meghalaya	-10.444
▁Board	-10.444
▁moth	-10.4446
tro	-10.4461
▁1000	-10.4466
▁expenditure	-10.4472
▁precise	-10.4472
▁54	-10.4472
▁planter	-10.4477
▁br	-10.4484
▁consult	-10.4485
ue	-10.4487
▁digital	-10.4488
▁means	-10.4489
▁pipe	-10.449
▁Choos	-10.4495
▁00.	-10.4503
▁Ludhiana	-10.4503
▁Small	-10.4503
▁populations	-10.4503
▁keeping	-10.4505
▁IPM	-10.4513
▁CAFT	-10.4517
ene	-10.453
▁10.0	-10.4547
▁widely	-10.4548
▁Value	-10.4551
▁requirment	-10.4551
=30.0	-10.4551
▁sprayed	-10.4554
▁broad	-10.4554
▁4.5	-10.4555
▁liv	-10.4557
day	-10.4563
▁Ha	-10.4568
▁ph	-10.4576
▁ca	-10.4578
cy	-10.458
▁innovative	-10.4583
▁saving	-10.4583
▁machinery	-10.4584
▁location	-10.4595
cent	-10.4597
▁intercropping	-10.4599
ast	-10.4599
ward	-10.4608
con	-10.4609
vo	-10.4613
eess	-10.4624
▁Horticultural	-10.4647
▁pathogen	-10.4648
▁Ta	-10.4669
▁designed	-10.467
▁excess	-10.4678
▁stability	-10.468
▁greenhouse	-10.4681
▁67	-10.4684
iya	-10.4685
▁position	-10.4685
▁pa	-10.469
month	-10.4695
▁Corresponding	-10.4696
▁width	-10.4696
▁extent	-10.4696
▁Organization	-10.4696
▁Planting	-10.4699
days	-10.4711
▁2007	-10.4712
600	-10.4717
hal	-10.4724
▁removal	-10.4728
cut	-10.473
▁vital	-10.473
▁bags	-10.4736
▁successfully	-10.4739
▁While	-10.4744
ture	-10.4745
▁1.4	-10.4745
ack	-10.4746
sstt	-10.4755
▁su	-10.4755
▁trench	-10.4757
▁stresses	-10.4757
▁stems	-10.4758
▁stop	-10.4759
▁structures	-10.4759
▁aquaculture	-10.476
▁mechanical	-10.476
▁limit	-10.4769
▁put	-10.4774
▁anthracnose	-10.4777
1.5	-10.478
ese	-10.479
▁retention	-10.4793
ev	-10.4797
▁600	-10.4801
▁2015	-10.4805
▁avail	-10.4808
▁mentioned	-10.4812
▁repeat	-10.4815
▁producing	-10.4834
▁Business	-10.4835
▁manual	-10.4835
▁Major	-10.4842
▁NPK	-10.4846
▁Other	-10.4849
▁balance	-10.485
▁ploughing	-10.4854
▁valve	-10.4859
▁chloride	-10.4859
▁detection	-10.486
silty	-10.4864
▁arid	-10.4869
aj	-10.4871
▁himachal	-10.4875
▁responsible	-10.4875
▁minutes	-10.4876
▁structural	-10.4876
▁74	-10.4889
▁recommend	-10.4891
▁DARE	-10.4901
▁oxychloride	-10.4908
▁digesters	-10.4911
▁department	-10.4914
oonn	-10.4918
▁coriander	-10.4925
▁profitability	-10.4925
▁households	-10.4931
ded	-10.4937
▁aeration	-10.4942
1%	-10.4942
▁death	-10.4942
all	-10.4949
▁ma	-10.4961
▁pot	-10.4962
▁guava	-10.4974
▁removed	-10.4975
phy	-10.4981
▁identify	-10.4997
raj	-10.4998
▁(10	-10.4999
ira	-10.5022
▁Poultry	-10.5024
▁urban	-10.5038
-8	-10.5043
▁metre	-10.5047
-6	-10.5047
az	-10.5054
▁pods	-10.5055
▁utilized	-10.5061
specific	-10.5062
▁growers	-10.5064
▁88	-10.5067
▁tubers	-10.507
▁yellowing	-10.507
▁Check	-10.5075
▁initiated	-10.5077
▁act	-10.5077
▁Keep	-10.5081
▁pass	-10.5084
▁Bar	-10.5084
▁var	-10.5089
▁fat	-10.509
▁save	-10.509
▁FIRST	-10.5091
▁Cost	-10.5092
▁termite	-10.5101
▁corn	-10.5103
▁fertiliser	-10.5108
▁raw	-10.5123
▁yojana	-10.5125
▁enough	-10.5125
▁percentage	-10.5126
▁emergence	-10.5127
▁Fax	-10.513
men	-10.5131
6.00	-10.5139
bha	-10.5147
▁tissue	-10.5151
▁warm	-10.516
ath	-10.5165
▁ad	-10.5171
zi	-10.5171
▁You	-10.5173
▁mode	-10.5173
▁later	-10.5173
▁77	-10.518
▁7.0	-10.519
▁kilo	-10.5194
▁september	-10.5195
▁record	-10.5196
=10.	-10.5199
▁sheet	-10.5201
▁domestic	-10.5209
▁emerging	-10.521
▁chemicals	-10.5221
▁implemented	-10.5222
▁cows	-10.5229
borax	-10.5234
ika	-10.5247
lon	-10.5248
▁gap	-10.5257
8.00	-10.5272
▁Phone	-10.5278
▁appearance	-10.5279
▁Variety	-10.5282
▁peppers	-10.5284
▁pp	-10.5292
▁Group	-10.5295
▁together	-10.5295
▁estimated	-10.5298
▁dap	-10.5303
▁individual	-10.5306
-9	-10.5309
▁Early	-10.5312
▁native	-10.5314
▁secondary	-10.5316
▁Gandhi	-10.5322
▁rainy	-10.5326
aw	-10.5329
▁immature	-10.533
▁agroforestry	-10.533
▁usage	-10.5331
▁resilient	-10.5333
▁62	-10.5341
ew	-10.5347
▁contribut	-10.5348
▁Red	-10.5349
▁included	-10.5354
ens	-10.5358
gar	-10.5359
2%	-10.5359
▁sc	-10.5369
▁125	-10.5372
ever	-10.5376
▁score	-10.5382
▁Trichoderma	-10.5399
▁economy	-10.5399
▁solar	-10.54
ring	-10.5404
▁enhancement	-10.5406
-15	-10.5407
▁mobile	-10.5412
▁communities	-10.5416
=31.0	-10.5416
▁Bengaluru	-10.5417
▁Vi	-10.5417
▁shed	-10.542
▁10-12	-10.5426
8.	-10.5431
▁transport	-10.5431
▁Ra	-10.5433
2.00	-10.5436
31	-10.5437
aacc	-10.544
▁offers	-10.5445
▁ponds	-10.5446
=30.7	-10.5451
▁Engineering	-10.5451
▁facility	-10.5451
▁members	-10.5451
▁98	-10.5454
▁decrease	-10.546
sha	-10.5462
▁mastitis	-10.5468
▁Fig	-10.5469
▁handling	-10.547
▁Professor	-10.5475
.55	-10.548
=31.3	-10.5486
▁immediately	-10.549
▁too	-10.5499
▁locally	-10.55
▁DD	-10.5503
▁upper	-10.5512
▁positive	-10.5521
▁experiment	-10.5523
aria	-10.5527
▁table	-10.5531
▁abiotic	-10.5536
▁situation	-10.5536
▁Technologies	-10.5539
▁nurseries	-10.5539
▁ee	-10.554
▁Once	-10.554
▁@1	-10.5552
▁orchard	-10.5553
▁Raised	-10.5558
▁injection	-10.5565
▁book	-10.5572
=56.6	-10.5574
▁udder	-10.5574
▁Scheme	-10.5574
▁Ca	-10.5575
▁pump	-10.5585
▁Th	-10.5588
3%	-10.5589
=30.4	-10.5591
mit	-10.5593
oorr	-10.5608
RT	-10.5623
▁identification	-10.5627
▁Fund	-10.5639
ron	-10.5644
▁easily	-10.5645
▁managed	-10.565
▁particular	-10.5655
▁concerned	-10.5657
▁Disease	-10.566
3.00	-10.5661
▁mulching	-10.5661
=8.0	-10.5662
4.00	-10.5669
-1,	-10.5674
▁skill	-10.5682
▁pigeonpea	-10.5698
▁tripura	-10.5698
▁Jharkhand	-10.5703
▁minerals	-10.5714
ries	-10.5717
▁getting	-10.5718
DA	-10.5723
nic	-10.573
▁pattern	-10.5732
▁tribal	-10.5736
▁Sowing	-10.5737
▁distributed	-10.5738
▁Health	-10.5745
ery	-10.5746
fertilizer	-10.5747
ard	-10.575
▁artificial	-10.5752
▁Introduction	-10.5754
son	-10.5757
▁Grant	-10.577
▁fertigation	-10.577
▁initiatives	-10.5782
mu	-10.5788
▁Sikkim	-10.5788
▁mite	-10.5789
▁English	-10.5801
▁ADG	-10.5806
▁68	-10.5806
▁still	-10.5811
▁tested	-10.5811
pal	-10.5811
tre	-10.5813
▁recommendations	-10.5827
we	-10.5831
▁20-25	-10.5833
▁external	-10.5835
=30.6	-10.5842
▁Establishment	-10.5847
▁shown	-10.5848
uk	-10.5848
▁monitor	-10.5851
▁(20	-10.5856
lready	-10.586
▁linseed	-10.586
▁registered	-10.5864
▁regional	-10.5864
▁holding	-10.5866
▁63	-10.5874
resistant	-10.5878
▁worms	-10.5881
▁2000	-10.5881
ele	-10.5895
▁Le	-10.5896
=52.0	-10.5897
No	-10.5903
▁58	-10.5907
▁Implement	-10.5912
▁Non	-10.5913
april	-10.5914
=31.2	-10.5915
▁(19	-10.5924
osis	-10.5931
▁advanced	-10.5939
▁bearing	-10.5946
▁places	-10.5949
=54.4	-10.5952
▁3.5	-10.5952
AR	-10.5956
▁com	-10.5958
izing	-10.596
▁frequent	-10.5962
▁enable	-10.5963
▁curling	-10.5965
▁shoots	-10.5967
▁consist	-10.5968
▁placed	-10.5972
▁(5	-10.5977
ix	-10.5983
=30.8	-10.5988
=44.4	-10.5988
cer	-10.5988
0%	-10.5997
▁iii	-10.6002
▁Details	-10.6005
▁complex	-10.6006
IS	-10.6014
▁Tel	-10.6017
▁simple	-10.6025
▁Resource	-10.6027
▁receive	-10.6028
▁tell	-10.6029
let	-10.6029
▁min	-10.6033
▁Eastern	-10.6037
7.5	-10.6037
▁come	-10.6039
▁strategy	-10.6044
60.0	-10.6047
▁infested	-10.6048
▁joint	-10.6062
=30.3	-10.6062
=51.9	-10.6062
▁bodies	-10.6062
que	-10.6063
▁Kan	-10.6078
▁barley	-10.6081
▁govt	-10.6081
▁demonstrated	-10.6083
750	-10.6087
▁Go	-10.609
06	-10.6091
▁61	-10.6094
=30.5	-10.6099
=34.6	-10.6099
=40.9	-10.6099
▁introduction	-10.6099
▁processes	-10.6101
ola	-10.6105
ER	-10.6106
▁dip	-10.6109
▁IFS	-10.6109
▁Natural	-10.6118
▁Sha	-10.6119
ments	-10.6119
▁mechanism	-10.6121
ush	-10.6127
▁59	-10.6135
=41.8	-10.6137
=50.8	-10.6137
▁empty	-10.6137
▁demonstration	-10.6139
▁cl	-10.614
▁sh	-10.614
ns	-10.6141
AT	-10.6149
holders	-10.6159
▁St	-10.6159
▁7.5	-10.6163
pat	-10.618
▁trap	-10.6182
▁filling	-10.6191
▁faculty	-10.6193
cal	-10.6194
▁drinking	-10.62
▁vermicompost	-10.6203
▁Hindi	-10.6208
=30.2	-10.6212
▁located	-10.6212
put	-10.6215
rate	-10.6221
▁Coordinat	-10.6228
▁Can	-10.6229
▁pomegranate	-10.623
ified	-10.623
ica	-10.6239
▁Sorghum	-10.6239
apply	-10.6241
▁plains	-10.6241
fu	-10.6247
=33.4	-10.6249
▁pruning	-10.6249
▁competition	-10.6249
6%	-10.6265
▁april	-10.6269
▁implementing	-10.6276
▁facilitat	-10.6281
▁2014	-10.6284
=32.6	-10.6287
=45.5	-10.6287
tech	-10.629
climatic	-10.6292
▁station	-10.6296
▁83	-10.6298
=51.8	-10.6306
▁Nutrient	-10.6309
▁76	-10.6313
▁fine	-10.632
=31.8	-10.6325
=32.5	-10.6325
=33.2	-10.6325
=40.1	-10.6325
▁thrice	-10.6326
▁professional	-10.6328
andhan	-10.6331
-7	-10.6335
=53.1	-10.6344
▁uptake	-10.6345
70.0	-10.6351
ella	-10.6358
▁69	-10.6359
=30.1	-10.6363
=34.3	-10.6363
=34.4	-10.6363
=34.5	-10.6363
=48.9	-10.6363
▁Maintain	-10.6363
▁appear	-10.6366
.11	-10.6368
ped	-10.6382
▁purple	-10.6382
▁thrips	-10.6382
▁retain	-10.6387
▁article	-10.6388
rus	-10.639
▁detailed	-10.6392
▁break	-10.6393
▁Govt	-10.6401
▁Network	-10.6402
=34.0	-10.6402
▁risks	-10.6402
▁indicators	-10.641
▁percent	-10.642
▁besides	-10.6421
efore	-10.6422
asi	-10.6424
ek	-10.6428
CS	-10.644
=31.1	-10.644
=32.7	-10.644
=33.5	-10.644
▁achieving	-10.644
▁survey	-10.644
quality	-10.6451
▁diseased	-10.6456
▁packaging	-10.6459
▁mouth	-10.6468
▁2010	-10.6474
=40.6	-10.6478
=44.2	-10.6478
▁Paddy	-10.6478
▁trade	-10.6479
▁director	-10.6489
▁publication	-10.649
mic	-10.649
▁function	-10.6494
ban	-10.6496
set	-10.6501
▁expert	-10.6504
oon	-10.6507
▁face	-10.6516
=33.6	-10.6517
=43.2	-10.6517
=57.1	-10.6517
▁Botanical	-10.6517
▁Policy	-10.6517
▁husbandry	-10.6517
=41.0	-10.6517
▁OC	-10.6518
▁planning	-10.6518
ement	-10.652
▁balanced	-10.6527
▁regard	-10.6528
=53.6	-10.6537
▁little	-10.6539
▁fishery	-10.654
ava	-10.6544
▁03	-10.6551
▁demonstrations	-10.6553
=32.8	-10.6556
=33.8	-10.6556
=33.9	-10.6556
=34.1	-10.6556
▁Arunachal	-10.6556
▁More	-10.6563
low	-10.6567
dependent	-10.6567
▁live	-10.6574
ris	-10.6574
=51.3	-10.6576
=54.5	-10.6576
▁Through	-10.6576
▁flies	-10.6577
▁extend	-10.6581
▁intensive	-10.6583
▁App	-10.6589
▁(3	-10.6593
=30.9	-10.6595
=34.8	-10.6595
▁cream	-10.6595
▁preferred	-10.6596
▁Fertilizer	-10.6598
▁Hence	-10.6599
▁hopper	-10.6602
ree	-10.6602
▁hill	-10.6606
vis	-10.661
▁Fusarium	-10.6612
▁swelling	-10.6615
▁shows	-10.6618
▁transplanted	-10.6623
ax	-10.6631
anga	-10.6632
▁correct	-10.6632
=52.6	-10.6634
=55.9	-10.6634
▁aromatic	-10.6635
▁0.25	-10.665
▁carbendazim	-10.6651
▁spices	-10.6652
▁third	-10.6654
=50.7	-10.6654
▁Geographical	-10.6654
▁Method	-10.6654
▁created	-10.6654
▁promising	-10.6654
▁internal	-10.6655
▁aass	-10.6656
▁adaptation	-10.6656
250	-10.6658
▁practical	-10.6669
▁mitigate	-10.6671
=32.3	-10.6674
=40.2	-10.6674
=40.7	-10.6674
=54.6	-10.6674
▁past	-10.6676
▁larger	-10.6678
▁nos	-10.6689
ants	-10.669
=57.8	-10.6693
=58.4	-10.6693
▁Information	-10.6693
▁guidance	-10.6693
▁comprehensive	-10.6694
▁interaction	-10.6703
ku	-10.6705
▁Sher	-10.6709
=31.5	-10.6713
=47.4	-10.6713
=57.5	-10.6713
▁implement	-10.6718
Tech	-10.672
▁dhan	-10.672
▁Pro	-10.6723
▁raise	-10.6725
▁PP	-10.6729
▁Bi	-10.6731
=59.8	-10.6733
▁sunlight	-10.6734
gal	-10.6737
ram	-10.6737
▁stocking	-10.6745
ther	-10.6751
=31.6	-10.6753
=34.7	-10.6753
=45.1	-10.6753
=58.8	-10.6753
▁Provide	-10.6753
▁context	-10.6753
▁Two	-10.6756
▁movement	-10.6756
▁Breeding	-10.6759
▁vet	-10.6762
▁oonn	-10.6768
▁locations	-10.677
▁event	-10.677
=55.5	-10.6773
▁pulp	-10.6773
▁center	-10.6775
▁herbicide	-10.6783
▁traps	-10.6789
=32.2	-10.6793
=33.1	-10.6793
=43.7	-10.6793
=45.8	-10.6793
=51.1	-10.6793
▁weevil	-10.6793
▁exposure	-10.6793
eri	-10.6793
▁Par	-10.6799
▁supports	-10.6799
▁herb	-10.6804
▁moderate	-10.6805
▁bag	-10.681
▁standards	-10.6811
▁Clean	-10.6812
▁load	-10.6813
▁industrial	-10.6818
▁assess	-10.6823
20.0	-10.6827
▁84	-10.6829
=34.9	-10.6832
=50.5	-10.6832
▁lands	-10.6834
▁50%	-10.6836
ttii	-10.6845
▁States	-10.6846
▁serve	-10.6851
=52.5	-10.6853
=55.4	-10.6853
gen	-10.6854
▁larvae	-10.6855
ino	-10.6855
▁Jan	-10.6858
▁able	-10.6858
ces	-10.6862
▁concern	-10.6865
wise	-10.6868
rin	-10.687
=31.4	-10.6873
=41.6	-10.6873
=50.4	-10.6873
▁Bhubaneswar	-10.6873
▁Traditional	-10.6873
▁cure	-10.6877
zo	-10.6884
▁grade	-10.6886
friendly	-10.6887
▁biotic	-10.6889
=52.4	-10.6893
=54.7	-10.6893
▁frame	-10.6893
▁Over	-10.6899
▁document	-10.6908
▁IN	-10.6912
=42.3	-10.6913
=54.1	-10.6913
▁serious	-10.6913
▁Phule	-10.6913
=55.0	-10.6913
▁points	-10.6921
▁2025	-10.6931
▁solve	-10.6933
▁shelf	-10.6933
=55.7	-10.6933
▁Medium	-10.6933
▁therefore	-10.6933
▁rhizome	-10.6937
▁Kendra	-10.694
▁prevents	-10.6945
▁Bha	-10.6947
uch	-10.6952
▁evenly	-10.6952
=41.3	-10.6953
=42.9	-10.6953
=43.1	-10.6953
▁Common	-10.6953
port	-10.6959
▁furrow	-10.6962
▁Directors	-10.6964
oid	-10.6966
=52.7	-10.6974
=57.7	-10.6974
▁kerala	-10.6974
ining	-10.6976
▁however	-10.6977
▁pain	-10.6977
▁Africa	-10.6989
▁01	-10.699
=32.9	-10.6994
=40.4	-10.6994
=43.8	-10.6994
=58.6	-10.6994
▁Location	-10.6994
▁sure	-10.6994
▁Verma	-10.6994
▁manures	-10.6994
▁Anus	-10.6996
▁En	-10.6997
▁kind	-10.6997
nath	-10.7007
▁forage	-10.7008
▁participants	-10.7014
▁Sam	-10.7022
▁Scientists	-10.7033
▁difficult	-10.7034
▁Special	-10.7035
▁sissoo	-10.7035
=32.0	-10.7035
MS	-10.7036
▁innovations	-10.7041
1.00	-10.7049
▁Kharif	-10.705
cop	-10.7051
▁exchange	-10.7055
▁Karnal	-10.7055
=50.0	-10.7056
▁Rabi	-10.7057
ool	-10.7059
35.0	-10.7059
▁(4	-10.7062
▁115	-10.7067
=51.4	-10.7076
=56.1	-10.7076
=59.5	-10.7076
▁Address	-10.7076
type	-10.7081
30.0	-10.7083
comp	-10.7083
▁1.25	-10.7085
▁far	-10.7088
▁funds	-10.7089
▁105	-10.709
▁sectors	-10.7091
pusa	-10.7092
=51.7	-10.7096
=59.3	-10.7096
▁Medicinal	-10.7096
▁Public	-10.7096
▁speed	-10.7096
▁Bhavan	-10.7096
▁blood	-10.7096
les	-10.7099
cel	-10.7104
lint	-10.7108
▁decision	-10.7112
cin	-10.7115
=33.3	-10.7117
=54.2	-10.7117
=55.3	-10.7117
▁97	-10.7118
▁soft	-10.7119
▁inside	-10.7124
▁rapid	-10.713
▁bird	-10.7133
▁02	-10.7137
▁changing	-10.7137
▁direction	-10.7137
▁factor	-10.714
▁ways	-10.7144
▁5-6	-10.7152
50.00	-10.7152
Black	-10.7156
▁Resources	-10.7156
=32.4	-10.7158
=43.9	-10.7158
=52.3	-10.7158
=59.4	-10.7158
▁primarily	-10.7158
▁socio	-10.716
▁mostly	-10.7163
▁obtain	-10.717
▁lits	-10.7173
▁130	-10.7177
=56.5	-10.7179
=57.3	-10.7179
=58.1	-10.7179
▁Lo	-10.7185
▁efficacy	-10.7187
▁2013	-10.7197
una	-10.7197
=41.9	-10.7199
=46.4	-10.7199
=53.3	-10.7199
▁Besides	-10.7199
▁insurance	-10.7199
=53.0	-10.72
=33.0	-10.72
▁Ranchi	-10.72
van	-10.7201
▁tetracycline	-10.7205
▁approaches	-10.7213
=52.1	-10.722
=59.6	-10.722
▁phase	-10.7221
IC	-10.7222
▁approximately	-10.7228
=48.5	-10.7241
▁company	-10.7241
▁tomatoes	-10.7243
▁Data	-10.725
▁determine	-10.7253
lam	-10.7255
compost	-10.7262
▁consecutive	-10.7262
▁plantations	-10.7266
9.	-10.7276
ht	-10.7276
=41.5	-10.7283
=47.7	-10.7283
=53.8	-10.7283
▁policies	-10.7283
▁salinity	-10.7283
▁yojona	-10.7283
▁Neem	-10.7284
▁elements	-10.7287
▁micronutrients	-10.7294
.12	-10.7296
holder	-10.7296
▁languages	-10.7299
amba	-10.7302
=50.9	-10.7304
=58.2	-10.7304
▁cough	-10.7306
7.00	-10.7307
▁monthly	-10.7307
▁yard	-10.7309
adi	-10.7314
=49.9	-10.7325
▁Tripura	-10.7325
ong	-10.7327
▁evaluated	-10.7331
-22	-10.7335
ick	-10.734
ight	-10.7341
▁promotes	-10.7342
=55.1	-10.7346
=56.2	-10.7346
▁accurate	-10.7346
=59.0	-10.7346
▁bb	-10.7353
▁filled	-10.7356
700	-10.7356
▁encourage	-10.7358
nal	-10.7363
=32.1	-10.7367
=40.5	-10.7367
=42.1	-10.7367
=42.8	-10.7367
=47.8	-10.7367
=47.9	-10.7367
=49.6	-10.7367
▁fallow	-10.7367
58.	-10.7381
▁15-20	-10.7382
▁pulse	-10.7385
▁remain	-10.7386
nk	-10.7387
cre	-10.7389
▁occurs	-10.739
▁se	-10.7391
▁loam	-10.7403
=42.4	-10.7409
=42.6	-10.7409
=44.1	-10.7409
▁scenario	-10.7409
▁vegetative	-10.7409
▁World	-10.7418
like	-10.7421
▁tonic	-10.7424
▁option	-10.7428
=57.2	-10.7431
▁dexona	-10.7431
▁debris	-10.7431
pic	-10.7433
56.	-10.7434
ey	-10.7435
▁adapt	-10.7437
▁intervals	-10.7441
lin	-10.7446
▁001	-10.7452
=31.7	-10.7452
=46.7	-10.7452
=57.0	-10.7452
=42.0	-10.7452
=46.0	-10.7452
fil	-10.7453
free	-10.7461
aall	-10.7462
▁intensity	-10.7473
▁minimizing	-10.7473
▁ooze	-10.7473
▁budget	-10.7473
00.00	-10.7475
▁collecting	-10.7476
▁detect	-10.7479
▁rains	-10.7482
anta	-10.7486
ete	-10.7486
90.0	-10.7492
=31.9	-10.7495
=45.2	-10.7495
=46.1	-10.7495
=49.7	-10.7495
▁Since	-10.7495
=47.0	-10.7495
▁run	-10.7496
▁fishes	-10.7499
sts	-10.7499
cha	-10.7504
▁Active	-10.7514
=50.1	-10.7516
=53.5	-10.7516
▁Mission	-10.7516
▁ni	-10.752
▁possess	-10.7521
are	-10.7526
3.3	-10.7526
ttiioonn	-10.7527
nna	-10.7529
=51.2	-10.7537
▁agencies	-10.7537
▁valuable	-10.7537
=43.0	-10.7538
tit	-10.7545
▁im	-10.7548
ji	-10.7548
▁depends	-10.7555
▁occur	-10.7556
▁bee	-10.7556
▁AUs	-10.7562
ign	-10.7569
▁preventive	-10.7569
▁candidates	-10.7572
oda	-10.7574
▁Accounts	-10.7576
=33.7	-10.758
=34.2	-10.758
=43.4	-10.758
=49.4	-10.758
=53.9	-10.758
=56.8	-10.758
▁ventilation	-10.758
▁grading	-10.7581
fe	-10.7583
▁options	-10.7584
rat	-10.7592
▁represent	-10.7602
=55.6	-10.7602
=58.9	-10.7602
▁Increase	-10.7602
▁Rainfed	-10.7602
▁seven	-10.7607
san	-10.7611
▁agents	-10.7618
=41.2	-10.7624
=42.5	-10.7624
=44.5	-10.7624
=45.9	-10.7624
=48.1	-10.7624
=49.8	-10.7624
=54.9	-10.7624
▁home	-10.7626
▁wash	-10.7627
4%	-10.7632
▁rose	-10.7634
▁seen	-10.7635
▁si	-10.7641
mar	-10.7642
wo	-10.7643
▁mono	-10.7644
kha	-10.7644
=53.2	-10.7645
▁Reasonabl	-10.7645
▁manipur	-10.7645
▁desired	-10.7646
▁processed	-10.7649
vvee	-10.765
▁ff	-10.7651
medium	-10.7651
ks	-10.7657
▁BB	-10.7665
=47.1	-10.7667
=47.6	-10.7667
=50.6	-10.7667
=53.4	-10.7667
=59.1	-10.7667
=49.0	-10.7667
▁Mango	-10.7668
tric	-10.7673
ship	-10.7673
▁supporting	-10.7677
rit	-10.7677
aattiioonn	-10.7681
▁Nagaland	-10.7686
▁86	-10.7686
ler	-10.7687
▁Vegetable	-10.7689
=51.5	-10.7689
▁Kufri	-10.7689
▁perennial	-10.7689
▁Micro	-10.7689
▁Grain	-10.769
▁remains	-10.7692
-18	-10.7694
▁96	-10.7695
▁71	-10.7696
IARI	-10.7696
arid	-10.7699
▁ki	-10.7705
▁gain	-10.771
=51.6	-10.7711
=56.0	-10.7711
▁objective	-10.7711
aceae	-10.7713
▁Gandhian	-10.7713
▁Goat	-10.7718
▁caterpillars	-10.7718
▁2.8	-10.7719
▁05	-10.7722
102	-10.7727
▁mass	-10.773
▁outlet	-10.773
▁fully	-10.7731
▁tt	-10.7731
-30	-10.7731
=53.7	-10.7733
=56.9	-10.7733
=51.0	-10.7733
aadd	-10.7733
▁te	-10.7734
▁eco	-10.7741
▁Source	-10.7745
sur	-10.7746
▁iv	-10.7747
dha	-10.7748
▁Weed	-10.7748
=45.3	-10.7755
=48.8	-10.7755
▁ccrroopp	-10.7755
win	-10.7771
▁plot	-10.7778
▁Chi	-10.7785
=46.3	-10.7799
=56.7	-10.7799
▁Description	-10.7799
▁Jhansi	-10.7799
rt	-10.7799
▁ro	-10.7801
=57.6	-10.7821
▁Target	-10.7821
▁proposed	-10.7821
▁Up	-10.7828
▁spreading	-10.7831
uality	-10.7834
nc	-10.7842
=43.6	-10.7843
=45.6	-10.7843
▁cloth	-10.7843
=54.0	-10.7843
▁hydroponic	-10.7844
▁Add	-10.7845
▁holders	-10.7845
50.0	-10.7846
▁cool	-10.7846
▁u	-10.7847
▁Assistant	-10.7851
▁hi	-10.7851
PM	-10.7858
uli	-10.786
=50.3	-10.7865
=58.3	-10.7865
▁rainwater	-10.7868
10.0	-10.7875
▁establish	-10.7884
ati	-10.7886
▁thick	-10.7887
=42.7	-10.7887
=44.6	-10.7887
=44.8	-10.7887
=47.2	-10.7887
=58.5	-10.7887
▁guide	-10.7892
lar	-10.7908
▁Among	-10.791
▁contributed	-10.7911
▁160	-10.7913
▁smart	-10.7914
tta	-10.7915
▁9.0	-10.792
ie	-10.792
ric	-10.7923
▁94	-10.7924
=44.3	-10.7932
=44.9	-10.7932
=46.9	-10.7932
▁Manipur	-10.7932
▁brought	-10.7932
kh	-10.7934
▁Recommended	-10.7936
▁gender	-10.7936
▁forward	-10.7936
▁012	-10.794
economic	-10.7942
▁decis	-10.7954
▁Large	-10.7954
▁TT	-10.7956
▁District	-10.7957
▁hence	-10.7957
▁optimize	-10.7958
▁hour	-10.796
org	-10.7963
▁Ro	-10.7965
▁practiced	-10.7973
▁San	-10.7974
=40.3	-10.7977
=41.4	-10.7977
=43.3	-10.7977
=45.7	-10.7977
=47.5	-10.7977
=48.3	-10.7977
=58.7	-10.7977
▁examination	-10.7977
▁cells	-10.7979
▁intervention	-10.798
▁ICT	-10.7983
Kashmir	-10.7987
▁Bt	-10.7992
tight	-10.7997
=56.4	-10.7999
▁choice	-10.7999
▁ornamental	-10.7999
▁runoff	-10.7999
bil	-10.8001
side	-10.8017
=48.4	-10.8022
cus	-10.8023
▁us	-10.8027
rri	-10.8028
RS	-10.8033
▁Anand	-10.8035
gh	-10.8039
dh	-10.8043
=55.2	-10.8044
=58.0	-10.8044
▁Banana	-10.8044
▁namely	-10.8047
▁mi	-10.8051
nam	-10.8056
National	-10.8056
▁meters	-10.8062
=49.1	-10.8067
=55.8	-10.8067
▁viral	-10.8068
▁provision	-10.8071
▁trained	-10.8072
▁gave	-10.8073
rm	-10.8082
▁1.6	-10.8085
▁Effect	-10.8088
=19.8	-10.8089
▁ac	-10.8089
▁hole	-10.8098
▁dog	-10.8098
▁cc	-10.8106
=42.2	-10.8112
=48.6	-10.8112
=81.2	-10.8112
▁operating	-10.8112
▁university	-10.8112
▁Local	-10.8112
iri	-10.8118
▁ll	-10.8121
▁Mustard	-10.8121
▁Processing	-10.8122
▁decline	-10.8127
osa	-10.8132
▁person	-10.8133
▁PRA	-10.8133
▁But	-10.8133
▁pigs	-10.8141
▁promoted	-10.8152
▁course	-10.8153
▁Li	-10.8154
=39.7	-10.8158
=48.2	-10.8158
=49.3	-10.8158
=52.2	-10.8158
=78.6	-10.8158
▁eliminate	-10.8158
▁taste	-10.8158
▁East	-10.8161
▁Cultivation	-10.8171
gaon	-10.8173
by	-10.8173
ient	-10.8173
▁Indigenous	-10.8181
▁replied	-10.8181
▁flour	-10.8181
▁passbook	-10.8181
▁integration	-10.8182
▁coat	-10.8187
9.5	-10.8187
61	-10.8192
▁Orissa	-10.8193
=45.4	-10.8204
▁sheath	-10.8204
▁adult	-10.821
▁Dec	-10.8211
▁furrows	-10.8213
▁Act	-10.8214
125	-10.8219
▁pow	-10.8224
▁Improvement	-10.8227
▁Si	-10.8229
▁slow	-10.8231
grained	-10.8233
yan	-10.824
fa	-10.8241
▁separate	-10.8242
▁compounds	-10.8248
▁honey	-10.825
=41.1	-10.825
=41.7	-10.825
=46.8	-10.825
=49.5	-10.825
=57.9	-10.825
=77.4	-10.825
▁Husbandry	-10.825
▁spider	-10.825
▁Sharma	-10.825
▁consider	-10.825
▁big	-10.8256
iz	-10.8258
▁87	-10.8258
▁slope	-10.8261
car	-10.8262
eet	-10.8262
jan	-10.8267
lands	-10.8269
▁neck	-10.8273
▁chicks	-10.8275
▁class	-10.8276
▁Environmental	-10.8278
▁dwarf	-10.8281
ini	-10.8283
▁pu	-10.8287
iitt	-10.829
▁generate	-10.829
▁longer	-10.829
=50.2	-10.8296
▁Impact	-10.8296
▁removing	-10.8296
▁Avoid	-10.8296
▁groundwater	-10.8297
▁burning	-10.8298
▁did	-10.8298
uka	-10.8306
▁ob	-10.831
▁Gun	-10.8312
▁ko	-10.8313
=52.9	-10.8319
Gross	-10.8319
gun	-10.8324
▁find	-10.8326
▁aarree	-10.8331
RA	-10.8333
▁Tri	-10.8335
▁pigeon	-10.8342
=43.5	-10.8342
▁Validation	-10.8343
=45.0	-10.8343
▁2.4	-10.835
-52	-10.8357
=57.4	-10.8366
▁approved	-10.8366
▁chloropyriphos	-10.8366
entrepreneurship	-10.8366
▁Conservation	-10.8366
▁Thus	-10.8368
▁reach	-10.837
▁hh	-10.8371
▁initiative	-10.8373
▁91	-10.8374
▁WP	-10.8385
900	-10.8386
=18.8	-10.8387
▁Enhanc	-10.8389
=44.0	-10.8389
▁fuel	-10.839
▁dressed	-10.839
▁reason	-10.8396
▁upto	-10.8397
app	-10.8404
▁largest	-10.8407
▁rise	-10.8411
▁indicate	-10.8411
=79.1	-10.8412
▁Kashi	-10.8413
▁online	-10.8415
rea	-10.8416
▁800	-10.8422
▁Its	-10.8426
▁mud	-10.8427
▁79	-10.843
=54.8	-10.8436
▁Welfare	-10.8436
▁standing	-10.8436
▁published	-10.8441
▁consumers	-10.8442
▁adjust	-10.8443
▁fertile	-10.8449
▁institutional	-10.8456
▁pointed	-10.8458
▁synthetic	-10.8459
▁Western	-10.846
▁spring	-10.8461
▁China	-10.8461
▁rotting	-10.8467
▁adding	-10.8468
▁custom	-10.8469
can	-10.8473
▁boron	-10.8478
▁ATARI	-10.8483
=54.3	-10.8483
▁Cotton	-10.8483
▁profile	-10.8483
▁scope	-10.8483
▁140	-10.8486
▁viable	-10.8486
1.8	-10.8491
▁Oil	-10.8492
▁Acacia	-10.8494
▁stable	-10.8495
0.5	-10.8496
rup	-10.8497
-100	-10.85
▁gg	-10.85
▁follows	-10.8502
▁PARTY	-10.8507
▁adaptability	-10.8507
SA	-10.8509
ua	-10.8511
▁Genetic	-10.8516
▁FF	-10.8522
▁build	-10.8526
▁soaked	-10.8528
=40.8	-10.853
=59.7	-10.853
▁Conference	-10.853
▁safflower	-10.853
lan	-10.8532
▁close	-10.8532
assi	-10.8532
▁cha	-10.8539
▁values	-10.854
▁link	-10.854
▁herbicides	-10.8542
ern	-10.8544
▁bran	-10.8544
▁hormone	-10.8554
▁website	-10.8554
▁spike	-10.8554
art	-10.8563
▁lateral	-10.8564
▁container	-10.8575
=35.2	-10.8578
=36.6	-10.8578
=46.5	-10.8578
=76.7	-10.8578
=84.2	-10.8578
▁canopy	-10.8578
▁Out	-10.8584
▁fungicides	-10.859
vin	-10.8595
aya	-10.8596
▁strengthening	-10.8599
▁IV	-10.8601
▁pink	-10.8604
dic	-10.8608
▁Ho	-10.8611
ada	-10.8621
▁Experiment	-10.8623
▁cuttings	-10.8626
=40.0	-10.8626
=44.7	-10.8626
=46.6	-10.8626
=48.7	-10.8626
=49.2	-10.8626
=52.8	-10.8626
=59.2	-10.8626
=59.9	-10.8626
=84.7	-10.8626
▁mechanization	-10.8626
▁Aquaculture	-10.8626
▁society	-10.8626
▁0.05	-10.8629
32.0	-10.8629
▁ft	-10.8629
▁job	-10.8629
▁arka	-10.863
iioonn	-10.8634
ima	-10.8636
▁difference	-10.8637
46.0	-10.8639
table	-10.864
▁Harvest	-10.8643
mul	-10.8646
▁lentil	-10.865
▁incubation	-10.8651
▁sea	-10.8654
▁92	-10.8657
▁FMD	-10.8658
year	-10.8665
▁ram	-10.8666
▁others	-10.8668
▁strength	-10.867
=47.3	-10.8674
=56.3	-10.8674
TR	-10.8674
til	-10.8677
oor	-10.8687
▁04	-10.869
▁quick	-10.869
uru	-10.8697
▁Similarly	-10.87
aran	-10.8707
▁2004	-10.8712
▁Sar	-10.8715
CH	-10.8719
ona	-10.872
SD	-10.8722
=35.3	-10.8722
=36.3	-10.8722
=36.8	-10.8722
▁furadon	-10.8722
36.0	-10.8722
▁principles	-10.8728
yr	-10.8736
▁rae	-10.874
phos	-10.8741
hamp	-10.8741
aga	-10.8744
▁Bordeaux	-10.8746
▁emphasis	-10.8746
=79.0	-10.8746
ena	-10.8748
▁undertaken	-10.8748
▁periods	-10.8757
▁mz	-10.8766
▁pure	-10.8769
=37.6	-10.877
=82.0	-10.8771
▁Rural	-10.8771
▁Timely	-10.8776
TL	-10.8785
▁Das	-10.8788
▁Senior	-10.8789
45.0	-10.8792
▁Mar	-10.8792
▁aaggrriiccuul	-10.8795
▁comprise	-10.8795
▁ulcer	-10.8795
▁bbyy	-10.8796
af	-10.8796
▁productive	-10.8798
▁Aid	-10.8801
▁forms	-10.8809
effective	-10.8818
hat	-10.8819
ttee	-10.8819
▁Support	-10.8819
▁du	-10.882
39.0	-10.8827
▁Higher	-10.8843
=84.4	-10.8844
▁Moderate	-10.8844
house	-10.8844
ae	-10.8845
den	-10.8849
▁Yes	-10.8854
▁centers	-10.8861
along	-10.8866
9.00	-10.8867
ila	-10.8867
=39.2	-10.8868
▁Shimla	-10.8868
▁edible	-10.8868
▁Sl	-10.8872
Contents	-10.889
▁Pay	-10.8891
▁bottom	-10.8893
▁sludge	-10.8893
▁nation	-10.8895
▁contaf	-10.8899
llee	-10.8904
▁kufri	-10.8904
▁borne	-10.8905
▁1500	-10.8912
34.0	-10.8914
=35.7	-10.8917
=37.5	-10.8917
▁backyard	-10.8917
▁strategic	-10.8917
▁vimeral	-10.8917
▁Power	-10.8917
▁spawn	-10.8918
▁hispa	-10.892
▁III	-10.8925
=79.3	-10.8942
▁promoter	-10.8943
▁coverage	-10.8945
▁id	-10.8948
▁buffaloes	-10.8949
129	-10.8955
▁Meghalaya	-10.8956
atch	-10.8967
=37.2	-10.8967
=37.8	-10.8967
▁robust	-10.8967
▁maturing	-10.8967
▁huge	-10.8967
▁Com	-10.8967
▁trans	-10.8968
▁rec	-10.8968
▁healthier	-10.8968
▁coastal	-10.8969
spray	-10.8969
33.0	-10.8975
▁82	-10.8982
nate	-10.8989
rh	-10.8989
▁America	-10.8992
oot	-10.8992
▁permanent	-10.8992
5,000	-10.8993
▁collect	-10.8994
▁refer	-10.8995
▁channels	-10.8998
▁equivalent	-10.9004
matic	-10.9005
ism	-10.9007
▁Due	-10.901
▁optimiz	-10.9011
ark	-10.9011
▁spine	-10.9015
=46.2	-10.9016
=77.9	-10.9016
=78.3	-10.9016
=78.7	-10.9016
=79.5	-10.9016
=80.5	-10.9016
=80.9	-10.9016
▁entry	-10.9017
=35.0	-10.9017
fo	-10.9022
▁tender	-10.9027
▁Bangalore	-10.9041
▁Resistant	-10.9041
▁Design	-10.9041
▁dissemination	-10.9041
▁soi	-10.9045
▁Root	-10.9047
▁Good	-10.9047
ura	-10.9053
IP	-10.9062
pid	-10.9065
=36.5	-10.9066
=36.9	-10.9066
=83.9	-10.9066
▁families	-10.9066
▁jaggery	-10.9066
▁composition	-10.9066
▁stick	-10.9067
=39.0	-10.9067
▁submit	-10.9067
▁road	-10.9068
▁comes	-10.9071
38.0	-10.9085
▁Inter	-10.9089
▁eastern	-10.909
▁relationship	-10.9092
▁nearby	-10.9092
5.6	-10.9094
olu	-10.9098
▁rat	-10.9106
▁Cu	-10.9106
▁purposes	-10.9107
▁text	-10.9108
▁she	-10.9109
▁Dry	-10.9115
ode	-10.9116
=38.3	-10.9117
=79.8	-10.9117
▁utilizing	-10.9117
▁characterized	-10.9117
=48.0	-10.9117
▁fire	-10.912
▁Bacillus	-10.9127
▁mmaa	-10.9129
▁committee	-10.9129
▁trace	-10.9135
eb	-10.9138
=76.6	-10.9142
▁personnel	-10.9142
▁convert	-10.9142
▁floor	-10.9142
▁0.75	-10.9148
ST	-10.915
▁Plants	-10.9152
ze	-10.9153
▁efficiently	-10.9155
▁Such	-10.9157
▁innovation	-10.9159
▁piglet	-10.916
=38.2	-10.9167
=38.6	-10.9167
=78.1	-10.9167
▁children	-10.9167
▁opportunity	-10.9167
▁From	-10.9169
Tamil	-10.9172
4.8	-10.9176
▁Goa	-10.9176
▁tall	-10.9178
43.0	-10.918
▁profex	-10.9183
42.0	-10.9192
=77.7	-10.9192
=79.7	-10.9192
=83.2	-10.9192
mmun	-10.9193
▁profitable	-10.9195
▁Annexure	-10.9199
▁sequence	-10.9204
▁gum	-10.9206
itioonn	-10.9209
▁names	-10.9212
=38.5	-10.9218
=39.6	-10.9218
▁Gupta	-10.9218
▁susceptible	-10.9218
▁20.0	-10.9219
yo	-10.922
with	-10.922
▁capital	-10.9221
Fig	-10.9229
▁substantial	-10.9236
▁cage	-10.9241
olo	-10.9243
=76.4	-10.9243
▁Chief	-10.9243
▁uneven	-10.9244
▁minor	-10.9247
▁extraction	-10.925
▁Ram	-10.9254
ave	-10.9256
▁insecticides	-10.9258
▁experts	-10.9259
▁crore	-10.9262
hen	-10.9263
=35.9	-10.9269
=36.7	-10.9269
=38.7	-10.9269
=78.5	-10.9269
▁Strategy	-10.9269
▁approval	-10.9269
▁healing	-10.9269
▁starch	-10.9269
▁installation	-10.927
▁destroy	-10.928
41.0	-10.9281
▁double	-10.9286
=76.5	-10.9294
=80.1	-10.9294
=80.8	-10.9294
bal	-10.9295
▁melonex	-10.9295
IN	-10.9303
lla	-10.9308
=79.6	-10.932
log	-10.9325
malathion	-10.9328
▁burn	-10.9329
▁kh	-10.9334
tthh	-10.9335
oma	-10.9337
▁cereal	-10.9339
▁achievements	-10.9343
3.9	-10.9344
=77.8	-10.9346
▁radius	-10.9346
▁submission	-10.9346
▁Amount	-10.9347
▁fast	-10.9349
4.4	-10.9351
Chancellor	-10.9353
▁extreme	-10.9353
▁completed	-10.9364
▁amounts	-10.937
=35.1	-10.9371
=75.1	-10.9371
=81.5	-10.9371
=83.4	-10.9371
▁Associate	-10.9371
▁calves	-10.9371
aamm	-10.9373
▁Station	-10.9378
▁die	-10.9378
▁10.00	-10.9382
▁ten	-10.9384
nne	-10.939
mid	-10.9391
ood	-10.9391
ommercialization	-10.9396
=83.6	-10.9397
▁Coimbatore	-10.9397
▁Sugarcane	-10.9397
▁Nagpur	-10.9397
▁CSV	-10.9397
▁Hisar	-10.9399
3.6	-10.9399
▁thoroughly	-10.94
▁sale	-10.9403
▁dissolved	-10.9404
44.0	-10.9413
▁forte	-10.9416
▁SC	-10.9418
▁tablet	-10.9419
=35.4	-10.9423
▁excellent	-10.9423
▁failure	-10.9423
▁Road	-10.9424
nia	-10.9426
6.4	-10.9426
▁move	-10.9429
cost	-10.9433
▁intra	-10.9434
4.5	-10.9434
▁numbers	-10.9435
▁lot	-10.9436
▁sap	-10.9439
8%	-10.944
▁2005	-10.9444
▁Expenditure	-10.9449
▁participation	-10.945
rid	-10.9464
pre	-10.947
=36.1	-10.9475
=38.9	-10.9475
▁always	-10.9475
=38.0	-10.9476
nch	-10.9476
▁93	-10.948
▁Bo	-10.9483
333333333333333	-10.9484
tis	-10.9487
▁inhibit	-10.9488
vari	-10.9488
▁living	-10.9494
▁Sri	-10.9495
▁1-2	-10.9496
=76.1	-10.9501
=82.9	-10.9501
=84.1	-10.9501
▁teaching	-10.9501
▁seaweed	-10.9501
1.1	-10.9502
▁heart	-10.9502
sar	-10.9506
▁Kannada	-10.9511
TS	-10.9516
▁adverse	-10.952
pyr	-10.9523
vI	-10.9526
▁prior	-10.9526
=35.5	-10.9527
=39.9	-10.9527
=77.3	-10.9527
=82.1	-10.9527
▁Insect	-10.9527
▁chilly	-10.9527
▁livelihoods	-10.953
lets	-10.9536
ger	-10.9543
02.0	-10.9543
2.8	-10.9546
1.3	-10.9549
▁platform	-10.9549
=82.4	-10.9554
=83.7	-10.9554
▁Leaves	-10.9554
▁agenda	-10.9554
▁vector	-10.9554
▁castration	-10.9554
▁minimal	-10.9554
▁700	-10.956
▁engineering	-10.956
▁kcc	-10.9561
▁5-7	-10.9562
▁composting	-10.9568
▁Har	-10.957
▁rang	-10.9572
▁linkages	-10.9579
▁choose	-10.958
▁mites	-10.9582
▁functional	-10.9583
▁parasitic	-10.9584
off	-10.959
▁Per	-10.9595
▁extensive	-10.9599
=80.4	-10.9606
=83.1	-10.9606
▁evaporation	-10.9606
cchh	-10.9608
2019	-10.9613
ute	-10.9616
▁HD	-10.9621
▁events	-10.9623
=35.8	-10.9633
=37.7	-10.9633
=75.3	-10.9633
=75.4	-10.9633
=82.6	-10.9633
▁promptly	-10.9635
05.0	-10.9637
55.0	-10.9641
-14	-10.9643
▁Ash	-10.9645
▁coming	-10.9648
▁producer	-10.9654
▁grape	-10.9657
=79.2	-10.9659
=80.7	-10.9659
▁believe	-10.9659
▁firm	-10.9659
▁Email	-10.9666
92.	-10.967
season	-10.9672
rot	-10.9677
▁str	-10.9678
endra	-10.9678
▁dec	-10.9685
=39.8	-10.9686
=77.6	-10.9686
▁Officer	-10.9686
▁Demonstration	-10.9687
▁Mean	-10.969
▁proof	-10.9694
▁ra	-10.9696
▁conserve	-10.9704
▁fert	-10.9708
ko	-10.9712
=75.9	-10.9713
▁Capacity	-10.9713
▁gall	-10.9713
-60	-10.9717
▁dead	-10.972
ned	-10.9721
▁cane	-10.973
▁repellent	-10.9736
▁wwitithh	-10.9739
▁discussion	-10.9739
▁write	-10.9739
=36.0	-10.974
▁gur	-10.9743
3.5	-10.975
▁desi	-10.9761
MM	-10.9762
1.4	-10.9763
eennt	-10.9765
=84.9	-10.9766
▁sesame	-10.9766
▁veterinarian	-10.9766
▁pseudostem	-10.9766
=81.0	-10.9766
▁25-30	-10.977
PP	-10.9773
531	-10.9776
▁dd	-10.9781
▁pen	-10.9787
▁produces	-10.9787
emb	-10.9789
=75.6	-10.9793
▁masoor	-10.9793
▁proposal	-10.9793
▁rest	-10.9793
▁transportation	-10.9797
PS	-10.9798
▁mal	-10.9803
▁request	-10.9806
▁enterprise	-10.9811
▁PG	-10.9814
ou	-10.9815
▁except	-10.9816
▁Economic	-10.9819
▁Village	-10.982
▁expansion	-10.982
▁shrub	-10.982
▁varied	-10.982
=84.0	-10.982
inal	-10.9824
▁Mi	-10.9828
AI	-10.9829
▁though	-10.9833
head	-10.9837
▁subsequent	-10.9839
9.1	-10.984
▁pe	-10.9844
▁Most	-10.9845
49.0	-10.9846
=37.9	-10.9847
=76.2	-10.9847
▁Groundnut	-10.9847
=83.0	-10.9847
bor	-10.9848
▁Price	-10.9849
AB	-10.985
▁Chairman	-10.986
sel	-10.9869
▁Stem	-10.987
oku	-10.9874
=80.6	-10.9874
▁enabling	-10.9874
▁Flower	-10.9874
▁portal	-10.9874
▁altitude	-10.9875
▁step	-10.9875
▁UP	-10.9875
▁inorganic	-10.9876
aass	-10.9879
12.0	-10.9883
▁threat	-10.9884
ough	-10.9885
MR	-10.9886
▁bh	-10.989
owing	-10.99
fl	-10.9901
▁newly	-10.9901
=38.1	-10.9901
=39.3	-10.9901
=78.8	-10.9901
=80.3	-10.9901
▁2009	-10.9902
▁western	-10.9904
▁DDG	-10.9907
▁Mr	-10.9908
▁1.9	-10.9919
▁Mu	-10.9922
=78.2	-10.9929
▁digestion	-10.9929
▁infiltration	-10.9929
▁waterlogging	-10.9929
▁carry	-10.9929
▁pollution	-10.9929
jo	-10.993
EC	-10.993
dra	-10.9944
▁concentrations	-10.9947
=75.5	-10.9956
=83.8	-10.9956
▁Varanasi	-10.9956
▁molecular	-10.9956
▁diagnostic	-10.9956
=37.0	-10.9956
▁stand	-10.9959
▁Chilli	-10.9959
press	-10.9966
ible	-10.9973
▁lo	-10.9981
▁humid	-10.9982
▁challenge	-10.9984
▁metal	-10.999
ological	-10.9995
▁nano	-10.9995
▁Scientific	-10.9996
▁IP	-10.9997
▁My	-11.0006
=36.2	-11.0011
=78.9	-11.0011
=79.4	-11.0011
=84.5	-11.0011
lum	-11.0012
ori	-11.0029
brown	-11.0029
ult	-11.0033
▁researchers	-11.0037
=82.8	-11.0038
=84.6	-11.0038
▁White	-11.0038
▁concrete	-11.0038
▁varies	-11.004
▁accessions	-11.004
6.5	-11.0043
▁plays	-11.0043
▁acids	-11.0046
llyy	-11.0048
6.6	-11.0049
▁tillering	-11.0049
▁ccoo	-11.0051
51.0	-11.0054
chemical	-11.0056
▁onset	-11.0058
▁reasonabl	-11.006
9.4	-11.0061
▁11.0	-11.0062
▁171	-11.0065
=76.8	-11.0066
=77.2	-11.0066
=77.5	-11.0066
▁Izatnagar	-11.0066
▁Zonal	-11.0066
▁Sector	-11.0066
▁dietary	-11.0067
▁night	-11.0068
▁Du	-11.0069
▁Ag	-11.0071
ker	-11.0078
ota	-11.0079
su	-11.0084
▁agronomic	-11.0085
▁falling	-11.0089
▁12.0	-11.0091
▁Fresh	-11.0094
=82.2	-11.0094
▁Mizoram	-11.0097
▁Harvesting	-11.0098
SO	-11.0102
garh	-11.0106
▁sucking	-11.0106
▁detail	-11.011
tive	-11.0116
▁team	-11.012
▁understanding	-11.0121
=81.4	-11.0121
iicc	-11.0122
▁kit	-11.0128
icide	-11.0139
3.8	-11.014
▁suppress	-11.0147
=81.1	-11.0149
▁Women	-11.0149
▁certification	-11.0149
▁constant	-11.0149
▁Model	-11.0149
=76.0	-11.015
▁Also	-11.015
▁rock	-11.0152
▁deworming	-11.0157
▁said	-11.0157
▁wt	-11.016
▁ddee	-11.0163
▁reference	-11.017
▁Va	-11.0175
▁reproduction	-11.0177
=8.9	-11.0177
1.6	-11.0178
▁survival	-11.0178
▁89	-11.0178
▁validation	-11.0178
150	-11.0182
▁Fruits	-11.0186
▁IVRI	-11.0191
▁Telugu	-11.0192
47.0	-11.0198
▁aid	-11.0198
▁Dis	-11.02
▁blue	-11.0203
▁2.1	-11.0204
▁Precision	-11.0205
▁eligible	-11.0205
▁timber	-11.0205
=77.0	-11.0205
▁employees	-11.0206
▁chlorpyriphos	-11.0206
▁Selection	-11.0207
▁alone	-11.0208
▁outside	-11.0208
▁2003	-11.0212
rc	-11.0212
▁fact	-11.0226
borne	-11.0228
▁sprinklers	-11.0231
▁1:1	-11.0233
=39.1	-11.0233
=76.9	-11.0233
▁Bhopal	-11.0233
▁Chemical	-11.0233
▁remote	-11.0233
▁validated	-11.0234
=78.0	-11.0234
▁email	-11.0243
▁GG	-11.0245
▁Onion	-11.0246
▁erect	-11.0246
gan	-11.0253
SOR	-11.0253
ably	-11.0255
▁proportion	-11.0261
▁sponge	-11.0261
aabblele	-11.0262
▁Ref	-11.0263
▁box	-11.0266
▁DAS	-11.0266
amu	-11.0274
▁concentrate	-11.0281
▁negative	-11.0282
=37.1	-11.029
▁fungus	-11.029
▁Ahmednagar	-11.029
▁analyze	-11.029
▁grows	-11.0297
▁predicted	-11.0298
litres	-11.0302
4.1	-11.0308
culture	-11.0317
=77.1	-11.0318
mmenetn	-11.0319
▁Hon	-11.0323
opt	-11.0325
▁hrs	-11.0334
48.0	-11.034
ky	-11.034
=80.0	-11.0346
=84.8	-11.0346
▁communication	-11.0346
▁panacur	-11.0346
▁Bureau	-11.0347
▁liver	-11.0352
▁Chandra	-11.0353
▁items	-11.0354
▁quickly	-11.0355
▁tool	-11.0356
▁She	-11.036
RR	-11.0366
▁irrigate	-11.0366
▁extended	-11.0367
▁Fa	-11.0368
izoram	-11.0372
▁syrup	-11.0375
▁blade	-11.0375
▁understand	-11.0376
▁genotypes	-11.0381
▁lodging	-11.039
▁cum	-11.0397
▁350	-11.0397
▁indica	-11.04
▁centimeter	-11.0403
=81.6	-11.0404
=81.7	-11.0404
=8.7	-11.0404
▁left	-11.0404
2.2	-11.0407
▁DAT	-11.0407
▁Pea	-11.0407
▁aim	-11.0408
▁Marathi	-11.0413
IL	-11.0416
▁accounts	-11.0425
=74.2	-11.0432
▁2021-22	-11.0433
▁clinical	-11.0434
3.2	-11.0436
▁property	-11.0438
▁experiments	-11.0438
▁establishing	-11.0439
▁1.7	-11.044
ening	-11.0445
rav	-11.045
▁110012	-11.0452
▁Nagar	-11.0457
rti	-11.0457
arb	-11.0461
=35.6	-11.0461
=37.3	-11.0461
=75.2	-11.0461
=75.8	-11.0461
▁French	-11.0461
▁Laser	-11.0461
▁index	-11.0461
▁leveller	-11.0464
▁launched	-11.0464
▁Account	-11.0467
ook	-11.0486
=79.9	-11.049
=83.3	-11.049
▁Rahuri	-11.049
▁Commission	-11.049
▁call	-11.0493
▁damaged	-11.0494
▁laid	-11.0494
pu	-11.0496
▁organisms	-11.0496
nes	-11.0497
▁Days	-11.0501
▁Many	-11.0511
▁Dhan	-11.0513
xx	-11.0514
▁indications	-11.0514
ists	-11.0518
▁scientist	-11.0519
=37.4	-11.0519
=80.2	-11.0519
▁Deputy	-11.0519
▁Results	-11.0519
▁FAO	-11.0519
▁texture	-11.052
▁ultimately	-11.052
▁ear	-11.0524
unit	-11.0524
▁Bas	-11.0528
▁Ab	-11.0529
▁0.58	-11.0534
▁waiting	-11.0537
006	-11.0538
▁mill	-11.0539
▁indicates	-11.054
GR	-11.0541
75.	-11.0541
anda	-11.0546
=76.3	-11.0548
▁Contact	-11.0548
▁consistency	-11.0548
▁foster	-11.0549
▁2006	-11.056
▁annually	-11.056
▁15.0	-11.0567
▁amino	-11.057
mmee	-11.0572
▁mechanisms	-11.0573
▁becomes	-11.0575
=39.5	-11.0577
▁web	-11.0583
▁mini	-11.0586
worm	-11.0603
ttoo	-11.0605
=82.7	-11.0606
▁TOTAL	-11.0606
▁ww	-11.061
yielding	-11.0611
▁Service	-11.0613
▁implements	-11.0621
0.6	-11.0622
ory	-11.0623
▁operate	-11.0626
cho	-11.0631
▁metals	-11.0634
=81.9	-11.0635
▁durability	-11.0635
▁Center	-11.0635
▁allowed	-11.0636
▁overcome	-11.0637
ties	-11.064
The	-11.0641
Ma	-11.0642
ages	-11.0654
▁functions	-11.0654
▁avoided	-11.0657
sam	-11.0658
▁2.6	-11.0659
▁Sc	-11.0659
aba	-11.066
▁NAARM	-11.0663
ping	-11.0663
▁middle	-11.0664
▁Basmati	-11.0664
▁Bhawan	-11.0669
▁constructed	-11.0672
▁brand	-11.0673
▁trend	-11.0675
▁pl	-11.0679
▁108	-11.069
▁extra	-11.069
▁HI	-11.069
=39.4	-11.0694
▁commodities	-11.0694
▁kernel	-11.0694
▁reproductive	-11.0694
october	-11.0694
▁prescribed	-11.0695
Maharashtra	-11.0695
mma	-11.0695
▁creation	-11.07
▁rationale	-11.0701
01.0	-11.0702
▁bu	-11.0704
▁machines	-11.071
▁apart	-11.0712
▁KK	-11.0714
▁004	-11.0714
7.9	-11.0715
▁courses	-11.0717
▁holes	-11.0718
=81.8	-11.0723
=98.7	-11.0723
▁poverty	-11.0723
▁targeted	-11.0726
▁ccoonn	-11.0728
cu	-11.073
▁5.5	-11.0734
▁ccoomm	-11.0735
9.6	-11.0736
▁Marketing	-11.0748
▁ask	-11.075
▁dual	-11.0752
=83.5	-11.0753
▁genome	-11.0753
▁influent	-11.0753
uni	-11.0753
13.0	-11.0754
▁30.0	-11.0757
75.0	-11.0757
▁Each	-11.0758
ble	-11.0759
rous	-11.0761
25.0	-11.0763
▁functioning	-11.0766
▁strain	-11.0767
▁1/2	-11.0774
kal	-11.0775
▁likely	-11.078
▁Schedule	-11.0783
▁absorb	-11.0783
▁categories	-11.0783
▁earlier	-11.0783
▁valley	-11.0783
▁Ltd	-11.0783
▁crown	-11.0783
▁diagnosis	-11.0783
▁Single	-11.0783
▁dilute	-11.0783
een	-11.0783
pan	-11.0787
▁look	-11.0788
▁Feb	-11.0792
▁completely	-11.0799
▁Seeds	-11.0811
=85.0	-11.0813
▁river	-11.0815
▁cr	-11.0821
▁wider	-11.0826
▁fishing	-11.0829
▁tteecchhnn	-11.083
▁miner	-11.0835
5.9	-11.0837
=82.3	-11.0842
▁Survey	-11.0842
▁companies	-11.0842
▁smut	-11.0842
▁Collection	-11.0843
after	-11.0843
▁situations	-11.0849
▁faster	-11.0849
eh	-11.0849
▁aann	-11.0854
▁gives	-11.0859
▁pollination	-11.0862
ull	-11.0867
ef	-11.0872
▁giving	-11.0872
▁Vegetables	-11.0872
▁Bengali	-11.0872
▁actual	-11.0873
▁garo	-11.0874
65.0	-11.088
▁3000	-11.0882
flor	-11.0884
▁cat	-11.0886
▁Aug	-11.0886
▁color	-11.0887
▁fund	-11.0888
MA	-11.0895
▁temperate	-11.0902
▁answer	-11.0902
more	-11.0903
▁patterns	-11.0905
▁partnership	-11.0913
▁13.0	-11.0914
▁informed	-11.0916
hor	-11.0919
500.0	-11.0924
▁NEH	-11.0932
=8.8	-11.0933
rap	-11.0933
▁bunch	-11.0933
▁Key	-11.0942
dhi	-11.0947
cit	-11.0952
▁em	-11.0956
lia	-11.0957
NS	-11.0962
▁Faculty	-11.0962
▁fa	-11.0963
-24	-11.0963
▁CSH	-11.0967
▁workers	-11.0974
▁che	-11.0974
▁Nutrition	-11.0979
=84.3	-11.0993
▁operator	-11.0993
▁Tr	-11.0997
vel	-11.1
▁101	-11.1
▁mar	-11.1002
▁nematode	-11.1005
emp	-11.1008
▁reasons	-11.1013
▁car	-11.1015
ank	-11.1019
bar	-11.1023
▁MS	-11.1023
=81.3	-11.1023
=87.9	-11.1023
▁Yellow	-11.1023
▁shisham	-11.1023
▁subsidy	-11.1023
▁methane	-11.1024
Himachal	-11.1029
▁hid	-11.104
xi	-11.1041
▁Time	-11.1049
▁RC	-11.1051
=38.4	-11.1054
=38.8	-11.1054
=82.5	-11.1054
=99.4	-11.1054
▁Different	-11.1054
▁reflect	-11.1054
▁consumed	-11.1058
▁tanks	-11.1064
66.0	-11.1064
▁hilly	-11.1065
▁Journal	-11.1067
aka	-11.1071
9%	-11.1075
▁funding	-11.1082
▁lac	-11.1082
▁Bacterial	-11.1084
▁digested	-11.1084
▁numerous	-11.1084
▁pregnant	-11.1084
▁variability	-11.1084
▁physiological	-11.1084
▁suitability	-11.1085
▁106	-11.1087
▁leaching	-11.1093
ware	-11.1093
▁dh	-11.1095
8.4	-11.1106
▁cash	-11.1106
▁disciplines	-11.1106
eecct	-11.1111
▁gra	-11.1113
=98.5	-11.1115
ove	-11.1116
▁novel	-11.1117
lab	-11.1121
▁until	-11.1126
▁lt	-11.1126
▁flat	-11.1126
61.0	-11.1132
met	-11.1135
OR	-11.1136
ection	-11.1138
▁adhar	-11.114
▁ppoo	-11.1144
graduate	-11.1144
▁objectives	-11.1146
▁Kolkata	-11.1146
▁fracture	-11.1146
▁whether	-11.1146
73.0	-11.1149
▁specialization	-11.115
▁Union	-11.1151
▁fill	-11.1151
▁AP	-11.1153
▁demands	-11.1155
IF	-11.116
▁streptocyclin	-11.1161
che	-11.1167
▁dryland	-11.1175
▁Moreover	-11.1177
▁niger	-11.1177
▁propagation	-11.1177
▁bending	-11.1178
ensis	-11.1179
▁instructions	-11.1184
mly	-11.1191
▁symptom	-11.1191
▁1.75	-11.1195
▁bone	-11.1195
▁DG	-11.1205
▁kan	-11.1207
▁Soybean	-11.1208
▁Finger	-11.1208
▁zero	-11.1208
▁visible	-11.1208
▁standardized	-11.1209
600.0	-11.1212
54.0	-11.1215
▁coating	-11.1217
▁charge	-11.1222
8.2	-11.1227
-11	-11.1233
=36.4	-11.1239
▁foliage	-11.1239
▁Zinc	-11.1239
=87.0	-11.1239
▁rather	-11.124
▁Process	-11.1242
▁lakhs	-11.1243
▁alter	-11.1245
air	-11.1251
▁dimensions	-11.1254
mala	-11.1255
▁consideration	-11.1257
FA	-11.1257
▁Ph	-11.1258
RNA	-11.1258
▁evaluate	-11.1261
6.8	-11.1264
▁drag	-11.1265
sol	-11.1266
ov	-11.1268
SR	-11.1269
=68.6	-11.127
▁poplar	-11.127
▁Pune	-11.127
ama	-11.1272
▁ripe	-11.1274
▁7-10	-11.1278
hara	-11.1282
8.8	-11.1284
▁Line	-11.1284
000.00	-11.1287
2.3	-11.1291
▁foods	-11.1292
▁decades	-11.1292
rom	-11.1296
TT	-11.1298
=64.4	-11.1301
=75.7	-11.1301
=99.7	-11.1301
▁mastilep	-11.1301
▁pieces	-11.1301
▁Na	-11.1302
uumm	-11.1304
▁try	-11.1305
top	-11.1306
▁nuts	-11.1308
▁2.2	-11.1322
tick	-11.1324
ire	-11.1327
pen	-11.1331
=62.7	-11.1332
▁THE	-11.1332
03.0	-11.1337
▁specifically	-11.1337
1.2	-11.1338
ny	-11.1339
ound	-11.1342
▁blocks	-11.1343
▁drain	-11.1347
▁laying	-11.1348
▁employ	-11.1348
alli	-11.135
▁image	-11.135
▁handle	-11.1352
▁strengthen	-11.1358
-40	-11.136
▁gardens	-11.136
=8.6	-11.1364
=85.6	-11.1364
=87.4	-11.1364
=99.5	-11.1364
▁squash	-11.1364
▁Ensure	-11.1364
▁Malabar	-11.1364
▁relief	-11.1365
▁code	-11.1369
=17.9	-11.1371
mbi	-11.1374
▁Pant	-11.1376
▁inform	-11.1386
▁meal	-11.1389
▁17.0	-11.1389
625	-11.139
▁trial	-11.1392
37.0	-11.1393
=60.6	-11.1395
▁Jabalpur	-11.1395
▁acacia	-11.1395
▁marigold	-11.1395
▁priority	-11.1397
▁deliver	-11.1406
▁weak	-11.1409
▁inlet	-11.1411
▁shallow	-11.1414
▁era	-11.1419
▁aims	-11.1424
=5.3	-11.1427
=66.6	-11.1427
=72.7	-11.1427
=95.1	-11.1427
▁Brinjal	-11.1427
▁Global	-11.1427
▁evidence	-11.1427
▁fortnight	-11.1427
▁microorganisms	-11.1427
▁surplus	-11.1427
=68.0	-11.1427
▁vessels	-11.1435
▁paint	-11.1437
allowing	-11.1438
▁methyl	-11.144
cr	-11.144
▁grasses	-11.1442
oba	-11.1451
-13	-11.1452
▁tap	-11.1455
most	-11.1457
=68.2	-11.1459
=88.1	-11.1459
▁borux	-11.1459
▁easier	-11.1459
▁variable	-11.1459
▁discloser	-11.1459
▁aadhar	-11.1459
▁prefer	-11.146
▁masonry	-11.146
▁Ja	-11.1463
▁8-10	-11.1466
▁Systems	-11.1475
▁pits	-11.1481
@1	-11.1487
▁distinct	-11.149
=62.6	-11.1491
=98.2	-11.1491
▁kamrup	-11.1491
▁Though	-11.1491
▁Urea	-11.1492
▁pr	-11.1494
▁Long	-11.1494
▁strip	-11.1497
itation	-11.1498
.31	-11.1502
ray	-11.1503
▁hr	-11.1503
52.0	-11.1509
0.3	-11.1515
▁109	-11.1515
▁450	-11.1521
0.8	-11.1521
=60.9	-11.1522
=66.2	-11.1522
▁Lucknow	-11.1522
▁Maturity	-11.1522
▁enrocin	-11.1522
▁got	-11.1523
▁slightly	-11.1526
▁proteins	-11.1531
▁14.0	-11.1534
▁ostovet	-11.1539
▁constituent	-11.1541
▁bor	-11.1551
root	-11.1551
▁CROP	-11.1552
eeaa	-11.1552
▁works	-11.1552
=67.9	-11.1555
=86.9	-11.1555
=98.9	-11.1555
▁Fodder	-11.1555
▁comparison	-11.1555
▁procurement	-11.1555
▁scarcity	-11.1555
▁shrimp	-11.1555
=99.0	-11.1555
=75.0	-11.1555
vii	-11.1559
▁operated	-11.1561
back	-11.1562
22.0	-11.1564
▁Popularization	-11.1567
74.0	-11.1568
▁devices	-11.157
ract	-11.1579
▁dense	-11.1581
62.0	-11.1581
mil	-11.1585
=65.1	-11.1587
=69.9	-11.1587
=74.7	-11.1587
=98.3	-11.1587
▁maggot	-11.1587
▁repair	-11.1587
▁(2000)	-11.1587
var	-11.159
unny	-11.1591
▁Spraying	-11.1592
MV	-11.1594
▁advance	-11.1598
jj	-11.1601
run	-11.1601
▁fu	-11.1602
▁continued	-11.1605
▁perform	-11.1612
▁transplant	-11.1618
=78.4	-11.1619
▁comprising	-11.1619
▁ddaattaa	-11.1619
▁frequency	-11.1619
▁Release	-11.1619
▁Vision	-11.1619
▁DNA	-11.1619
▁Agroforestry	-11.1619
▁fermentation	-11.162
rn	-11.162
wer	-11.162
fen	-11.1622
4.7	-11.1623
▁Recommendations	-11.1623
▁suffer	-11.1624
DS	-11.1627
Orissa	-11.1634
fym	-11.1634
▁3-5	-11.1636
▁immediate	-11.1644
▁loose	-11.1647
=62.4	-11.1651
=63.6	-11.1651
=67.8	-11.1651
▁beneficiary	-11.1651
▁enemies	-11.1651
=69.0	-11.1652
▁mandate	-11.1653
85.0	-11.1656
▁habit	-11.1663
▁forests	-11.1664
▁cal	-11.1665
▁maan	-11.1666
▁dig	-11.1667
▁band	-11.1672
itis	-11.1674
69.0	-11.1677
▁exhibit	-11.1679
ject	-11.1682
ctive	-11.1682
=66.5	-11.1684
=69.8	-11.1684
▁Digital	-11.1684
▁PFMS	-11.1684
▁submitted	-11.1685
▁cristocycline	-11.1686
-110	-11.1688
71.0	-11.1691
▁suited	-11.1692
▁ease	-11.1693
char	-11.1695
28.	-11.1697
chlor	-11.1697
▁para	-11.1698
7.3	-11.1698
▁employed	-11.1698
iivvee	-11.1701
▁ho	-11.171
09.0	-11.1714
▁empower	-11.1715
dr	-11.1716
=71.4	-11.1716
▁contamination	-11.1716
▁widespread	-11.1716
▁ble	-11.1719
how	-11.1725
hir	-11.1728
▁112	-11.1732
▁decreased	-11.1733
pr	-11.1734
▁cultivar	-11.1739
▁drops	-11.1742
▁Da	-11.1742
=85.4	-11.1749
▁integrity	-11.1749
▁monocrotophos	-11.1749
=89.0	-11.1749
▁placenta	-11.1749
▁exotic	-11.175
31.0	-11.175
ious	-11.1753
▁Multi	-11.1754
2.1	-11.1755
▁protective	-11.1759
▁harm	-11.176
▁experimental	-11.1767
666666666666666	-11.1768
shaped	-11.1775
ui	-11.1776
ami	-11.1777
=94.3	-11.1782
▁sanitation	-11.1782
▁fiber	-11.1782
▁classification	-11.1782
IV	-11.1783
▁phone	-11.1783
▁decomposed	-11.1784
BS	-11.1786
▁Market	-11.1787
▁Ti	-11.1793
68.0	-11.1795
abad	-11.1798
▁President	-11.1798
dry	-11.1806
▁fe	-11.181
28.0	-11.1811
▁plots	-11.1814
=60.4	-11.1815
=67.6	-11.1815
=68.3	-11.1815
=69.7	-11.1815
=73.7	-11.1815
▁criteria	-11.1815
▁implications	-11.1815
▁Incubation	-11.1815
63.0	-11.1815
64.0	-11.1819
▁sann	-11.1824
▁sensitive	-11.1829
CR	-11.1829
ale	-11.1833
▁described	-11.1835
SF	-11.1838
unt	-11.1847
=61.8	-11.1848
=68.5	-11.1848
=73.2	-11.1848
=87.6	-11.1848
▁laboratory	-11.1848
▁marine	-11.1849
▁conduct	-11.1856
-72	-11.1861
59.0	-11.1864
ES	-11.1865
▁departments	-11.1868
▁SK	-11.1877
=88.8	-11.1881
=89.8	-11.1881
▁Vidyapeeth	-11.1881
▁Finance	-11.1881
enn	-11.1884
▁tract	-11.1884
ency	-11.1886
▁environments	-11.1886
coc	-11.1887
78.0	-11.1887
▁enter	-11.1891
tory	-11.1891
tl	-11.1892
eng	-11.1893
▁emissions	-11.1894
▁board	-11.1894
▁formulations	-11.1896
▁His	-11.1897
▁termites	-11.1897
RC	-11.1898
350	-11.1901
▁acts	-11.1905
▁drug	-11.1905
3.1	-11.1906
cil	-11.1912
isation	-11.1913
=98.8	-11.1914
=99.3	-11.1914
▁ffrroomm	-11.1914
▁sulphur	-11.1914
▁impart	-11.1914
▁Of	-11.1924
kula	-11.1927
▁performed	-11.1929
▁FPOs	-11.1931
▁delay	-11.1934
=66.3	-11.1947
=67.4	-11.1947
=86.8	-11.1947
=87.5	-11.1947
▁flavour	-11.1947
▁boiled	-11.1947
▁batch	-11.195
▁crores	-11.1957
onia	-11.1961
▁plans	-11.1967
▁pair	-11.1971
▁151	-11.1975
21.0	-11.1976
=61.4	-11.1981
=69.1	-11.1981
=74.9	-11.1981
▁portable	-11.1981
▁sometimes	-11.1981
▁Effective	-11.1982
▁vision	-11.1983
bre	-11.1985
▁constituted	-11.199
▁sciences	-11.1991
ND	-11.1992
▁majority	-11.1993
▁determined	-11.1995
III	-11.2001
▁bananas	-11.2005
▁purchase	-11.2006
▁ve	-11.2011
=85.5	-11.2014
=88.9	-11.2014
▁polythene	-11.2014
▁surrounding	-11.2014
▁vertical	-11.2014
▁preferably	-11.2015
▁agrimin	-11.2017
▁Feed	-11.2017
82.0	-11.202
▁grafting	-11.2031
▁habitat	-11.2032
▁Start	-11.2039
▁Remove	-11.204
▁IInn	-11.2041
▁consumer	-11.2042
-16	-11.2042
bean	-11.2043
hur	-11.2045
=60.7	-11.2048
=66.9	-11.2048
=69.2	-11.2048
=73.6	-11.2048
▁alcohol	-11.2048
▁reaction	-11.2048
=71.0	-11.2048
▁transformation	-11.2049
.61	-11.2051
▁dithane	-11.2052
▁plantomycin	-11.2054
▁economically	-11.2058
cation	-11.206
▁1200	-11.2061
▁encouraged	-11.2062
Co	-11.2064
9.9	-11.2071
24.0	-11.2073
▁ecosystems	-11.2074
▁meetings	-11.208
72.0	-11.208
=71.6	-11.2082
=74.3	-11.2082
=86.1	-11.2082
=96.7	-11.2082
=98.4	-11.2082
=99.2	-11.2082
=99.6	-11.2082
▁cardamom	-11.2082
▁Milk	-11.2082
▁discharge	-11.2082
▁Gujarati	-11.2082
=62.0	-11.2082
hel	-11.2082
▁Deep	-11.2084
AM	-11.2088
▁Cover	-11.2088
▁receiver	-11.209
thrin	-11.2091
▁EE	-11.2092
ket	-11.2095
▁pprroo	-11.2097
zz	-11.2099
nutrient	-11.2105
190	-11.211
▁seeded	-11.2111
▁offering	-11.2111
▁Solan	-11.2114
=63.9	-11.2116
=69.5	-11.2116
=70.4	-11.2116
=71.2	-11.2116
=71.5	-11.2116
=95.7	-11.2116
=99.1	-11.2116
became	-11.2116
eu	-11.2122
▁200.0	-11.2128
▁disc	-11.2137
▁parasites	-11.2139
▁le	-11.2139
Agricultural	-11.2139
▁Advance	-11.2141
dis	-11.2145
▁relation	-11.215
=61.9	-11.215
=87.1	-11.215
=88.5	-11.215
=91.8	-11.215
=99.9	-11.215
▁fertilizing	-11.215
▁Venue	-11.215
=73.0	-11.215
▁Mah	-11.2151
▁list	-11.2151
▁210	-11.2153
▁recognized	-11.2156
▁cont	-11.2158
▁buds	-11.2159
▁sl	-11.2161
▁naturally	-11.2167
▁adapted	-11.2172
▁inspection	-11.2178
▁revolution	-11.2179
=73.8	-11.2184
=88.3	-11.2184
▁deficiencies	-11.2184
▁Productivity	-11.2184
wari	-11.2191
wan	-11.2193
▁combined	-11.2197
AG	-11.2203
▁via	-11.2203
Jharkhand	-11.2209
also	-11.2209
▁extracted	-11.2209
ender	-11.2215
its	-11.2216
▁Building	-11.2218
uff	-11.2218
je	-11.222
▁Departments	-11.2221
▁Apple	-11.2223
▁bw	-11.2226
▁113	-11.2227
▁pin	-11.2228
▁cracking	-11.2229
▁Malayalam	-11.223
▁frequently	-11.2232
▁posts	-11.2235
ump	-11.2235
tum	-11.2236
icar	-11.2237
lies	-11.2238
oro	-11.2245
89.0	-11.2247
▁holder	-11.2249
=65.3	-11.2253
=65.7	-11.2253
=67.1	-11.2253
=73.5	-11.2253
=96.3	-11.2253
=97.4	-11.2253
▁sharing	-11.2253
▁visual	-11.2253
▁discussed	-11.2253
▁2017-18	-11.2256
▁grapes	-11.2257
▁eki	-11.2262
▁path	-11.2265
▁170	-11.2268
▁240	-11.2276
▁foundation	-11.2283
=71.7	-11.2287
▁Summer	-11.2287
▁ssooili	-11.2287
▁bulb	-11.2291
▁splits	-11.2293
dia	-11.2293
▁Centres	-11.2294
uur	-11.2295
▁toxic	-11.2295
▁practic	-11.2296
mix	-11.2313
arma	-11.2316
wood	-11.2317
▁kid	-11.2317
rop	-11.2321
=72.8	-11.2322
▁cooking	-11.2322
▁emerged	-11.2327
▁layers	-11.2328
▁VCs	-11.2328
875	-11.2329
andi	-11.2333
▁decisions	-11.2333
79.0	-11.2334
▁111	-11.2337
95.0	-11.234
▁Kisan	-11.2342
akh	-11.2345
▁2.3	-11.2348
11.0	-11.2351
rol	-11.2356
▁stands	-11.2356
=64.2	-11.2356
=67.2	-11.2356
=95.6	-11.2356
▁Reddy	-11.2357
▁275	-11.2362
▁1.00	-11.2365
84.0	-11.2373
▁20.00	-11.2378
▁Current	-11.2384
▁shift	-11.2384
=90.2	-11.2391
=90.3	-11.2391
▁Complex	-11.2391
▁accumulation	-11.2391
▁instead	-11.2391
▁bloom	-11.2392
26.0	-11.2392
▁husk	-11.2393
hri	-11.24
▁imp	-11.2405
ration	-11.2406
▁sites	-11.2412
llll	-11.2414
▁tillers	-11.2417
▁careful	-11.242
irrigation	-11.242
08.0	-11.242
related	-11.2422
rad	-11.2424
rude	-11.2426
=5.2	-11.2426
=68.4	-11.2426
=68.9	-11.2426
=86.3	-11.2426
▁Chickpea	-11.2426
▁Himalayas	-11.2426
▁category	-11.2426
▁exceed	-11.2426
=96.0	-11.2426
▁2023-24	-11.2427
▁capture	-11.2427
▁Implementation	-11.2431
SP	-11.2431
▁procedures	-11.2433
ssuu	-11.2434
▁signed	-11.2435
▁recently	-11.2445
▁viruses	-11.2446
way	-11.2447
14.0	-11.2454
nation	-11.2457
=63.8	-11.2461
=65.5	-11.2461
=65.6	-11.2461
▁Irrigated	-11.2461
▁academic	-11.2461
▁TNAU	-11.2461
▁member	-11.2461
▁Level	-11.2462
=98.0	-11.2462
▁mint	-11.2463
▁authors	-11.2463
▁freshwater	-11.2464
▁Both	-11.2466
▁helpful	-11.2468
-17	-11.2478
dde	-11.2478
▁tip	-11.2478
▁Kar	-11.2479
▁sold	-11.2482
▁pole	-11.2482
▁Standard	-11.2488
▁here	-11.249
93.0	-11.2492
riate	-11.2493
=67.5	-11.2496
=68.7	-11.2496
=73.9	-11.2496
=85.7	-11.2496
=90.7	-11.2496
=96.4	-11.2496
=97.9	-11.2496
2.4	-11.2497
▁money	-11.2497
▁Cooperation	-11.2497
▁becoming	-11.2497
▁cultivating	-11.2497
=72.0	-11.2497
=66.0	-11.2497
▁INM	-11.25
▁Sun	-11.2501
▁litter	-11.2506
▁seal	-11.251
carb	-11.251
▁Nutritional	-11.2512
91.0	-11.2518
560	-11.2521
650	-11.2524
▁previous	-11.2524
=64.9	-11.2532
=86.2	-11.2532
=89.1	-11.2532
=92.0	-11.2532
▁absorption	-11.2532
▁border	-11.2532
800	-11.2532
▁Three	-11.2532
▁Amrit	-11.2532
HRD	-11.2534
▁LL	-11.2534
▁Lack	-11.2539
6.9	-11.2544
▁buy	-11.2544
ott	-11.2548
bra	-11.2553
ount	-11.2556
▁Cl	-11.2561
▁VL	-11.2563
pon	-11.2565
intensive	-11.2565
=66.1	-11.2567
=86.5	-11.2567
=89.6	-11.2567
=97.1	-11.2567
▁Microbial	-11.2567
▁Skill	-11.2567
▁harmful	-11.2568
▁semen	-11.2568
▁align	-11.2568
▁tons	-11.2575
81.0	-11.2576
sR	-11.2576
▁soluble	-11.2579
anja	-11.258
▁beetles	-11.2581
oa	-11.2587
▁met	-11.259
▁Rat	-11.259
96.0	-11.2592
▁@10	-11.2593
▁Hill	-11.2596
▁23.0	-11.2602
=61.6	-11.2603
=98.1	-11.2603
▁gandhi	-11.2603
▁recomended	-11.2603
▁decoction	-11.2603
=61.0	-11.2603
94.0	-11.2604
ida	-11.2605
ccee	-11.2608
▁nga	-11.2611
inin	-11.2611
▁25.0	-11.2612
gam	-11.2613
▁core	-11.263
@1.5	-11.2634
▁114	-11.2635
Introduction	-11.2635
=64.6	-11.2639
=85.2	-11.2639
▁sandalwood	-11.2639
oni	-11.2639
53.0	-11.2643
▁regulator	-11.2648
550	-11.2649
▁Products	-11.2651
▁5.00	-11.2652
phal	-11.2653
ition	-11.2655
▁incorporated	-11.2656
▁nematodes	-11.266
fold	-11.2661
06.0	-11.2669
round	-11.2674
=63.3	-11.2674
=86.7	-11.2674
=87.8	-11.2674
=95.2	-11.2674
=97.2	-11.2674
▁Strengthening	-11.2674
▁uniformity	-11.2678
86.0	-11.2686
83.0	-11.2692
▁dev	-11.2694
tera	-11.2694
▁linked	-11.2696
▁latest	-11.2697
▁Gram	-11.2698
▁involve	-11.2699
=5.1	-11.271
=69.6	-11.271
=96.1	-11.271
▁nutritious	-11.271
lixen	-11.271
▁foreign	-11.2711
▁desirable	-11.2711
▁Patel	-11.2712
SH	-11.2717
unda	-11.2721
khol	-11.2722
▁Masters	-11.2726
▁chlor	-11.2729
iness	-11.2733
atus	-11.2734
▁yet	-11.2737
▁hydro	-11.2738
76.0	-11.2746
=60.2	-11.2746
=65.4	-11.2746
=67.0	-11.2746
=72.6	-11.2746
=86.6	-11.2746
=89.9	-11.2746
=90.9	-11.2746
=95.9	-11.2746
=96.9	-11.2746
▁Financial	-11.2746
▁molasses	-11.2746
▁Protection	-11.2747
▁gundhi	-11.2747
ei	-11.2754
▁Monitor	-11.2755
▁outer	-11.2755
tia	-11.2755
▁drill	-11.2757
oh	-11.2761
AA	-11.2762
29.0	-11.2764
spite	-11.2765
▁press	-11.2766
04.0	-11.2767
gn	-11.2769
▁HH	-11.277
▁sustain	-11.2775
▁18.0	-11.2777
▁derived	-11.2782
▁piece	-11.2782
=65.9	-11.2783
=66.7	-11.2783
=67.7	-11.2783
=70.8	-11.2783
=71.3	-11.2783
=72.3	-11.2783
=74.5	-11.2783
=89.7	-11.2783
=90.1	-11.2783
=99.8	-11.2783
▁augment	-11.2783
▁Biotechnology	-11.2783
oriented	-11.2784
▁collar	-11.2786
▁sell	-11.2788
23.0	-11.2791
▁Manager	-11.2793
rant	-11.2801
▁(25	-11.2802
sagar	-11.2807
rv	-11.2808
▁assessed	-11.2808
asa	-11.2812
=64.8	-11.2819
=68.8	-11.2819
=70.3	-11.2819
=85.1	-11.2819
=97.3	-11.2819
▁depletion	-11.2819
▁square	-11.2819
▁stream	-11.2819
▁Assessment	-11.2819
tightness	-11.282
▁kk	-11.2823
ero	-11.2825
situ	-11.2825
quin	-11.2828
▁yr	-11.2843
▁wanted	-11.2845
▁kar	-11.285
@2.5	-11.2855
bio	-11.2855
▁Success	-11.2855
Jammu	-11.2855
=71.1	-11.2856
=91.4	-11.2856
=93.6	-11.2856
▁Dissolve	-11.2856
▁Protein	-11.2856
▁geographical	-11.2856
▁june	-11.2856
▁bunds	-11.2856
▁framework	-11.2856
▁contract	-11.2856
▁antibiotic	-11.2856
▁participatory	-11.2856
▁attractive	-11.2858
▁signal	-11.286
aanndd	-11.2865
shh	-11.2866
▁prepar	-11.2869
▁incubat	-11.287
▁aquatic	-11.2877
▁rep	-11.2881
-150	-11.2881
PA	-11.2886
▁Office	-11.2888
=74.6	-11.2892
=88.2	-11.2892
=93.8	-11.2892
=96.2	-11.2892
▁Eucalyptus	-11.2892
▁certified	-11.2892
▁diarrhea	-11.2892
▁logging	-11.2892
▁Work	-11.2892
▁Benefits	-11.2893
40.00	-11.2894
▁soon	-11.2896
▁cu	-11.2897
98.0	-11.2898
bol	-11.2906
mor	-11.2907
▁continuously	-11.2911
value	-11.2912
▁upland	-11.2914
▁RR	-11.2914
▁Improv	-11.2915
▁230	-11.2916
▁104	-11.2916
88.0	-11.2916
LA	-11.2918
▁5-10	-11.2922
▁kilograms	-11.2925
over	-11.2926
▁Direct	-11.2926
▁tonne	-11.2928
=73.4	-11.2929
▁grazing	-11.2929
▁genomic	-11.2929
▁Revolution	-11.2929
=91.0	-11.2929
▁terminal	-11.2929
▁goal	-11.2931
fish	-11.2931
▁tannin	-11.2932
▁shell	-11.2933
▁413	-11.2935
anna	-11.294
▁washing	-11.294
▁121	-11.2942
▁syn	-11.2943
AP	-11.2951
por	-11.2952
▁Hand	-11.2953
tru	-11.2958
graphic	-11.2959
▁Dean	-11.2964
=61.7	-11.2966
=62.3	-11.2966
=72.9	-11.2966
=91.3	-11.2966
=97.6	-11.2966
▁Period	-11.2966
▁infestations	-11.2968
aal	-11.2969
▁2008	-11.2971
▁producers	-11.2974
kin	-11.2975
RM	-11.2976
2021	-11.2976
▁user	-11.2982
ono	-11.2985
wat	-11.2985
product	-11.2985
-23	-11.2989
=16.4	-11.2992
▁explained	-11.2993
nor	-11.3001
=64.5	-11.3003
=64.7	-11.3003
=66.4	-11.3003
=72.4	-11.3003
=87.7	-11.3003
=88.6	-11.3003
=97.7	-11.3003
=97.8	-11.3003
▁Dalbergia	-11.3003
▁appliances	-11.3003
▁venture	-11.3003
CIFA	-11.3003
▁bulk	-11.3003
=8.5	-11.3003
▁19.0	-11.3004
duction	-11.3004
▁Adoption	-11.3004
▁learn	-11.3013
375	-11.3018
nov	-11.302
▁origin	-11.3024
hil	-11.3028
ved	-11.3033
▁Dh	-11.3037
▁(6	-11.3038
=61.2	-11.304
=74.4	-11.304
=87.2	-11.304
=92.7	-11.304
▁residual	-11.304
▁andaman	-11.3042
pest	-11.3042
▁maximize	-11.3044
▁yellowish	-11.3044
hul	-11.3046
ifi	-11.3046
▁room	-11.3057
▁Pig	-11.3063
.41	-11.3064
oi	-11.3065
▁eat	-11.3069
▁103	-11.307
▁plough	-11.3073
=95.5	-11.3077
was	-11.3078
▁Mobile	-11.3078
▁polyhouse	-11.3078
▁Pulses	-11.3078
ez	-11.3078
▁rootstock	-11.3079
half	-11.3081
▁proved	-11.3082
pul	-11.3085
9.3	-11.3087
▁friendly	-11.3088
▁24.0	-11.3089
udi	-11.3089
▁oorr	-11.3091
rab	-11.3099
gene	-11.3105
▁5.4	-11.3105
▁clogging	-11.3115
▁storing	-11.3115
▁brood	-11.3115
▁compound	-11.3118
▁setup	-11.312
PD	-11.3121
net	-11.3121
▁16.0	-11.3122
▁engaged	-11.3123
▁IT	-11.3123
▁leg	-11.3127
▁1,000	-11.3133
▁force	-11.3134
eru	-11.3147
222	-11.3149
=86.4	-11.3152
=96.6	-11.3152
▁magnesium	-11.3152
▁manuring	-11.3152
IIMR	-11.3153
▁indicating	-11.3153
▁module	-11.3156
Uttar	-11.3157
▁spary	-11.3157
pin	-11.3168
▁09	-11.3171
flox	-11.3176
BG	-11.3182
ade	-11.3186
uducherry	-11.319
▁longevity	-11.319
▁ssyysstteemm	-11.319
▁supplied	-11.319
▁mapping	-11.319
=63.0	-11.3191
▁wall	-11.3191
▁Gu	-11.3195
▁sodium	-11.3196
amine	-11.3197
Re	-11.3198
▁ration	-11.3201
▁Coordinator	-11.3205
▁count	-11.3206
▁earth	-11.321
▁advisory	-11.3214
ake	-11.3215
▁135	-11.3216
hr	-11.3218
▁starting	-11.3218
hhaa	-11.3219
▁starts	-11.3219
▁Environment	-11.322
-27	-11.3226
=68.1	-11.3228
=70.9	-11.3228
=85.3	-11.3228
▁Parameter	-11.3228
▁betelvine	-11.3228
▁requiring	-11.3228
▁rodent	-11.3228
▁timing	-11.3228
▁therapy	-11.3228
=97.0	-11.3228
=86.0	-11.3228
rum	-11.3235
GG	-11.3236
ksh	-11.324
▁map	-11.3243
▁faced	-11.3245
▁107	-11.3251
ans	-11.3257
-120	-11.3265
▁climates	-11.3266
=62.1	-11.3266
=70.5	-11.3266
=74.1	-11.3266
=87.3	-11.3266
=95.3	-11.3266
▁atmospheric	-11.3266
▁beyond	-11.3266
▁wastage	-11.3266
78.	-11.3268
▁noticed	-11.3271
eli	-11.3279
odi	-11.3288
kumar	-11.3296
8.9	-11.3296
lay	-11.3298
vit	-11.33
▁UG	-11.3302
=62.8	-11.3304
=63.2	-11.3304
=69.4	-11.3304
▁Pseudomonas	-11.3304
▁gross	-11.3304
▁bees	-11.3314
▁mat	-11.3315
bed	-11.3319
▁section	-11.3321
istic	-11.3322
▁images	-11.3323
▁seek	-11.3324
titude	-11.3325
▁fertilize	-11.3329
▁smaller	-11.3333
▁selling	-11.3334
▁102	-11.3335
tir	-11.334
▁shared	-11.3341
▁intensification	-11.3343
▁topicure	-11.3343
▁housing	-11.3343
▁Cattle	-11.3343
▁intercrop	-11.3343
▁film	-11.3343
▁cucurbits	-11.3343
▁MoU	-11.3346
6.1	-11.3347
▁effort	-11.3348
▁banks	-11.3354
dan	-11.3356
crop	-11.3362
eti	-11.3365
=63.4	-11.3381
=63.5	-11.3381
=96.5	-11.3381
=98.6	-11.3381
▁Although	-11.3381
▁century	-11.3381
▁earthen	-11.3383
▁chance	-11.3385
▁Millet	-11.3388
▁Br	-11.3394
▁2.7	-11.3396
▁depend	-11.3396
7.7	-11.3397
▁scar	-11.3397
9.7	-11.3399
▁intake	-11.3402
▁GI	-11.3406
▁shortage	-11.3408
ref	-11.3412
=70.2	-11.342
=73.3	-11.342
=89.3	-11.342
▁seasonal	-11.3426
efficient	-11.3428
▁manually	-11.3437
▁division	-11.3442
▁import	-11.3443
▁Part	-11.3445
99.0	-11.3448
▁formed	-11.3451
MP	-11.3451
=64.1	-11.3458
▁Foliar	-11.3458
▁Mushroom	-11.3458
▁studied	-11.3458
▁Several	-11.3458
▁cashew	-11.3459
▁billion	-11.346
▁fetch	-11.3461
IM	-11.3462
▁wooden	-11.3463
▁eight	-11.3464
▁legumes	-11.3465
▁supplementation	-11.347
2,000	-11.3472
▁20-30	-11.3472
generating	-11.3474
PG	-11.3476
MH	-11.348
▁Bur	-11.3481
▁strains	-11.3485
/4.5	-11.3485
tak	-11.3486
TI	-11.3487
▁6.5	-11.3487
▁utilize	-11.3489
=15.9	-11.3493
▁grey	-11.3497
=61.5	-11.3497
=62.5	-11.3497
=72.2	-11.3497
▁1-1.75	-11.3497
▁Fishery	-11.3498
▁ointment	-11.3498
▁curing	-11.3499
▁splitting	-11.3499
lex	-11.3503
▁sample	-11.3504
▁hands	-11.3504
shed	-11.3505
hang	-11.3506
irsa	-11.3507
▁2303	-11.3512
eastern	-11.3515
▁mL	-11.3516
ail	-11.3519
cyc	-11.3521
eo	-11.353
▁Jam	-11.3533
▁Document	-11.3534
▁Select	-11.3534
▁peel	-11.3539
▁Bhu	-11.354
▁suggestions	-11.3543
▁cement	-11.3543
US	-11.3548
holding	-11.3548
▁Bharat	-11.3557
ED	-11.3562
▁enrich	-11.3562
food	-11.3565
▁DKMA	-11.3566
16.0	-11.3569
▁pumps	-11.3571
▁differ	-11.3573
▁seeding	-11.3574
=60.8	-11.3576
=62.2	-11.3576
=63.7	-11.3576
=69.3	-11.3576
▁dysentery	-11.3576
▁modified	-11.3576
▁Cuttack	-11.3576
▁prominent	-11.3576
▁soap	-11.3582
▁Nov	-11.3583
▁markers	-11.3586
▁personal	-11.3586
-2.5	-11.3594
▁mt	-11.3602
arabia	-11.3605
tityy	-11.3612
=63.1	-11.3615
=65.8	-11.3615
=70.1	-11.3615
=71.9	-11.3615
=93.3	-11.3615
▁Krishna	-11.3615
▁Nitrogen	-11.3615
▁Turmeric	-11.3615
▁thousand	-11.3615
▁vulnerable	-11.3615
▁mild	-11.3615
▁hiring	-11.3616
thion	-11.362
bri	-11.3622
700.0	-11.3623
▁focused	-11.3625
▁obu	-11.3632
▁integrat	-11.3633
19.0	-11.3635
▁119	-11.3636
eemm	-11.3641
15.0	-11.3649
=65.2	-11.3654
=74.8	-11.3654
=85.8	-11.3654
=91.1	-11.3654
=94.5	-11.3654
▁Coconut	-11.3654
▁Energy	-11.3654
▁Preparation	-11.3654
▁Security	-11.3654
▁microbes	-11.3654
▁tata	-11.3655
▁preservation	-11.3655
=74.0	-11.3655
▁Commercial	-11.3657
soaked	-11.3666
ION	-11.3667
athi	-11.367
▁mother	-11.3674
▁restrict	-11.368
▁parent	-11.3681
▁pull	-11.3687
@50	-11.3691
▁defined	-11.3691
▁Marginal	-11.3694
▁contrast	-11.3694
▁lettuce	-11.3694
▁narrow	-11.3694
omu	-11.3696
▁fair	-11.3698
▁notified	-11.3703
aatt	-11.3704
▁forecast	-11.3706
▁separately	-11.3707
▁rapidly	-11.3709
▁Here	-11.3709
▁hold	-11.3712
▁reports	-11.3722
tam	-11.3725
LC	-11.3732
=72.1	-11.3734
=72.5	-11.3734
=88.4	-11.3734
=91.6	-11.3734
=95.8	-11.3734
▁Revenue	-11.3734
▁divided	-11.3734
▁glass	-11.3734
▁remunerative	-11.3734
▁Storage	-11.3735
▁elevation	-11.3736
▁leafy	-11.3737
col	-11.3737
▁transplantation	-11.3737
850	-11.374
nth	-11.3755
▁pickle	-11.3756
▁MT	-11.3757
▁outcomes	-11.3768
ier	-11.3774
=92.5	-11.3774
▁Mumbai	-11.3774
▁astringent	-11.3774
▁respiratory	-11.3774
▁amister	-11.3774
▁southern	-11.3775
800.0	-11.3775
▁expression	-11.3775
▁checks	-11.3775
▁globally	-11.3776
761	-11.3776
▁UAS	-11.3776
▁Documentation	-11.3777
nnoo	-11.378
▁prediction	-11.3781
▁Less	-11.3782
▁OO	-11.3783
▁discipline	-11.3785
▁adversely	-11.3786
▁ripening	-11.3786
IA	-11.3787
aff	-11.3788
▁Industrial	-11.379
▁award	-11.3791
ham	-11.3792
ulu	-11.3793
ET	-11.3797
▁assist	-11.3798
RG	-11.3801
pet	-11.381
biovita	-11.3814
uda	-11.3814
=95.4	-11.3814
▁association	-11.3814
▁coffee	-11.3814
▁mycelium	-11.3814
▁neblon	-11.3814
▁rubber	-11.3814
▁Review	-11.3814
▁couple	-11.3814
▁Pantnagar	-11.3815
▁electricity	-11.3815
▁drive	-11.3815
bel	-11.3817
ela	-11.3818
▁lost	-11.3818
pea	-11.3823
early	-11.3825
▁Dharwad	-11.3832
rain	-11.3839
▁vitro	-11.3841
▁Editor	-11.3854
=73.1	-11.3854
=90.5	-11.3854
▁011-2584	-11.3854
▁Jodhpur	-11.3854
▁hatchery	-11.3855
▁reliable	-11.3855
▁Economics	-11.3856
▁arrangement	-11.3858
108	-11.3859
▁IoT	-11.3861
▁118	-11.387
▁128	-11.3871
▁ban	-11.3874
97.0	-11.3874
18.0	-11.3875
▁Kanpur	-11.3891
ock	-11.3893
=67.3	-11.3895
=85.9	-11.3895
=89.4	-11.3895
=93.4	-11.3895
▁Independence	-11.3895
▁Symptoms	-11.3895
=88.0	-11.3895
▁houses	-11.3916
▁3.2	-11.3919
▁carps	-11.3919
▁severely	-11.3927
▁savings	-11.3929
▁Program	-11.393
▁loans	-11.3935
=93.2	-11.3936
▁Sanskrit	-11.3936
▁Swarna	-11.3936
▁conserving	-11.3936
▁routine	-11.3936
▁school	-11.3936
▁agency	-11.3936
▁agrimycin	-11.3936
▁tsf	-11.3937
995	-11.3941
fra	-11.3941
tter	-11.3944
▁embryo	-11.3944
▁antioxidant	-11.3949
▁ccaann	-11.3951
▁Drip	-11.3952
dur	-11.3961
▁consequences	-11.3962
▁5.2	-11.3968
8.5	-11.3968
micar	-11.3968
▁mah	-11.397
▁Malathion	-11.3976
▁attached	-11.3976
▁dalbergia	-11.3976
plication	-11.3977
▁knol	-11.3978
▁Saline	-11.398
Entrepreneurship	-11.3983
east	-11.3984
▁30-40	-11.3984
try	-11.3987
AE	-11.399
▁wp	-11.3991
▁send	-11.3997
pac	-11.3999
GS	-11.4001
anti	-11.4002
▁recover	-11.4012
▁attribut	-11.4014
=5.4	-11.4017
=60.3	-11.4017
=60.5	-11.4017
=89.2	-11.4017
▁Foundation	-11.4017
▁responsibility	-11.4017
▁straight	-11.4017
▁Biogas	-11.4017
▁Identification	-11.4017
▁mesta	-11.4018
▁worldwide	-11.4018
=94.0	-11.4018
=70.0	-11.4018
rib	-11.4019
▁participated	-11.4029
▁Tea	-11.4034
▁covers	-11.4035
77.0	-11.4035
para	-11.4036
▁sides	-11.4039
0.9	-11.4041
shan	-11.4041
toxin	-11.4042
▁Mob	-11.4049
dhar	-11.405
VII	-11.4052
viii	-11.4055
▁goals	-11.4058
ID	-11.4058
=91.9	-11.4059
=92.8	-11.4059
=94.4	-11.4059
=97.5	-11.4059
▁Mahotsav	-11.4059
▁diuretic	-11.4059
▁eucalyptus	-11.4059
▁Meeting	-11.4059
▁diversified	-11.4059
▁coordination	-11.4059
5.5	-11.406
▁viability	-11.406
▁pending	-11.4061
▁Poor	-11.4062
▁king	-11.4062
▁chili	-11.4064
▁Indo	-11.4064
hand	-11.4065
▁145	-11.4066
▁Ac	-11.4071
▁hatch	-11.4073
▁nationalise	-11.4075
BB	-11.4076
▁Sat	-11.4076
availability	-11.4078
▁extracts	-11.408
▁2.9	-11.4083
otic	-11.4085
oopp	-11.4086
▁Chancellor	-11.4087
▁Services	-11.4089
▁stone	-11.4093
▁situ	-11.4099
=62.9	-11.41
=66.8	-11.41
▁Australia	-11.41
▁beneficiaries	-11.41
▁Grade	-11.41
▁IISR	-11.4101
get	-11.4102
ML	-11.4102
▁breadth	-11.4102
▁itself	-11.4103
▁30-35	-11.4103
nce	-11.4105
▁consultation	-11.4107
pot	-11.4109
▁Role	-11.411
imi	-11.411
▁Advanced	-11.411
▁Cal	-11.4112
233	-11.4113
▁(50	-11.4119
▁beam	-11.4122
020	-11.4124
-78	-11.4132
▁Districts	-11.4136
900.0	-11.4137
▁5.3	-11.4138
▁acres	-11.4139
▁Human	-11.4141
▁Vitamin	-11.4141
=64.3	-11.4141
=88.7	-11.4141
=91.2	-11.4141
=94.6	-11.4141
=94.7	-11.4141
▁administrative	-11.4141
▁Castor	-11.4141
▁database	-11.4141
▁fusariu	-11.4141
▁quite	-11.4142
=95.0	-11.4142
▁findings	-11.4142
▁radio	-11.4142
▁07	-11.4143
genta	-11.4146
ential	-11.4147
▁Lakh	-11.4149
87.0	-11.415
come	-11.4153
mato	-11.4154
▁advisories	-11.4162
▁hair	-11.4169
▁uniformly	-11.417
ccuu	-11.4174
▁initially	-11.4178
fr	-11.4178
=94.1	-11.4183
▁Lecture	-11.4183
▁hygiene	-11.4183
▁pineapple	-11.4183
▁vegetation	-11.4183
▁systematic	-11.4183
▁Intervention	-11.4183
▁phyto	-11.4183
▁Series	-11.4184
▁insecticidal	-11.4184
▁underground	-11.4185
▁coloured	-11.4187
ense	-11.4188
▁Gene	-11.4189
▁hairy	-11.419
▁drugs	-11.4195
TA	-11.4196
▁commercially	-11.4198
lai	-11.4198
ren	-11.4199
▁Lal	-11.4212
▁Or	-11.4212
cular	-11.4214
▁Sr	-11.4215
romoting	-11.4223
▁compact	-11.4223
▁Introduc	-11.4224
=70.7	-11.4225
=96.8	-11.4225
▁Nursery	-11.4225
▁receipt	-11.4225
▁cooperation	-11.4225
▁disposal	-11.4227
1.9	-11.4228
▁Ganga	-11.423
▁List	-11.423
▁Need	-11.423
▁pool	-11.4233
atta	-11.424
ifolia	-11.4241
▁college	-11.4241
▁candidate	-11.4242
▁solid	-11.4242
▁9435	-11.4247
▁lab	-11.4251
▁users	-11.4253
idae	-11.4254
▁toria	-11.4257
▁typical	-11.4259
▁peak	-11.4264
▁came	-11.4266
▁visits	-11.4267
▁Alternaria	-11.4267
▁photosynthesis	-11.4267
eni	-11.4267
▁twigs	-11.4267
▁Distribution	-11.4267
▁farmyard	-11.4267
▁Azadi	-11.4271
▁today	-11.4272
140	-11.4277
4,000	-11.4278
▁cracks	-11.4278
▁0.50	-11.4281
100.0	-11.4285
-1)	-11.4285
▁epi	-11.4285
bl	-11.4287
▁tend	-11.4287
▁3.1	-11.4301
appa	-11.4305
pha	-11.4306
▁vaccines	-11.4306
▁Ri	-11.4308
=92.9	-11.4309
=94.9	-11.4309
inflammatory	-11.4309
▁receiving	-11.4309
▁gradually	-11.4311
hari	-11.4315
▁treating	-11.4318
▁ABI	-11.4324
claim	-11.4329
▁roller	-11.4334
▁Mau	-11.4345
=94.8	-11.4351
▁Drought	-11.4351
▁algae	-11.4351
▁chronic	-11.4351
▁inadequate	-11.4351
▁kranti	-11.4351
▁recycling	-11.4351
▁wheel	-11.4351
▁finance	-11.4351
▁chamber	-11.4352
▁oblong	-11.4352
▁Teak	-11.4354
▁CROPS	-11.4355
usa	-11.4355
nut	-11.4356
des	-11.4357
▁Home	-11.4358
mmoo	-11.436
vailable	-11.436
▁poisoning	-11.436
rel	-11.4363
jacket	-11.4366
▁Pra	-11.4376
eshwar	-11.4377
▁HP	-11.4384
▁Institutions	-11.4386
▁induce	-11.4389
▁1100	-11.439
122	-11.4392
▁favour	-11.4393
=90.4	-11.4394
=91.5	-11.4394
▁Ensuring	-11.4394
▁doubling	-11.4394
▁pollen	-11.4394
▁belonging	-11.4394
gauge	-11.4395
▁AICRPs	-11.4396
▁ranges	-11.4397
57.0	-11.4397
▁proven	-11.4398
300.0	-11.44
▁considering	-11.4402
▁Make	-11.4404
▁influences	-11.4408
▁observations	-11.4412
120	-11.4412
▁122	-11.4413
aattee	-11.4416
▁thought	-11.4417
KVK	-11.442
▁issued	-11.4421
och	-11.4423
▁characters	-11.4425
pped	-11.4427
002	-11.4427
985	-11.4436
=61.3	-11.4437
=71.8	-11.4437
=8.1	-11.4437
=92.3	-11.4437
▁Chennai	-11.4437
▁predominant	-11.4437
▁quantities	-11.4437
▁specified	-11.4437
▁revised	-11.4437
▁TTeecchhn	-11.4437
▁nozzle	-11.4437
▁ffaarrmmeersr	-11.4437
=64.0	-11.4437
▁141	-11.4441
▁drawn	-11.4441
till	-11.4446
▁intercultur	-11.4451
▁conc	-11.4453
uta	-11.4458
▁incubator	-11.446
▁barriers	-11.4468
vent	-11.4468
ago	-11.4471
ggee	-11.4478
=60.1	-11.448
▁Foxtail	-11.448
▁Subscription	-11.448
▁composite	-11.448
▁piggery	-11.448
▁(1998)	-11.448
▁decided	-11.448
ega	-11.4484
West	-11.4486
2016	-11.4488
tray	-11.449
217	-11.4493
▁sprout	-11.4495
nngg	-11.4497
▁wwaas	-11.4499
▁220	-11.4499
num	-11.45
▁oilseed	-11.4506
arch	-11.4507
hhaass	-11.4508
180	-11.4508
▁Practices	-11.4513
▁2002.	-11.4517
▁concerns	-11.452
▁draw	-11.452
uct	-11.452
▁124	-11.4521
028	-11.4522
=90.8	-11.4523
=93.1	-11.4523
=93.9	-11.4523
▁patches	-11.4523
▁radiation	-11.4523
▁revenue	-11.4523
rani	-11.4523
biofortified	-11.4527
▁Block	-11.4527
▁persist	-11.4529
▁breeder	-11.4533
▁...	-11.4536
▁wait	-11.4538
▁bear	-11.4543
▁colleges	-11.4549
hol	-11.4553
▁Note	-11.4555
▁compare	-11.4557
mber	-11.4564
=61.1	-11.4566
▁broccoli	-11.4566
▁elite	-11.4566
▁infuse	-11.4566
▁nationalized	-11.457
▁Section	-11.4573
▁aatt	-11.4576
▁ensured	-11.4578
▁220022	-11.4583
▁ber	-11.4585
▁117	-11.4586
sulf	-11.4587
under	-11.459
▁cater	-11.4593
▁earthing	-11.4598
▁particles	-11.4601
▁persons	-11.4601
▁pose	-11.4608
=92.6	-11.461
=94.2	-11.461
▁wwiitthh	-11.461
▁immune	-11.461
▁birth	-11.461
▁earthworm	-11.461
▁paid	-11.4618
▁Week	-11.462
▁exist	-11.462
8.7	-11.4625
▁forestry	-11.4641
=70.6	-11.4653
=89.5	-11.4653
▁Adequate	-11.4653
▁amendments	-11.4653
▁multiplication	-11.4654
▁Biological	-11.4654
▁mitigation	-11.4655
▁flu	-11.4656
▁attributes	-11.4657
▁mark	-11.4658
▁catch	-11.4659
▁30.00	-11.4659
▁Swa	-11.4659
▁annum	-11.466
60.00	-11.467
ras	-11.467
▁facilitated	-11.4675
▁fla	-11.4677
▁identifying	-11.4682
▁men	-11.4683
added	-11.4685
27.0	-11.4686
▁don	-11.4689
▁smallholder	-11.4692
▁Additional	-11.4692
▁def	-11.4693
▁127	-11.4694
▁pick	-11.4694
oxy	-11.4697
=92.1	-11.4697
lobia	-11.4697
llooww	-11.4697
▁folder	-11.4697
▁vis	-11.47
ige	-11.4701
▁722	-11.4703
rang	-11.4703
▁CGIAR	-11.4704
▁Generally	-11.4705
life	-11.4709
bit	-11.4711
▁06	-11.4712
▁138	-11.4717
nol	-11.4719
-0	-11.472
▁disorders	-11.4723
135	-11.4724
earing	-11.4725
aram	-11.4725
hopper	-11.4727
▁induced	-11.4732
agri	-11.4735
▁000	-11.4737
▁Bundelkhand	-11.4741
▁circular	-11.4741
▁immense	-11.4741
▁uprooting	-11.4741
▁description	-11.4741
▁Change	-11.4741
999	-11.4741
▁Growth	-11.4743
▁statement	-11.4747
▁platforms	-11.4748
▁133	-11.4749
lock	-11.4752
pine	-11.4756
posing	-11.4763
ben	-11.4764
▁Innovation	-11.4764
IPM	-11.4768
cultural	-11.4768
▁Even	-11.4771
lle	-11.4779
▁CR	-11.4781
▁modules	-11.4781
▁Performance	-11.4785
▁Grand	-11.4785
▁Planning	-11.4786
▁competent	-11.4786
idi	-11.4788
ME	-11.4789
▁correction	-11.4797
-1.5	-11.4801
▁dependent	-11.4806
posed	-11.4806
▁Five	-11.4809
▁leave	-11.481
▁ventilated	-11.4811
▁publications	-11.4814
▁pale	-11.4822
106	-11.4822
1.20	-11.4824
▁occasion	-11.4829
=92.4	-11.483
=93.5	-11.483
▁Important	-11.483
▁mohaphol	-11.483
▁august	-11.483
▁landscape	-11.483
▁malnutrition	-11.483
▁pursu	-11.483
▁km	-11.4835
▁0.01	-11.4847
▁liq	-11.4848
▁dk	-11.4851
▁economics	-11.4859
Pro	-11.4861
TM	-11.4861
cic	-11.4864
ltr	-11.4864
148	-11.4867
391	-11.487
apa	-11.487
▁AAggrriiccuul	-11.4874
▁applicable	-11.4874
▁Smart	-11.4874
▁RRee	-11.4875
▁corm	-11.4876
▁advantageous	-11.4876
▁Dryland	-11.4877
▁incorporat	-11.4879
▁Apart	-11.4881
KV	-11.4887
▁Wa	-11.4888
▁screen	-11.4892
▁format	-11.4892
▁FP	-11.4894
▁221	-11.4895
▁picking	-11.4903
▁Northeast	-11.4903
▁highlight	-11.4905
including	-11.4907
▁november	-11.4909
aat	-11.4919
=91.7	-11.4919
▁Solapur	-11.4919
▁corrosion	-11.4919
▁sseeeedd	-11.4919
▁progressive	-11.4922
▁containers	-11.4922
▁Diseases	-11.4925
▁vines	-11.4934
iningg	-11.4937
CO	-11.4938
▁invest	-11.4938
fed	-11.4939
Eco	-11.4941
189	-11.4943
▁read	-11.4945
▁variation	-11.4945
▁Master	-11.4947
▁hope	-11.4947
▁currently	-11.4947
105	-11.495
▁abundant	-11.4964
▁nicobar	-11.4964
▁DBW	-11.4964
▁piping	-11.4964
▁whitefly	-11.4965
▁Open	-11.4966
▁logo	-11.4967
Monthly	-11.497
▁designs	-11.4971
50,000	-11.4973
EE	-11.4973
carp	-11.4975
▁ambiplex	-11.4988
▁observation	-11.4992
▁appears	-11.4997
even	-11.5002
cet	-11.5008
▁lifespan	-11.501
enband	-11.501
▁Industry	-11.501
▁prioritiz	-11.501
▁liming	-11.501
▁series	-11.501
▁favourable	-11.5011
▁Super	-11.5013
116	-11.502
▁126	-11.502
▁soaking	-11.5028
▁lesser	-11.503
▁5.1	-11.5038
▁scum	-11.5052
▁40.0	-11.5052
▁Campus	-11.5055
▁ELISA	-11.5055
▁frost	-11.5055
▁hunger	-11.5055
▁relevance	-11.5055
400.0	-11.5056
▁empowerment	-11.5056
▁transferred	-11.5059
▁Maha	-11.5062
▁pra	-11.5065
▁corresponding	-11.5066
▁Mostly	-11.5068
mati	-11.5073
3.20	-11.5082
ogen	-11.5082
992	-11.5083
▁filter	-11.5087
▁6-7	-11.5088
west	-11.5089
▁see	-11.5094
▁update	-11.5094
▁Mix	-11.5096
tration	-11.5097
▁jam	-11.51
▁Family	-11.5101
▁intelligence	-11.5101
▁prevalent	-11.5101
UEST	-11.5101
▁Intercropping	-11.5101
▁figure	-11.5101
▁july	-11.5101
AESR	-11.5101
▁Content	-11.5105
▁rules	-11.5106
▁opening	-11.5107
▁train	-11.5115
▁saw	-11.5122
▁116	-11.5126
▁Journals	-11.5127
▁emission	-11.513
▁Others	-11.5131
PU	-11.5131
aannccee	-11.5131
▁mis	-11.5132
▁Audit	-11.5135
guided	-11.5137
icic	-11.5146
▁disadvantage	-11.5147
=92.2	-11.5147
▁Joint	-11.5147
▁Studies	-11.5147
▁sequestration	-11.5147
IIVR	-11.5147
CIFT	-11.5147
▁horizontal	-11.5147
▁combat	-11.5147
▁beginning	-11.5147
angi	-11.5148
▁tube	-11.5148
▁SNA	-11.5148
meter	-11.515
▁weekly	-11.5152
▁carefully	-11.5156
,800	-11.5161
▁Mon	-11.5162
▁areca	-11.5163
ukh	-11.5164
▁expenses	-11.5165
▁rhizomes	-11.5165
▁08	-11.5167
▁install	-11.5174
▁startups	-11.5178
▁insemination	-11.5178
TEC	-11.5179
len	-11.5181
treatment	-11.5184
iidd	-11.5185
ecological	-11.5186
950	-11.519
▁132	-11.5191
▁dia	-11.5192
▁Evaluation	-11.5193
▁Issue	-11.5193
▁Yojana	-11.5193
▁depression	-11.5193
▁Southern	-11.5193
▁scab	-11.5197
179	-11.5197
▁Producer	-11.5198
▁margin	-11.5199
200.0	-11.5201
ARI	-11.5204
▁chains	-11.5206
ittle	-11.5207
▁300.0	-11.5211
▁rope	-11.5211
▁0.08	-11.5211
▁islands	-11.5212
969	-11.5218
▁Give	-11.5219
▁characteristic	-11.5222
favorable	-11.5231
CGIAR	-11.5231
103	-11.5233
▁protocols	-11.5234
▁ds	-11.5234
asu	-11.5237
▁Province	-11.5239
▁drudgery	-11.5239
▁flexibility	-11.5239
▁nominated	-11.5239
▁circulation	-11.5239
▁facing	-11.5239
▁manpower	-11.5239
▁golden	-11.5244
▁licensed	-11.5244
▁bold	-11.5244
2-3	-11.5249
rem	-11.5249
▁21.0	-11.5256
▁22.0	-11.5257
*	-11.526
▁Sang	-11.526
▁feature	-11.5269
▁PB	-11.527
▁ovate	-11.5271
▁organ	-11.5273
▁qua	-11.5275
▁Anti	-11.5277
TO	-11.5278
driven	-11.5278
▁Any	-11.5279
▁educational	-11.5281
now	-11.5281
▁offered	-11.5283
▁display	-11.5283
making	-11.5284
▁ffaarrmm	-11.5284
▁competitive	-11.5285
▁Garlic	-11.5285
▁nitrate	-11.5285
▁premium	-11.5285
▁terrace	-11.5285
▁shelter	-11.5285
▁harrow	-11.5286
▁Pvt	-11.5286
▁begin	-11.5286
▁ffaarrmmiinngg	-11.5287
▁hhaa	-11.5294
▁Bor	-11.5297
own	-11.5297
▁bulbs	-11.53
logical	-11.5302
▁2001	-11.5305
▁outbreaks	-11.5306
ific	-11.5313
▁disrupt	-11.5322
198	-11.5322
mple	-11.5328
fly	-11.5329
▁Andaman	-11.5332
▁Sweet	-11.5332
ettaka	-11.5332
▁Class	-11.5332
▁agroecological	-11.5333
ache	-11.5334
▁wool	-11.5334
▁rough	-11.5335
205	-11.5337
2.50	-11.5339
▁Transfer	-11.534
▁Late	-11.5343
3000	-11.5349
▁91-	-11.5349
450	-11.5349
040	-11.5351
1.7	-11.5353
inza	-11.5354
▁orchids	-11.5354
▁Bikaner	-11.5356
▁Car	-11.536
▁Way	-11.5362
▁reservoir	-11.5364
▁trends	-11.5366
▁dam	-11.5369
ij	-11.5369
▁Rot	-11.537
HH	-11.5373
surface	-11.5373
emergence	-11.5374
▁roles	-11.5376
=90.6	-11.5379
▁wastes	-11.5379
▁recruitment	-11.538
GA	-11.5382
▁inspect	-11.5388
▁African	-11.539
▁installed	-11.5393
2244	-11.5399
▁Che	-11.54
202	-11.54
▁considerations	-11.5403
▁Ad	-11.5406
▁aspect	-11.5411
obtaining	-11.5414
▁art	-11.5421
dul	-11.5425
LS	-11.5425
▁Dev	-11.5425
CMFRI	-11.5426
tellectual	-11.5426
▁deficit	-11.5426
▁foxtail	-11.5426
▁godavari	-11.5426
▁staple	-11.5426
▁saplings	-11.5426
▁copies	-11.5426
▁measurement	-11.5427
uma	-11.5428
425	-11.5428
▁survive	-11.5428
▁weedicide	-11.5428
▁referred	-11.5429
▁inches	-11.5429
horn	-11.5438
▁Semi	-11.5439
bul	-11.544
graph	-11.5441
▁economical	-11.5441
▁oxy	-11.5444
▁Chand	-11.5445
▁sole	-11.5447
▁Prof	-11.5453
characterization	-11.5458
▁stalk	-11.5459
▁articles	-11.546
IG	-11.5461
▁Monitoring	-11.5462
787	-11.5465
195	-11.5471
▁substances	-11.5473
▁Summary	-11.5474
▁jorhat	-11.5474
▁leaving	-11.5474
▁mililitre	-11.5474
▁reforms	-11.5474
▁guar	-11.5474
▁Staff	-11.5474
▁expertise	-11.5474
▁Poly	-11.5476
▁audit	-11.5476
▁replacement	-11.5477
▁Basic	-11.5478
▁prop	-11.5479
HB	-11.548
▁PO	-11.5484
▁fix	-11.5488
nin	-11.5492
▁fluctuations	-11.5492
▁2.00	-11.5495
▁Sur	-11.5498
▁sq	-11.5498
▁solids	-11.5502
▁PR	-11.5508
▁AR	-11.5512
80.00	-11.5513
control	-11.5517
▁12.5	-11.5517
▁144	-11.5518
▁WW	-11.5519
=93.7	-11.5521
▁necrotic	-11.5521
▁message	-11.5521
=100.0	-11.5522
▁northern	-11.5522
▁wire	-11.5523
ution	-11.5523
▁sig	-11.5528
▁belt	-11.553
▁27.0	-11.5533
izer	-11.5534
▁indian	-11.5542
▁(100	-11.5542
▁pots	-11.5545
▁mung	-11.5553
▁@5	-11.5556
tation	-11.5558
▁Hy	-11.5561
ending	-11.5565
▁heading	-11.5565
General	-11.5566
808	-11.5568
▁contributions	-11.5568
▁Increasing	-11.5569
▁stunted	-11.5569
▁Prasad	-11.5569
▁Spices	-11.5569
▁moving	-11.5569
▁sensing	-11.5569
CIAE	-11.5569
340	-11.5569
▁transmitter	-11.5569
▁Actual	-11.557
▁2022-23	-11.5571
▁wastewater	-11.5572
▁Sprinkler	-11.5572
▁Jo	-11.5575
▁aids	-11.5575
▁marked	-11.5585
part	-11.5588
▁vermi	-11.5588
unc	-11.5599
▁rights	-11.56
▁regulation	-11.5604
▁MP	-11.5607
rob	-11.561
110	-11.5614
gga	-11.5616
▁Administrative	-11.5617
▁Cucumber	-11.5617
▁bioactive	-11.5617
▁vascular	-11.5617
▁insulation	-11.5617
▁tthhaat	-11.5617
▁session	-11.5617
▁nutritive	-11.5618
▁thickness	-11.5619
▁Gender	-11.5621
arka	-11.5622
▁hinder	-11.563
▁incorporate	-11.5634
▁0.40	-11.5637
NRC	-11.5637
▁50.0	-11.5639
▁adjusted	-11.5646
▁adults	-11.5654
other	-11.5655
▁pprroodduuctc	-11.5666
▁Analysis	-11.5666
▁irregular	-11.5666
▁jyoti	-11.5666
▁fluton	-11.5666
▁vigorous	-11.5666
▁preference	-11.5667
▁automatic	-11.5667
mme	-11.5683
▁mission	-11.5683
▁fingerlings	-11.5685
904	-11.5686
pra	-11.5688
▁sept	-11.569
▁predict	-11.5692
TH	-11.5693
▁0.20	-11.5693
▁Keeping	-11.5697
fri	-11.5697
▁vessel	-11.5702
▁1).	-11.5704
▁139	-11.5705
▁immunity	-11.5714
▁Despite	-11.5715
▁considerable	-11.5717
cap	-11.5723
▁peach	-11.5724
▁herbal	-11.5729
▁macro	-11.5734
▁das	-11.5735
986	-11.5736
▁vill	-11.5739
ccaa	-11.574
jit	-11.5744
PV	-11.5744
▁bin	-11.5747
lav	-11.5749
▁channel	-11.5751
▁principle	-11.5751
▁Communicat	-11.5759
▁Establish	-11.5761
▁Dist	-11.5763
▁halves	-11.5763
▁advisable	-11.5763
▁Balance	-11.5763
▁slender	-11.5763
vir	-11.5772
▁bush	-11.5775
spiration	-11.5775
▁driven	-11.5776
zol	-11.578
bir	-11.5783
▁Growing	-11.5785
MI	-11.5788
uuss	-11.5789
lut	-11.579
▁MH	-11.5791
▁cultiv	-11.58
▁genotype	-11.5801
products	-11.5801
▁inclusive	-11.5806
▁marker	-11.5807
chu	-11.5807
▁substrates	-11.581
nar	-11.5811
▁anthelmintic	-11.5812
▁domain	-11.5812
▁pilot	-11.5812
▁transgenic	-11.5812
▁carrying	-11.5813
▁Short	-11.5813
▁Sil	-11.582
▁scaling	-11.5823
▁sticky	-11.5826
▁improvements	-11.5832
▁institution	-11.5833
▁tissues	-11.5834
▁race	-11.5836
▁greatly	-11.5837
aid	-11.5841
▁zi	-11.5842
▁Controll	-11.5844
▁guwahati	-11.5848
▁photo	-11.5849
▁provisions	-11.5852
▁repeated	-11.5854
-75	-11.5855
lele	-11.5856
tltuurer	-11.5861
▁Budget	-11.5861
▁attempt	-11.5861
▁imidacloprid	-11.5861
▁strawberry	-11.5861
▁Forestry	-11.5862
=93.0	-11.5862
▁words	-11.5862
▁spore	-11.5865
▁26.0	-11.5865
▁bad	-11.5866
ule	-11.5867
ccoomm	-11.5869
▁earned	-11.5872
621	-11.5873
▁butter	-11.5875
▁Sep	-11.5879
imu	-11.5881
306	-11.5882
▁Award	-11.5882
IET	-11.5888
▁.00	-11.589
▁remained	-11.5894
▁Treat	-11.5894
DR	-11.5896
▁touch	-11.5901
▁element	-11.5901
alam	-11.5906
▁trib	-11.5908
▁Europe	-11.5909
dhan	-11.5909
▁conducive	-11.5911
▁manufacturing	-11.5911
▁Pratap	-11.5911
▁vast	-11.5913
▁true	-11.5914
rip	-11.5915
▁grub	-11.5917
▁cast	-11.5917
▁culm	-11.5918
iva	-11.5925
▁going	-11.5927
▁CD	-11.593
▁happens	-11.5938
DO	-11.5939
▁Trans	-11.594
▁Cauliflower	-11.596
▁Initiative	-11.596
▁Earth	-11.5961
connect	-11.5962
▁lady	-11.5962
October	-11.5964
▁Stor	-11.5965
▁authority	-11.5965
cont	-11.5969
yt	-11.5972
▁UU	-11.5974
jh	-11.5975
784	-11.5976
▁investments	-11.5976
EA	-11.5977
▁1000.0	-11.5978
▁conducting	-11.5979
vu	-11.5983
▁Govern	-11.5985
▁constructing	-11.5986
▁idea	-11.5993
▁FFP	-11.5995
tail	-11.5996
▁NGOs	-11.6
▁trait	-11.6001
▁legume	-11.6001
177	-11.6009
▁19:19:19	-11.601
▁Applicant	-11.601
▁Association	-11.601
▁convenient	-11.601
▁Body	-11.6011
▁190	-11.6014
▁cycles	-11.6014
▁Rules	-11.6024
▁acidic	-11.6027
▁piglets	-11.6028
826	-11.6032
188	-11.6041
▁CCoo	-11.6049
from	-11.6053
▁Bee	-11.6055
Dr	-11.6057
163	-11.6057
▁ga	-11.6059
▁Ganoderma	-11.6061
▁therapeutic	-11.6061
▁Ravindra	-11.6061
▁pathway	-11.6061
fusion	-11.6061
342	-11.6064
breeding	-11.6066
▁Linn	-11.6068
point	-11.6071
To	-11.6071
062	-11.6074
▁wise	-11.6078
▁enriched	-11.6079
▁pressures	-11.608
▁vety	-11.608
178	-11.6081
▁hoeing	-11.6083
EP	-11.6085
▁insufficient	-11.6085
▁introduc	-11.6086
▁Developing	-11.6088
90.00	-11.61
joining	-11.6105
▁walls	-11.6106
▁cri	-11.6109
415	-11.6111
onda	-11.6111
▁011-25843657	-11.6111
▁caterpiller	-11.6111
▁inclusion	-11.6111
▁vigour	-11.6111
CIFRI	-11.6111
▁instance	-11.6111
▁Chlor	-11.6112
BI	-11.6113
▁Ran	-11.6114
▁crushed	-11.6118
▁suckers	-11.6118
▁makers	-11.6118
▁Develop	-11.6119
347	-11.612
285	-11.6122
hot	-11.6125
▁CAU	-11.6128
785	-11.613
010	-11.6132
▁highlights	-11.6134
▁nnee	-11.6135
alu	-11.6135
▁gardening	-11.6137
fol	-11.614
@1.75	-11.6144
prim	-11.6151
▁journals	-11.6155
▁mangoes	-11.6155
▁0.02	-11.6159
▁Ginger	-11.6162
▁Kochi	-11.6162
▁diammonium	-11.6162
▁IWM	-11.6163
▁overflow	-11.6164
fectious	-11.6166
▁exposed	-11.6166
ulate	-11.6169
▁experiences	-11.617
▁Book	-11.6171
thane	-11.6172
6.7	-11.6176
▁reservoirs	-11.6179
▁carbohydrates	-11.6181
▁label	-11.6182
▁10,000	-11.6182
▁sent	-11.6182
▁eggplants	-11.6188
abi	-11.6196
225	-11.6196
▁Not	-11.6198
▁weigh	-11.6201
#	-11.6213
sufficiency	-11.6213
▁Potassium	-11.6213
▁pheromone	-11.6213
▁responsive	-11.6213
▁stabilize	-11.6213
▁IRRI	-11.6213
=8.2	-11.6214
▁ongoing	-11.6214
▁pasture	-11.6214
▁hypo	-11.6216
▁Grants	-11.6216
qq	-11.622
310	-11.6231
▁flooding	-11.6233
▁3,000	-11.6234
▁earning	-11.6235
▁presentation	-11.6238
468	-11.624
▁ke	-11.6251
▁cart	-11.6251
itit	-11.6253
▁shifting	-11.6254
242	-11.6258
▁capita	-11.6258
edge	-11.6259
▁Guidelines	-11.6264
▁although	-11.6264
▁circumstances	-11.6264
▁holistic	-11.6264
▁kitchen	-11.6264
▁perspective	-11.6264
▁transaction	-11.6264
▁Mishra	-11.6264
▁Creat	-11.6265
Cdn	-11.6267
▁Seedling	-11.6271
This	-11.6273
▁Transplanting	-11.6275
direct	-11.6276
▁40-50	-11.6278
168	-11.6279
ahoo	-11.6284
tab	-11.6293
@10	-11.6297
▁Mn	-11.6301
70.00	-11.6304
aabb	-11.6304
▁preserve	-11.6308
CAZRI	-11.6316
▁Prepare	-11.6316
▁allocation	-11.6316
▁estimation	-11.6316
▁file	-11.6319
horti	-11.6321
▁selective	-11.6321
▁Jal	-11.6323
ecosystem	-11.6324
power	-11.6325
undi	-11.6326
logy	-11.6327
▁Payment	-11.6332
▁herd	-11.6333
▁individuals	-11.6334
▁secure	-11.6336
cine	-11.6337
inda	-11.6338
▁Acid	-11.6341
▁gained	-11.6349
▁washed	-11.635
▁Experimenter	-11.6351
860	-11.6352
228	-11.6358
Mail	-11.6365
▁Jorhat	-11.6368
▁caflon	-11.6368
▁Social	-11.6368
hytophthora	-11.637
omycin	-11.637
▁oral	-11.6377
▁took	-11.6378
▁50-60	-11.6381
▁extensively	-11.6382
ploid	-11.6388
71428571428	-11.6388
RF	-11.6397
▁175	-11.6397
▁deka	-11.64
Protected	-11.6401
RE	-11.6401
any	-11.6402
nan	-11.6404
▁drilling	-11.6407
▁positions	-11.6409
▁mold	-11.6415
▁instrument	-11.6416
▁Activities	-11.642
▁commitment	-11.642
▁gypsum	-11.642
▁nagaon	-11.6422
▁Salari	-11.6429
irir	-11.643
▁(1)	-11.6442
quir	-11.6451
▁Himalayan	-11.6454
owdery	-11.6459
bari	-11.646
112	-11.6461
▁Sen	-11.6465
tious	-11.6465
▁addressed	-11.6469
aimed	-11.647
304	-11.6471
-36	-11.6472
▁bloat	-11.6472
▁Bamboo	-11.6472
▁Fertilization	-11.6472
▁pumkin	-11.6472
▁anistamin	-11.6472
▁Habit	-11.6472
▁software	-11.6472
▁AK	-11.6473
▁dipped	-11.6473
▁involvement	-11.6474
▁prune	-11.6475
▁feedback	-11.6475
▁Thar	-11.6479
emia	-11.6482
Hindi	-11.6483
tolerant	-11.6483
growing	-11.6483
▁otherwise	-11.6484
LL	-11.6485
▁suggestion	-11.6488
▁influenc	-11.6492
nndd	-11.6493
tteedd	-11.6494
385	-11.6496
▁enabled	-11.6497
▁clearly	-11.6498
test	-11.6498
▁checked	-11.6504
▁Genetics	-11.6504
mmi	-11.6505
itch	-11.6511
▁ON	-11.6514
320	-11.6515
jal	-11.6524
▁Artificial	-11.6525
▁suspension	-11.6525
▁cooked	-11.6525
▁armyworm	-11.6525
▁mungbean	-11.6525
▁classified	-11.6525
▁automation	-11.6525
▁holdings	-11.6529
313	-11.653
▁pathogenic	-11.653
thu	-11.6533
240	-11.6534
725	-11.6535
▁@50	-11.6536
▁interested	-11.6536
ghat	-11.6537
160	-11.6539
fected	-11.6543
▁gaps	-11.6546
taitoion	-11.6547
▁electrical	-11.655
ators	-11.655
FS	-11.6558
cn	-11.6558
▁2.75	-11.6559
001	-11.656
IT	-11.656
/30	-11.6563
199	-11.6566
▁cloud	-11.657
▁005	-11.6571
oids	-11.6574
▁1960	-11.6575
▁Community	-11.6578
▁Milestone	-11.6578
▁Which	-11.6578
▁fertlizer	-11.6578
▁Copper	-11.6578
▁Prakash	-11.6578
▁swine	-11.6578
▁assured	-11.6578
▁roof	-11.6579
▁eaten	-11.6579
▁bael	-11.6583
▁1990	-11.6583
ttiinngg	-11.6586
AL	-11.6587
149	-11.6589
DKMA	-11.659
▁Paras	-11.6592
▁Av	-11.6596
nj	-11.6597
348	-11.6599
atory	-11.6599
▁28.0	-11.6601
adha	-11.6601
▁Innovations	-11.6603
▁Members	-11.6603
▁streptocycline	-11.6604
▁suit	-11.6604
▁gni	-11.6605
277	-11.6608
161	-11.6609
pani	-11.6609
▁155	-11.661
▁experienced	-11.6612
▁holds	-11.6617
▁VI	-11.6617
▁Shi	-11.6625
▁bull	-11.6627
PGS	-11.6628
▁Bavistin	-11.6631
▁Citrus	-11.6631
▁Litchi	-11.6631
▁conference	-11.6631
▁pregnancy	-11.6631
▁tapioca	-11.6631
▁Pension	-11.6631
▁suspected	-11.6631
▁fmd	-11.6631
▁850	-11.6633
▁Coast	-11.6634
▁dosages	-11.6636
▁Care	-11.6636
uj	-11.6636
▁cloudy	-11.6638
▁Well	-11.6641
lim	-11.6643
▁sales	-11.6644
English	-11.6644
▁realized	-11.6645
▁lowest	-11.6646
DF	-11.6649
204	-11.6653
Term	-11.6653
▁fabric	-11.6661
oto	-11.6668
inder	-11.6675
▁Char	-11.6678
▁maximiz	-11.6679
▁Bag	-11.6679
rp	-11.6681
▁Utiliz	-11.6682
▁BOOK	-11.6684
▁comparable	-11.6684
▁threshing	-11.6684
▁trouble	-11.6684
▁cylindrical	-11.6684
▁track	-11.6686
▁5000	-11.6686
▁expressed	-11.6692
unn	-11.6693
PO	-11.6695
oti	-11.6697
▁Gir	-11.6698
▁placement	-11.67
▁spin	-11.6702
▁prevailing	-11.6703
▁specially	-11.6717
243	-11.6717
▁formalin	-11.6718
▁counter	-11.672
▁Naga	-11.672
▁Devi	-11.6721
▁exhibition	-11.6722
▁slopes	-11.6725
▁oct	-11.6726
nother	-11.6727
▁USA	-11.6738
▁COVID	-11.6738
sagorika	-11.6738
▁Industries	-11.6738
▁Objective	-11.6738
▁accuracy	-11.6738
▁built	-11.6738
▁certificate	-11.6738
▁determining	-11.6738
▁dibrugarh	-11.6738
▁exercise	-11.6738
▁january	-11.6738
▁penetration	-11.6738
▁ranjit	-11.6738
lttuurree	-11.6739
▁Overall	-11.6739
614	-11.6739
▁toxicity	-11.674
943	-11.674
▁Jute	-11.674
▁functionality	-11.674
▁isolated	-11.6743
126	-11.6745
▁grants	-11.6751
▁reared	-11.6751
▁sanctioned	-11.6752
vive	-11.6752
▁sign	-11.6753
ular	-11.6757
▁Kendras	-11.6761
▁focusing	-11.6764
awa	-11.6774
▁Rao	-11.6778
▁0.15	-11.6778
▁exclusive	-11.6785
▁flesh	-11.6785
ifera	-11.6789
gur	-11.6791
▁HYV	-11.6792
▁attachment	-11.6792
▁welfare	-11.6792
▁replications	-11.6792
▁Handbook	-11.6792
▁boiling	-11.6792
▁Aromatic	-11.6792
▁frontline	-11.6792
▁copy	-11.6793
▁precautions	-11.6793
▁Creation	-11.6794
DD	-11.6801
controlled	-11.6809
▁closely	-11.6809
▁watershed	-11.681
▁chapters	-11.6812
▁0.30	-11.6815
▁tractors	-11.6815
128	-11.6815
17.0	-11.6816
eme	-11.6819
PH	-11.6819
▁interactions	-11.6821
▁differences	-11.6822
▁stones	-11.6828
bank	-11.6829
▁1970	-11.6833
▁approaching	-11.684
▁bread	-11.6843
▁basin	-11.6846
▁completion	-11.6846
▁opinion	-11.6846
▁basket	-11.6846
▁decay	-11.6847
▁Ap	-11.6849
▁Marine	-11.6849
▁avil	-11.6849
▁SRF	-11.6852
184	-11.6855
odium	-11.6862
▁bit	-11.6862
▁slowly	-11.6864
▁sant	-11.6867
▁landless	-11.687
▁serves	-11.6872
▁emerge	-11.6873
▁observe	-11.6873
▁dimethoate	-11.6875
▁FW	-11.6876
387	-11.6888
384	-11.6893
▁adjustments	-11.6899
▁Discuss	-11.6901
▁Student	-11.6901
▁commodity	-11.6901
▁inflorescence	-11.6901
▁ruminants	-11.6901
▁suppliment	-11.6901
▁editor	-11.6901
▁Self	-11.6901
▁construct	-11.6901
▁Rajendranagar	-11.6901
▁Bitter	-11.6901
NRRI	-11.6902
▁Assamese	-11.6903
ebi	-11.6905
tn	-11.6915
▁actions	-11.6915
ako	-11.6925
▁endo	-11.6926
Bt	-11.6939
183	-11.6943
440	-11.6949
▁fibrous	-11.6956
▁hydrogen	-11.6956
▁Authority	-11.6957
exploitation	-11.6957
▁simultaneously	-11.6958
▁elevated	-11.6961
▁ideas	-11.6967
MT	-11.6967
▁panch	-11.6969
2018	-11.6974
affected	-11.6975
014	-11.6976
▁delayed	-11.6979
994	-11.6981
▁123	-11.6983
mod	-11.6986
395	-11.6991
▁lowland	-11.6991
▁solani	-11.6994
aximum	-11.6995
▁nutri	-11.6995
011	-11.7009
▁changed	-11.701
▁interface	-11.7011
▁leaks	-11.7011
▁silage	-11.7011
▁behind	-11.7011
▁desert	-11.7011
▁segment	-11.7011
▁NEW	-11.7011
▁subtropical	-11.7012
▁(1999	-11.7014
hl	-11.7015
▁0.80	-11.7016
anthus	-11.7016
▁farmland	-11.702
642	-11.7021
FP	-11.7022
▁ecology	-11.7025
▁regulations	-11.7026
rai	-11.7046
▁forecasting	-11.705
510	-11.7052
▁Vir	-11.7054
▁Nav	-11.706
156	-11.7062
238	-11.7063
pit	-11.7064
▁Reduc	-11.7064
FLD	-11.7066
▁respond	-11.7067
▁comparative	-11.7067
▁Category	-11.7067
▁anaerobic	-11.7067
▁deltoides	-11.7067
▁inflammation	-11.7067
▁lavender	-11.7067
▁IlooTT	-11.7067
▁GPF	-11.7067
▁Yadav	-11.7067
▁heifer	-11.7067
▁entries	-11.7067
▁limitations	-11.7067
▁Brown	-11.7067
▁rupee	-11.7068
▁representative	-11.7068
▁reddish	-11.7068
▁tail	-11.7069
▁dated	-11.7072
▁parasi	-11.7073
▁Magazines	-11.7076
▁acidity	-11.7079
828	-11.7081
▁dissolve	-11.7082
▁closed	-11.7087
▁146	-11.7089
▁formal	-11.7091
979	-11.7098
▁Cap	-11.71
Sc	-11.7101
▁khanapara	-11.7102
668	-11.7103
▁Feeding	-11.7113
447	-11.7115
▁performing	-11.7115
▁hetero	-11.7116
▁partial	-11.7119
▁Capsicum	-11.7123
▁TThhisi	-11.7123
▁challenging	-11.7123
▁encouraging	-11.7123
▁necrosis	-11.7123
▁escape	-11.7123
▁Trait	-11.7123
▁Rajendra	-11.7123
▁running	-11.7123
▁mind	-11.7127
▁mould	-11.7129
441	-11.7132
tropical	-11.7143
Karnataka	-11.7145
biodiversity	-11.7145
115	-11.7149
410	-11.715
▁graft	-11.7152
▁rank	-11.7156
▁combine	-11.7158
▁documented	-11.7162
▁cob	-11.7164
▁sanction	-11.7165
118	-11.7166
icidal	-11.7171
▁Adopt	-11.7177
▁Academy	-11.7179
▁DELHI	-11.7179
▁FFaarrmmiinngg	-11.7179
▁Principles	-11.7179
▁decomposition	-11.7179
▁decreasing	-11.7179
▁insightful	-11.7179
▁lameness	-11.7179
▁streak	-11.7179
▁harness	-11.7179
▁ghee	-11.7179
▁Phase	-11.718
rub	-11.7183
▁linkage	-11.7184
▁discovered	-11.7192
▁1.15	-11.7193
▁4.3	-11.7194
▁That	-11.7195
▁equipp	-11.7202
▁variations	-11.7203
203	-11.7204
iieess	-11.7205
▁broadcast	-11.7208
ote	-11.7215
-26	-11.7219
379	-11.7219
275	-11.722
435	-11.7223
▁stimulate	-11.7223
cover	-11.7225
571	-11.723
agi	-11.7231
spectrum	-11.7235
▁Chemistry	-11.7235
▁Medicine	-11.7235
▁Phosphorus	-11.7235
▁champaran	-11.7235
▁calving	-11.7235
▁potting	-11.7237
lined	-11.7238
feed	-11.724
▁IIHR	-11.7241
▁lato	-11.7243
▁masses	-11.7245
rryy	-11.7248
location	-11.7252
pests	-11.7255
▁ammonium	-11.7256
DARE	-11.7259
unch	-11.727
▁29.0	-11.7272
▁NRM	-11.7276
208	-11.7282
him	-11.7284
▁bru	-11.7285
grain	-11.7286
▁cfu	-11.7287
CIBA	-11.7289
▁Potential	-11.7292
▁dioxide	-11.7292
▁laboratories	-11.7292
▁mosquito	-11.7292
▁premature	-11.7292
▁qualifications	-11.7292
▁worth	-11.7292
▁withstand	-11.7292
▁kodo	-11.7295
▁Operation	-11.7296
▁Postage	-11.7297
stock	-11.7299
▁Kodo	-11.73
▁camel	-11.7302
▁reaching	-11.7303
▁3.7	-11.7306
▁Vari	-11.7308
▁constitute	-11.7309
158	-11.7316
▁156	-11.7316
▁1.52	-11.7318
▁yrs	-11.7321
648	-11.7322
▁6.2	-11.7323
tiioonn	-11.7323
194	-11.7327
▁metric	-11.7335
▁And	-11.7335
022	-11.7336
sess	-11.7337
NARS	-11.7337
cat	-11.7339
ppa	-11.734
2000	-11.7346
▁Organiz	-11.7347
▁minute	-11.7347
stem	-11.7348
officio	-11.7349
▁Website	-11.7349
▁aallssoo	-11.7349
▁atmosphere	-11.7349
▁discoloration	-11.7349
▁lakhimpur	-11.7349
▁tunnel	-11.7349
▁modification	-11.7349
▁letter	-11.735
▁AVT	-11.735
▁panama	-11.735
▁stake	-11.735
▁tied	-11.7352
▁fixation	-11.7352
▁uussee	-11.7353
325	-11.7353
zen	-11.7354
▁automated	-11.7355
▁Mulching	-11.7356
▁Full	-11.736
▁Top	-11.7361
▁emphasized	-11.7362
right	-11.7363
▁habitats	-11.7363
▁antimicrobial	-11.7365
ibwa	-11.7365
▁Challenges	-11.7365
arla	-11.7378
▁rear	-11.7378
▁Plantation	-11.7378
▁roll	-11.738
ophil	-11.7381
▁PAU	-11.7388
862	-11.7388
▁Lab	-11.7389
961	-11.739
hana	-11.74
157	-11.7402
▁exports	-11.7404
▁225	-11.7404
rine	-11.7406
▁Teaching	-11.7407
▁heavily	-11.7407
▁fellowship	-11.7407
▁malabar	-11.7407
▁redomil	-11.7408
▁resin	-11.7408
▁fit	-11.7409
▁bulls	-11.741
▁Rai	-11.7411
▁Prime	-11.7411
weed	-11.7412
▁Thi	-11.7413
▁supplementary	-11.7413
▁cooperative	-11.7414
▁3.4	-11.742
▁shootlet	-11.742
▁cooling	-11.7421
▁subsequently	-11.7423
465	-11.7423
uit	-11.7424
▁fry	-11.7426
248	-11.7431
ppu	-11.7431
shallow	-11.7433
▁Mid	-11.7437
▁traditionally	-11.7439
-35	-11.7443
teen	-11.7445
▁acting	-11.7449
sure	-11.7452
▁incorporation	-11.7456
▁fail	-11.7456
▁appropriately	-11.7457
▁edge	-11.7459
▁31.0	-11.7461
▁0.32	-11.7462
▁Parbhani	-11.7465
▁Limited	-11.7465
▁Moisture	-11.7465
▁Promote	-11.7465
▁UNDER	-11.7465
▁Valley	-11.7465
▁chlorophyll	-11.7465
▁dedicated	-11.7465
▁diversify	-11.7465
▁teachers	-11.7465
▁written	-11.7465
▁Grape	-11.7465
▁aroma	-11.7465
▁quarter	-11.7465
▁master	-11.7466
lea	-11.7467
▁introduce	-11.7468
▁print	-11.7469
▁mitigat	-11.7469
▁protocol	-11.7471
▁specialized	-11.7472
▁advancement	-11.7473
cial	-11.7474
cyclin	-11.7475
▁spice	-11.7475
▁vein	-11.7481
pri	-11.7486
▁Cell	-11.7488
268	-11.749
▁cumin	-11.7492
007	-11.7495
▁cleaned	-11.7495
▁administered	-11.7496
▁reached	-11.75
▁limits	-11.7503
▁sex	-11.7503
ethyl	-11.7506
ivity	-11.7507
▁discover	-11.7509
▁400.0	-11.751
▁rid	-11.7512
▁examine	-11.7515
▁hexaconazole	-11.7518
▁spaced	-11.7519
▁convey	-11.7522
▁Udaipur	-11.7523
▁confidence	-11.7523
▁oxysporum	-11.7523
▁recognition	-11.7523
▁utility	-11.7523
▁Broad	-11.7523
▁Shelf	-11.7523
▁bovine	-11.7523
▁Pigeonpea	-11.7523
▁admission	-11.7523
▁electronic	-11.7523
▁governance	-11.7523
▁serum	-11.7523
▁rising	-11.7524
▁Manure	-11.7525
▁tilt	-11.7525
▁retail	-11.7525
▁official	-11.753
▁reaches	-11.7532
=9.0	-11.7532
▁CRIDA	-11.7534
036	-11.7538
113	-11.7546
338	-11.7547
▁panel	-11.7548
▁Hills	-11.7549
▁ARS	-11.755
▁milking	-11.7552
▁necessitate	-11.7554
▁aged	-11.7554
655	-11.7561
▁reveal	-11.7567
270	-11.7567
lp	-11.7567
yi	-11.7573
▁HS	-11.7574
▁gape	-11.7575
▁NARS	-11.7578
▁bima	-11.7578
prop	-11.7579
opping	-11.7579
▁Carbendazim	-11.7581
▁Cassava	-11.7581
▁complement	-11.7581
▁expensive	-11.7581
▁licensing	-11.7581
▁Mancozeb	-11.7581
▁Seminar	-11.7581
▁Diversification	-11.7581
▁Tribal	-11.7582
pertaining	-11.7582
▁brick	-11.7582
▁varities	-11.7582
542	-11.7585
▁females	-11.7586
104	-11.7591
223	-11.7592
▁165	-11.7597
66666666666666	-11.7599
▁highlighted	-11.76
tnem	-11.7603
▁lay	-11.7605
-200	-11.7607
▁exhibited	-11.7607
▁Jaya	-11.7608
angu	-11.7608
▁forming	-11.761
cast	-11.7615
▁134	-11.7618
ilo	-11.7623
▁hatching	-11.7623
0.10	-11.7626
ret	-11.763
▁bath	-11.7632
▁Machine	-11.7639
CPCRI	-11.764
▁Liquid	-11.764
▁Mohapatra	-11.764
▁Physical	-11.764
▁deciduous	-11.764
▁floriculture	-11.764
▁illustrat	-11.764
▁kerosene	-11.764
▁sterile	-11.764
▁patent	-11.764
▁IInnddiiaann	-11.764
▁collaborative	-11.7641
▁affordable	-11.7641
▁Vikas	-11.7641
▁acceptable	-11.7641
iff	-11.7641
▁khasi	-11.7643
▁Utilization	-11.7643
▁practised	-11.7643
▁DSR	-11.7644
▁DAP	-11.7645
172	-11.7651
▁VV	-11.7655
iga	-11.766
PE	-11.7662
059	-11.7666
▁grades	-11.7667
▁Tree	-11.7668
▁Bala	-11.7668
▁pear	-11.7671
IVRI	-11.7671
sible	-11.7673
174	-11.7675
▁geo	-11.7681
▁(2)	-11.7682
▁Var	-11.7682
isi	-11.7685
netn	-11.7688
▁Format	-11.7693
ley	-11.7697
▁combin	-11.7698
▁rigid	-11.7699
edinipur	-11.7699
▁Complete	-11.7699
▁Learning	-11.7699
▁campaign	-11.7699
▁glabrous	-11.7699
▁stimulant	-11.7699
▁pellet	-11.7699
▁tolerate	-11.77
▁limb	-11.77
hydr	-11.7701
▁render	-11.7702
▁Officers	-11.7706
▁bitterness	-11.7709
▁outcome	-11.7711
▁Nano	-11.772
ural	-11.772
▁february	-11.7723
ould	-11.7724
onic	-11.7724
▁NBPGR	-11.7729
2,500	-11.7729
odo	-11.7729
zine	-11.773
▁dynamics	-11.7731
480	-11.7731
▁SAU	-11.7731
through	-11.7732
▁fasa	-11.7735
▁sprouting	-11.7737
▁ranged	-11.7748
▁hydroponics	-11.7755
▁1980	-11.7757
▁integrate	-11.7758
▁Calcium	-11.7759
▁Clinical	-11.7759
▁Parliament	-11.7759
▁contingency	-11.7759
▁hygienic	-11.7759
▁investigation	-11.7759
▁leakage	-11.7759
▁prospects	-11.7759
▁trichoderma	-11.7759
▁evergreen	-11.7759
▁Pradhan	-11.7759
▁kannad	-11.7759
▁Adapt	-11.7759
ttuurarla	-11.7759
▁acute	-11.776
▁accessible	-11.776
080	-11.7762
lime	-11.7764
164	-11.7766
▁biochemical	-11.7768
▁Nations	-11.7768
2200	-11.7769
475	-11.7769
▁Institution	-11.777
▁Four	-11.777
▁mealy	-11.7773
632	-11.7773
▁pour	-11.7776
vad	-11.7781
230	-11.7782
pol	-11.7782
imate	-11.7789
175	-11.7789
▁requested	-11.779
(10)	-11.7791
▁manufacture	-11.7795
▁Cow	-11.7795
▁Compost	-11.7795
▁environmentally	-11.7796
187	-11.7801
206	-11.7802
▁0.16	-11.7803
tree	-11.7807
▁142	-11.7809
970	-11.7813
▁antibiotics	-11.7818
▁Article	-11.7819
▁anorexia	-11.7819
▁deterioration	-11.7819
▁incentives	-11.7819
▁petiole	-11.7819
▁subsidies	-11.7819
▁Narendra	-11.7819
▁injuries	-11.7819
▁respondents	-11.7819
▁transition	-11.7819
▁Figure	-11.782
▁136	-11.7821
room	-11.7823
▁workshop	-11.7829
▁suck	-11.7831
▁mon	-11.7834
▁aau	-11.7834
aatitioonn	-11.7842
▁sick	-11.7842
▁shifted	-11.7843
charge	-11.7844
flow	-11.7845
ucc	-11.785
business	-11.7852
multiplex	-11.7853
▁Him	-11.7859
▁Manag	-11.7863
207	-11.7864
▁bite	-11.787
▁officials	-11.7871
▁0.22	-11.7873
mari	-11.7875
oside	-11.7875
inajpur	-11.7879
scorbic	-11.7879
▁declining	-11.7879
▁metabolite	-11.7879
▁tthhiiss	-11.7879
▁silver	-11.7879
▁viride	-11.7879
▁MOP	-11.7879
▁Percentage	-11.7879
▁amaranth	-11.788
▁csc	-11.7881
▁sodic	-11.7882
▁SBI	-11.7885
▁flush	-11.7885
tiioonns	-11.7886
zy	-11.789
274	-11.7895
▁conserved	-11.7898
▁funded	-11.7907
▁marks	-11.791
298	-11.7912
▁streptomycine	-11.7918
▁tasks	-11.7919
▁Grow	-11.7923
▁renewable	-11.7923
TE	-11.7924
yog	-11.7926
▁fulfill	-11.7933
▁131	-11.7937
▁worked	-11.7937
▁educat	-11.7937
kara	-11.7938
bacter	-11.7939
▁Nicobar	-11.7939
▁colocasia	-11.7939
▁dehydration	-11.7939
▁susceptibility	-11.7939
▁urgent	-11.7939
▁thiram	-11.7939
circulat	-11.7939
▁Patna	-11.794
▁injury	-11.794
▁silk	-11.794
▁capsule	-11.7944
024	-11.7944
▁arise	-11.7944
bhai	-11.7949
▁(1-2	-11.7952
▁ffee	-11.7955
▁plum	-11.7955
▁Oriya	-11.7961
▁rational	-11.7964
▁marketable	-11.7964
▁hing	-11.7966
march	-11.7977
▁tetracyclin	-11.7982
▁lowering	-11.7984
eno	-11.7988
oct	-11.7991
▁collective	-11.7995
▁gland	-11.7998
▁colonies	-11.8
▁leadership	-11.8
▁wwhhicichh	-11.8
▁flexible	-11.8
▁yyiieelldd	-11.8001
▁Subject	-11.8001
kan	-11.8002
▁planned	-11.8002
▁Interest	-11.8002
▁claims	-11.8003
date	-11.8003
781	-11.8004
▁coordinated	-11.8005
▁commercialized	-11.8007
▁topical	-11.8009
acre	-11.801
▁pox	-11.8011
▁insert	-11.8011
372	-11.8023
pada	-11.8028
▁ostocalcium	-11.803
▁4.2	-11.8031
646	-11.8035
amycin	-11.8036
▁NGO	-11.8037
kol	-11.8039
level	-11.804
▁SSP	-11.8042
orp	-11.8043
▁sspp	-11.8044
▁Solanum	-11.8045
illa	-11.8047
AF	-11.8048
▁blend	-11.8049
658	-11.8049
▁Ber	-11.8049
▁sections	-11.8053
PI	-11.8054
▁rivers	-11.8056
tact	-11.8058
gradation	-11.8061
ibility	-11.8061
bbaasseedd	-11.8062
▁Bangladesh	-11.8062
▁Modern	-11.8062
▁Workshop	-11.8062
▁defoliation	-11.8062
▁mahafal	-11.8062
▁profuse	-11.8062
▁scheduling	-11.8062
▁varietal	-11.8062
▁Pepper	-11.8062
▁insights	-11.8062
▁error	-11.8062
▁connected	-11.8062
▁Kalyan	-11.8064
▁behaviour	-11.8066
▁Light	-11.8067
▁gran	-11.8078
▁0.04	-11.8078
▁story	-11.8079
▁valued	-11.8091
▁sequences	-11.8095
▁vle	-11.8096
▁pheno	-11.8097
786	-11.8099
July	-11.81
▁mounted	-11.8108
936	-11.8108
▁workshops	-11.8112
ttle	-11.8113
pura	-11.8117
grade	-11.8122
▁Culture	-11.8123
▁economies	-11.8123
▁irrigating	-11.8123
▁knife	-11.8123
▁pmkisan	-11.8123
▁severity	-11.8123
▁supervision	-11.8123
▁tehsil	-11.8123
▁tremendous	-11.8123
▁Colour	-11.8123
▁megha	-11.8123
▁smell	-11.8124
▁SHG	-11.8124
=8.4	-11.8124
▁phenol	-11.8126
▁Islands	-11.8126
354	-11.8126
tional	-11.8127
▁uuss	-11.8127
▁Presently	-11.8128
▁replaced	-11.8137
▁Cut	-11.8137
▁Jag	-11.8138
EPD	-11.8138
343	-11.8145
Mo	-11.8149
▁kw	-11.8149
prid	-11.8149
211	-11.8153
▁krishna	-11.8154
centric	-11.8154
rk	-11.8155
279	-11.8156
888	-11.8157
ammonium	-11.8162
ulating	-11.8176
RD	-11.8176
5500	-11.8176
wel	-11.8183
▁doctor	-11.8184
eennttrree	-11.8186
▁Malhotra	-11.8186
▁stories	-11.8186
▁draft	-11.8186
▁Life	-11.8186
range	-11.8187
▁spoon	-11.8188
▁evolved	-11.819
▁Iron	-11.8197
396	-11.8198
▁inspections	-11.8199
agged	-11.8199
▁language	-11.8201
▁push	-11.8202
▁estimates	-11.8205
▁Junagadh	-11.8208
oouut	-11.8209
610	-11.8225
DM	-11.8226
BD	-11.8228
005	-11.823
virus	-11.8236
▁RE	-11.8236
▁entering	-11.8238
▁Ravi	-11.8241
▁eexx	-11.8248
oollooggyy	-11.8248
▁JIk	-11.8248
▁Rhizobium	-11.8248
▁surveillance	-11.8248
▁Okra	-11.8248
▁pension	-11.8248
▁chips	-11.8248
▁Portal	-11.8248
▁Nodal	-11.8248
▁Nepal	-11.8249
▁older	-11.8253
▁attended	-11.8255
▁partners	-11.8259
▁gaining	-11.8265
▁GM	-11.8267
▁Arid	-11.8269
anpur	-11.8274
▁strengthened	-11.8276
444	-11.8278
take	-11.8283
▁character	-11.8284
Head	-11.829
▁parents	-11.8295
iirr	-11.8302
▁valid	-11.831
riti	-11.8311
▁Dehradun	-11.8311
▁Molecular	-11.8311
▁laxative	-11.8311
▁thresher	-11.8311
IASRI	-11.8311
▁pivotal	-11.8311
▁outstanding	-11.8311
▁purb	-11.8311
612	-11.8312
▁contour	-11.8312
▁Nutri	-11.8312
▁accreditation	-11.8312
▁dipping	-11.8313
static	-11.8313
▁onwards	-11.8313
▁pap	-11.8314
killer	-11.8314
▁isolates	-11.8316
▁popularity	-11.8318
▁meta	-11.8319
itoion	-11.8321
▁*******	-11.8322
▁MMaa	-11.8328
▁vit	-11.833
nat	-11.8332
528	-11.8337
▁accord	-11.8347
401	-11.835
sowing	-11.8352
June	-11.8354
147	-11.8357
VI	-11.8364
▁demonstrate	-11.8366
gandha	-11.8368
chim	-11.837
▁systemic	-11.8371
independence	-11.8374
▁Bhubaneshwar	-11.8374
▁Fertigation	-11.8374
▁carbofuran	-11.8374
▁debility	-11.8374
▁floraboost	-11.8374
▁nutraceutical	-11.8374
▁oyster	-11.8374
▁Function	-11.8374
▁norms	-11.8374
Gangeti	-11.8375
▁sulfate	-11.8375
▁spinach	-11.8375
▁Effectiveness	-11.8376
▁siang	-11.8376
335	-11.8379
▁Royal	-11.8379
▁substitute	-11.838
▁calculated	-11.8383
▁previously	-11.8388
▁barrier	-11.8392
▁decade	-11.8392
elli	-11.8394
▁FY	-11.8396
▁Following	-11.84
then	-11.8405
341	-11.841
India	-11.8415
trop	-11.8415
▁jack	-11.8418
519	-11.8419
324	-11.8419
328	-11.8419
fruit	-11.8419
▁emphasiz	-11.842
▁hoe	-11.842
▁distribut	-11.8422
about	-11.8422
HS	-11.8422
419	-11.8425
▁Bark	-11.8428
▁mesh	-11.8431
▁midge	-11.8435
EL	-11.8436
▁lactat	-11.8437
▁celebrat	-11.8438
iiggiittaal	-11.8438
lanceolate	-11.8438
▁Vermicompost	-11.8438
▁aurangabad	-11.8438
▁benzoate	-11.8438
▁furnish	-11.8438
▁imbalance	-11.8438
▁mascularly	-11.8438
▁aadhaar	-11.8438
▁intended	-11.8438
▁ratoon	-11.8439
▁Ashok	-11.8439
984	-11.844
▁Virus	-11.8442
PT	-11.8443
2017	-11.8446
▁dept	-11.8447
▁ssoo	-11.8449
▁JJ	-11.8449
nnu	-11.8465
jor	-11.8467
fortified	-11.8469
ova	-11.847
▁Plains	-11.847
▁eventual	-11.847
▁campus	-11.8472
▁AAU	-11.8477
▁silt	-11.8484
295	-11.8485
ahi	-11.8485
▁twi	-11.8486
leaf	-11.849
ppm	-11.8491
▁plate	-11.8492
▁thorough	-11.8495
▁disinfect	-11.8495
▁cooperatives	-11.8496
▁Sree	-11.8498
170	-11.8498
Helicoverpa	-11.8502
▁acquired	-11.8502
▁Tuber	-11.8502
▁edition	-11.8502
▁conversion	-11.8503
▁Northern	-11.8503
▁quail	-11.8504
▁Raja	-11.8504
alaya	-11.8507
▁Recently	-11.8509
▁Test	-11.851
▁6-8	-11.852
▁Second	-11.8521
121	-11.8522
033	-11.8522
8,000	-11.8528
▁herbs	-11.8531
▁Rose	-11.8533
structured	-11.8543
004	-11.8544
311	-11.8546
▁137	-11.8548
942	-11.8549
inch	-11.855
▁harvester	-11.855
erial	-11.8554
▁advancements	-11.856
tun	-11.8562
▁turning	-11.8564
945	-11.8565
▁ASRB	-11.8567
▁Features	-11.8567
▁Significant	-11.8567
▁destruction	-11.8567
▁excellence	-11.8567
▁harzianum	-11.8567
▁mukta	-11.8567
▁pollinator	-11.8567
▁puddling	-11.8567
▁quintle	-11.8567
▁Fungal	-11.8567
▁relating	-11.8567
▁digging	-11.8567
▁undertake	-11.8567
▁regulate	-11.8568
inciacla	-11.8569
▁thermal	-11.857
▁lid	-11.8571
illary	-11.8575
▁accelerate	-11.8577
▁notice	-11.8578
▁accounting	-11.8582
▁.5	-11.8586
obu	-11.8589
▁advances	-11.8593
210	-11.8596
dai	-11.8597
iF	-11.86
2012	-11.8601
▁Agronomy	-11.8603
ime	-11.8603
698	-11.8604
.2020	-11.8612
▁normally	-11.8614
▁sustaining	-11.8616
sponsored	-11.8632
▁Company	-11.8632
▁Component	-11.8632
▁bijapur	-11.8632
▁flavor	-11.8632
▁proceedings	-11.8632
▁shedding	-11.8633
hera	-11.8633
fic	-11.8636
/200	-11.8641
arious	-11.8645
570	-11.8648
▁earn	-11.8649
165	-11.8652
▁restricted	-11.8655
▁sound	-11.8657
▁1-1.5	-11.8658
358	-11.8661
▁necessitat	-11.8662
637	-11.8664
▁electric	-11.8664
▁destroyed	-11.8667
▁0.18	-11.8681
Rajasthan	-11.8681
▁register	-11.8683
▁publish	-11.8683
▁breeders	-11.8683
▁heating	-11.8693
▁Employee	-11.8697
▁Laboratory	-11.8697
▁Provision	-11.8697
▁Tolerant	-11.8697
▁bordeux	-11.8697
▁cyclone	-11.8697
▁distinguish	-11.8697
▁molases	-11.8697
▁permanganate	-11.8697
▁principal	-11.8697
▁subscription	-11.8697
▁tailored	-11.8697
▁Pathology	-11.8697
consuming	-11.8697
▁Moringa	-11.8697
▁travel	-11.8697
▁medak	-11.8697
▁Duration	-11.8697
▁regime	-11.8697
▁Sheep	-11.8698
▁Pesticide	-11.8698
▁placing	-11.8698
eennccee	-11.8698
▁pride	-11.8698
▁bred	-11.8703
▁Off	-11.8706
▁mol	-11.8708
▁Very	-11.871
tural	-11.8711
▁Oku	-11.8711
393	-11.8719
▁reliance	-11.8719
▁task	-11.8719
GO	-11.8721
▁inhibitor	-11.8722
968	-11.8723
tura	-11.8726
▁UN	-11.8728
▁Mt	-11.8731
159	-11.8732
ckle	-11.8735
▁enzymes	-11.8736
▁born	-11.8737
▁credited	-11.8744
▁PCR	-11.8745
▁176	-11.8758
▁978-81-7164-	-11.8763
▁Cluster	-11.8763
▁mandarin	-11.8763
▁resolve	-11.8763
▁Status	-11.8763
▁Mandate	-11.8764
▁refinement	-11.8764
▁niche	-11.8764
▁bright	-11.8766
▁genetically	-11.8767
660	-11.8768
▁003	-11.8775
nI	-11.8779
▁musli	-11.8781
▁assisted	-11.8782
▁waterlogged	-11.8787
flower	-11.8788
▁Entomology	-11.8793
▁screening	-11.8803
▁partnerships	-11.8804
mantri	-11.8805
position	-11.8807
▁consume	-11.8815
▁rely	-11.8816
929	-11.8818
proof	-11.8818
492	-11.8818
▁dug	-11.8821
▁plaster	-11.8821
ABI	-11.8824
▁engag	-11.8824
▁Because	-11.8829
▁assigned	-11.8829
▁golaghat	-11.8829
▁iodine	-11.8829
▁ancient	-11.8829
down	-11.8829
▁assets	-11.883
▁fatty	-11.8831
▁basil	-11.8832
490	-11.8833
hou	-11.8834
▁germs	-11.8835
oorrmmataitoion	-11.8837
▁classes	-11.8839
▁rotten	-11.8842
▁sugg	-11.8842
▁CICR	-11.8843
413	-11.8844
▁qualifi	-11.8845
▁PPR	-11.8848
▁parasite	-11.8852
▁externally	-11.8857
▁bullocks	-11.887
▁lamb	-11.8872
▁Lac	-11.8876
▁fee	-11.8886
▁ducklings	-11.8888
▁NDRI	-11.8888
▁sero	-11.8891
▁popul	-11.8892
@3	-11.8895
IGFRI	-11.8896
▁Chinese	-11.8896
▁abundance	-11.8896
▁ccuullttiivvaa	-11.8896
NICRA	-11.8896
▁bleeding	-11.8896
▁PLAN	-11.8896
▁enrox	-11.8896
▁inactive	-11.8896
▁Guava	-11.8896
521	-11.8896
▁Prevention	-11.8897
NAIP	-11.8897
3.7	-11.8898
▁history	-11.8898
aaggee	-11.8905
▁cord	-11.8908
vati	-11.8912
474	-11.8918
▁naga	-11.8921
▁sustained	-11.8922
@4	-11.8926
▁Follow	-11.8935
▁Sea	-11.8939
phon	-11.894
▁retained	-11.8945
▁capsules	-11.895
resilient	-11.8951
phosphate	-11.8952
(1)	-11.8954
visit	-11.8955
▁goa	-11.8957
▁Best	-11.8958
rch	-11.8962
▁neutral	-11.8963
▁transcript	-11.8963
pollinated	-11.8963
▁Aphid	-11.8963
▁Bareilly	-11.8963
▁Unique	-11.8963
▁evident	-11.8963
▁possibility	-11.8963
▁succinic	-11.8963
▁background	-11.8963
▁client	-11.8963
▁plug	-11.8964
igger	-11.8965
▁spatial	-11.8968
692	-11.8973
▁Considering	-11.8977
1111	-11.8979
▁Conduct	-11.8981
▁Muk	-11.8988
▁bullock	-11.8988
▁constituents	-11.899
▁listed	-11.8991
584	-11.8991
640	-11.8992
▁stated	-11.8992
232	-11.8997
▁developmental	-11.9004
▁gases	-11.9005
▁ample	-11.9007
▁antioxidants	-11.9009
trans	-11.9012
▁0.33	-11.9015
-95	-11.9017
▁stag	-11.9018
security	-11.9019
Directorate	-11.902
▁maps	-11.9022
lima	-11.9028
▁emitt	-11.9029
▁Chapter	-11.903
▁balrampur	-11.903
▁bilaspur	-11.903
▁degraded	-11.903
▁encompass	-11.903
▁warangal	-11.903
▁rejected	-11.903
▁girth	-11.903
▁Resilien	-11.903
▁ZPD	-11.9031
▁isolation	-11.9031
GM	-11.9031
▁kantha	-11.9031
▁route	-11.9032
▁35-40	-11.9034
▁alongwith	-11.9035
▁18-40	-11.9036
▁Japan	-11.9036
▁Take	-11.904
▁expanded	-11.9042
137	-11.9042
made	-11.9043
631	-11.9043
▁Ban	-11.9047
▁tax	-11.9048
284	-11.905
▁BAU	-11.9053
▁designing	-11.9053
171	-11.9054
Proposed	-11.9055
▁bbuu	-11.9056
169	-11.9064
0000.0	-11.9064
▁dna	-11.9067
▁030	-11.9068
tuurree	-11.907
762	-11.907
214	-11.9072
▁warming	-11.9073
rev	-11.9074
448	-11.9083
988	-11.9087
608	-11.9093
Pusa	-11.9093
▁12-15	-11.9096
▁Cho	-11.9098
▁digestive	-11.9098
▁dursban	-11.9098
▁integral	-11.9098
▁subscriber	-11.9098
▁literature	-11.9098
▁Lanka	-11.9098
▁Niger	-11.9099
▁considerably	-11.9099
▁basins	-11.9099
▁baby	-11.9099
▁fluid	-11.91
▁envisaged	-11.9101
▁trout	-11.9101
▁HRM	-11.9101
▁Wood	-11.9102
▁cheaper	-11.9102
▁hazards	-11.9103
▁Communication	-11.9103
▁villagers	-11.9105
eersr	-11.9109
▁possesses	-11.911
770	-11.911
▁costly	-11.9113
▁BE	-11.9113
▁broader	-11.912
6.50	-11.9121
▁scraper	-11.9122
Punjabi	-11.9123
▁enzyme	-11.9126
▁tiller	-11.9127
▁Main	-11.9128
▁4-6	-11.9135
▁pprr	-11.9139
220	-11.9139
dress	-11.914
795	-11.9143
095	-11.9149
@25	-11.9154
▁Proso	-11.9155
▁0.70	-11.9157
Variety	-11.9157
▁cchh	-11.9162
355	-11.9165
▁Jalkund	-11.9167
▁december	-11.9167
▁photosynthetic	-11.9167
▁cherry	-11.9167
▁quinalphos	-11.9167
▁sharp	-11.9168
▁stay	-11.9169
▁Plastic	-11.9172
HI	-11.9173
agu	-11.9174
rian	-11.9175
▁Meat	-11.9175
▁tune	-11.9183
▁biofertilizers	-11.9184
▁Sah	-11.9185
▁moved	-11.9191
▁flag	-11.9191
730	-11.9195
▁disorder	-11.9195
1993	-11.9196
603	-11.9197
▁separat	-11.9199
▁8.5	-11.9201
hill	-11.9201
uucchh	-11.9202
▁primer	-11.9206
▁Sta	-11.9206
▁1995	-11.9212
▁751	-11.9216
▁replace	-11.9218
tel	-11.922
424	-11.9222
▁soak	-11.9226
dap	-11.9226
blitox	-11.9227
▁singh	-11.9233
▁Agreement	-11.9236
▁Livelihood	-11.9236
▁Sahiwal	-11.9236
▁berseem	-11.9236
▁metabolism	-11.9236
▁pandemic	-11.9236
▁supplies	-11.9236
▁Course	-11.9236
▁Palampur	-11.9236
▁crystal	-11.9236
▁milch	-11.9236
▁jackfruit	-11.9236
▁replacing	-11.9236
▁rajma	-11.9236
▁coordinator	-11.9236
▁ridgegourd	-11.9236
123	-11.9236
Ac	-11.9237
▁biotechnology	-11.9237
▁assay	-11.9237
▁Later	-11.9238
495	-11.9242
▁loosen	-11.9246
▁nodes	-11.9247
462	-11.9248
▁upward	-11.9249
▁trenches	-11.9251
▁failed	-11.9253
▁Trial	-11.9255
tata	-11.9257
▁participate	-11.9261
dip	-11.9265
▁plain	-11.9266
714	-11.9272
omo	-11.9274
ich	-11.9274
▁opened	-11.9277
037	-11.9278
▁Lower	-11.928
249	-11.928
ccoo	-11.9291
380	-11.9292
genic	-11.9298
▁dl	-11.93
hala	-11.93
inngg	-11.93
▁gear	-11.9304
▁Where	-11.9305
▁hhiigghh	-11.9305
▁RReevvoolulutit	-11.9305
▁Ecosystem	-11.9305
▁OUAT	-11.9305
▁RReeppoortr	-11.9305
▁configuration	-11.9305
▁convergence	-11.9305
▁parasitoid	-11.9305
▁percolation	-11.9305
▁pprrooddu	-11.9305
▁snail	-11.9305
▁packing	-11.9305
▁Seaweed	-11.9305
▁recharge	-11.9307
vitamin	-11.9307
▁biochar	-11.9307
▁settle	-11.9308
▁Cropping	-11.9308
▁graduates	-11.9309
▁7.6	-11.9314
485	-11.9315
2010	-11.9316
▁drones	-11.9318
▁eby	-11.9324
oides	-11.9325
▁Treated	-11.9325
MAP	-11.9331
▁0.60	-11.9339
2.60	-11.9343
95.	-11.9343
153	-11.9345
296	-11.9347
▁germinate	-11.9347
BH	-11.9349
▁prime	-11.9353
eter	-11.9355
JRF	-11.9357
261	-11.9359
tensive	-11.936
ARS	-11.9361
▁BNBt	-11.9363
▁17.8	-11.9367
IIHR	-11.9368
712	-11.9369
being	-11.9369
▁Recent	-11.9372
flu	-11.9373
Private	-11.9375
▁Ecological	-11.9375
▁Secretariat	-11.9375
▁colony	-11.9375
▁elliptic	-11.9375
▁themselves	-11.9375
▁Fixed	-11.9375
▁Lentil	-11.9375
▁editing	-11.9375
▁ammonia	-11.9375
▁Particular	-11.9375
▁gently	-11.9375
▁Blue	-11.9375
▁paragraph	-11.9375
▁sapota	-11.9376
▁Indore	-11.9377
▁curd	-11.9378
▁larval	-11.9378
▁wave	-11.9379
▁fallen	-11.938
▁enquiry	-11.9382
▁sms	-11.9382
▁seedbed	-11.9388
456	-11.9388
▁GIS	-11.9389
nur	-11.939
114	-11.9391
▁deb	-11.9391
▁fertilized	-11.9391
fif	-11.9392
▁purchased	-11.9393
316	-11.9394
▁stalks	-11.9397
▁explore	-11.9399
▁realize	-11.9402
▁Character	-11.9403
▁happen	-11.9407
▁NAHEP	-11.9411
1.50	-11.9412
▁Card	-11.9425
767	-11.9432
▁slight	-11.9435
▁Fat	-11.9438
▁1/3	-11.9438
▁Phytophthora	-11.9443
▁Ver	-11.9444
uantity	-11.9445
=8.3	-11.9446
Calotropis	-11.9446
▁Efficient	-11.9446
▁Examination	-11.9446
▁Guwahati	-11.9446
▁Prospects	-11.9446
▁adilabad	-11.9446
▁administration	-11.9446
▁eligibility	-11.9446
▁eliminating	-11.9446
▁feasible	-11.9446
▁hundred	-11.9446
▁medication	-11.9446
▁coarse	-11.9446
▁Enhancement	-11.9446
▁phenolic	-11.9448
▁Online	-11.9449
▁Contribution	-11.945
▁snow	-11.9459
▁sky	-11.9469
▁judicious	-11.9472
▁predators	-11.9474
iivv	-11.9475
329	-11.9476
▁student	-11.9478
▁llii	-11.9489
399	-11.949
▁Only	-11.9498
575	-11.9504
674	-11.9508
948	-11.951
chemistry	-11.9516
▁Technological	-11.9516
▁ZONE	-11.9516
▁carminative	-11.9516
▁circle	-11.9516
▁dakshin	-11.9516
▁paraganas	-11.9516
▁thread	-11.9516
▁transparent	-11.9516
▁tthhrroouugghh	-11.9516
▁Indicator	-11.9516
▁miligram	-11.9516
▁Smt	-11.9517
▁Turn	-11.9517
▁leverag	-11.9517
▁sep	-11.9517
▁Adult	-11.9517
▁fitted	-11.9517
▁weakness	-11.9518
▁PBW	-11.9518
▁agreement	-11.9522
989	-11.9524
▁2027	-11.9525
▁esa	-11.9526
619	-11.9526
▁cyt	-11.9527
▁leaflets	-11.9529
icate	-11.9533
puram	-11.9535
tle	-11.9536
366	-11.9543
fall	-11.9544
▁transform	-11.9544
mani	-11.9544
vet	-11.9545
▁dynamic	-11.955
tyy	-11.9551
▁assume	-11.9556
30.00	-11.9568
ksa	-11.9569
645	-11.9572
695	-11.9576
383	-11.9582
1000	-11.9585
streptomycin	-11.9585
addition	-11.9585
685	-11.9585
climate	-11.9586
33333333333	-11.9587
aught	-11.9588
▁TTrraannssff	-11.9588
▁Anonymous	-11.9588
▁Estimates	-11.9588
▁Statistics	-11.9588
▁backstopping	-11.9588
▁botanical	-11.9588
▁chamarajanagar	-11.9588
▁compliance	-11.9588
▁davangere	-11.9588
▁dominant	-11.9588
▁packet	-11.9588
▁tamarind	-11.9588
▁driving	-11.9588
▁jelly	-11.9588
▁axillary	-11.9588
▁Vivek	-11.9588
▁genus	-11.9588
▁transmission	-11.9588
▁Prior	-11.9588
▁increment	-11.9588
▁Shiv	-11.9589
▁formulated	-11.9589
021	-11.9589
▁barnyard	-11.959
▁pipeline	-11.959
▁Ragi	-11.9592
947	-11.9593
▁gather	-11.9595
▁TSP	-11.9595
▁226	-11.9599
▁methodology	-11.96
mamectin	-11.9615
▁rotary	-11.962
▁vermicomposting	-11.9622
lop	-11.9623
471	-11.9623
▁FPO	-11.9629
▁7.2	-11.9631
anthi	-11.9633
entrepreneur	-11.9637
487	-11.9642
mph	-11.9645
258	-11.9646
782	-11.9648
▁resolution	-11.965
▁pprree	-11.965
▁Compe	-11.9651
▁enquir	-11.9653
bacteria	-11.9653
▁clones	-11.9654
▁contained	-11.9657
▁Investment	-11.966
▁Purple	-11.966
▁invasive	-11.966
▁migration	-11.966
▁qualitative	-11.966
▁untreated	-11.966
▁Sunflower	-11.966
▁Cooperative	-11.9661
▁Solar	-11.9661
▁0.03	-11.9662
▁uunn	-11.9663
keep	-11.9667
▁accepted	-11.967
3.50	-11.9677
334	-11.9681
▁substantially	-11.9681
▁Gur	-11.9683
uca	-11.9684
▁vehicles	-11.9684
TV	-11.9686
20.00	-11.9687
▁Hari	-11.9691
ertain	-11.9692
514	-11.9695
▁pumping	-11.9701
arai	-11.9703
▁iimmpp	-11.9709
101	-11.9711
675	-11.9714
rach	-11.9714
591	-11.9716
Di	-11.9718
▁visited	-11.9721
▁Clos	-11.9722
flo	-11.9727
operative	-11.973
▁wwee	-11.9731
▁oat	-11.9731
April	-11.9731
parasitic	-11.9731
▁object	-11.9732
▁electro	-11.9732
▁KKVVKKs	-11.9732
▁Temperature	-11.9732
▁beekeeping	-11.9732
▁cifax	-11.9732
▁journey	-11.9732
▁measuring	-11.9732
▁pharmaceutical	-11.9732
▁qualities	-11.9732
▁quarantine	-11.9732
▁Cross	-11.9732
▁invasion	-11.9732
▁packed	-11.9732
▁Ridge	-11.9732
498	-11.9732
▁quantitative	-11.9733
AMAR	-11.9733
▁Shoot	-11.9733
▁bridg	-11.9733
▁Text	-11.9734
▁caseworm	-11.9734
▁compaction	-11.9736
ioonniziz	-11.9736
▁arranged	-11.9737
▁Dark	-11.9738
825	-11.9741
rove	-11.9742
@200	-11.9754
ndra	-11.9755
ury	-11.9756
958	-11.976
roshan	-11.9761
908	-11.9761
fixing	-11.9765
▁Minimum	-11.9769
▁JG	-11.9769
dish	-11.9771
019	-11.9777
@12	-11.9778
▁drink	-11.9778
▁Optim	-11.9782
980	-11.9784
▁Plain	-11.9788
olli	-11.9791
mmpp	-11.9796
▁sprinkle	-11.9801
▁optimized	-11.9802
368	-11.9803
arnyard	-11.9804
▁accommodat	-11.9805
hanerogami	-11.9805
▁Buffalo	-11.9805
▁Isabgol	-11.9805
▁Meerut	-11.9805
▁TTeelleeccoomm	-11.9805
▁burden	-11.9805
▁identity	-11.9805
▁estrus	-11.9805
market	-11.9805
▁School	-11.9805
▁Bottle	-11.9805
rox	-11.9806
▁inspire	-11.9806
pressure	-11.9806
▁dependence	-11.9806
▁biocontrol	-11.9807
▁ibd	-11.9807
▁felt	-11.9807
▁trays	-11.9808
itcic	-11.9815
▁NNaa	-11.9816
HU	-11.982
aila	-11.9827
,00,000	-11.983
priya	-11.983
▁imported	-11.9832
kul	-11.9835
▁lesion	-11.9843
▁device	-11.9844
636	-11.9847
897	-11.9849
262	-11.9852
▁threaten	-11.9852
▁173	-11.9853
▁detected	-11.9854
407	-11.9858
▁span	-11.9861
▁deposit	-11.9861
476	-11.9863
▁initiate	-11.987
gni	-11.9875
bro	-11.9875
versity	-11.9878
▁Headquarters	-11.9879
▁ISBN	-11.9879
▁Microbiology	-11.9879
▁Pomegranate	-11.9879
▁bagalkot	-11.9879
▁barpeta	-11.9879
▁belgaum	-11.9879
▁dhubri	-11.9879
▁frozen	-11.9879
▁rangareddi	-11.9879
▁steady	-11.9879
parasite	-11.9879
Cassia	-11.988
drawn	-11.988
ATARI	-11.988
▁Cowpea	-11.988
▁erode	-11.9882
guard	-11.9882
▁wax	-11.9882
typ	-11.9883
▁popularization	-11.9883
▁cutter	-11.9888
428	-11.9888
arna	-11.9889
▁propagated	-11.989
705	-11.9891
third	-11.9894
▁linear	-11.9895
422	-11.9896
mara	-11.9898
borer	-11.9903
2001	-11.9908
▁Healthy	-11.9909
▁interact	-11.9911
▁0.36	-11.9919
told	-11.992
4400	-11.9923
New	-11.9928
rreedd	-11.9931
230769230769	-11.9939
836	-11.9941
▁equally	-11.9942
aavv	-11.9944
615	-11.9946
▁vigor	-11.9952
uinciactaitoionn	-11.9952
▁Accreditation	-11.9953
▁Brazil	-11.9953
▁Material	-11.9953
▁Physiology	-11.9953
▁Recruitment	-11.9953
▁Shisham	-11.9953
▁chosen	-11.9953
▁disseminate	-11.9953
▁feroliv	-11.9953
▁glucose	-11.9953
▁switch	-11.9953
▁versatile	-11.9953
▁whiteflies	-11.9953
Brassica	-11.9953
▁readily	-11.9953
▁writing	-11.9953
▁ffaarrmmeresr	-11.9953
▁cutworm	-11.9955
▁flock	-11.9956
466	-11.996
▁cloves	-11.9961
771	-11.9964
▁aerial	-11.9967
▁greenish	-11.9972
bat	-11.9979
2967	-11.9979
plasm	-11.998
phag	-11.9988
2014	-11.999
▁orchid	-11.9993
kj	-11.9993
If	-11.9994
llium	-11.9996
rraamm	-12.0005
193	-12.0014
▁mention	-12.0017
phen	-12.0018
▁license	-12.0019
▁brief	-12.002
▁mandi	-12.0027
▁Ganjam	-12.0028
▁advertisement	-12.0028
▁afanil	-12.0028
▁alternating	-12.0028
▁appetite	-12.0028
▁neglect	-12.0028
▁nuvacron	-12.0028
▁pepsid	-12.0028
▁stubble	-12.0028
▁sulcoprim	-12.0028
▁urinary	-12.0028
▁Lemon	-12.0028
choosing	-12.0028
▁Internet	-12.0028
▁layout	-12.0028
▁Zero	-12.0028
▁Mineral	-12.0029
▁Mha	-12.0029
▁Raipur	-12.0029
▁instruments	-12.0033
▁(2-4	-12.0035
cru	-12.0043
956	-12.0043
np	-12.0047
573	-12.005
▁breaking	-12.0061
247	-12.0067
140.0	-12.0072
▁Jh	-12.0073
▁Rate	-12.0074
547	-12.0074
abar	-12.0077
▁began	-12.0083
469	-12.0084
etal	-12.0086
▁Sind	-12.009
740	-12.0096
▁accordingly	-12.0099
organic	-12.0102
▁front	-12.0102
▁Rupees	-12.0103
▁biscuit	-12.0103
▁hatcheries	-12.0103
▁rheumatism	-12.0103
▁sequencing	-12.0103
▁subtilis	-12.0103
▁prolonged	-12.0103
▁finish	-12.0103
▁cashewnut	-12.0103
▁window	-12.0105
▁adhere	-12.0106
work	-12.0106
638	-12.0107
▁Coordination	-12.0111
▁filed	-12.0116
▁Anthracnose	-12.012
526	-12.0121
684	-12.0129
356	-12.0129
▁5.8	-12.013
▁mega	-12.0133
▁Mohan	-12.0134
278	-12.0134
zone	-12.0135
last	-12.0137
307	-12.0138
ISA	-12.0139
Ext	-12.014
▁relieve	-12.014
anya	-12.0143
▁Automat	-12.0144
▁ingredient	-12.0145
tification	-12.0157
fur	-12.0161
▁dams	-12.0161
2.20	-12.0168
633	-12.0177
regulated	-12.0177
icin	-12.0178
Framework	-12.0178
▁Barrackpore	-12.0178
▁Conclusion	-12.0178
▁Vaccine	-12.0178
▁curricula	-12.0178
▁ddeevveelloopp	-12.0178
▁diabetes	-12.0178
▁mahbubnagar	-12.0178
▁pratapgarh	-12.0178
▁verification	-12.0178
▁Assets	-12.0178
▁Index	-12.0178
▁PEST	-12.0179
▁connection	-12.0179
▁organisation	-12.0179
▁prophylactic	-12.0179
▁Profile	-12.0179
▁Extn	-12.0179
▁automatically	-12.0179
▁smear	-12.0179
▁occurring	-12.0179
703	-12.0181
▁enclos	-12.0182
▁DAC	-12.0182
known	-12.0185
436	-12.0187
▁fruitfly	-12.0188
ambu	-12.0188
▁permission	-12.019
442	-12.0192
662	-12.0192
▁regulatory	-12.0194
733	-12.0194
cies	-12.0196
▁Roy	-12.0197
aceous	-12.0197
▁bait	-12.0199
ipping	-12.0201
etre	-12.0202
446	-12.0203
605	-12.0204
893	-12.0204
DB	-12.0205
asia	-12.0208
plly	-12.021
▁ppeerr	-12.0214
▁outbreak	-12.0222
▁alleviat	-12.0223
▁indicator	-12.0223
-31	-12.0224
773	-12.0227
▁Bhat	-12.0229
416	-12.023
▁weaken	-12.0231
▁ssttaa	-12.0231
extremely	-12.0231
721	-12.0236
711	-12.0236
616	-12.0239
▁Mandi	-12.0239
ngue	-12.0243
987	-12.0245
bred	-12.025
▁Mechanization	-12.0255
▁irrespective	-12.0255
▁preperation	-12.0255
▁Expert	-12.0255
▁acknowledg	-12.0255
▁manifest	-12.0255
▁nalbari	-12.0255
▁NASF	-12.0255
ebimera	-12.0255
▁societies	-12.0255
▁Suresh	-12.0255
▁topography	-12.0256
▁wetting	-12.0258
▁Advisory	-12.0259
path	-12.026
314	-12.0261
technology	-12.0261
system	-12.0262
▁benefitted	-12.0265
226	-12.0277
865	-12.029
543	-12.0297
▁coli	-12.03
HT	-12.0301
▁sized	-12.0301
pm	-12.0319
443	-12.0331
▁Availability	-12.0332
▁Future	-12.0332
▁additive	-12.0332
▁bevistin	-12.0332
▁feasibility	-12.0332
▁teaspoon	-12.0332
▁tumkur	-12.0332
▁aeroponic	-12.0332
DMAPR	-12.0332
▁Fibre	-12.0332
▁Wild	-12.0332
tulsi	-12.0332
▁Continuous	-12.0332
umba	-12.0332
▁seminar	-12.0333
▁Weight	-12.0333
▁thinning	-12.0334
▁proso	-12.0337
▁GPS	-12.0338
please	-12.034
▁Ranja	-12.0343
▁0.55	-12.0347
version	-12.0351
▁Weeding	-12.0352
auri	-12.0353
▁(0.1	-12.0355
▁Dte	-12.0356
4.50	-12.0357
▁awarded	-12.036
▁fourth	-12.0362
mitted	-12.0365
▁supplemented	-12.0366
390	-12.0367
tttt	-12.0369
▁0.12	-12.0376
▁fingerling	-12.0381
▁constraint	-12.0383
▁dys	-12.0383
301	-12.0389
LM	-12.039
wwaa	-12.0393
127	-12.0395
aji	-12.0399
anni	-12.0403
883	-12.0403
▁2050	-12.0407
shattering	-12.0409
▁Tobacco	-12.0409
▁alkalinity	-12.0409
▁amistar	-12.0409
▁bulletin	-12.0409
▁capabilities	-12.0409
▁prosperity	-12.0409
▁sprinkling	-12.0409
▁tafgor	-12.0409
▁wrong	-12.0409
▁accumulate	-12.0409
continent	-12.0409
NRCPB	-12.0409
bacterium	-12.041
▁discard	-12.041
▁entrepreneurial	-12.041
▁evolution	-12.0411
CISH	-12.0411
▁pigment	-12.0412
630	-12.0412
▁SW	-12.0415
▁setts	-12.0416
▁Oct	-12.0417
NDRI	-12.0419
▁IItt	-12.0421
349	-12.0421
FI	-12.0422
▁mange	-12.0424
▁deposited	-12.0424
939	-12.0424
▁wine	-12.0425
▁7-8	-12.0427
lated	-12.0429
▁dye	-12.0431
minent	-12.0433
426	-12.0439
▁say	-12.0441
2003	-12.0443
econdary	-12.0455
▁predator	-12.0458
▁coco	-12.0459
oop	-12.046
460	-12.0464
568	-12.0464
▁Men	-12.0464
397	-12.0468
▁Thiru	-12.0469
639	-12.0472
illi	-12.0477
689	-12.0483
▁granted	-12.0483
▁vide	-12.0484
▁4.6	-12.0485
346	-12.0485
▁EEnnggiinneeeer	-12.0487
▁CIAT	-12.0487
▁Custom	-12.0487
▁INDIA	-12.0487
▁Infrastructure	-12.0487
▁hamirpur	-12.0487
▁hospital	-12.0487
▁nizamabad	-12.0487
▁repository	-12.0487
▁satellite	-12.0487
▁sivasagar	-12.0487
▁abroad	-12.0487
▁LGP	-12.0487
▁queries	-12.0487
▁Stress	-12.0487
▁snowfall	-12.0487
▁incurred	-12.0487
▁safeguard	-12.0488
▁(1993)	-12.0489
595	-12.049
▁80.0	-12.049
▁PVC	-12.0495
▁strictly	-12.0495
654	-12.0497
processing	-12.0498
▁observ	-12.0499
▁relie	-12.0499
▁mau	-12.0501
▁merit	-12.0505
▁Place	-12.0507
430	-12.0508
phan	-12.0522
▁beverages	-12.053
BR	-12.053
▁dn	-12.0533
▁prevail	-12.0538
3.33	-12.0539
ulated	-12.0547
▁peer	-12.0551
ogenic	-12.0554
576	-12.0555
mmeentn	-12.0557
▁prompt	-12.0559
628	-12.0559
▁CCS	-12.0561
▁Sale	-12.0561
iiddee	-12.0561
▁Month	-12.0562
▁Azolla	-12.0566
▁Carbon	-12.0566
▁Identify	-12.0566
▁Populus	-12.0566
▁Technique	-12.0566
▁dimecron	-12.0566
▁occupie	-12.0566
▁thuringiensis	-12.0566
▁whitish	-12.0566
▁Nominee	-12.0566
▁Install	-12.0566
▁Waste	-12.0566
▁odour	-12.0566
▁organizing	-12.0567
7.50	-12.0568
▁6.3	-12.0569
▁petal	-12.057
::2200	-12.0571
▁reinforced	-12.0572
▁faec	-12.0572
▁witnessed	-12.0572
▁stomachic	-12.0576
▁exclusively	-12.0577
except	-12.0578
CAFT	-12.0578
▁parental	-12.0578
saving	-12.058
666	-12.058
▁angle	-12.0581
▁updated	-12.0581
▁transformed	-12.0582
March	-12.0582
achi	-12.0583
▁explored	-12.0584
▁UV	-12.0586
▁1996	-12.059
OS	-12.0594
▁legal	-12.0595
▁scion	-12.0597
▁0.99	-12.0604
▁broadcasting	-12.0605
▁safely	-12.0613
109	-12.0615
ugu	-12.0618
lap	-12.0619
urban	-12.0621
ography	-12.0629
▁MON	-12.0631
apati	-12.064
ologist	-12.0641
708	-12.0643
292	-12.0644
requisite	-12.0645
▁Jyoti	-12.0645
▁erratic	-12.0645
▁morphological	-12.0645
▁vulnerability	-12.0645
▁assurance	-12.0645
▁darrang	-12.0645
=115.6	-12.0645
▁Excess	-12.0645
▁GDP	-12.0645
▁looper	-12.0645
▁terrain	-12.0645
▁331122228	-12.0645
▁Indira	-12.0646
▁leguminous	-12.0646
▁Fellowship	-12.0646
Revised	-12.0646
▁internet	-12.0647
▁FLDs	-12.0648
▁uusseedd	-12.0648
▁8713	-12.0648
▁respiration	-12.0648
▁Just	-12.0649
▁wherever	-12.0649
107	-12.0652
atti	-12.0655
▁SiA	-12.0658
2255	-12.0658
▁Till	-12.0661
awn	-12.0663
▁printed	-12.0665
KA	-12.0666
▁infect	-12.0667
riinngg	-12.0672
▁Forest	-12.0674
▁alleviate	-12.0679
025	-12.0679
458	-12.0681
623	-12.0686
▁Now	-12.0693
bac	-12.0694
9.20	-12.0695
▁chapter	-12.0696
▁carbohydrate	-12.0696
sscc	-12.0698
294	-12.0701
▁15,000	-12.0705
518	-12.0709
pox	-12.071
1.75	-12.0711
1.25	-12.0711
414	-12.0724
▁Age	-12.0725
Kiphire	-12.0725
▁Jawahar	-12.0725
▁Tropical	-12.0725
▁damaging	-12.0725
▁fumigation	-12.0725
▁thrust	-12.0725
▁underutilized	-12.0725
cellulose	-12.0725
▁Deemed	-12.0725
▁carotenoid	-12.0725
▁Observations	-12.0725
▁Pandey	-12.0725
▁false	-12.0725
bikoola	-12.0725
▁organised	-12.0726
▁inoculation	-12.0726
▁priorities	-12.0726
▁bidar	-12.0728
▁motor	-12.0728
sphere	-12.0728
▁matrix	-12.0731
▁000,0	-12.0732
▁Incharge	-12.0733
▁fermented	-12.0734
▁fleshy	-12.0736
620	-12.0737
field	-12.074
furrow	-12.074
▁Currently	-12.0743
kku	-12.0745
ccyy	-12.0749
elia	-12.0752
▁fig	-12.0754
▁declined	-12.0756
rati	-12.0758
▁locality	-12.076
Plant	-12.0764
▁biopesticides	-12.0767
▁Ven	-12.077
617	-12.0773
liable	-12.0773
ordinate	-12.0775
▁Product	-12.0775
▁ddii	-12.0781
▁career	-12.0797
verse	-12.0803
▁Mini	-12.0803
▁pseudo	-12.0806
=106.7	-12.0806
=107.0	-12.0806
=109.2	-12.0806
NBAIR	-12.0806
▁charcoal	-12.0806
▁compilation	-12.0806
▁entitled	-12.0806
▁manganese	-12.0806
▁motivate	-12.0806
▁serving	-12.0806
▁ssiiggnn	-12.0806
▁volatile	-12.0806
=113.6	-12.0806
RKVY	-12.0806
▁mandya	-12.0806
▁search	-12.0807
ather	-12.0807
▁exported	-12.0808
▁lactation	-12.0809
wide	-12.081
▁balod	-12.0819
▁ddiiss	-12.0824
▁compromis	-12.0827
33333333333333	-12.0828
▁Cold	-12.0829
▁concentrated	-12.0831
003	-12.0831
656	-12.0833
uva	-12.0834
378	-12.0835
829	-12.0838
▁saved	-12.0849
▁dal	-12.085
635	-12.0856
rata	-12.0857
398	-12.0857
748	-12.0866
▁iinntteerr	-12.087
▁0.17	-12.087
▁1,500	-12.0873
▁recogniz	-12.0873
lux	-12.0873
580	-12.0874
▁strict	-12.0881
924	-12.0881
▁Germplasm	-12.0887
▁emulsion	-12.0887
▁synthesis	-12.0887
▁transpiration	-12.0887
▁flakes	-12.0887
▁utilis	-12.0887
▁Grass	-12.0887
▁mahua	-12.0888
▁Extract	-12.0888
▁alkaline	-12.0888
▁Srinagar	-12.0888
▁hemispherical	-12.0889
▁slug	-12.0889
▁catla	-12.0891
▁biology	-12.0891
tteenn	-12.0894
▁det	-12.0899
domil	-12.0904
zinc	-12.0905
cious	-12.0906
▁Host	-12.0908
cross	-12.091
▁spent	-12.0913
sls	-12.0918
▁original	-12.0926
▁Lam	-12.0938
valu	-12.0939
▁genera	-12.0941
▁vehicle	-12.0942
2.40	-12.0944
OO	-12.0949
10.00	-12.095
▁adequately	-12.0953
▁feel	-12.0956
1.80	-12.0959
▁Forage	-12.0961
895	-12.0964
582	-12.0966
disciplinary	-12.0967
533	-12.0969
▁disturb	-12.0969
NBFGR	-12.0969
Ocimum	-12.0969
▁Consequently	-12.0969
▁Species	-12.0969
▁broken	-12.0969
▁chittoor	-12.0969
▁correlation	-12.0969
▁computer	-12.0969
▁fittings	-12.0969
▁Textbook	-12.0969
▁bagging	-12.0969
▁metro	-12.0969
▁whorl	-12.0969
▁frontier	-12.097
▁pkt	-12.097
▁Wheth	-12.097
▁berries	-12.097
▁agromycin	-12.097
▁improper	-12.097
▁MTU	-12.0972
tourism	-12.0972
6,000	-12.0973
▁DDee	-12.0974
789	-12.0978
▁Gold	-12.098
▁experimentation	-12.0982
▁bore	-12.0985
november	-12.0987
rogor	-12.0988
013	-12.099
743	-12.0993
▁restore	-12.0994
▁Back	-12.0994
▁notification	-12.0995
▁reput	-12.1003
book	-12.1004
▁equi	-12.101
903	-12.1011
vation	-12.1012
273	-12.1012
919	-12.1015
119	-12.1016
▁ball	-12.1019
870	-12.1022
▁pf	-12.1024
rusting	-12.1027
954	-12.103
833	-12.1036
▁Mela	-12.104
ziz	-12.104
xii	-12.1045
627	-12.1046
▁Azamgarh	-12.1052
▁Azospirillum	-12.1052
▁Mexico	-12.1052
▁Srivastava	-12.1052
▁antiseptic	-12.1052
▁fentas	-12.1052
▁mandatory	-12.1052
▁molecule	-12.1052
▁occupation	-12.1052
▁philosophy	-12.1052
▁intamox	-12.1052
Rhizo	-12.1052
▁bellary	-12.1052
▁mutant	-12.1052
▁Pruning	-12.1052
▁trainees	-12.1053
▁Receipts	-12.1053
▁Internal	-12.1053
▁grind	-12.1054
▁stover	-12.1058
▁Foot	-12.106
▁CSR	-12.1063
134	-12.1069
HD	-12.1071
hectare	-12.1072
▁negatively	-12.1074
milil	-12.1077
/100	-12.108
serve	-12.1088
▁Mur	-12.1088
326	-12.1089
3000.0	-12.1094
▁JS	-12.1098
321	-12.11
▁secur	-12.1104
bot	-12.1105
0.77	-12.1105
obi	-12.1108
▁haveri	-12.1111
▁Reduce	-12.1111
▁cup	-12.1112
▁join	-12.1116
ecologies	-12.1116
745	-12.1117
▁skilled	-12.1118
patti	-12.1119
353	-12.1121
998	-12.1124
▁Palm	-12.1128
017	-12.1131
▁coast	-12.1134
▁refine	-12.1134
=105.4	-12.1135
=107.5	-12.1135
▁Tripathi	-12.1135
▁Understanding	-12.1135
▁climbing	-12.1135
▁sonitpur	-12.1135
▁spoilage	-12.1135
▁anamika	-12.1135
▁Akola	-12.1135
▁Pathak	-12.1135
ebirime	-12.1135
▁Weather	-12.1136
▁shock	-12.1136
▁ccoommmmunuin	-12.1136
▁lucidum	-12.1137
▁hedge	-12.1137
gular	-12.1138
▁capability	-12.1138
▁relay	-12.1139
▁garhwal	-12.114
▁Incubator	-12.114
659	-12.1142
▁cocoa	-12.1143
957	-12.1143
▁mmaannaaggee	-12.1147
139	-12.1153
MF	-12.1154
▁Collect	-12.1154
406	-12.1161
kam	-12.1161
▁Six	-12.1162
Supplement	-12.1162
409	-12.1164
309	-12.1166
2008	-12.1168
▁hassan	-12.1169
796	-12.1178
▁pash	-12.118
▁infla	-12.1184
▁Safed	-12.1189
▁estimate	-12.119
rix	-12.1195
▁Variet	-12.1203
▁0.24	-12.1205
pose	-12.1205
layer	-12.1209
607	-12.1217
▁organize	-12.1217
▁Mill	-12.1219
▁Cashew	-12.1219
▁Rhizoctonia	-12.1219
▁applicant	-12.1219
▁appointed	-12.1219
▁metabolic	-12.1219
▁premises	-12.1219
▁yojna	-12.1219
▁globe	-12.1219
▁smoke	-12.1219
▁Barley	-12.122
CPRI	-12.122
▁SNP	-12.122
▁jamun	-12.122
▁Approximately	-12.1223
▁Cercospora	-12.1223
▁alkali	-12.1223
▁stain	-12.1224
▁Herb	-12.1225
okul	-12.1226
896	-12.1229
▁confirmed	-12.1231
allabh	-12.1233
333	-12.1236
746	-12.1243
▁seem	-12.1243
induced	-12.1244
2009	-12.1253
▁Jai	-12.1258
toria	-12.1261
▁expand	-12.1262
▁Ranga	-12.1265
701	-12.1267
▁goes	-12.1268
ovate	-12.1273
819	-12.1273
▁18.5	-12.1278
569	-12.1285
594	-12.1286
▁Rich	-12.1291
769	-12.13
=106.5	-12.1304
=107.1	-12.1304
monetary	-12.1304
▁Godavari	-12.1304
▁Mechanical	-12.1304
▁chikmagalur	-12.1304
▁dhemaji	-12.1304
▁kahikuchi	-12.1304
▁khammam	-12.1304
▁precipitation	-12.1304
▁preserving	-12.1304
▁shimoga	-12.1304
▁ssuussttaaiinn	-12.1304
▁sunken	-12.1304
▁Every	-12.1304
=114.8	-12.1304
▁Sometimes	-12.1304
▁durable	-12.1304
▁Multiple	-12.1304
▁specifications	-12.1305
▁proforma	-12.1305
▁ttaka	-12.1305
▁eexxpp	-12.1305
▁instant	-12.1306
▁European	-12.1307
790	-12.1308
▁agreed	-12.131
▁title	-12.1311
▁sense	-12.1325
777	-12.1329
board	-12.133
▁End	-12.1334
aku	-12.1335
▁transforming	-12.1337
857142857142857	-12.1343
▁0.06	-12.1345
548	-12.1368
▁compromise	-12.1368
▁addresses	-12.137
▁Rule	-12.1371
831	-12.1373
▁ppaa	-12.1376
4.80	-12.138
034	-12.138
itting	-12.1382
▁Initial	-12.1382
▁formula	-12.1383
rajan	-12.1383
031	-12.1388
▁compet	-12.1388
768	-12.1389
ppraisal	-12.139
▁Cultural	-12.139
▁bollworm	-12.139
▁ddiisseeaassee	-12.139
▁probably	-12.139
▁versatility	-12.139
▁craft	-12.139
▁ttrraannss	-12.139
▁apex	-12.139
▁aonla	-12.139
▁crossbred	-12.139
oderma	-12.139
▁Labour	-12.139
▁Imphal	-12.1392
516	-12.1393
▁immuno	-12.1393
issi	-12.1395
issu	-12.1395
▁dragon	-12.1395
▁Dip	-12.1399
dld	-12.1405
▁branched	-12.1408
▁accelerated	-12.1413
▁meri	-12.1415
▁doubled	-12.1419
▁ploughed	-12.1422
▁crack	-12.1426
593	-12.1429
▁cured	-12.1431
▁feb	-12.1432
▁alternately	-12.1434
▁Liv	-12.144
eenndd	-12.1444
649	-12.1446
GF	-12.1452
▁3086	-12.1452
metric	-12.1458
371	-12.1458
813	-12.1459
ggoo	-12.1465
exploited	-12.1471
757	-12.1473
257	-12.1474
=100.5	-12.1476
=114.2	-12.1476
▁AIEEA	-12.1476
▁FOOD	-12.1476
▁alkaloids	-12.1476
▁dharwad	-12.1476
▁karimnagar	-12.1476
▁overnight	-12.1476
▁senior	-12.1476
▁scoring	-12.1476
▁talent	-12.1476
Terminal	-12.1476
ntrance	-12.1477
▁textile	-12.1477
145	-12.1477
▁berry	-12.1478
▁indoor	-12.1478
647	-12.1483
949	-12.1486
▁conception	-12.1487
704	-12.1491
▁Dam	-12.1492
▁8.3	-12.1493
▁potion	-12.1496
▁reasonably	-12.1499
720	-12.1499
FYM	-12.1503
indofil	-12.1503
365	-12.1503
▁IIT	-12.1504
▁corner	-12.1505
Appendix	-12.1506
obola	-12.151
2013	-12.1513
▁served	-12.1514
319	-12.1515
▁ootthheer	-12.1518
scarce	-12.1532
▁0.89	-12.1537
940	-12.1537
▁appeared	-12.154
879	-12.154
592	-12.1541
NAM	-12.1545
designated	-12.1548
▁Map	-12.155
▁0.78	-12.1559
▁resist	-12.1562
carotene	-12.1563
▁Maintenance	-12.1563
▁Previous	-12.1563
▁algorithm	-12.1563
▁neighbour	-12.1563
▁prolific	-12.1563
▁vellore	-12.1563
▁Flood	-12.1563
▁Landscap	-12.1563
▁intercropped	-12.1563
18181818181818	-12.1564
queous	-12.1566
Bli	-12.1567
▁advocated	-12.1567
▁Madhu	-12.1569
▁Carp	-12.1571
▁Conventional	-12.1572
▁Hydro	-12.1572
868	-12.1573
877	-12.1575
898	-12.1578
▁Mass	-12.1579
cellular	-12.158
-1250	-12.1583
522	-12.1585
cropping	-12.1591
effectiveness	-12.1594
imp	-12.1594
▁cry	-12.1603
▁agril	-12.1604
▁0.26	-12.1605
▁ranking	-12.1606
421	-12.162
549	-12.1622
ohit	-12.1624
▁instruction	-12.1629
mycin	-12.1633
▁biofertilizer	-12.1634
=115.1	-12.165
NBAIM	-12.165
▁Dendrobium	-12.165
▁advertisers	-12.165
▁aerobic	-12.165
▁allopathic	-12.165
▁bangalore	-12.165
▁expectorant	-12.165
▁koraput	-12.165
▁loofah	-12.165
▁napier	-12.165
▁polyethylene	-12.165
▁prakasam	-12.165
▁replenish	-12.165
▁succeed	-12.165
▁tiruvannamalai	-12.165
▁iinncclluudd	-12.165
▁chief	-12.1651
▁spouse	-12.1651
▁medical	-12.1651
▁enlarge	-12.1651
▁Carrot	-12.1651
▁acceptance	-12.1651
▁agribusiness	-12.1651
▁karbi	-12.1652
▁Machinery	-12.1652
▁BRAN	-12.1652
▁boom	-12.1655
▁ESR	-12.1656
▁cv	-12.1657
▁ranchi	-12.166
▁hybridization	-12.1662
▁shop	-12.1664
▁GRA	-12.1665
536	-12.1668
egis	-12.1669
788	-12.167
▁topdressing	-12.1671
799	-12.1671
644	-12.1676
actor	-12.1677
2002	-12.1677
▁Moti	-12.1678
forestry	-12.1679
▁ddoo	-12.1687
purpose	-12.1688
plan	-12.1689
▁delivered	-12.169
▁SSuu	-12.1698
863	-12.1699
433	-12.17
914	-12.1707
ivet	-12.1709
atio	-12.1714
▁temp	-12.1714
2005	-12.1715
ground	-12.1717
▁organism	-12.1719
▁define	-12.1732
corporation	-12.1735
hth	-12.1739
▁Concept	-12.1739
▁Purchase	-12.1739
▁immemorial	-12.1739
▁kadapa	-12.1739
▁kurnool	-12.1739
▁pprroocceesss	-12.1739
▁spherical	-12.1739
▁Civil	-12.1739
▁sediment	-12.1739
▁suction	-12.1739
▁0.64	-12.1739
▁Sandal	-12.1739
▁commenc	-12.1739
▁Safety	-12.1739
▁2,4-	-12.1739
▁Swaraj	-12.174
▁tiny	-12.174
▁machineries	-12.1741
iittyy	-12.1741
▁algal	-12.1742
382	-12.1746
▁alongside	-12.1746
823	-12.175
094	-12.1756
arable	-12.176
515	-12.1763
▁1991	-12.1765
▁Mixed	-12.1766
▁rotating	-12.177
405	-12.1778
0-300	-12.1785
loom	-12.1787
▁separated	-12.1791
▁random	-12.1793
cona	-12.1796
513	-12.1796
oouunn	-12.1804
▁Dou	-12.1807
719	-12.1815
ophos	-12.182
=110.4	-12.1828
=111.7	-12.1828
▁accomplish	-12.1828
▁avocado	-12.1828
▁blossom	-12.1828
▁consortium	-12.1828
▁dindigul	-12.1828
▁purgative	-12.1828
▁concluded	-12.1828
=113.1	-12.1828
▁orientation	-12.1828
▁gadag	-12.1828
▁dduurr	-12.1828
▁wealth	-12.1828
▁noitp	-12.1828
ernacular	-12.1828
▁sulfur	-12.1829
▁HDPE	-12.1829
▁admitted	-12.1829
▁Bhima	-12.1829
▁proliferation	-12.1829
▁methodologies	-12.183
word	-12.1831
dadra	-12.1831
▁Property	-12.1832
944	-12.1832
▁SAC	-12.1833
▁emphasizes	-12.1833
▁25-35	-12.1834
▁dirt	-12.1834
communica	-12.1834
=117.0	-12.1835
753	-12.1838
▁never	-12.1839
▁ISO	-12.1839
499	-12.1844
▁pupa	-12.185
state	-12.1855
667	-12.186
Eastern	-12.1862
▁SSoo	-12.1862
845	-12.1872
AWC	-12.1873
▁finally	-12.1875
▁CAR	-12.1876
946	-12.1878
14285714285714	-12.1881
▁6000	-12.1886
▁CChh	-12.1891
olv	-12.1892
▁(0.2	-12.1897
098	-12.1903
burn	-12.1908
▁steriliz	-12.1916
▁Assist	-12.1917
805	-12.1917
Vanaraja	-12.1918
▁Cynodon	-12.1918
▁Kadaknath	-12.1918
▁ekalux	-12.1918
▁imperative	-12.1918
▁rroollee	-12.1918
▁showcasing	-12.1918
11-25841282	-12.1918
ualify	-12.1918
▁ATMA	-12.1918
▁buried	-12.1918
▁bundle	-12.1918
Gujrat	-12.1918
▁Depend	-12.1918
▁textbook	-12.1919
▁Normal	-12.1919
▁Frontline	-12.1919
▁purity	-12.1919
▁winged	-12.1919
▁priming	-12.1919
▁ZnSO	-12.192
▁Meena	-12.1921
▁things	-12.1921
Pulse	-12.1922
▁appreciated	-12.1922
ofthe	-12.1926
▁cultivator	-12.1928
▁collectively	-12.193
plus	-12.193
0.13	-12.1932
▁Syn	-12.1932
▁Pink	-12.1935
▁9.8	-12.1938
574	-12.1943
▁Entrepreneur	-12.1945
▁Geo	-12.1945
poor	-12.1947
▁expanding	-12.1948
biotic	-12.1949
▁correctly	-12.1953
▁Sona	-12.1957
▁Breed	-12.1958
▁graded	-12.1959
vitro	-12.1961
itinngg	-12.1962
(11)	-12.1963
327	-12.197
1/2	-12.197
▁noda	-12.1977
▁Tamarind	-12.198
▁Improve	-12.1997
micro	-12.2005
▁mountain	-12.2009
=104.7	-12.2009
=119.7	-12.2009
▁Access	-12.2009
▁Allahabad	-12.2009
▁Channels	-12.2009
▁FFiigguurree	-12.2009
▁Floriculture	-12.2009
▁Rogor	-12.2009
▁bardhaman	-12.2009
▁desease	-12.2009
▁emptied	-12.2009
▁nalgonda	-12.2009
▁recommanded	-12.2009
▁subsistence	-12.2009
▁anigest	-12.2009
▁Spacing	-12.2009
▁storm	-12.2009
▁catfish	-12.201
▁bottlegourd	-12.201
▁Manish	-12.2014
▁katha	-12.2015
▁bill	-12.2018
▁1950	-12.2018
▁densely	-12.2031
▁lining	-12.2033
BL	-12.2034
478	-12.2042
▁Reduced	-12.2042
Andhra	-12.2046
germinated	-12.2046
899	-12.2053
839	-12.2059
▁WH	-12.206
7,000	-12.2078
May	-12.2082
▁drone	-12.2087
▁tried	-12.2092
pectral	-12.2098
▁Structure	-12.2101
▁curriculum	-12.2101
▁iirrrriiggaatt	-12.2101
▁inoculum	-12.2101
▁Biodiversity	-12.2101
▁Founder	-12.2101
▁Hqrs	-12.2101
▁analysed	-12.2101
▁armigera	-12.2101
▁bronchitis	-12.2101
▁sucrose	-12.2101
▁wonder	-12.2101
IFPRI	-12.2101
burnihat	-12.2101
▁showcase	-12.2101
▁perishable	-12.2101
▁Draft	-12.2101
▁Khasi	-12.2101
▁Biochemistry	-12.2102
▁House	-12.2103
▁cyst	-12.2103
▁Telex	-12.2103
▁backward	-12.2103
▁rohu	-12.2104
▁tilth	-12.2105
▁executed	-12.2105
▁powerful	-12.2105
aux	-12.2105
▁ascend	-12.2107
ppllaannt	-12.2107
▁boxes	-12.2113
▁salem	-12.2119
▁hhaavv	-12.2123
▁Gul	-12.2135
▁Lime	-12.2137
3.25	-12.2137
▁engine	-12.2139
058	-12.2142
LO	-12.2142
aca	-12.2143
▁Bean	-12.2153
iiff	-12.2156
069	-12.2157
▁ripen	-12.2158
idium	-12.2165
▁0.46	-12.2167
▁partner	-12.2183
524	-12.2193
=114.6	-12.2194
▁Approach	-12.2194
▁Excellence	-12.2194
▁Sustainability	-12.2194
▁WATER	-12.2194
▁anantapur	-12.2194
▁coimbatore	-12.2194
▁furniture	-12.2194
▁gravity	-12.2194
▁khesari	-12.2194
▁lecture	-12.2194
▁remarkable	-12.2194
▁tinsukia	-12.2194
▁visakhapatanam	-12.2194
▁ygolonhcet	-12.2194
▁MACS	-12.2194
▁mysore	-12.2194
▁Sanjay	-12.2194
▁voter	-12.2194
▁landrace	-12.2194
intestinal	-12.2194
▁wwhhee	-12.2194
▁Visit	-12.2194
▁kalita	-12.2194
▁baksa	-12.2194
▁deodar	-12.2194
▁Indofil	-12.2194
▁Better	-12.2194
▁kolar	-12.2194
▁Vaccination	-12.2194
▁Score	-12.2195
▁reserve	-12.2195
▁Integration	-12.2196
▁Young	-12.2196
▁solvent	-12.2196
▁iimmaaggee	-12.2198
phytic	-12.2199
OU	-12.2199
▁lean	-12.22
▁Vijaya	-12.22
=116.0	-12.2203
▁thorn	-12.2203
▁button	-12.2205
champa	-12.2206
descript	-12.2211
▁Licensing	-12.2211
▁Ray	-12.2214
429	-12.2214
▁Sch	-12.2229
▁Testing	-12.2234
nutrition	-12.2234
▁hardy	-12.2243
rar	-12.2245
▁mice	-12.2245
aries	-12.2246
▁strongly	-12.2247
ZT	-12.2249
837	-12.2269
▁0.49	-12.228
Zn	-12.2281
▁Set	-12.2282
▁Pigeon	-12.2287
▁CROSS	-12.2287
▁Residue	-12.2287
▁Sesame	-12.2287
▁Study	-12.2287
▁displacement	-12.2287
▁excreta	-12.2287
▁milestone	-12.2287
▁offshoot	-12.2287
▁pathotype	-12.2287
▁sambalpur	-12.2287
▁authentic	-12.2287
▁fragment	-12.2287
▁oovveer	-12.2287
▁sanitiz	-12.2287
▁ustad	-12.2287
reliant	-12.2287
▁inherent	-12.2287
▁nymph	-12.2287
boundary	-12.2288
▁crisis	-12.2288
▁Editorial	-12.2288
▁vipul	-12.2288
▁ifsc	-12.2289
Contd	-12.2289
▁Trade	-12.2289
▁diar	-12.229
▁Room	-12.229
▁talk	-12.229
▁7.4	-12.2291
▁throw	-12.2291
Bio	-12.2292
atrix	-12.2293
2004	-12.2295
065	-12.2297
▁plateau	-12.2297
▁Mad	-12.2304
508	-12.2305
1,000	-12.2307
▁15-30	-12.2309
▁warmer	-12.2316
▁filtered	-12.2316
HO	-12.2321
677	-12.2323
▁item	-12.2324
806	-12.2326
▁Jain	-12.2327
AICRP	-12.2329
Business	-12.2329
▁0.48	-12.2329
application	-12.233
▁broadly	-12.2332
fit	-12.2332
916	-12.2337
473	-12.2339
357	-12.2347
source	-12.2347
tier	-12.2355
▁wear	-12.2362
▁Magazine	-12.2367
▁56.0	-12.2368
▁Stee	-12.2368
▁vvii	-12.2372
579	-12.2377
▁hyper	-12.2378
GE	-12.2378
azi	-12.2381
=105.5	-12.2381
=106.2	-12.2381
=109.3	-12.2381
=117.6	-12.2381
=5.0	-12.2381
▁Ladakh	-12.2381
▁Navsari	-12.2381
▁Straw	-12.2381
▁anthalmintic	-12.2381
▁dormancy	-12.2381
▁gerbera	-12.2381
▁intermediate	-12.2381
▁pearlmillet	-12.2381
▁purchasing	-12.2381
▁purulia	-12.2381
▁rayagada	-12.2381
▁saponin	-12.2381
▁seepage	-12.2381
▁swollen	-12.2381
▁neomec	-12.2381
=114.7	-12.2381
=116.5	-12.2381
▁ailments	-12.2381
▁polish	-12.2381
▁coincid	-12.2381
▁Bhasin	-12.2382
▁antibacterial	-12.2382
▁bipul	-12.2382
▁Phyto	-12.2382
▁sawani	-12.2383
▁Sensor	-12.2383
▁casing	-12.2383
▁adjustable	-12.2387
▁brownish	-12.2391
irning	-12.2391
=106.0	-12.2392
eerrss	-12.2394
high	-12.2398
zers	-12.2401
759	-12.2405
▁soup	-12.2407
▁Optimiz	-12.2412
▁0.72	-12.242
Source	-12.2425
density	-12.2425
teedd	-12.2429
DV	-12.2441
427	-12.2449
▁propagat	-12.246
▁1987	-12.2467
▁Appropriate	-12.2477
▁Chaudhary	-12.2477
▁Corporation	-12.2477
▁Reaction	-12.2477
▁Suitability	-12.2477
▁aggregation	-12.2477
▁determination	-12.2477
▁flubendiamide	-12.2477
▁magnet	-12.2477
▁obstruct	-12.2477
▁outreach	-12.2477
▁luffa	-12.2477
▁viridi	-12.2477
▁Garden	-12.2477
NARES	-12.2477
▁activate	-12.2477
▁approx	-12.2477
▁fried	-12.2477
▁arize	-12.2477
▁Transform	-12.2477
▁PSB	-12.2478
▁cachar	-12.2478
▁Construction	-12.2478
▁seats	-12.2479
aarrcchh	-12.248
▁chart	-12.2485
▁guntur	-12.2486
hydrate	-12.2487
▁inhibition	-12.2488
▁CARI	-12.2488
▁documentation	-12.2489
459	-12.2496
45.00	-12.2499
▁TSS	-12.2501
▁differential	-12.2504
▁participat	-12.2509
364	-12.2511
awai	-12.2518
741	-12.2518
▁colder	-12.2522
dimethoate	-12.2522
lodging	-12.2522
▁Experimental	-12.2522
where	-12.2523
reventive	-12.2534
▁8000	-12.2535
832	-12.2536
▁1974	-12.2549
906	-12.2549
large	-12.256
▁Ripe	-12.2565
136	-12.2571
=101.1	-12.2573
=104.6	-12.2573
=106.9	-12.2573
=107.7	-12.2573
=115.2	-12.2573
=119.8	-12.2573
▁Hkkjr	-12.2573
▁Individual	-12.2573
▁Inventory	-12.2573
▁Strategic	-12.2573
▁analytics	-12.2573
▁chitradurga	-12.2573
▁ddeevviiccee	-12.2573
▁delicious	-12.2573
▁detergent	-12.2573
▁dharmapuri	-12.2573
▁gulbarga	-12.2573
▁kanchipuram	-12.2573
▁kendujhar	-12.2573
▁progeny	-12.2573
▁syndrome	-12.2573
▁udalguri	-12.2573
▁villupuram	-12.2573
▁periodically	-12.2573
▁sitapur	-12.2573
▁subsidiz	-12.2573
=110.8	-12.2573
=117.3	-12.2573
=119.9	-12.2573
▁shaping	-12.2573
▁kiwifruit	-12.2573
▁Female	-12.2573
▁prawn	-12.2573
Genus	-12.2573
▁uupp	-12.2573
▁stripe	-12.2573
▁NASC	-12.2574
▁Nature	-12.2574
▁River	-12.2574
▁flame	-12.2575
▁Biofertilizer	-12.2576
▁Reduction	-12.2576
▁Blackgram	-12.2585
854	-12.2586
▁favor	-12.2589
▁antigen	-12.2592
▁noita	-12.2593
@20	-12.2597
506	-12.2601
▁Kalpa	-12.2601
▁Rani	-12.2611
=9.	-12.2616
eresr	-12.2618
WP	-12.2618
Hub	-12.262
Telugu	-12.262
▁hhoo	-12.2622
▁aarreeaa	-12.2625
▁WB	-12.2629
▁0.96	-12.2633
▁2.25	-12.2634
809	-12.2638
AAS	-12.2645
raya	-12.2647
417	-12.2651
339	-12.2662
▁segregat	-12.267
zadirachtin	-12.267
▁Agrawal	-12.267
▁Efforts	-12.267
▁Rakesh	-12.267
▁Sponsor	-12.267
▁Surface	-12.267
▁dactylon	-12.267
▁granules	-12.267
▁membrane	-12.267
▁nellore	-12.267
▁possibly	-12.267
▁Spread	-12.267
▁Floor	-12.267
▁buffer	-12.267
▁melting	-12.267
▁anglong	-12.267
▁puddle	-12.267
▁chandan	-12.267
▁KHAR	-12.267
▁probiotic	-12.2671
▁drier	-12.2671
vention	-12.2673
▁polymer	-12.2673
794	-12.2674
▁exact	-12.2675
▁Agricul	-12.2676
▁Initially	-12.2679
▁agricu	-12.2681
▁Mantr	-12.2688
closer	-12.2692
▁rule	-12.2694
▁sunny	-12.2698
039	-12.2702
810	-12.2711
gone	-12.2715
iche	-12.2718
NBPGR	-12.2719
krishna	-12.2719
849	-12.272
▁Heat	-12.2727
▁lose	-12.2728
GV	-12.2729
▁Dhar	-12.2732
▁bole	-12.2733
008	-12.2734
▁1998	-12.2734
482	-12.2742
▁calculat	-12.2744
UG	-12.2753
▁express	-12.2754
▁chick	-12.2754
irendra	-12.2759
onium	-12.2762
▁sucker	-12.2765
▁Cultivat	-12.2766
643	-12.2767
=104.5	-12.2768
=108.6	-12.2768
alifornia	-12.2768
▁Berseem	-12.2768
▁Modipuram	-12.2768
▁Sanjeev	-12.2768
▁aappppliliccaat	-12.2768
▁assembly	-12.2768
▁cuttack	-12.2768
▁jalpaiguri	-12.2768
▁kalahandi	-12.2768
▁mayurbhanj	-12.2768
▁nabarangpur	-12.2768
▁nayagarh	-12.2768
▁perception	-12.2768
▁raichur	-12.2768
=110.6	-12.2768
=118.4	-12.2768
▁Emerg	-12.2768
▁rhizosphere	-12.2768
▁child	-12.2768
▁Alternate	-12.2768
▁sorting	-12.2768
▁floral	-12.2768
▁functionaries	-12.2768
▁HPLC	-12.2768
▁dependency	-12.2768
▁durum	-12.2768
▁Rust	-12.2769
▁footprint	-12.2769
▁0.85	-12.2769
Point	-12.277
▁budding	-12.277
▁Microbe	-12.277
▁Biology	-12.277
▁durg	-12.2771
▁clayey	-12.2771
ctively	-12.2772
▁bhut	-12.2773
▁Ground	-12.2774
iigghht	-12.2777
aerated	-12.2779
▁0.37	-12.278
▁partially	-12.2781
718	-12.2785
omics	-12.2785
▁10.5	-12.2789
070	-12.2789
Farm	-12.2792
▁AAnn	-12.2793
▁0.23	-12.2803
Plan	-12.2806
tete	-12.2807
434	-12.281
▁CSS	-12.281
DT	-12.281
awan	-12.2814
wani	-12.2815
▁Case	-12.2816
▁node	-12.2816
mouth	-12.2819
producing	-12.2819
potato	-12.2819
▁accelerat	-12.2824
▁IPR	-12.2827
recurring	-12.2832
▁germ	-12.2835
1.60	-12.2846
2024	-12.2846
▁accept	-12.285
▁Manda	-12.2851
▁Mono	-12.2853
IFS	-12.2855
▁Operat	-12.286
Enterprise	-12.2865
Benefit	-12.2865
▁cope	-12.2867
▁Subsequently	-12.2867
▁Chairperson	-12.2867
▁Intensification	-12.2867
▁roasted	-12.2867
▁suspended	-12.2867
▁imaging	-12.2867
▁Papaya	-12.2867
▁pprraaccttiicc	-12.2867
▁sarson	-12.2867
▁voice	-12.2867
▁harsh	-12.2867
▁Allied	-12.2867
▁comfort	-12.2867
▁pork	-12.2868
▁Golden	-12.2868
▁Notification	-12.287
CPF	-12.2871
▁disinfection	-12.2871
▁Soak	-12.2874
▁Scale	-12.2874
▁suppression	-12.2874
529	-12.2877
▁HHB	-12.2877
▁prove	-12.2879
▁burnt	-12.2885
ngaluru	-12.2888
▁Spot	-12.2888
▁Prune	-12.2889
▁SMS	-12.2891
▁Incorporat	-12.2891
Startup	-12.2898
▁mamm	-12.2903
▁kiy	-12.2906
▁NNee	-12.2913
tida	-12.292
kufri	-12.2921
▁banda	-12.2923
▁0.90	-12.2926
▁leach	-12.2942
431	-12.2946
ibang	-12.2952
8.50	-12.2955
▁0.84	-12.2959
▁Addition	-12.2961
▁Arun	-12.2961
uarter	-12.2963
▁lice	-12.2963
tz	-12.2964
483	-12.2967
=100.4	-12.2967
=102.2	-12.2967
=102.7	-12.2967
=103.8	-12.2967
=104.1	-12.2967
=104.9	-12.2967
=105.2	-12.2967
=108.5	-12.2967
=109.4	-12.2967
=117.2	-12.2967
=118.1	-12.2967
=118.6	-12.2967
▁autonomous	-12.2967
▁chlorothalonil	-12.2967
▁haridwar	-12.2967
▁necessity	-12.2967
▁parbhani	-12.2967
▁perambalur	-12.2967
▁saturated	-12.2967
▁thoothukudi	-12.2967
=112.2	-12.2967
=112.4	-12.2967
=116.4	-12.2967
=117.5	-12.2967
=119.1	-12.2967
▁delhi	-12.2967
▁ganjam	-12.2967
▁Registratio	-12.2967
▁plasma	-12.2967
Pacific	-12.2967
▁Insecticide	-12.2968
▁nadia	-12.2968
▁occasionally	-12.2968
389	-12.2969
▁Orange	-12.2969
▁Soft	-12.2969
▁conform	-12.2971
▁Profit	-12.2972
▁clove	-12.2976
▁Heav	-12.2977
▁depicted	-12.2978
=108.0	-12.2979
853	-12.2983
678	-12.2984
876	-12.2988
▁photograph	-12.2993
▁Dept	-12.3
joy	-12.301
5000.0	-12.301
694	-12.3011
00.0.0	-12.3012
432	-12.302
service	-12.3022
employment	-12.3024
local	-12.3029
Seed	-12.3033
934	-12.3034
6.20	-12.3036
▁1976	-12.3037
putting	-12.305
▁isolate	-12.3052
2.10	-12.3057
▁Present	-12.3061
▁hazard	-12.3061
india	-12.3062
▁preced	-12.3063
assum	-12.3066
responsibilities	-12.3068
rhizobium	-12.3068
▁Adjust	-12.3068
▁Partnership	-12.3068
▁People	-12.3068
▁capacities	-12.3068
▁curcumin	-12.3068
▁uprooted	-12.3068
▁walnut	-12.3068
▁GHG	-12.3068
▁Credit	-12.3068
▁ccaapp	-12.3068
▁command	-12.3068
▁Published	-12.3068
▁Wilt	-12.3068
▁pradhan	-12.3068
▁transmit	-12.3068
▁Rainfall	-12.3068
▁Dried	-12.3069
▁earhead	-12.3069
▁CCPI	-12.3069
▁chlorosis	-12.3069
▁solarisation	-12.3069
▁Honey	-12.3069
▁Sonapur	-12.3069
▁greyish	-12.307
▁MAPs	-12.307
▁Gopal	-12.3071
727	-12.3071
organiz	-12.3072
▁dominated	-12.3074
pgr	-12.3074
versa	-12.3075
▁deput	-12.3075
self	-12.3079
Allocation	-12.3081
▁Ants	-12.3081
IU	-12.3086
▁stimulat	-12.309
▁cities	-12.3091
590	-12.3091
▁0.57	-12.3091
▁video	-12.3092
▁mulches	-12.3094
▁dew	-12.3105
▁Banda	-12.3108
pass	-12.3111
pyriphos	-12.3115
0.27	-12.3117
aakk	-12.3119
▁exporter	-12.312
742	-12.3129
▁rind	-12.313
▁Compar	-12.313
▁Photo	-12.3137
▁0.88	-12.3137
aainin	-12.3152
▁crush	-12.3157
▁WWi	-12.316
udam	-12.3161
▁Similar	-12.3162
374	-12.3163
▁parameter	-12.3163
ercospora	-12.3166
▁0.29	-12.3166
=100.7	-12.317
=101.5	-12.317
=102.6	-12.317
=103.1	-12.317
=105.3	-12.317
=105.8	-12.317
=107.6	-12.317
=109.1	-12.317
=110.1	-12.317
ebiriisa	-12.317
yurvedic	-12.317
▁Azotobacter	-12.317
▁Bhanjanagar	-12.317
▁CTCRI	-12.317
▁Imidacloprid	-12.317
▁Toxicolog	-12.317
▁accessories	-12.317
▁boudh	-12.317
▁cholesterol	-12.317
▁deogarh	-12.317
▁gajapati	-12.317
▁ganoderma	-12.317
▁intramuscular	-12.317
▁rajnandgaon	-12.317
▁sampling	-12.317
▁sivaganga	-12.317
▁sterility	-12.317
▁stuck	-12.317
▁sundargarh	-12.317
▁tridemorph	-12.317
▁vocation	-12.317
▁vvaarriioouus	-12.317
▁Linseed	-12.317
▁artisan	-12.317
▁endemic	-12.317
=113.8	-12.317
=114.4	-12.317
▁plague	-12.317
▁Severe	-12.317
▁bastar	-12.317
▁Determin	-12.317
▁Khadi	-12.317
▁sustainably	-12.317
▁acceptability	-12.317
▁RRaa	-12.3171
▁equity	-12.3171
▁Agribusiness	-12.3171
▁bargarh	-12.3171
▁manipulation	-12.3172
▁Old	-12.3173
stone	-12.3174
▁satisfactory	-12.3174
▁thereafter	-12.3175
hexa	-12.3178
itundu	-12.3178
▁IVT	-12.318
▁GoI	-12.318
=111.0	-12.3182
▁disinfectant	-12.3185
neem	-12.3186
icular	-12.3188
935	-12.3193
565	-12.3201
626	-12.3206
7755	-12.3207
▁jointly	-12.3212
▁Api	-12.3222
xiii	-12.3229
sensitive	-12.3229
Scientist	-12.3229
Integrated	-12.323
▁Encourage	-12.323
tracel	-12.3232
genetic	-12.3234
what	-12.3236
▁scrap	-12.3239
618	-12.3242
heat	-12.3253
oouurr	-12.3255
669	-12.3255
▁confirm	-12.3256
▁Integrat	-12.3257
▁readers	-12.3268
723	-12.327
▁cheap	-12.3271
uurarla	-12.3272
excluding	-12.3273
▁Efficiency	-12.3273
▁Household	-12.3273
▁Telephone	-12.3273
▁Tracel	-12.3273
▁dehradun	-12.3273
▁endeavour	-12.3273
▁guiding	-12.3273
▁intacef	-12.3273
▁phenotyping	-12.3273
▁revision	-12.3273
▁Leader	-12.3273
▁Ready	-12.3273
▁nuvan	-12.3273
▁Extent	-12.3273
azette	-12.3273
▁mmoorer	-12.3273
▁cataly	-12.3273
▁Generation	-12.3273
▁distress	-12.3274
▁iittss	-12.3274
▁Captan	-12.3274
▁jaint	-12.3274
▁bittergourd	-12.3274
▁Enterprises	-12.3275
▁Swami	-12.3277
▁unlike	-12.3278
▁equine	-12.3278
917	-12.3279
▁Anjan	-12.328
▁randomly	-12.3282
▁offline	-12.3283
▁iimmpprroovv	-12.3287
▁nitrogenous	-12.3288
▁011-	-12.3296
▁Former	-12.3297
▁1975	-12.3299
5.20	-12.3299
▁Jha	-12.3305
▁40-45	-12.331
▁releas	-12.332
EM	-12.3331
escent	-12.3335
▁vers	-12.3339
duration	-12.3343
587	-12.3352
▁deworm	-12.3354
▁Wet	-12.3356
▁Train	-12.3359
577	-12.3363
▁compete	-12.3376
075	-12.3377
▁Santosh	-12.3377
=101.9	-12.3377
=102.4	-12.3377
=104.3	-12.3377
=106.4	-12.3377
=109.6	-12.3377
=115.5	-12.3377
=118.7	-12.3377
diabetic	-12.3377
informatics	-12.3377
▁Gaurav	-12.3377
▁Importance	-12.3377
▁Shakti	-12.3377
▁Srinivas	-12.3377
▁cottage	-12.3377
▁custard	-12.3377
▁declared	-12.3377
▁drooping	-12.3377
▁koppal	-12.3377
▁madurai	-12.3377
▁nuapada	-12.3377
▁pondicherry	-12.3377
▁srikakulam	-12.3377
▁subsidiar	-12.3377
▁summarize	-12.3377
▁tropics	-12.3377
▁tryptophan	-12.3377
▁virudhunagar	-12.3377
▁fishermen	-12.3377
=113.5	-12.3377
=114.1	-12.3377
=116.9	-12.3377
▁snack	-12.3377
▁Hindu	-12.3377
▁appeal	-12.3377
▁leather	-12.3377
▁Composite	-12.3378
▁Agency	-12.3378
▁Media	-12.338
▁hamper	-12.3381
▁0.28	-12.3381
iikkee	-12.3383
ikka	-12.3385
▁Salt	-12.3386
▁optimization	-12.3388
sufficient	-12.3389
1177	-12.3395
1.70	-12.3397
dio	-12.3412
▁thermo	-12.3414
▁1966	-12.3414
ITK	-12.3416
6.25	-12.3432
9900	-12.3433
kvk	-12.3441
412	-12.3454
683	-12.3471
687	-12.3476
loss	-12.3478
▁Island	-12.3479
▁Agrinnovate	-12.3482
▁Choudhary	-12.3482
▁Efficacy	-12.3482
▁Hydroponic	-12.3482
▁allahabad	-12.3482
[...]
